{
  "version": "1.0",
  "truncation": null,
  "padding": null,
  "added_tokens": [
    {
      "id": 7364,
      "content": "<UNK>",
      "single_word": false,
      "lstrip": false,
      "rstrip": false,
      "normalized": true,
      "special": true
    },
    {
      "id": 7365,
      "content": "<｜end▁of▁sentence｜>",
      "single_word": false,
      "lstrip": false,
      "rstrip": false,
      "normalized": true,
      "special": true
    },
    {
      "id": 7366,
      "content": "<｜pad｜>",
      "single_word": false,
      "lstrip": false,
      "rstrip": false,
      "normalized": true,
      "special": true
    },
    {
      "id": 7367,
      "content": "<｜begin▁of▁sentence｜>",
      "single_word": false,
      "lstrip": false,
      "rstrip": false,
      "normalized": true,
      "special": true
    }
  ],
  "normalizer": {
    "type": "Sequence",
    "normalizers": []
  },
  "pre_tokenizer": {
    "type": "Sequence",
    "pretokenizers": [
      {
        "type": "Split",
        "pattern": {
          "Regex": "[\\r\\n]"
        },
        "behavior": "Isolated",
        "invert": false
      },
      {
        "type": "Split",
        "pattern": {
          "Regex": "\\s?[A-Za-zµÀ-ÖØ-öø-ƺƼ-ƿǄ-ʓʕ-ʯͰ-ͳͶͷͻ-ͽͿΆΈ-ΊΌΎ-ΡΣ-ϵϷ-ҁҊ-ԯԱ-ՖႠ-ჅᎠ-Ᏽᏸ-ᏽᲐ-ᲺᲽ-Ჿᴀ-ᴫᵫ-ᵷᵹ-ᶚḀ-ἕἘ-Ἕἠ-ὅὈ-Ὅὐ-ὗὙὛὝὟ-ώᾀ-ᾴᾶ-ᾼιῂ-ῄῆ-ῌῐ-ΐῖ-Ίῠ-Ῥῲ-ῴῶ-ῼℂℇℊ-ℓℕℙ-ℝℤΩℨK-ℭℯ-ℴℹℼ-ℿⅅ-ⅉⅎↃↄⰀ-ⱻⱾ-ⳤⳫ-ⳮⳲⳳꙀ-ꙭꚀ-ꚛꜢ-ꝯꝱ-ꞇꞋ-ꞎꭰ-ꮿﬀ-ﬆﬓ-ﬗＡ-Ｚａ-ｚ𐐀-𐑏𐒰-𐓓𐓘-𐓻𐲀-𐲲𐳀-𐳲𑢠-𑣟𞤀-𞥃]+"
        },
        "behavior": "Isolated",
        "invert": false
      },
      {
        "type": "Split",
        "pattern": {
          "Regex": "\\s?[!-/:-~！-／：-～‘-‟　-。]+"
        },
        "behavior": "Isolated",
        "invert": false
      },
      {
        "type": "Split",
        "pattern": {
          "Regex": "\\s+$"
        },
        "behavior": "Isolated",
        "invert": false
      },
      {
        "type": "Split",
        "pattern": {
          "Regex": "[一-龥ࠀ-一가-퟿]+"
        },
        "behavior": "Isolated",
        "invert": false
      },
      {
        "type": "Digits",
        "individual_digits": true
      },
      {
        "type": "ByteLevel",
        "add_prefix_space": false,
        "trim_offsets": true,
        "use_regex": false
      }
    ]
  },
  "post_processor": {
    "type": "ByteLevel",
    "add_prefix_space": true,
    "trim_offsets": false,
    "use_regex": true
  },
  "decoder": {
    "type": "ByteLevel",
    "add_prefix_space": true,
    "trim_offsets": true,
    "use_regex": true
  },
  "model": {
    "type": "BPE",
    "dropout": null,
    "unk_token": "<UNK>",
    "continuing_subword_prefix": null,
    "end_of_word_suffix": null,
    "fuse_unk": false,
    "byte_fallback": false,
    "ignore_merges": false,
    "bMax_frequency": true,
    "max_frequency": 254107538,
    "vocab": {
      "يري": 0,
      "imid": 1,
      "ĠSUN": 2,
      "ĠKej": 3,
      "Ġсан": 4,
      "ĠRhodes": 5,
      "ommission": 6,
      "Ġdecommission": 7,
      "ĠPresent": 8,
      "AndWait": 9,
      "Ġflash": 10,
      "Ġfaz": 11,
      "dte": 12,
      "features": 13,
      "ገብ": 14,
      "ጋገብ": 15,
      "ĠProny": 16,
      "Ġदश": 17,
      "Ġnhá": 18,
      "phony": 19,
      "haman": 20,
      "askets": 21,
      "wne": 22,
      "Ġcatap": 23,
      "Ġзав": 24,
      "Ġregrett": 25,
      "umab": 26,
      "badan": 27,
      "SOR": 28,
      "mins": 29,
      "urnd": 30,
      "essoa": 31,
      "illers": 32,
      "Ġدوب": 33,
      "ificate": 34,
      "ĠThorn": 35,
      "DebuggerNonUser": 36,
      "Ġentgegen": 37,
      "señ": 38,
      "ManyToMany": 39,
      "ہار": 40,
      "Ġspit": 41,
      "ĠBukit": 42,
      "Ġпривет": 43,
      "floxacin": 44,
      "Ġاحت": 45,
      "مانی": 46,
      "ĠRegina": 47,
      "Ġbasin": 48,
      "umbres": 49,
      "ptica": 50,
      "Ġhuynh": 51,
      "ANDER": 52,
      "ALTERNATIV": 53,
      "ominator": 54,
      "ebuffer": 55,
      "گنڈ": 56,
      "uset": 57,
      "RNAs": 58,
      "gett": 59,
      "Ġallerg": 60,
      "чень": 61,
      "ufer": 62,
      "Ġопубли": 63,
      "Ġкори": 64,
      "ĠRealt": 65,
      "ographed": 66,
      "WEI": 67,
      "CMake": 68,
      "ственной": 69,
      "вут": 70,
      "уб": 71,
      "Ġäh": 72,
      "sekten": 73,
      "Ġmales": 74,
      "ĠFrancesca": 75,
      "Ġопы": 76,
      "Ġöff": 77,
      "jacent": 78,
      "ッション": 79,
      "Ġнаправ": 80,
      "spath": 81,
      "ĠUmesh": 82,
      "athione": 83,
      "Ġadal": 84,
      "ully": 85,
      "трибу": 86,
      "Ġruthenium": 87,
      "ĠSched": 88,
      "Ġcori": 89,
      "Ġump": 90,
      "agini": 91,
      "Ġdesaparecido": 92,
      "ĠTime": 93,
      "hofer": 94,
      "irable": 95,
      "atii": 96,
      "Ġdisusun": 97,
      "comes": 98,
      "IFY": 99,
      "Ġaliqua": 100,
      "صفر": 101,
      "Ġentrust": 102,
      "mime": 103,
      "imbo": 104,
      "Ġdesal": 105,
      "Ġsalah": 106,
      "IFIC": 107,
      "ĠШев": 108,
      "Ġsalari": 109,
      "Ġexcept": 110,
      "ahuan": 111,
      "ĠproductMoles": 112,
      "fic": 113,
      "pointe": 114,
      "mst": 115,
      "Ġabst": 116,
      "entrant": 117,
      "ĠrectMode": 118,
      "Ġredes": 119,
      "annah": 120,
      "ĠTahiti": 121,
      "ĠBridgeport": 122,
      "Ġjelly": 123,
      "ultan": 124,
      "новні": 125,
      "сква": 126,
      "issent": 127,
      "Ġснять": 128,
      "embling": 129,
      "ओएस": 130,
      "נות": 131,
      "ĠRARRAY": 132,
      "Ġуда": 133,
      "أس": 134,
      "Ġআমর": 135,
      "incinnati": 136,
      "otope": 137,
      "ovll": 138,
      "Ġentren": 139,
      "AudioAsset": 140,
      "ĠAdmir": 141,
      "ník": 142,
      "Ġمحفوظ": 143,
      "дору": 144,
      "Ġanvänd": 145,
      "Ġmoistur": 146,
      "Insert": 147,
      "Ġdépl": 148,
      "sprechend": 149,
      "ĠTPS": 150,
      "eniendo": 151,
      "Ġშემთხვევ": 152,
      "Ġцерков": 153,
      "Ġsud": 154,
      "cimiento": 155,
      "پور": 156,
      "verno": 157,
      "ease": 158,
      "ovým": 159,
      "Ġoffici": 160,
      "ĠFSC": 161,
      "Ġperten": 162,
      "Ġlluv": 163,
      "ĠCord": 164,
      "Ġwr": 165,
      "ván": 166,
      "sunline": 167,
      "orithm": 168,
      "Ġкорре": 169,
      "بود": 170,
      "iracy": 171,
      "Ġнала": 172,
      "Ġподготов": 173,
      "ohist": 174,
      "ócz": 175,
      "rakash": 176,
      "Ġadhipp": 177,
      "autocon": 178,
      "Ġእንዲሁም": 179,
      "ocols": 180,
      "ĠJordanian": 181,
      "ahm": 182,
      "burgh": 183,
      "ilty": 184,
      "aghetti": 185,
      "ĠMaurer": 186,
      "рал": 187,
      "bbing": 188,
      "вити": 189,
      "ixture": 190,
      "Ġразвити": 191,
      "Deg": 192,
      "ٹوں": 193,
      "Ġvégét": 194,
      "ocado": 195,
      "Iterator": 196,
      "Ġthérapeut": 197,
      "Ġhalde": 198,
      "Toolkit": 199,
      "ậy": 200,
      "ĠDomen": 201,
      "ĠCorner": 202,
      "skraft": 203,
      "Ġپور": 204,
      "ĠFilip": 205,
      "Ġjornal": 206,
      "olm": 207,
      "toare": 208,
      "asium": 209,
      "Ġsmě": 210,
      "dik": 211,
      "брита": 212,
      "genomen": 213,
      "abag": 214,
      "Ġweit": 215,
      "ĠTanjung": 216,
      "ĠJamestown": 217,
      "cInfo": 218,
      "Ġtroup": 219,
      "athon": 220,
      "ĠMogo": 221,
      "OURCES": 222,
      "Ġplum": 223,
      "atmosph": 224,
      "uginosa": 225,
      "Ġسلسلے": 226,
      "imine": 227,
      "lichen": 228,
      "ελ": 229,
      "ئله": 230,
      "γγελ": 231,
      "데이": 232,
      "Ġgj": 233,
      "estructive": 234,
      "oples": 235,
      "pperm": 236,
      "astanza": 237,
      "tble": 238,
      "quant": 239,
      "ĠNey": 240,
      "oucí": 241,
      "ología": 242,
      "stasy": 243,
      "ainter": 244,
      "ندا": 245,
      "ĠRCB": 246,
      "allenge": 247,
      "intell": 248,
      "Ġlaatste": 249,
      "леку": 250,
      "Ġvijj": 251,
      "ĠCoker": 252,
      "Ġبان": 253,
      "Ġohmic": 254,
      "ändern": 255,
      "Ġjou": 256,
      "jesus": 257,
      "residuals": 258,
      "Ġلعب": 259,
      "laš": 260,
      "Ġzeml": 261,
      "TOOL": 262,
      "Ġteas": 263,
      "ĠCPI": 264,
      "ĠDap": 265,
      "ĠNSD": 266,
      "iall": 267,
      "ĠQue": 268,
      "を使": 269,
      "ListItem": 270,
      "اکی": 271,
      "MainActivity": 272,
      "ĠSamu": 273,
      "Ġالرا": 274,
      "Ġprox": 275,
      "wantErr": 276,
      "Ġtrypt": 277,
      "odiac": 278,
      "ifices": 279,
      "Ġeléct": 280,
      "pG": 281,
      "ημ": 282,
      "ĠCpG": 283,
      "Ġrenfer": 284,
      "eleron": 285,
      "ĠPok": 286,
      "Ġсро": 287,
      "لاین": 288,
      "ĠAdvent": 289,
      "Ġдека": 290,
      "googleapis": 291,
      "ennie": 292,
      "мос": 293,
      "yscraper": 294,
      "Ġvoorz": 295,
      "тная": 296,
      "Ġvap": 297,
      "Ġbehand": 298,
      "valt": 299,
      "Waiting": 300,
      "ĠSoyuz": 301,
      "Ġассо": 302,
      "Ġसम": 303,
      "ĠBanc": 304,
      "ĠJSC": 305,
      "umers": 306,
      "とう": 307,
      "ĠBeaufort": 308,
      "ivering": 309,
      "PageComponent": 310,
      "issory": 311,
      "ĠBelling": 312,
      "ĠSRAM": 313,
      "шую": 314,
      "qdm": 315,
      "Ġوا": 316,
      "олов": 317,
      "олові": 318,
      "RF": 319,
      "ahari": 320,
      "Ġpoke": 321,
      "fillna": 322,
      "ĠMDP": 323,
      "ĠCommunic": 324,
      "eneva": 325,
      "ufig": 326,
      "کیل": 327,
      "Ġyoke": 328,
      "AssetDiscovery": 329,
      "Ġக": 330,
      "Ġпрепара": 331,
      "obut": 332,
      "Ġdespert": 333,
      "elfth": 334,
      "ologia": 335,
      "uterte": 336,
      "bbi": 337,
      "Ġtoss": 338,
      "asaddassa": 339,
      "ĠStet": 340,
      "Ġrãi": 341,
      "ĠJie": 342,
      "یثیت": 343,
      "Ġsaz": 344,
      "エット": 345,
      "Ġposture": 346,
      "ĠMEC": 347,
      "Stored": 348,
      "Ġრომელი": 349,
      "otypic": 350,
      "Ġwp": 351,
      "ocalypse": 352,
      "Ġpolypes": 353,
      "iskup": 354,
      "ĠPeter": 355,
      "ichesk": 356,
      "chair": 357,
      "Ġhook": 358,
      "ahaan": 359,
      "рят": 360,
      "utherford": 361,
      "Ġthaliana": 362,
      "ĠkeySchedule": 363,
      "Ġgacche": 364,
      "boarding": 365,
      "Millis": 366,
      "ĠDAP": 367,
      "ĠMimi": 368,
      "ĠdataType": 369,
      "czyn": 370,
      "Ġعباره": 371,
      "chwitz": 372,
      "рито": 373,
      "arrivalTime": 374,
      "ĠMiddlesex": 375,
      "Ġgag": 376,
      "EventRecorder": 377,
      "arland": 378,
      "erals": 379,
      "ApiException": 380,
      "ttamente": 381,
      "Ġbottlene": 382,
      "жите": 383,
      "Ġcmd": 384,
      "osus": 385,
      "ĠMaloney": 386,
      "kola": 387,
      "orning": 388,
      "imura": 389,
      "Ġfide": 390,
      "felter": 391,
      "ĠDeuter": 392,
      "Ġclimb": 393,
      "Ġڈاؤن": 394,
      "ließend": 395,
      "Ġcapit": 396,
      "ško": 397,
      "AreaData": 398,
      "Begriff": 399,
      "راك": 400,
      "学生": 401,
      "Ġdee": 402,
      "ĠAlbu": 403,
      "Ġcorrid": 404,
      "Needed": 405,
      "тный": 406,
      "ĠElla": 407,
      "Ġhospital": 408,
      "ائر": 409,
      "istert": 410,
      "стей": 411,
      "ĠEverglades": 412,
      "ĠBarcel": 413,
      "ascal": 414,
      "SACTION": 415,
      "Ġizme": 416,
      "entlichen": 417,
      "Ġplástico": 418,
      "édon": 419,
      "Ġkeeps": 420,
      "subscribe": 421,
      "erdem": 422,
      "reuses": 423,
      "culus": 424,
      "ichtlich": 425,
      "ferencia": 426,
      "Ġزمان": 427,
      "Lim": 428,
      "тым": 429,
      "instag": 430,
      "SourceRequest": 431,
      "Ġकहर": 432,
      "Ġjapon": 433,
      "Ġד": 434,
      "Ġmennes": 435,
      "ĠHorton": 436,
      "Ġthang": 437,
      "abilistic": 438,
      "ĠLevine": 439,
      "ĠΑνα": 440,
      "луй": 441,
      "ĠAtmosph": 442,
      "Ġdisappears": 443,
      "ĠKeenan": 444,
      "ĠCanter": 445,
      "ĠElectro": 446,
      "ĠCanterbury": 447,
      "overl": 448,
      "Ġultima": 449,
      "Ġtasmim": 450,
      "ROR": 451,
      "backs": 452,
      "Ġndi": 453,
      "Ġreins": 454,
      "icleta": 455,
      "icano": 456,
      "ĠLoeb": 457,
      "ondi": 458,
      "Ġúltimas": 459,
      "ostęp": 460,
      "Ġوفر": 461,
      "Ġالدول": 462,
      "Ġrigu": 463,
      "ophane": 464,
      "Ġstř": 465,
      "ỡng": 466,
      "Ġblood": 467,
      "inputArr": 468,
      "Ġpremi": 469,
      "قتصاد": 470,
      "Ġcategory": 471,
      "omości": 472,
      "Ġtattha": 473,
      "VEST": 474,
      "ミュニ": 475,
      "bat": 476,
      "alı": 477,
      "neus": 478,
      "ادة": 479,
      "كامل": 480,
      "Ġrass": 481,
      "ĠSVC": 482,
      "Ġmultival": 483,
      "ĠCGSize": 484,
      "emene": 485,
      "irman": 486,
      "ккей": 487,
      "zw": 488,
      "Ġpinching": 489,
      "Ġфото": 490,
      "ادری": 491,
      "Ġolv": 492,
      "ĠCoates": 493,
      "risk": 494,
      "asem": 495,
      "Ġpeduncul": 496,
      "rieved": 497,
      "Earl": 498,
      "gars": 499,
      "Ġchime": 500,
      "ĠWatt": 501,
      "Ġteil": 502,
      "ĠКом": 503,
      "Ġsupernat": 504,
      "alassemia": 505,
      "ĠDinesh": 506,
      "ĠScri": 507,
      "ién": 508,
      "րան": 509,
      "ĠAjay": 510,
      "طلح": 511,
      "Ġerad": 512,
      "STRUCT": 513,
      "Смалянчук": 514,
      "Ġместа": 515,
      "Ġecma": 516,
      "ĠQuis": 517,
      "ĠBaik": 518,
      "ĠUAS": 519,
      "OnHand": 520,
      "ĠOph": 521,
      "loo": 522,
      "webElementGuid": 523,
      "ĠDry": 524,
      "Ġlobby": 525,
      "ilación": 526,
      "лях": 527,
      "最后": 528,
      "Ġbreath": 529,
      "Ġindispens": 530,
      "ĠTrist": 531,
      "ĠTristan": 532,
      "Ġvivi": 533,
      "Ġформа": 534,
      "学校": 535,
      "isH": 536,
      "tempCard": 537,
      "ээ": 538,
      "music": 539,
      "ĠMif": 540,
      "ĠTether": 541,
      "Spe": 542,
      "enska": 543,
      "sez": 544,
      "ĠEthel": 545,
      "Volume": 546,
      "ĠConcord": 547,
      "ĠpartialX": 548,
      "Ġslapped": 549,
      "ĠDaim": 550,
      "Ġautonom": 551,
      "detailID": 552,
      "OAc": 553,
      "auj": 554,
      "ĠprevState": 555,
      "ojas": 556,
      "ється": 557,
      "ĠPalm": 558,
      "Ġзаня": 559,
      "köz": 560,
      "ოლოდ": 561,
      "ORIA": 562,
      "oxygen": 563,
      "ĠKant": 564,
      "joner": 565,
      "chny": 566,
      "Ġssize": 567,
      "ذیر": 568,
      "expanded": 569,
      "Ġreplen": 570,
      "ナトリ": 571,
      "operative": 572,
      "ندہ": 573,
      "hock": 574,
      "Ġהראש": 575,
      "ĠWhistler": 576,
      "Ġperspici": 577,
      "Ġfís": 578,
      "AppData": 579,
      "дары": 580,
      "Ġhamm": 581,
      "inga": 582,
      "Ġняко": 583,
      "ĠColor": 584,
      "ĠPayPay": 585,
      "cam": 586,
      "ulfide": 587,
      "пут": 588,
      "udet": 589,
      "connection": 590,
      "タン": 591,
      "インタ": 592,
      "メージ": 593,
      "escap": 594,
      "olysis": 595,
      "retrato": 596,
      "Ġslew": 597,
      "Ġdür": 598,
      "Ġtrove": 599,
      "Ġhotspot": 600,
      "Ġbroadcast": 601,
      "utusan": 602,
      "orphic": 603,
      "ьте": 604,
      "ловек": 605,
      "Ġoport": 606,
      "ethoscope": 607,
      "Ġcandlest": 608,
      "פים": 609,
      "ĠLead": 610,
      "ointed": 611,
      "ĠSkin": 612,
      "Ġblanch": 613,
      "Ġculo": 614,
      "ĠWinston": 615,
      "nowledge": 616,
      "Ġchino": 617,
      "Ġcated": 618,
      "чей": 619,
      "places": 620,
      "Ġproguard": 621,
      "IGATION": 622,
      "owej": 623,
      "Ġнеф": 624,
      "れました": 625,
      "EEK": 626,
      "Ġکورد": 627,
      "Ġappara": 628,
      "Ġangg": 629,
      "Ġlod": 630,
      "ogany": 631,
      "ĠShay": 632,
      "icação": 633,
      "Ġdimens": 634,
      "lande": 635,
      "ياة": 636,
      "tsch": 637,
      "retry": 638,
      "Dum": 639,
      "Bron": 640,
      "ĠSamar": 641,
      "ファイル": 642,
      "ppings": 643,
      "Ash": 644,
      "linary": 645,
      "вори": 646,
      "ücher": 647,
      "هایت": 648,
      "Ġмүмк": 649,
      "ĠSchrödinger": 650,
      "Ġattano": 651,
      "Ġexplor": 652,
      "İK": 653,
      "Ġreinforc": 654,
      "èmes": 655,
      "еме": 656,
      "Ġespos": 657,
      "ĠWemb": 658,
      "omanip": 659,
      "ĠWembley": 660,
      "lukan": 661,
      "istani": 662,
      "يمة": 663,
      "Offic": 664,
      "tx": 665,
      "ongiorno": 666,
      "ỏi": 667,
      "рсә": 668,
      "Ġþei": 669,
      "Ġø": 670,
      "Ġwrest": 671,
      "plus": 672,
      "这样": 673,
      "quake": 674,
      "кажу": 675,
      "onneur": 676,
      "isDebug": 677,
      "oldsymbol": 678,
      "getSimpleName": 679,
      "หนด": 680,
      "ĠIsrael": 681,
      "lieb": 682,
      "ApiService": 683,
      "sequent": 684,
      "uyang": 685,
      "Ġfeas": 686,
      "Cnt": 687,
      "Ġavent": 688,
      "Ġmeaning": 689,
      "Ġscler": 690,
      "ედა": 691,
      "oglio": 692,
      "ポート": 693,
      "ECTOR": 694,
      "Ġbirbir": 695,
      "Ġquench": 696,
      "pto": 697,
      "ĠResult": 698,
      "Ġribbed": 699,
      "orderDisplay": 700,
      "SOLE": 701,
      "miR": 702,
      "gham": 703,
      "bai": 704,
      "falls": 705,
      "Ġbroker": 706,
      "iron": 707,
      "ContentPane": 708,
      "Ġpengend": 709,
      "пис": 710,
      "ĠDeSant": 711,
      "ĠDeSantis": 712,
      "まります": 713,
      "Ġpéd": 714,
      "heading": 715,
      "Ġkorral": 716,
      "Ġtetrach": 717,
      "ĠOrtega": 718,
      "Ġalem": 719,
      "ilfe": 720,
      "ysseus": 721,
      "ashita": 722,
      "ariah": 723,
      "Ġcardamom": 724,
      "でした": 725,
      "ĠLark": 726,
      "ĠMauritius": 727,
      "ĠJo": 728,
      "eleon": 729,
      "Ġاتب": 730,
      "rencies": 731,
      "QueueMutex": 732,
      "キャン": 733,
      "çe": 734,
      "Ġettha": 735,
      "spiration": 736,
      "yscale": 737,
      "Ġpharmac": 738,
      "ĠDye": 739,
      "Ġstrt": 740,
      "boat": 741,
      "нению": 742,
      "ivist": 743,
      "Ġذہن": 744,
      "kien": 745,
      "aurant": 746,
      "чення": 747,
      "Ġgutt": 748,
      "ĠND": 749,
      "intai": 750,
      "Ġcosmet": 751,
      "Ġnanny": 752,
      "iotensin": 753,
      "Ġchair": 754,
      "coli": 755,
      "Ġvasena": 756,
      "tiles": 757,
      "ĠBaghdad": 758,
      "toggleClass": 759,
      "BarStyle": 760,
      "Ġホイール": 761,
      "いただけ": 762,
      "ĠRST": 763,
      "ίνει": 764,
      "Effects": 765,
      "ĠSchwarz": 766,
      "Ġciudad": 767,
      "მარ": 768,
      "ĠEagles": 769,
      "otte": 770,
      "Ġgehör": 771,
      "Ġpadr": 772,
      "عيب": 773,
      "Ġrecto": 774,
      "dob": 775,
      "サリー": 776,
      "データ": 777,
      "ĠSart": 778,
      "ché": 779,
      "iszt": 780,
      "Clk": 781,
      "ĠBrentford": 782,
      "erra": 783,
      "एनएल": 784,
      "okee": 785,
      "ToSort": 786,
      "Ġsaa": 787,
      "Ġsilhouette": 788,
      "ĠsetPenis": 789,
      "ĠTaft": 790,
      "ClrBit": 791,
      "GISL": 792,
      "vm": 793,
      "cases": 794,
      "idän": 795,
      "ッシュ": 796,
      "rakes": 797,
      "uptools": 798,
      "ĠJawah": 799,
      "ньше": 800,
      "Ġمرا": 801,
      "INGTON": 802,
      "ném": 803,
      "ickness": 804,
      "Coe": 805,
      "ulario": 806,
      "entre": 807,
      "ĠDDS": 808,
      "Ġsuficient": 809,
      "entliche": 810,
      "Adv": 811,
      "fate": 812,
      "Ġmaqu": 813,
      "uktur": 814,
      "ĠCustom": 815,
      "γων": 816,
      "ĠGrand": 817,
      "Ġśmier": 818,
      "Ġeinst": 819,
      "zna": 820,
      "Ġinterval": 821,
      "inoza": 822,
      "Ġthorac": 823,
      "ĠKPMG": 824,
      "Ġmili": 825,
      "cepc": 826,
      "SessionFactory": 827,
      "Ġmett": 828,
      "ĠBook": 829,
      "کرا": 830,
      "Ġ있으": 831,
      "ĠFT": 832,
      "OfThe": 833,
      "VEMENT": 834,
      "Ġзамы": 835,
      "Ġimpresc": 836,
      "Ġimprescind": 837,
      "ĠJér": 838,
      "Ġadmiss": 839,
      "toolStrip": 840,
      "ĠStim": 841,
      "ĠAsk": 842,
      "Deploy": 843,
      "ĠPug": 844,
      "Ġrealizaron": 845,
      "prob": 846,
      "ائیں": 847,
      "против": 848,
      "ĠPrand": 849,
      "Ġinizi": 850,
      "ĠInstrument": 851,
      "Ġgörd": 852,
      "Ġtars": 853,
      "enumerate": 854,
      "tv": 855,
      "tvrt": 856,
      "Ġreplic": 857,
      "ĠNSTX": 858,
      "اویر": 859,
      "Ġdram": 860,
      "älle": 861,
      "Ġрав": 862,
      "ĠTru": 863,
      "VI": 864,
      "rpt": 865,
      "Ġattén": 866,
      "UTC": 867,
      "Ġtect": 868,
      "Ġcaff": 869,
      "Ġgroom": 870,
      "Ġраск": 871,
      "ubectl": 872,
      "odyne": 873,
      "Ġfrancis": 874,
      "ĠDoming": 875,
      "ফস": 876,
      "ĠPackard": 877,
      "ovel": 878,
      "NavBar": 879,
      "вам": 880,
      "maxim": 881,
      "Ġsati": 882,
      "energ": 883,
      "ĠBlaine": 884,
      "Ġabandon": 885,
      "Ġfiles": 886,
      "gies": 887,
      "Ġpersön": 888,
      "avr": 889,
      "Editing": 890,
      "ĠDere": 891,
      "ĠСергей": 892,
      "radian": 893,
      "Ġздій": 894,
      "Ġздійс": 895,
      "itating": 896,
      "μεν": 897,
      "Ġcrum": 898,
      "izzer": 899,
      "ĠBedür": 900,
      "Ġfigur": 901,
      "Ġcouvert": 902,
      "foh": 903,
      "entino": 904,
      "olium": 905,
      "Ġсда": 906,
      "fohlen": 907,
      "Ġkriv": 908,
      "athlon": 909,
      "Ġеже": 910,
      "urow": 911,
      "IGI": 912,
      "vr": 913,
      "ArrivalTime": 914,
      "yday": 915,
      "Commerce": 916,
      "odep": 917,
      "drawal": 918,
      "arreg": 919,
      "تقه": 920,
      "ípios": 921,
      "gte": 922,
      "oghi": 923,
      "Ġobjet": 924,
      "スナー": 925,
      "erci": 926,
      "antemente": 927,
      "Ġvier": 928,
      "ĠKott": 929,
      "ĠDiet": 930,
      "thisTrack": 931,
      "ĠISS": 932,
      "WaitGroup": 933,
      "Ġخبر": 934,
      "hurst": 935,
      "Ġuphol": 936,
      "gged": 937,
      "olit": 938,
      "лое": 939,
      "ênio": 940,
      "Ġunrecogn": 941,
      "NewLabel": 942,
      "Radians": 943,
      "ĠSID": 944,
      "Ġнару": 945,
      "ĠCum": 946,
      "ĠCOLL": 947,
      "udder": 948,
      "ycline": 949,
      "Ġvlad": 950,
      "ĠChampions": 951,
      "éros": 952,
      "Ġumb": 953,
      "ậu": 954,
      "ĠRepresent": 955,
      "Ġفره": 956,
      "FLAGS": 957,
      "kowej": 958,
      "Ġsuur": 959,
      "Ġxpath": 960,
      "Ġexfoli": 961,
      "wax": 962,
      "wake": 963,
      "lose": 964,
      "ĠBein": 965,
      "ôtels": 966,
      "წერა": 967,
      "ourly": 968,
      "ĠParth": 969,
      "niego": 970,
      "Ġwirkt": 971,
      "ĠBalt": 972,
      "ĠGow": 973,
      "Ġeigh": 974,
      "Ġoft": 975,
      "δε": 976,
      "δευ": 977,
      "стно": 978,
      "ifton": 979,
      "urning": 980,
      "nikom": 981,
      "URO": 982,
      "ĠKend": 983,
      "ĠhandleError": 984,
      "eneal": 985,
      "Carl": 986,
      "arjo": 987,
      "htag": 988,
      "sever": 989,
      "urium": 990,
      "ĠNaut": 991,
      "Ġunterstüt": 992,
      "business": 993,
      "Day": 994,
      "Ġпринадле": 995,
      "Ġgaz": 996,
      "Ġsoučást": 997,
      "Ġobscur": 998,
      "fills": 999,
      "àu": 1000,
      "owneri": 1001,
      "bottom": 1002,
      "ilah": 1003,
      "ĠБал": 1004,
      "Ġالار": 1005,
      "Ġοπο": 1006,
      "үндө": 1007,
      "Ġインテリア": 1008,
      "BAR": 1009,
      "Ġsplit": 1010,
      "Ġبالنسب": 1011,
      "ĠKrz": 1012,
      "ABA": 1013,
      "ĠKrzysz": 1014,
      "ĠRevers": 1015,
      "ĠBertha": 1016,
      "кован": 1017,
      "Ġeyeb": 1018,
      "ĠEAC": 1019,
      "wadi": 1020,
      "inidad": 1021,
      "ĠWinifred": 1022,
      "Ġماس": 1023,
      "że": 1024,
      "uju": 1025,
      "bingham": 1026,
      "binghamton": 1027,
      "Ġرض": 1028,
      "ĠMcIntosh": 1029,
      "htaking": 1030,
      "elevationMap": 1031,
      "зне": 1032,
      "MiddleCenter": 1033,
      "bant": 1034,
      "Ġallgeme": 1035,
      "isé": 1036,
      "Ġdiagon": 1037,
      "Ġtout": 1038,
      "Ġhomm": 1039,
      "gor": 1040,
      "ĠBxd": 1041,
      "ĠDMC": 1042,
      "Ġcompute": 1043,
      "ĠAsw": 1044,
      "ultz": 1045,
      "íticos": 1046,
      "чную": 1047,
      "Ġkaroti": 1048,
      "Ġmonot": 1049,
      "Ġhitbox": 1050,
      "itra": 1051,
      "ĠDore": 1052,
      "uyó": 1053,
      "нистер": 1054,
      "GLE": 1055,
      "coprotein": 1056,
      "Ġgrinding": 1057,
      "Ġflag": 1058,
      "akah": 1059,
      "ighteous": 1060,
      "voj": 1061,
      "Ġcrash": 1062,
      "ĠDiam": 1063,
      "ĠgradioApp": 1064,
      "Ġdéclar": 1065,
      "Ġnatth": 1066,
      "Ġshattering": 1067,
      "ĠRockland": 1068,
      "Ġnatthi": 1069,
      "Ġpharet": 1070,
      "Ġpharetra": 1071,
      "chsel": 1072,
      "Ġmedia": 1073,
      "ĠTuring": 1074,
      "ekeeping": 1075,
      "ITER": 1076,
      "мира": 1077,
      "Diagn": 1078,
      "Ġlup": 1079,
      "yai": 1080,
      "беріга": 1081,
      "Ġבאמצע": 1082,
      "icrous": 1083,
      "isek": 1084,
      "Ġmord": 1085,
      "IFT": 1086,
      "NUMX": 1087,
      "Ġпарт": 1088,
      "Ġسوری": 1089,
      "Ġunknown": 1090,
      "illusion": 1091,
      "UISE": 1092,
      "τερ": 1093,
      "wez": 1094,
      "ensible": 1095,
      "wezig": 1096,
      "Slice": 1097,
      "Ġlakukan": 1098,
      "arlan": 1099,
      "inand": 1100,
      "arching": 1101,
      "Embedded": 1102,
      "istern": 1103,
      "roseconds": 1104,
      "Flower": 1105,
      "HERS": 1106,
      "قي": 1107,
      "ihn": 1108,
      "Ġjealous": 1109,
      "Ġმომ": 1110,
      "Ġngu": 1111,
      "ĠSrb": 1112,
      "Ġdesay": 1113,
      "ĠGareth": 1114,
      "Ġimasmim": 1115,
      "Ġtät": 1116,
      "вших": 1117,
      "ére": 1118,
      "Ġcommit": 1119,
      "Ġcadr": 1120,
      "Ġnick": 1121,
      "Quant": 1122,
      "紹介": 1123,
      "ĠfadeIn": 1124,
      "Ġяго": 1125,
      "ĠDubrov": 1126,
      "Criteria": 1127,
      "ても": 1128,
      "ейчас": 1129,
      "Ġアウ": 1130,
      "jones": 1131,
      "Ġhiki": 1132,
      "illés": 1133,
      "неш": 1134,
      "كاته": 1135,
      "Ġhtml": 1136,
      "Ġdigests": 1137,
      "ĠВасилий": 1138,
      "Ġmayam": 1139,
      "ĠGottfried": 1140,
      "specific": 1141,
      "ĠImmun": 1142,
      "Ġstriated": 1143,
      "Ġшколова": 1144,
      "ĠPackers": 1145,
      "мови": 1146,
      "ĠRup": 1147,
      "tsc": 1148,
      "ĠWorld": 1149,
      "seh": 1150,
      "十肆": 1151,
      "十肆章": 1152,
      "Ġestruct": 1153,
      "Ġmond": 1154,
      "ĠFederico": 1155,
      "ĠuseNewUrlParser": 1156,
      "resultSet": 1157,
      "ĠMist": 1158,
      "Ġllen": 1159,
      "electors": 1160,
      "UISelectors": 1161,
      "кир": 1162,
      "ícios": 1163,
      "uph": 1164,
      "شوف": 1165,
      "vetica": 1166,
      "Ġparaly": 1167,
      "aib": 1168,
      "ĠPugh": 1169,
      "Ġreto": 1170,
      "Ġlook": 1171,
      "Ġainfi": 1172,
      "ĠIGP": 1173,
      "μά": 1174,
      "occur": 1175,
      "aitan": 1176,
      "áns": 1177,
      "Ġşek": 1178,
      "Ġornament": 1179,
      "חנו": 1180,
      "Ġjov": 1181,
      "ارش": 1182,
      "ĠHazrat": 1183,
      "cret": 1184,
      "ĠSle": 1185,
      "eyd": 1186,
      "Ġyattha": 1187,
      "slu": 1188,
      "Ġvattati": 1189,
      "ividend": 1190,
      "createText": 1191,
      "家乐": 1192,
      "百家乐": 1193,
      "Ġrám": 1194,
      "ndham": 1195,
      "وابة": 1196,
      "uanya": 1197,
      "Ġangla": 1198,
      "Ġescrib": 1199,
      "rimp": 1200,
      "зво": 1201,
      "iku": 1202,
      "eweg": 1203,
      "mutable": 1204,
      "vedere": 1205,
      "ĠcStart": 1206,
      "llan": 1207,
      "Ġkhu": 1208,
      "Ġsuck": 1209,
      "HCO": 1210,
      "TGF": 1211,
      "Ġterrib": 1212,
      "Ġख": 1213,
      "benzo": 1214,
      "Ġnarr": 1215,
      "Ġexcitatory": 1216,
      "xssf": 1217,
      "pengaruhi": 1218,
      "isian": 1219,
      "guo": 1220,
      "pozn": 1221,
      "yek": 1222,
      "ducer": 1223,
      "prd": 1224,
      "ettle": 1225,
      "Ġsophistic": 1226,
      "levation": 1227,
      "Ġwür": 1228,
      "ĠMongo": 1229,
      "Ġéto": 1230,
      "حاب": 1231,
      "ushka": 1232,
      "Ġterrito": 1233,
      "iq": 1234,
      "acul": 1235,
      "ĠPapad": 1236,
      "ĠMárquez": 1237,
      "ĠLichtenfels": 1238,
      "يرا": 1239,
      "ĠEmilia": 1240,
      "ディース": 1241,
      "Ġparamet": 1242,
      "Ġwikip": 1243,
      "adan": 1244,
      "nais": 1245,
      "ĠChalm": 1246,
      "Ġsawing": 1247,
      "ĠChalmers": 1248,
      "Ġمباش": 1249,
      "Ġواع": 1250,
      "Ġİst": 1251,
      "ネルギー": 1252,
      "ordano": 1253,
      "ĠSalman": 1254,
      "ĠBeit": 1255,
      "лардын": 1256,
      "Swing": 1257,
      "jata": 1258,
      "ĠBMC": 1259,
      "Ġexpon": 1260,
      "YLE": 1261,
      "Ġrufo": 1262,
      "ĠBuh": 1263,
      "egg": 1264,
      "Ġhossz": 1265,
      "Ġouvert": 1266,
      "ĠValeria": 1267,
      "rizes": 1268,
      "ionali": 1269,
      "ĠRaster": 1270,
      "short": 1271,
      "Fatal": 1272,
      "Ġдис": 1273,
      "argaan": 1274,
      "volved": 1275,
      "цей": 1276,
      "Catholic": 1277,
      "Ġпосте": 1278,
      "ĠWiesbaden": 1279,
      "Ġtoh": 1280,
      "usermodel": 1281,
      "ĠcursorPos": 1282,
      "Ġassault": 1283,
      "өк": 1284,
      "ĠBhan": 1285,
      "Ġйөк": 1286,
      "ekkür": 1287,
      "Ġjednym": 1288,
      "webElementXpaths": 1289,
      "artoum": 1290,
      "ウント": 1291,
      "Ġedn": 1292,
      "ĠUr": 1293,
      "kowski": 1294,
      "Ġкраси": 1295,
      "Ġfenómenos": 1296,
      "Ġdeduct": 1297,
      "ظیم": 1298,
      "Ġmarshm": 1299,
      "ĠSauv": 1300,
      "Ġnäch": 1301,
      "Ġelastic": 1302,
      "Ġinoxyd": 1303,
      "Ġmetamorph": 1304,
      "Ġbho": 1305,
      "ểm": 1306,
      "deme": 1307,
      "ıda": 1308,
      "ĠAyat": 1309,
      "ikleri": 1310,
      "rung": 1311,
      "onResume": 1312,
      "riott": 1313,
      "minster": 1314,
      "GetAll": 1315,
      "Ġtreas": 1316,
      "ለበ": 1317,
      "Ġአለበ": 1318,
      "Ġአለበት": 1319,
      "etland": 1320,
      "孩子": 1321,
      "roits": 1322,
      "Names": 1323,
      "ryn": 1324,
      "ござい": 1325,
      "cade": 1326,
      "ĠPublicKey": 1327,
      "yllic": 1328,
      "Sibling": 1329,
      "Ġoln": 1330,
      "ＮＡＮＡ": 1331,
      "ĠPrel": 1332,
      "racies": 1333,
      "ĠgetSchema": 1334,
      "specifiedByURL": 1335,
      "ifle": 1336,
      "ukuoka": 1337,
      "Ġmyster": 1338,
      "HideFlags": 1339,
      "SBP": 1340,
      "ĠKach": 1341,
      "nés": 1342,
      "stice": 1343,
      "ĠConstance": 1344,
      "aliya": 1345,
      "Ġnahil": 1346,
      "bestos": 1347,
      "Ġpermett": 1348,
      "हत": 1349,
      "itures": 1350,
      "マット": 1351,
      "erdale": 1352,
      "arthy": 1353,
      "Ġbéné": 1354,
      "Ġархів": 1355,
      "rophenyl": 1356,
      "icherung": 1357,
      "wegs": 1358,
      "strip": 1359,
      "ĠBarangay": 1360,
      "CellValue": 1361,
      "wallepics": 1362,
      "REF": 1363,
      "waarden": 1364,
      "ohnt": 1365,
      "érg": 1366,
      "ĠErnst": 1367,
      "Ġsaddhim": 1368,
      "ศษ": 1369,
      "ĠErd": 1370,
      "Ġsoll": 1371,
      "اتر": 1372,
      "hound": 1373,
      "Ġolymp": 1374,
      "ewną": 1375,
      "Ġmoll": 1376,
      "Ġtann": 1377,
      "ĠRus": 1378,
      "ĠKabir": 1379,
      "ĠIrving": 1380,
      "ارض": 1381,
      "OnOff": 1382,
      "Ġcompren": 1383,
      "bangan": 1384,
      "occas": 1385,
      "ĠPSC": 1386,
      "vell": 1387,
      "تاح": 1388,
      "setting": 1389,
      "ĠreqParams": 1390,
      "famil": 1391,
      "یمی": 1392,
      "док": 1393,
      "Ġpretext": 1394,
      "Ġultricies": 1395,
      "schl": 1396,
      "Ġheterozyg": 1397,
      "Ġстрелец": 1398,
      "Ġsaffron": 1399,
      "ñoz": 1400,
      "Parallel": 1401,
      "Bridge": 1402,
      "berries": 1403,
      "ĠBing": 1404,
      "čnost": 1405,
      "kiy": 1406,
      "ĠGuilford": 1407,
      "Ġχρό": 1408,
      "Ops": 1409,
      "ĠqPCR": 1410,
      "یمپ": 1411,
      "Ġللا": 1412,
      "Ġdimension": 1413,
      "мах": 1414,
      "ETTER": 1415,
      "ĠpresenceData": 1416,
      "ĠHat": 1417,
      "OPEN": 1418,
      "Dependent": 1419,
      "tailwind": 1420,
      "That": 1421,
      "бити": 1422,
      "食べ": 1423,
      "ĠHawthorne": 1424,
      "durationType": 1425,
      "ĠOPC": 1426,
      "ĠUpton": 1427,
      "ĠBatch": 1428,
      "ĠBadRequest": 1429,
      "ané": 1430,
      "urno": 1431,
      "ollars": 1432,
      "startsWith": 1433,
      "ĠMatilda": 1434,
      "ĠCAF": 1435,
      "Ġhopeless": 1436,
      "ĠEld": 1437,
      "Ġallong": 1438,
      "Ġപ": 1439,
      "Ġcamphor": 1440,
      "óricos": 1441,
      "Ġhus": 1442,
      "vasena": 1443,
      "Ġoutsole": 1444,
      "тировать": 1445,
      "Hound": 1446,
      "OLUTION": 1447,
      "Ġنبی": 1448,
      "banks": 1449,
      "ĠBlackpool": 1450,
      "Payload": 1451,
      "maked": 1452,
      "IVER": 1453,
      "Ġmanten": 1454,
      "ĠDolor": 1455,
      "ĠDolores": 1456,
      "ificare": 1457,
      "ETTE": 1458,
      "ລະ": 1459,
      "ແລະ": 1460,
      "KSprite": 1461,
      "Ġطاق": 1462,
      "Ġطاقت": 1463,
      "raved": 1464,
      "дуу": 1465,
      "ĠVerónica": 1466,
      "rasp": 1467,
      "akter": 1468,
      "LEASE": 1469,
      "ĠAngelina": 1470,
      "itr": 1471,
      "unitas": 1472,
      "νέ": 1473,
      "ynton": 1474,
      "ĠBoynton": 1475,
      "acelet": 1476,
      "Ġzat": 1477,
      "ĠModInt": 1478,
      "ĠRut": 1479,
      "ĠMontague": 1480,
      "ilg": 1481,
      "Ġیق": 1482,
      "Ġعین": 1483,
      "ĠParam": 1484,
      "Ġworth": 1485,
      "Ġsequester": 1486,
      "StatusCommand": 1487,
      "dio": 1488,
      "ĠNSMutable": 1489,
      "osomal": 1490,
      "ственным": 1491,
      "Ġrett": 1492,
      "jahtera": 1493,
      "ĠGesture": 1494,
      "زش": 1495,
      "Ġcôn": 1496,
      "сколько": 1497,
      "omar": 1498,
      "Transl": 1499,
      "idium": 1500,
      "Ġbibli": 1501,
      "ĠTown": 1502,
      "組み": 1503,
      "ĠSchiller": 1504,
      "htar": 1505,
      "dtype": 1506,
      "WGM": 1507,
      "ĠUWGM": 1508,
      "Geometry": 1509,
      "ĠАнаста": 1510,
      "Ġbire": 1511,
      "unet": 1512,
      "geti": 1513,
      "ĠGraeme": 1514,
      "ĠVuttab": 1515,
      "Mobs": 1516,
      "Ġfuss": 1517,
      "ANEOUS": 1518,
      "σκευ": 1519,
      "ĠSME": 1520,
      "ansom": 1521,
      "anv": 1522,
      "Ġtranslate": 1523,
      "ĠQxd": 1524,
      "具体": 1525,
      "omonas": 1526,
      "Ġbutton": 1527,
      "Ġinformally": 1528,
      "Ġуйнагыз": 1529,
      "LY": 1530,
      "ĠWick": 1531,
      "Ġvuccati": 1532,
      "AutoScaleMode": 1533,
      "oxyphenyl": 1534,
      "İL": 1535,
      "ového": 1536,
      "Ġcoloque": 1537,
      "VideoButton": 1538,
      "Ġنتی": 1539,
      "ĠBruges": 1540,
      "Ġtiros": 1541,
      "いたし": 1542,
      "Ġsuffis": 1543,
      "lamiento": 1544,
      "Ġreliefs": 1545,
      "ttle": 1546,
      "ajes": 1547,
      "ویں": 1548,
      "isenberg": 1549,
      "Ġperic": 1550,
      "Ġطلع": 1551,
      "OF": 1552,
      "городе": 1553,
      "fek": 1554,
      "ĠSarkar": 1555,
      "ĠBlock": 1556,
      "ệp": 1557,
      "ĠSu": 1558,
      "omi": 1559,
      "odon": 1560,
      "lsen": 1561,
      "views": 1562,
      "ĠKaitlyn": 1563,
      "Ġполи": 1564,
      "Ġсамы": 1565,
      "multiSelectList": 1566,
      "begin": 1567,
      "riculture": 1568,
      "ENCI": 1569,
      "Expire": 1570,
      "Ġprenn": 1571,
      "Ġincompar": 1572,
      "ĠGrimm": 1573,
      "asas": 1574,
      "gewater": 1575,
      "Bonnie": 1576,
      "iges": 1577,
      "Ġprosec": 1578,
      "ĠMIP": 1579,
      "Ġforth": 1580,
      "strings": 1581,
      "Ġsłu": 1582,
      "hap": 1583,
      "Ġungroup": 1584,
      "ĠShand": 1585,
      "subtree": 1586,
      "Ġingen": 1587,
      "USTOM": 1588,
      "idgets": 1589,
      "Ġanalis": 1590,
      "inaly": 1591,
      "Ġforward": 1592,
      "ĠMonteiro": 1593,
      "Ġtrident": 1594,
      "ĠElmer": 1595,
      "Ġsépt": 1596,
      "Ġdéfin": 1597,
      "glass": 1598,
      "arikat": 1599,
      "jelen": 1600,
      "前的": 1601,
      "Ġantennis": 1602,
      "можно": 1603,
      "Ġبالت": 1604,
      "Ġверши": 1605,
      "illie": 1606,
      "ĠChristians": 1607,
      "다는": 1608,
      "ĠDBI": 1609,
      "Ġخفی": 1610,
      "Ġвыпу": 1611,
      "orderby": 1612,
      "ĠJacinto": 1613,
      "ĠMillion": 1614,
      "вали": 1615,
      "Delimiter": 1616,
      "XIV": 1617,
      "Ġriti": 1618,
      "ĠEXEMPL": 1619,
      "LetterIndex": 1620,
      "juv": 1621,
      "studentRecord": 1622,
      "Ġwealth": 1623,
      "evron": 1624,
      "Ġbau": 1625,
      "zenia": 1626,
      "ugio": 1627,
      "жек": 1628,
      "juk": 1629,
      "ĠQUEST": 1630,
      "ĠTPM": 1631,
      "geq": 1632,
      "エステル": 1633,
      "リエステル": 1634,
      "Ġrecombin": 1635,
      "Ġphoto": 1636,
      "fum": 1637,
      "improv": 1638,
      "ulen": 1639,
      "Ġsolenoid": 1640,
      "ĠPeterborough": 1641,
      "affin": 1642,
      "ĠNTP": 1643,
      "onar": 1644,
      "lym": 1645,
      "ĠPelt": 1646,
      "resTmp": 1647,
      "ĠFest": 1648,
      "osable": 1649,
      "Ġкө": 1650,
      "وط": 1651,
      "bation": 1652,
      "duino": 1653,
      "Ġvyb": 1654,
      "ConnectionType": 1655,
      "ĠMMS": 1656,
      "ĠJuliet": 1657,
      "ĠNMC": 1658,
      "uvad": 1659,
      "Ġnucleation": 1660,
      "stroke": 1661,
      "Chess": 1662,
      "hne": 1663,
      "ĠBamber": 1664,
      "Ġканди": 1665,
      "ĠEsther": 1666,
      "ourable": 1667,
      "crete": 1668,
      "ĠDevelop": 1669,
      "ĠLal": 1670,
      "Ġcrick": 1671,
      "ĠMün": 1672,
      "ĠSSR": 1673,
      "arder": 1674,
      "riffe": 1675,
      "Ġsmoothed": 1676,
      "izados": 1677,
      "Ġunderp": 1678,
      "otropin": 1679,
      "alez": 1680,
      "Ġmozz": 1681,
      "reter": 1682,
      "abouts": 1683,
      "Ġsulph": 1684,
      "Ġماند": 1685,
      "Factors": 1686,
      "APAN": 1687,
      "áln": 1688,
      "ってた": 1689,
      "ĠMub": 1690,
      "enroll": 1691,
      "iune": 1692,
      "ictures": 1693,
      "ansa": 1694,
      "Ġplut": 1695,
      "árs": 1696,
      "Ġkövet": 1697,
      "ĠLjublj": 1698,
      "Ġmarginal": 1699,
      "Ġsow": 1700,
      "Ġисклю": 1701,
      "ĠHerce": 1702,
      "Ġaltercation": 1703,
      "endio": 1704,
      "ophageal": 1705,
      "Heinz": 1706,
      "ĠLazar": 1707,
      "sadpoetry": 1708,
      "choline": 1709,
      "ĠBadger": 1710,
      "ĠHiram": 1711,
      "vian": 1712,
      "TRR": 1713,
      "Ġczerw": 1714,
      "ĠRao": 1715,
      "planted": 1716,
      "ahang": 1717,
      "autista": 1718,
      "Ġصدی": 1719,
      "niejsze": 1720,
      "бую": 1721,
      "ĠSev": 1722,
      "ĠWeil": 1723,
      "Ġکھلا": 1724,
      "Ġжиз": 1725,
      "Ġautocor": 1726,
      "urbance": 1727,
      "Ġlibsql": 1728,
      "Ġمال": 1729,
      "Ġapoy": 1730,
      "ĠAmber": 1731,
      "Ġİz": 1732,
      "Ġبل": 1733,
      "ığını": 1734,
      "ĠPanamá": 1735,
      "pline": 1736,
      "canny": 1737,
      "Ġskill": 1738,
      "ĠCumbria": 1739,
      "Ġगर": 1740,
      "Ġвремена": 1741,
      "Ġencro": 1742,
      "crets": 1743,
      "Ġداخ": 1744,
      "DSA": 1745,
      "Ġpric": 1746,
      "altung": 1747,
      "ĠRancho": 1748,
      "ĠfindPlayer": 1749,
      "használ": 1750,
      "спек": 1751,
      "реги": 1752,
      "awak": 1753,
      "полни": 1754,
      "leys": 1755,
      "ĠKie": 1756,
      "rapper": 1757,
      "stitutes": 1758,
      "Ġпят": 1759,
      "Ġdernières": 1760,
      "elage": 1761,
      "netje": 1762,
      "Liter": 1763,
      "ndes": 1764,
      "Ġالاق": 1765,
      "lā": 1766,
      "ālā": 1767,
      "шивания": 1768,
      "ératures": 1769,
      "Ġобу": 1770,
      "aviti": 1771,
      "Ġnásled": 1772,
      "storageModule": 1773,
      "ĠImran": 1774,
      "Ġvaric": 1775,
      "Ġanb": 1776,
      "URING": 1777,
      "liegt": 1778,
      "Ġуні": 1779,
      "ĠstrListName": 1780,
      "InstrumentedTest": 1781,
      "iciary": 1782,
      "Ġfertil": 1783,
      "Shadow": 1784,
      "chief": 1785,
      "ibank": 1786,
      "ĠAins": 1787,
      "ätze": 1788,
      "Ġheadway": 1789,
      "дные": 1790,
      "Ġpreponder": 1791,
      "ĠGT": 1792,
      "Ġотсут": 1793,
      "locations": 1794,
      "ĠnCmd": 1795,
      "Ġannoy": 1796,
      "اسو": 1797,
      "Ġташки": 1798,
      "ĠKash": 1799,
      "ĠGloria": 1800,
      "Ġremarqu": 1801,
      "urut": 1802,
      "Pen": 1803,
      "ĠKaufman": 1804,
      "ASK": 1805,
      "xas": 1806,
      "áter": 1807,
      "Ġfevere": 1808,
      "unners": 1809,
      "ccos": 1810,
      "ĠГерма": 1811,
      "Hein": 1812,
      "вью": 1813,
      "чная": 1814,
      "fieldText": 1815,
      "Ġenter": 1816,
      "ajar": 1817,
      "ĠMargherita": 1818,
      "Ġopioid": 1819,
      "utant": 1820,
      "shiro": 1821,
      "ierstrass": 1822,
      "noopener": 1823,
      "違い": 1824,
      "Ġoner": 1825,
      "ínt": 1826,
      "Ġexig": 1827,
      "ĠPaglin": 1828,
      "ĠGLC": 1829,
      "Ġಇ": 1830,
      "QUAD": 1831,
      "Collected": 1832,
      "рье": 1833,
      "tection": 1834,
      "byt": 1835,
      "ezers": 1836,
      "dfunding": 1837,
      "ARAJ": 1838,
      "ErrorBoundary": 1839,
      "ActionsCallback": 1840,
      "項目": 1841,
      "ĠAlina": 1842,
      "関連項目": 1843,
      "blusas": 1844,
      "Ġresponse": 1845,
      "Ġlương": 1846,
      "ĠUda": 1847,
      "Ġআহ": 1848,
      "xl": 1849,
      "Ġxxl": 1850,
      "Ġdut": 1851,
      "amburg": 1852,
      "osphate": 1853,
      "emale": 1854,
      "ĠWo": 1855,
      "ený": 1856,
      "onzo": 1857,
      "żeli": 1858,
      "fold": 1859,
      "Ġnúmer": 1860,
      "ĠCPE": 1861,
      "Ġinterstit": 1862,
      "ĠCP": 1863,
      "getitem": 1864,
      "поряд": 1865,
      "当たり": 1866,
      "ittura": 1867,
      "addEnemy": 1868,
      "LeftSide": 1869,
      "acuse": 1870,
      "ฐาน": 1871,
      "ĠCFS": 1872,
      "ĠГо": 1873,
      "Ġndị": 1874,
      "médiaire": 1875,
      "میم": 1876,
      "enery": 1877,
      "ekin": 1878,
      "пута": 1879,
      "ĠnewApproved": 1880,
      "Ġذات": 1881,
      "ĠDeterm": 1882,
      "Ġsystemat": 1883,
      "Ġnerd": 1884,
      "Ġgrosseur": 1885,
      "Ġbistouri": 1886,
      "quées": 1887,
      "ĠJep": 1888,
      "oran": 1889,
      "grafo": 1890,
      "ĠChas": 1891,
      "vee": 1892,
      "Ġприбы": 1893,
      "Ġamar": 1894,
      "ĠDerry": 1895,
      "vou": 1896,
      "Ġleto": 1897,
      "version": 1898,
      "ayama": 1899,
      "شته": 1900,
      "FURNIZOR": 1901,
      "Ġcay": 1902,
      "ĠMST": 1903,
      "onesian": 1904,
      "Ġاز": 1905,
      "uva": 1906,
      "TableView": 1907,
      "ĠByz": 1908,
      "ĠMarne": 1909,
      "LEXPORT": 1910,
      "Ġnáv": 1911,
      "ĠLANG": 1912,
      "inalis": 1913,
      "voud": 1914,
      "Ġmustard": 1915,
      "public": 1916,
      "ības": 1917,
      "Ġאטאטורק": 1918,
      "Ġස": 1919,
      "මඟ": 1920,
      "ĠKaiser": 1921,
      "Ġසමඟ": 1922,
      "ĠExecut": 1923,
      "зии": 1924,
      "اکستان": 1925,
      "ĠprincipalColumn": 1926,
      "rugu": 1927,
      "jin": 1928,
      "ultura": 1929,
      "ctors": 1930,
      "ĠLanz": 1931,
      "кона": 1932,
      "ĠMcConnell": 1933,
      "ecies": 1934,
      "ĠRouted": 1935,
      "marshalO": 1936,
      "Ġthro": 1937,
      "Ġjednej": 1938,
      "Ġtrató": 1939,
      "standard": 1940,
      "navigate": 1941,
      "embol": 1942,
      "ilience": 1943,
      "Ġjinak": 1944,
      "Ġpaccati": 1945,
      "ĠaDecoder": 1946,
      "ĠChai": 1947,
      "degener": 1948,
      "Ġpstmt": 1949,
      "ーストラ": 1950,
      "amatan": 1951,
      "ĠCoil": 1952,
      "кро": 1953,
      "ondata": 1954,
      "hangman": 1955,
      "ĠJSON": 1956,
      "oyote": 1957,
      "Ġmara": 1958,
      "ánico": 1959,
      "findById": 1960,
      "GraphicsUnit": 1961,
      "Ġslit": 1962,
      "北海": 1963,
      "北海道": 1964,
      "Ġsouff": 1965,
      "ĠNormal": 1966,
      "MakeRectInCM": 1967,
      "Ġmã": 1968,
      "cart": 1969,
      "Ġtuh": 1970,
      "вної": 1971,
      "ĠTIM": 1972,
      "ĠBERN": 1973,
      "ranos": 1974,
      "Ġspeeches": 1975,
      "леп": 1976,
      "жити": 1977,
      "DesIP": 1978,
      "alit": 1979,
      "ئيس": 1980,
      "зяржа": 1981,
      "Ġخاص": 1982,
      "Ġenthusiast": 1983,
      "ĠCapt": 1984,
      "ispo": 1985,
      "expected": 1986,
      "Fre": 1987,
      "nPort": 1988,
      "erkraut": 1989,
      "Ġpacemaker": 1990,
      "ĠAtomnoj": 1991,
      "norod": 1992,
      "ensk": 1993,
      "Ġglycer": 1994,
      "Ġtaped": 1995,
      "และ": 1996,
      "ĠElsie": 1997,
      "ĠPhilosoph": 1998,
      "ĠMadonna": 1999,
      "marg": 2000,
      "aq": 2001,
      "なん": 2002,
      "atica": 2003,
      "Ġзнаком": 2004,
      "Overview": 2005,
      "INTER": 2006,
      "Ġбер": 2007,
      "ĠWilhel": 2008,
      "ĠMotors": 2009,
      "Ġэмне": 2010,
      "щина": 2011,
      "LongNumber": 2012,
      "orten": 2013,
      "Ġherr": 2014,
      "springframework": 2015,
      "Ġstatically": 2016,
      "ηρε": 2017,
      "isTouching": 2018,
      "flag": 2019,
      "ĠЛюд": 2020,
      "stateMutability": 2021,
      "ashe": 2022,
      "Cour": 2023,
      "Rich": 2024,
      "onces": 2025,
      "ĠBlunt": 2026,
      "ĠSpearman": 2027,
      "ğu": 2028,
      "Ġalın": 2029,
      "SqlQuery": 2030,
      "дентифика": 2031,
      "リンク": 2032,
      "idur": 2033,
      "élev": 2034,
      "ĠSuz": 2035,
      "Ġавтомоби": 2036,
      "чь": 2037,
      "ğin": 2038,
      "ĠPKR": 2039,
      "Ġcollisional": 2040,
      "Ġpiaci": 2041,
      "цій": 2042,
      "ĠQuaker": 2043,
      "ĠNicholls": 2044,
      "textcolor": 2045,
      "HRIM": 2046,
      "ĠElig": 2047,
      "ĠAar": 2048,
      "ĠsubTestHDR": 2049,
      "ifornia": 2050,
      "зов": 2051,
      "InfoDto": 2052,
      "Ġэле": 2053,
      "ĠKlu": 2054,
      "Ġzám": 2055,
      "ĠMait": 2056,
      "Ġmun": 2057,
      "erti": 2058,
      "Ġpolymer": 2059,
      "fac": 2060,
      "Ġbuy": 2061,
      "Ġepoxy": 2062,
      "Buttons": 2063,
      "Ġпоявля": 2064,
      "Ġвозмож": 2065,
      "ĠLEP": 2066,
      "Ġanthocyan": 2067,
      "uities": 2068,
      "Ġcrack": 2069,
      "Ġinfin": 2070,
      "ĠTet": 2071,
      "Ġwis": 2072,
      "imetric": 2073,
      "Ġμπο": 2074,
      "VARIA": 2075,
      "ĠTBA": 2076,
      "spaper": 2077,
      "Ġnotches": 2078,
      "Ġaya": 2079,
      "igl": 2080,
      "Ġged": 2081,
      "ссе": 2082,
      "omány": 2083,
      "ugly": 2084,
      "ĠTRANSPORTURI": 2085,
      "lename": 2086,
      "ĠPolar": 2087,
      "Ġpatitth": 2088,
      "cedure": 2089,
      "Ġcis": 2090,
      "ısından": 2091,
      "ĠNUS": 2092,
      "Ġchu": 2093,
      "Ġphospholip": 2094,
      "odzi": 2095,
      "ουμε": 2096,
      "pieceSelection": 2097,
      "celli": 2098,
      "rodní": 2099,
      "ycling": 2100,
      "ĠСчет": 2101,
      "uric": 2102,
      "ĠBillings": 2103,
      "iglich": 2104,
      "anın": 2105,
      "sunami": 2106,
      "chez": 2107,
      "ĠGraph": 2108,
      "ĠCuth": 2109,
      "лит": 2110,
      "δικ": 2111,
      "ĠMonty": 2112,
      "Ġstycz": 2113,
      "Ġmotorc": 2114,
      "ılır": 2115,
      "HomePage": 2116,
      "Ġturt": 2117,
      "vieve": 2118,
      "cando": 2119,
      "Ġالبي": 2120,
      "Existe": 2121,
      "中使用": 2122,
      "bele": 2123,
      "ĠLect": 2124,
      "reibt": 2125,
      "unov": 2126,
      "Ġinterle": 2127,
      "Ġnev": 2128,
      "mittedly": 2129,
      "BoardManager": 2130,
      "Ġairl": 2131,
      "cium": 2132,
      "Ġjunio": 2133,
      "anesulfonyl": 2134,
      "analy": 2135,
      "ĠLily": 2136,
      "EOUT": 2137,
      "rization": 2138,
      "Ġrund": 2139,
      "inė": 2140,
      "sip": 2141,
      "Ġদ": 2142,
      "мую": 2143,
      "onos": 2144,
      "InfoPlistPath": 2145,
      "ång": 2146,
      "quard": 2147,
      "thing": 2148,
      "Ġπάν": 2149,
      "Ġkonte": 2150,
      "Ġsocket": 2151,
      "Ġisk": 2152,
      "shoz": 2153,
      "щем": 2154,
      "pi": 2155,
      "ĠRTI": 2156,
      "Ġassembl": 2157,
      "ĠSime": 2158,
      "ĠPoz": 2159,
      "ĠKauai": 2160,
      "ĠIUnary": 2161,
      "mapKey": 2162,
      "ĠPTR": 2163,
      "Ġسلاټونه": 2164,
      "вная": 2165,
      "gesamt": 2166,
      "リューム": 2167,
      "Ġdiper": 2168,
      "resher": 2169,
      "subMenu": 2170,
      "ĠCondition": 2171,
      "ĠГри": 2172,
      "zungen": 2173,
      "Ġabsentee": 2174,
      "letcher": 2175,
      "Ġtepung": 2176,
      "ServiceClient": 2177,
      "yorum": 2178,
      "вети": 2179,
      "atina": 2180,
      "ĠKEY": 2181,
      "Ġпостро": 2182,
      "nului": 2183,
      "רה": 2184,
      "getStringExtra": 2185,
      "Material": 2186,
      "rafpunkte": 2187,
      "raseña": 2188,
      "song": 2189,
      "yzed": 2190,
      "ucos": 2191,
      "pic": 2192,
      "тып": 2193,
      "ĠVel": 2194,
      "UARY": 2195,
      "Ġvyst": 2196,
      "ĠOk": 2197,
      "market": 2198,
      "teral": 2199,
      "Ġآتی": 2200,
      "новним": 2201,
      "рость": 2202,
      "Ġсовер": 2203,
      "gba": 2204,
      "finity": 2205,
      "ĠBaloch": 2206,
      "chandise": 2207,
      "useks": 2208,
      "washer": 2209,
      "enging": 2210,
      "lès": 2211,
      "ĠDISPLAYS": 2212,
      "Ġsystem": 2213,
      "kaj": 2214,
      "ijkl": 2215,
      "ופן": 2216,
      "astre": 2217,
      "Ġendowments": 2218,
      "Ġrefund": 2219,
      "incipal": 2220,
      "ovina": 2221,
      "ĠGig": 2222,
      "ramos": 2223,
      "omination": 2224,
      "ĠMcGregor": 2225,
      "ومي": 2226,
      "Ġintran": 2227,
      "Ġmott": 2228,
      "ombrie": 2229,
      "Ġкос": 2230,
      "alang": 2231,
      "heatmap": 2232,
      "NotExist": 2233,
      "чній": 2234,
      "plays": 2235,
      "Ġstem": 2236,
      "কম": 2237,
      "রকম": 2238,
      "šenje": 2239,
      "bah": 2240,
      "ĠMead": 2241,
      "Ġshaman": 2242,
      "Ġnigra": 2243,
      "ĠERP": 2244,
      "ები": 2245,
      "Ġphotos": 2246,
      "ĠNellie": 2247,
      "acetime": 2248,
      "Ġsauv": 2249,
      "othel": 2250,
      "issy": 2251,
      "irties": 2252,
      "indust": 2253,
      "шить": 2254,
      "ĠBukh": 2255,
      "agę": 2256,
      "luent": 2257,
      "ittha": 2258,
      "ונה": 2259,
      "ershed": 2260,
      "imerk": 2261,
      "ĠTre": 2262,
      "platin": 2263,
      "noff": 2264,
      "jih": 2265,
      "aution": 2266,
      "ссию": 2267,
      "crypt": 2268,
      "pok": 2269,
      "ĠWirk": 2270,
      "Ġforbearance": 2271,
      "Ġrand": 2272,
      "жмите": 2273,
      "Ġkeres": 2274,
      "ONIUM": 2275,
      "Ġbasalt": 2276,
      "Ġextrémités": 2277,
      "Ġმოს": 2278,
      "Ġdapibus": 2279,
      "ğini": 2280,
      "enumeration": 2281,
      "Ġfoul": 2282,
      "ĠSDA": 2283,
      "obytes": 2284,
      "ĠConsole": 2285,
      "So": 2286,
      "ukiy": 2287,
      "Ġالمرحله": 2288,
      "Ġmostrou": 2289,
      "setAdapter": 2290,
      "ĠIsid": 2291,
      "huana": 2292,
      "Ġbajar": 2293,
      "CartVO": 2294,
      "жете": 2295,
      "ĠPosterior": 2296,
      "Ġиспо": 2297,
      "gres": 2298,
      "ĠGoo": 2299,
      "INFRINGEMENT": 2300,
      "FreeFlag": 2301,
      "Wel": 2302,
      "Whole": 2303,
      "gub": 2304,
      "Ġtrist": 2305,
      "inaan": 2306,
      "Ġbamb": 2307,
      "ĠMem": 2308,
      "واع": 2309,
      "zun": 2310,
      "Ordenar": 2311,
      "plier": 2312,
      "ębior": 2313,
      "Ġعلام": 2314,
      "τικός": 2315,
      "Prov": 2316,
      "ĠGould": 2317,
      "eleave": 2318,
      "ĠNLRP": 2319,
      "mouseleave": 2320,
      "unciation": 2321,
      "Ġги": 2322,
      "odef": 2323,
      "abv": 2324,
      "Ġvivid": 2325,
      "ictionaries": 2326,
      "govor": 2327,
      "niem": 2328,
      "urkan": 2329,
      "illette": 2330,
      "Ġmatemat": 2331,
      "Render": 2332,
      "Ġplex": 2333,
      "принима": 2334,
      "јединачна": 2335,
      "Ġизме": 2336,
      "Ġдву": 2337,
      "AMERA": 2338,
      "ausch": 2339,
      "ippet": 2340,
      "Ġreput": 2341,
      "ĠWarriors": 2342,
      "Ġከፍተኛ": 2343,
      "ĠErf": 2344,
      "ceau": 2345,
      "adone": 2346,
      "prong": 2347,
      "SdkError": 2348,
      "Ġelytris": 2349,
      "oprec": 2350,
      "wiście": 2351,
      "invoke": 2352,
      "atuur": 2353,
      "ANY": 2354,
      "ٹین": 2355,
      "arev": 2356,
      "ansi": 2357,
      "Ġholen": 2358,
      "ĠfieldValue": 2359,
      "turkish": 2360,
      "Maur": 2361,
      "ĠDise": 2362,
      "ĠAAC": 2363,
      "amaged": 2364,
      "upid": 2365,
      "ularly": 2366,
      "colour": 2367,
      "ĠAgg": 2368,
      "URATION": 2369,
      "inne": 2370,
      "pportunities": 2371,
      "orkel": 2372,
      "ienz": 2373,
      "Ġfragment": 2374,
      "acki": 2375,
      "achten": 2376,
      "Ġscre": 2377,
      "тельные": 2378,
      "Ġlanthan": 2379,
      "ConsecHtIdx": 2380,
      "arote": 2381,
      "ĠManish": 2382,
      "ications": 2383,
      "ĠProceed": 2384,
      "Ġszyb": 2385,
      "ilirsiniz": 2386,
      "ebilirsiniz": 2387,
      "Ġpož": 2388,
      "êter": 2389,
      "boolean": 2390,
      "issary": 2391,
      "Ġdelà": 2392,
      "érience": 2393,
      "Ġframe": 2394,
      "Ġconsecut": 2395,
      "adamente": 2396,
      "Drone": 2397,
      "ネック": 2398,
      "dll": 2399,
      "cuno": 2400,
      "abetic": 2401,
      "ĠCrunch": 2402,
      "الد": 2403,
      "μορ": 2404,
      "Ġsoy": 2405,
      "ĠPCC": 2406,
      "лев": 2407,
      "ĠBitt": 2408,
      "erequisites": 2409,
      "pine": 2410,
      "koj": 2411,
      "lastIndexOf": 2412,
      "Ġуто": 2413,
      "inded": 2414,
      "voc": 2415,
      "Ġglobal": 2416,
      "ĠLinear": 2417,
      "AttributeInfo": 2418,
      "lden": 2419,
      "ĠMek": 2420,
      "Ġodpad": 2421,
      "LISH": 2422,
      "ipage": 2423,
      "тек": 2424,
      "gespr": 2425,
      "ĠCrom": 2426,
      "Ġscrot": 2427,
      "altime": 2428,
      "imodal": 2429,
      "routine": 2430,
      "sene": 2431,
      "ĠdoGet": 2432,
      "oryt": 2433,
      "erships": 2434,
      "خستان": 2435,
      "RationalValue": 2436,
      "Ġشاه": 2437,
      "katore": 2438,
      "ĠVIA": 2439,
      "Ġurldecode": 2440,
      "ĠArias": 2441,
      "stretched": 2442,
      "prentices": 2443,
      "Ġmyogenic": 2444,
      "antry": 2445,
      "Ġفات": 2446,
      "Intro": 2447,
      "kör": 2448,
      "cule": 2449,
      "daten": 2450,
      "Ġéx": 2451,
      "DarkMode": 2452,
      "Ġposuere": 2453,
      "Ġfaucibus": 2454,
      "ĠQuadrupèdes": 2455,
      "Ġfringilla": 2456,
      "ĠPach": 2457,
      "LookAndFeel": 2458,
      "gray": 2459,
      "osz": 2460,
      "uangan": 2461,
      "SpriteCollision": 2462,
      "ĠSchott": 2463,
      "Ġmetaphys": 2464,
      "Ġfict": 2465,
      "kich": 2466,
      "iForgery": 2467,
      "Ġtolu": 2468,
      "AntiForgery": 2469,
      "mq": 2470,
      "тной": 2471,
      "unist": 2472,
      "Ġcari": 2473,
      "carlo": 2474,
      "Ġтеркәлүсез": 2475,
      "ĠMaya": 2476,
      "ادار": 2477,
      "ĠSeph": 2478,
      "exists": 2479,
      "ủy": 2480,
      "appList": 2481,
      "ĠCors": 2482,
      "Ġreleg": 2483,
      "inputSelect": 2484,
      "uenza": 2485,
      "чним": 2486,
      "Azur": 2487,
      "ůli": 2488,
      "Ġpropiet": 2489,
      "ĠFontaine": 2490,
      "Bing": 2491,
      "ĠNast": 2492,
      "ĠPutnam": 2493,
      "ĠBech": 2494,
      "đen": 2495,
      "cijas": 2496,
      "ĠDecoding": 2497,
      "แนน": 2498,
      "ĠminY": 2499,
      "Ġريا": 2500,
      "Ġmenem": 2501,
      "ĠGazette": 2502,
      "Ġembr": 2503,
      "ĠCompar": 2504,
      "WS": 2505,
      "orna": 2506,
      "oksatta": 2507,
      "Ġdais": 2508,
      "kari": 2509,
      "ĠAMA": 2510,
      "ĠAMAZ": 2511,
      "Ġâ": 2512,
      "essment": 2513,
      "itchie": 2514,
      "Snackbar": 2515,
      "нцикло": 2516,
      "снов": 2517,
      "Ġprefab": 2518,
      "Ġrepeat": 2519,
      "итай": 2520,
      "ريكي": 2521,
      "Ġultimi": 2522,
      "ĠHUOBI": 2523,
      "ĠShuang": 2524,
      "Logged": 2525,
      "Ġgutter": 2526,
      "Ġhippocamp": 2527,
      "Implemented": 2528,
      "ĠВол": 2529,
      "pection": 2530,
      "бовать": 2531,
      "Ġсдела": 2532,
      "чы": 2533,
      "ĠElo": 2534,
      "Ġсово": 2535,
      "ĠJosephine": 2536,
      "Ġcondiment": 2537,
      "Ġкүз": 2538,
      "ĠChateau": 2539,
      "WithSize": 2540,
      "бург": 2541,
      "不知道": 2542,
      "Ġultime": 2543,
      "ovariant": 2544,
      "PostConstruct": 2545,
      "ansh": 2546,
      "emain": 2547,
      "WindowEvent": 2548,
      "cientes": 2549,
      "ስብ": 2550,
      "ብስብ": 2551,
      "ĠCros": 2552,
      "Ġmatem": 2553,
      "Ġшам": 2554,
      "icycl": 2555,
      "ionato": 2556,
      "فاظ": 2557,
      "Ġrepub": 2558,
      "Ġpump": 2559,
      "Ġeste": 2560,
      "Drive": 2561,
      "Ġerrone": 2562,
      "AllCaps": 2563,
      "aises": 2564,
      "сар": 2565,
      "ĠactiveButton": 2566,
      "كمل": 2567,
      "Ġبیمار": 2568,
      "Uuid": 2569,
      "Ġbyd": 2570,
      "ĠGladys": 2571,
      "vili": 2572,
      "Ġllama": 2573,
      "بلغ": 2574,
      "Particip": 2575,
      "ież": 2576,
      "ĠКазах": 2577,
      "aptan": 2578,
      "Ġplaît": 2579,
      "Ġdrog": 2580,
      "toi": 2581,
      "msp": 2582,
      "Brain": 2583,
      "Ġcontact": 2584,
      "ascimento": 2585,
      "creen": 2586,
      "ĠMosk": 2587,
      "бно": 2588,
      "Utf": 2589,
      "Ġsail": 2590,
      "ortes": 2591,
      "ĠrootCmd": 2592,
      "Ġthese": 2593,
      "ĠgetDateTime": 2594,
      "âche": 2595,
      "Ġgegen": 2596,
      "othermal": 2597,
      "лайте": 2598,
      "HasFieldError": 2599,
      "SegmentInfo": 2600,
      "Ġcitric": 2601,
      "Buk": 2602,
      "ĠselectTable": 2603,
      "Ġεπί": 2604,
      "érard": 2605,
      "ĠGenius": 2606,
      "Ġneighbor": 2607,
      "DamageTook": 2608,
      "gador": 2609,
      "etera": 2610,
      "REGI": 2611,
      "ĠBam": 2612,
      "Ġév": 2613,
      "Ġtsy": 2614,
      "گذار": 2615,
      "Ġstret": 2616,
      "uncio": 2617,
      "daction": 2618,
      "ыл": 2619,
      "Ġжыл": 2620,
      "ряда": 2621,
      "ĠMedford": 2622,
      "ĠCaed": 2623,
      "pupp": 2624,
      "도시": 2625,
      "신도시": 2626,
      "Ġvra": 2627,
      "ĠCMake": 2628,
      "ifiques": 2629,
      "ĠOuv": 2630,
      "ishments": 2631,
      "Ġکیف": 2632,
      "โท": 2633,
      "ĠDunne": 2634,
      "igus": 2635,
      "athered": 2636,
      "Ġdoubt": 2637,
      "yrinth": 2638,
      "Ġallez": 2639,
      "بوط": 2640,
      "جراء": 2641,
      "android": 2642,
      "Ġneque": 2643,
      "egra": 2644,
      "deos": 2645,
      "ĠonCreate": 2646,
      "maya": 2647,
      "সময়": 2648,
      "Ġsomet": 2649,
      "cmp": 2650,
      "ĠYugoslav": 2651,
      "Ġonc": 2652,
      "Ġжелез": 2653,
      "ERICAN": 2654,
      "buje": 2655,
      "Ġais": 2656,
      "swick": 2657,
      "myer": 2658,
      "orphism": 2659,
      "Ġoub": 2660,
      "jai": 2661,
      "πον": 2662,
      "ĠRhoda": 2663,
      "iaio": 2664,
      "ĠAssay": 2665,
      "ĠThemeOverlay": 2666,
      "rà": 2667,
      "Ġгер": 2668,
      "ライン": 2669,
      "CHANT": 2670,
      "Creation": 2671,
      "inie": 2672,
      "Ġперио": 2673,
      "بوب": 2674,
      "iratory": 2675,
      "oticons": 2676,
      "ampaikan": 2677,
      "upo": 2678,
      "maal": 2679,
      "ctic": 2680,
      "ĠFerrer": 2681,
      "antos": 2682,
      "enl": 2683,
      "coes": 2684,
      "ĠValid": 2685,
      "ĠNation": 2686,
      "ystate": 2687,
      "ĠStrickland": 2688,
      "тый": 2689,
      "Ġبەر": 2690,
      "Ġرم": 2691,
      "ĠChild": 2692,
      "Ġquy": 2693,
      "ουσ": 2694,
      "oloč": 2695,
      "ramient": 2696,
      "comfort": 2697,
      "ブラン": 2698,
      "bleau": 2699,
      "VALID": 2700,
      "Dale": 2701,
      "czną": 2702,
      "forName": 2703,
      "nikova": 2704,
      "Ġанали": 2705,
      "ĠClo": 2706,
      "ĠRèg": 2707,
      "ĠMadagascar": 2708,
      "Ġimpec": 2709,
      "itre": 2710,
      "ystery": 2711,
      "ĠRish": 2712,
      "Ġwak": 2713,
      "ائج": 2714,
      "ágina": 2715,
      "メント": 2716,
      "Ġzahl": 2717,
      "ĠWilmington": 2718,
      "RDD": 2719,
      "amag": 2720,
      "Ġsélection": 2721,
      "Ġdover": 2722,
      "walla": 2723,
      "itett": 2724,
      "Ġabar": 2725,
      "HttpRequest": 2726,
      "цит": 2727,
      "ментов": 2728,
      "ĠПроцит": 2729,
      "ĠПроцитовано": 2730,
      "зидента": 2731,
      "ĠelevationMap": 2732,
      "ĠRocket": 2733,
      "horizontal": 2734,
      "Ġتضيف": 2735,
      "addy": 2736,
      "stantial": 2737,
      "irce": 2738,
      "agnie": 2739,
      "Ġотвеча": 2740,
      "BERS": 2741,
      "Ġserre": 2742,
      "ĠCarbide": 2743,
      "velle": 2744,
      "ĠKP": 2745,
      "anii": 2746,
      "ĠRoxy": 2747,
      "будь": 2748,
      "iquée": 2749,
      "SER": 2750,
      "entemente": 2751,
      "Ġinstance": 2752,
      "acol": 2753,
      "cellular": 2754,
      "ĠStoke": 2755,
      "ĠCred": 2756,
      "oauth": 2757,
      "Ġnant": 2758,
      "inement": 2759,
      "ĠGerrit": 2760,
      "ĠNOT": 2761,
      "Ġофисында": 2762,
      "Ġодному": 2763,
      "ĠPediat": 2764,
      "станови": 2765,
      "owo": 2766,
      "ĠsymbolName": 2767,
      "Ġnor": 2768,
      "ĠGram": 2769,
      "score": 2770,
      "ĠConsultado": 2771,
      "Ġersche": 2772,
      "ٹری": 2773,
      "Private": 2774,
      "Ġizquier": 2775,
      "Ġانقل": 2776,
      "ссия": 2777,
      "KERN": 2778,
      "тэ": 2779,
      "vaise": 2780,
      "тэй": 2781,
      "oyant": 2782,
      "ĠDSS": 2783,
      "ĠPBC": 2784,
      "alho": 2785,
      "Ġہندو": 2786,
      "Ġmanifestó": 2787,
      "oldt": 2788,
      "Ġprecincts": 2789,
      "kais": 2790,
      "AWS": 2791,
      "ifford": 2792,
      "ĠHickman": 2793,
      "ourcing": 2794,
      "Symbol": 2795,
      "ibrant": 2796,
      "Ġфилосо": 2797,
      "ropshire": 2798,
      "спа": 2799,
      "Ġstockbild": 2800,
      "cum": 2801,
      "Ġcombin": 2802,
      "areth": 2803,
      "Ġكوساين": 2804,
      "lius": 2805,
      "ydia": 2806,
      "ĠWoo": 2807,
      "atori": 2808,
      "вершена": 2809,
      "Sheets": 2810,
      "chutz": 2811,
      "говори": 2812,
      "Ġverfü": 2813,
      "ĠMourinho": 2814,
      "Ġvå": 2815,
      "ĠCroydon": 2816,
      "ĠpopupButton": 2817,
      "etin": 2818,
      "Ġoverhe": 2819,
      "ĠSomali": 2820,
      "купа": 2821,
      "ismic": 2822,
      "治区": 2823,
      "自治区": 2824,
      "ńska": 2825,
      "Sharma": 2826,
      "ammad": 2827,
      "QG": 2828,
      "ĠCQG": 2829,
      "Ġtrain": 2830,
      "ĠEstelle": 2831,
      "Ġdeğişik": 2832,
      "Ġفوتب": 2833,
      "lists": 2834,
      "Ġзащ": 2835,
      "iende": 2836,
      "sect": 2837,
      "ĠPalestinians": 2838,
      "ссив": 2839,
      "öhe": 2840,
      "Radi": 2841,
      "fonte": 2842,
      "ĠMcMillan": 2843,
      "Ġsieht": 2844,
      "lägg": 2845,
      "вых": 2846,
      "Ġjól": 2847,
      "Ġipv": 2848,
      "gain": 2849,
      "ibri": 2850,
      "Ġsalió": 2851,
      "ĠRaw": 2852,
      "ĠGuten": 2853,
      "iculares": 2854,
      "dert": 2855,
      "Ġдостав": 2856,
      "Ġstră": 2857,
      "spider": 2858,
      "mmol": 2859,
      "Ġрегу": 2860,
      "habi": 2861,
      "Ġetiqu": 2862,
      "pregn": 2863,
      "Ġgrantor": 2864,
      "Ġdemok": 2865,
      "AAAAAAAA": 2866,
      "rimination": 2867,
      "NOWLEDG": 2868,
      "ĠElwood": 2869,
      "verton": 2870,
      "Ġköt": 2871,
      "也是": 2872,
      "getRow": 2873,
      "ĠgetUser": 2874,
      "fring": 2875,
      "ização": 2876,
      "Ġинстру": 2877,
      "ouflage": 2878,
      "Ġtrak": 2879,
      "Ġহ": 2880,
      "Ġmonoch": 2881,
      "ĠДмитрий": 2882,
      "abela": 2883,
      "ĠCBL": 2884,
      "Ġannihil": 2885,
      "тную": 2886,
      "λούν": 2887,
      "Ġfog": 2888,
      "ĠBany": 2889,
      "PV": 2890,
      "drá": 2891,
      "ĠHPV": 2892,
      "springen": 2893,
      "ĠTurkmen": 2894,
      "ĠUtt": 2895,
      "ĠVillarreal": 2896,
      "Mel": 2897,
      "BOSE": 2898,
      "Insight": 2899,
      "ثناء": 2900,
      "Ġanns": 2901,
      "ĠNau": 2902,
      "ĠHarrow": 2903,
      "линд": 2904,
      "γκ": 2905,
      "ĠSidd": 2906,
      "ivum": 2907,
      "มตร": 2908,
      "ĠConnect": 2909,
      "Permission": 2910,
      "ĠKoval": 2911,
      "ätte": 2912,
      "ĠFerreira": 2913,
      "UTURE": 2914,
      "Ġください": 2915,
      "Ġelim": 2916,
      "ENCIA": 2917,
      "ĠOrm": 2918,
      "ĠATM": 2919,
      "oncesto": 2920,
      "ĠToni": 2921,
      "effect": 2922,
      "<0x41>": 2923,
      "anine": 2924,
      "ĠYatha": 2925,
      "Ġiht": 2926,
      "DIC": 2927,
      "тни": 2928,
      "ĠChun": 2929,
      "illance": 2930,
      "ĠDickens": 2931,
      "Ġidé": 2932,
      "Ġđình": 2933,
      "meldung": 2934,
      "ĠMcGee": 2935,
      "щая": 2936,
      "ĠHampshire": 2937,
      "Ġуважаемые": 2938,
      "ском": 2939,
      "Ġconcern": 2940,
      "ĠPCE": 2941,
      "oppel": 2942,
      "Ġcillum": 2943,
      "ประก": 2944,
      "upiter": 2945,
      "ĠbaseApiPath": 2946,
      "brite": 2947,
      "cks": 2948,
      "Ġcrimin": 2949,
      "Ġجیس": 2950,
      "oggi": 2951,
      "minton": 2952,
      "Global": 2953,
      "Ġarist": 2954,
      "HIV": 2955,
      "Ġlepton": 2956,
      "Ġквітня": 2957,
      "基督": 2958,
      "Ġпреду": 2959,
      "基督教": 2960,
      "iena": 2961,
      "OMO": 2962,
      "ureau": 2963,
      "SeekBar": 2964,
      "segu": 2965,
      "ĠCOMMUN": 2966,
      "Ġspok": 2967,
      "ichester": 2968,
      "ĠChichester": 2969,
      "ünkü": 2970,
      "Strict": 2971,
      "igion": 2972,
      "oload": 2973,
      "ĠRap": 2974,
      "naf": 2975,
      "PLACE": 2976,
      "indo": 2977,
      "Ġistedi": 2978,
      "ĠVivian": 2979,
      "Ġللح": 2980,
      "idays": 2981,
      "outube": 2982,
      "ĠKiz": 2983,
      "enderung": 2984,
      "Ġdisorderly": 2985,
      "зде": 2986,
      "OPE": 2987,
      "ĠTracey": 2988,
      "嬉しい": 2989,
      "Ġchau": 2990,
      "zięki": 2991,
      "ĠCBA": 2992,
      "atherine": 2993,
      "ĠFeh": 2994,
      "Ġbunker": 2995,
      "ĠCarth": 2996,
      "idf": 2997,
      "oyloxy": 2998,
      "Ġhint": 2999,
      "Ġჩ": 3000,
      "getElement": 3001,
      "Ġڅنګه": 3002,
      "InputStream": 3003,
      "óln": 3004,
      "ĠMillie": 3005,
      "ĠVirgil": 3006,
      "velop": 3007,
      "gna": 3008,
      "uket": 3009,
      "Ġsemelh": 3010,
      "ĠaDict": 3011,
      "Callories": 3012,
      "Ġbootstra": 3013,
      "vegarde": 3014,
      "Ġönce": 3015,
      "Ġmos": 3016,
      "Ġquinqu": 3017,
      "okhlov": 3018,
      "Ġقط": 3019,
      "いいね": 3020,
      "ĠÉ": 3021,
      "Ġلله": 3022,
      "сиз": 3023,
      "ĠDodd": 3024,
      "atars": 3025,
      "ĠClemson": 3026,
      "ĠBelarus": 3027,
      "gung": 3028,
      "ĠHors": 3029,
      "ĠGreenhouse": 3030,
      "Popen": 3031,
      "Ġkren": 3032,
      "лава": 3033,
      "све": 3034,
      "ĠOutput": 3035,
      "elman": 3036,
      "icur": 3037,
      "Ġشخص": 3038,
      "втор": 3039,
      "SBOM": 3040,
      "ძლი": 3041,
      "Ġbelang": 3042,
      "Ġaldehyde": 3043,
      "chyma": 3044,
      "igian": 3045,
      "Ġyake": 3046,
      "Ġcrim": 3047,
      "ĠDoom": 3048,
      "PUBL": 3049,
      "ĠDENUM": 3050,
      "ĠDENUMIRE": 3051,
      "rored": 3052,
      "myCollision": 3053,
      "Mongo": 3054,
      "τέρα": 3055,
      "Ġremis": 3056,
      "ICEF": 3057,
      "Ġnamani": 3058,
      "Ġspy": 3059,
      "UpInside": 3060,
      "ñana": 3061,
      "ibrary": 3062,
      "ходим": 3063,
      "ĠJohnstone": 3064,
      "Ġસમ": 3065,
      "ців": 3066,
      "Ġparameter": 3067,
      "dain": 3068,
      "Ġleaf": 3069,
      "Ġlaborum": 3070,
      "Ġkez": 3071,
      "Ġdormancy": 3072,
      "valueOf": 3073,
      "Ġстати": 3074,
      "ĠIOException": 3075,
      "Ġedeb": 3076,
      "ĠKeane": 3077,
      "ĠDial": 3078,
      "כות": 3079,
      "itText": 3080,
      "Ġثلاث": 3081,
      "Ġintuit": 3082,
      "Listen": 3083,
      "ĠAPC": 3084,
      "Ġverhind": 3085,
      "dip": 3086,
      "tensor": 3087,
      "ĠPROC": 3088,
      "Ġswirls": 3089,
      "ĠListNode": 3090,
      "unehmen": 3091,
      "Ġkest": 3092,
      "Ġไ": 3093,
      "sdale": 3094,
      "ĠNoy": 3095,
      "を実": 3096,
      "ximation": 3097,
      "тово": 3098,
      "ندي": 3099,
      "Single": 3100,
      "LAY": 3101,
      "ĠReinhold": 3102,
      "ettamente": 3103,
      "slideClass": 3104,
      "Ġمطرح": 3105,
      "oteric": 3106,
      "ĠНе": 3107,
      "Ġbifurcation": 3108,
      "eae": 3109,
      "ruce": 3110,
      "ĠSUNY": 3111,
      "ĠIBA": 3112,
      "populations": 3113,
      "літи": 3114,
      "Ġintest": 3115,
      "ĠKuh": 3116,
      "custom": 3117,
      "Ġontwikk": 3118,
      "ackBar": 3119,
      "uismod": 3120,
      "Ġeuismod": 3121,
      "NuGet": 3122,
      "vang": 3123,
      "Ġmurd": 3124,
      "オーク": 3125,
      "ifdef": 3126,
      "Ġgeomet": 3127,
      "onite": 3128,
      "FindAction": 3129,
      "ĠArmand": 3130,
      "ExprNode": 3131,
      "İY": 3132,
      "Ġподо": 3133,
      "zab": 3134,
      "Ġinan": 3135,
      "ĠJub": 3136,
      "iegler": 3137,
      "Ġadhik": 3138,
      "Ġeyew": 3139,
      "Ġfold": 3140,
      "ĠHabs": 3141,
      "widgetTo": 3142,
      "service": 3143,
      "Ġlah": 3144,
      "რის": 3145,
      "Ġmezz": 3146,
      "initi": 3147,
      "ĠIGF": 3148,
      "ekw": 3149,
      "Ġaustenite": 3150,
      "Ġparse": 3151,
      "JAV": 3152,
      "ornos": 3153,
      "Ġвек": 3154,
      "Ġripar": 3155,
      "ĠLaird": 3156,
      "ĠbaseHP": 3157,
      "лены": 3158,
      "Litt": 3159,
      "Ġprospect": 3160,
      "ווע": 3161,
      "ában": 3162,
      "ĠHus": 3163,
      "Ġmát": 3164,
      "ひと": 3165,
      "Ġللان": 3166,
      "Ġwytr": 3167,
      "ĠStaffordshire": 3168,
      "Erik": 3169,
      "MediaPath": 3170,
      "partite": 3171,
      "Ġsludge": 3172,
      "Ġbons": 3173,
      "estamps": 3174,
      "orsese": 3175,
      "irov": 3176,
      "ĠFarr": 3177,
      "プロ": 3178,
      "iosis": 3179,
      "Ġډ": 3180,
      "ĠMosc": 3181,
      "ModelComponent": 3182,
      "Ġtypedef": 3183,
      "Примеча": 3184,
      "ĠAudi": 3185,
      "inios": 3186,
      "ĠTAE": 3187,
      "Ġmete": 3188,
      "āya": 3189,
      "SELS": 3190,
      "Ġgib": 3191,
      "Ġstubb": 3192,
      "Arabic": 3193,
      "Ġstubborn": 3194,
      "Ġdaz": 3195,
      "orpions": 3196,
      "ĠMerkel": 3197,
      "yeong": 3198,
      "Ġالمثلثيه": 3199,
      "Ġtown": 3200,
      "Ġoce": 3201,
      "Indexs": 3202,
      "ĠAudrey": 3203,
      "ĠrenderEncoder": 3204,
      "Vecchio": 3205,
      "сім": 3206,
      "Ġvatth": 3207,
      "ĠThi": 3208,
      "owych": 3209,
      "Ġprove": 3210,
      "Psal": 3211,
      "かなか": 3212,
      "Ġinvari": 3213,
      "amina": 3214,
      "burgo": 3215,
      "ffe": 3216,
      "Ġامریک": 3217,
      "essori": 3218,
      "ARIES": 3219,
      "Ġxen": 3220,
      "Ġlângă": 3221,
      "ĠAbr": 3222,
      "romeda": 3223,
      "Ġseab": 3224,
      "Ġbec": 3225,
      "embang": 3226,
      "Pax": 3227,
      "ĠGalois": 3228,
      "Ġobi": 3229,
      "isance": 3230,
      "inputenc": 3231,
      "زاء": 3232,
      "стров": 3233,
      "Ġassi": 3234,
      "mino": 3235,
      "InterfaceLine": 3236,
      "edly": 3237,
      "önig": 3238,
      "Ġranc": 3239,
      "ĠRibeiro": 3240,
      "Ġđáo": 3241,
      "oubt": 3242,
      "oprote": 3243,
      "ĠBaird": 3244,
      "Boot": 3245,
      "ayon": 3246,
      "ревнования": 3247,
      "fant": 3248,
      "ouvrir": 3249,
      "Ġantioxid": 3250,
      "Ġmilj": 3251,
      "ĠTech": 3252,
      "oxal": 3253,
      "Ġchiế": 3254,
      "Ġhatch": 3255,
      "Ġплат": 3256,
      "stood": 3257,
      "itik": 3258,
      "Ġرکھتی": 3259,
      "plots": 3260,
      "ラム": 3261,
      "Ġepidemi": 3262,
      "CONCLUS": 3263,
      "ĠVenezuel": 3264,
      "जनक": 3265,
      "Ġdisf": 3266,
      "Comb": 3267,
      "ĠVerenig": 3268,
      "Ġgelir": 3269,
      "ĠGöttingen": 3270,
      "esinde": 3271,
      "уго": 3272,
      "पहरण": 3273,
      "Ġtransdu": 3274,
      "Ġzhī": 3275,
      "ającej": 3276,
      "utches": 3277,
      "ĠNPC": 3278,
      "ませんが": 3279,
      "Ġdissatisf": 3280,
      "Ġhaut": 3281,
      "STRING": 3282,
      "qid": 3283,
      "arów": 3284,
      "Ġastronom": 3285,
      "ĠVance": 3286,
      "Ġхристиан": 3287,
      "BEDATUM": 3288,
      "ĠCBT": 3289,
      "ciu": 3290,
      "HEP": 3291,
      "ziała": 3292,
      "kter": 3293,
      "Ġparturient": 3294,
      "Ġkel": 3295,
      "endere": 3296,
      "ofe": 3297,
      "ĠWhitney": 3298,
      "сування": 3299,
      "Ġتقری": 3300,
      "inderella": 3301,
      "Ġdichlor": 3302,
      "ĠKan": 3303,
      "gm": 3304,
      "gmzy": 3305,
      "abatic": 3306,
      "ĠPalma": 3307,
      "ĠAlbion": 3308,
      "Ġskept": 3309,
      "ĠJew": 3310,
      "schitz": 3311,
      "worthy": 3312,
      "ĠLipschitz": 3313,
      "gin": 3314,
      "jski": 3315,
      "ĠVann": 3316,
      "Ġlabbhati": 3317,
      "Ġwave": 3318,
      "irati": 3319,
      "idores": 3320,
      "umam": 3321,
      "imageColour": 3322,
      "нете": 3323,
      "ĠRCS": 3324,
      "ĠYanke": 3325,
      "ĠSY": 3326,
      "ĠactivityTO": 3327,
      "IPP": 3328,
      "فض": 3329,
      "Ġsubpo": 3330,
      "UKI": 3331,
      "Cel": 3332,
      "Ġdoor": 3333,
      "ój": 3334,
      "Ġaplik": 3335,
      "uddin": 3336,
      "ĠDataTypes": 3337,
      "Ġбукме": 3338,
      "preliquidacion": 3339,
      "ĠЛей": 3340,
      "ĠWestbrook": 3341,
      "awat": 3342,
      "OGRAPH": 3343,
      "Ġориги": 3344,
      "განი": 3345,
      "ĠZug": 3346,
      "lada": 3347,
      "Ġarte": 3348,
      "Ġsimilar": 3349,
      "Ġpayog": 3350,
      "buildSpec": 3351,
      "っていた": 3352,
      "ĠEBS": 3353,
      "textepsilon": 3354,
      "omens": 3355,
      "rizzle": 3356,
      "agway": 3357,
      "Ġsobri": 3358,
      "ĠPDC": 3359,
      "ĠАн": 3360,
      "Ġelectron": 3361,
      "Ġđi": 3362,
      "ussed": 3363,
      "Ġdisinf": 3364,
      "ĠBehav": 3365,
      "ĠGCSE": 3366,
      "flux": 3367,
      "менту": 3368,
      "Ġpolyt": 3369,
      "Ġgenu": 3370,
      "Ġexcess": 3371,
      "nega": 3372,
      "Ġايه": 3373,
      "ilbert": 3374,
      "empo": 3375,
      "Ġcabin": 3376,
      "Ġstrept": 3377,
      "uberc": 3378,
      "ánto": 3379,
      "createSprite": 3380,
      "ubercul": 3381,
      "Ġچھ": 3382,
      "Ġwnios": 3383,
      "ĠNatal": 3384,
      "ποιη": 3385,
      "Ġrupp": 3386,
      "ufu": 3387,
      "íveis": 3388,
      "URNS": 3389,
      "haf": 3390,
      "рто": 3391,
      "рети": 3392,
      "Ġhoud": 3393,
      "ający": 3394,
      "endix": 3395,
      "ceme": 3396,
      "Ġimmedi": 3397,
      "means": 3398,
      "gare": 3399,
      "طور": 3400,
      "Ġeco": 3401,
      "INCT": 3402,
      "Ġinflection": 3403,
      "ponent": 3404,
      "чайно": 3405,
      "ĠPortman": 3406,
      "ukup": 3407,
      "ција": 3408,
      "ĠShahid": 3409,
      "nica": 3410,
      "istungen": 3411,
      "lero": 3412,
      "ĠFranch": 3413,
      "Polynucleaires": 3414,
      "ĠEnglishChoose": 3415,
      "えると": 3416,
      "Ġграду": 3417,
      "ntilde": 3418,
      "ĠHodge": 3419,
      "Ġtég": 3420,
      "ĠKru": 3421,
      "Ġрасс": 3422,
      "ĠCPD": 3423,
      "Ġstrugg": 3424,
      "Ġgeo": 3425,
      "Ġگفت": 3426,
      "ĠBxg": 3427,
      "dbContext": 3428,
      "ĠCUR": 3429,
      "ĠEditor": 3430,
      "hutang": 3431,
      "DMA": 3432,
      "dumb": 3433,
      "usian": 3434,
      "Ġالموا": 3435,
      "Ġmonogram": 3436,
      "rocessing": 3437,
      "initions": 3438,
      "Ġterritor": 3439,
      "éder": 3440,
      "Ġfas": 3441,
      "Ġinh": 3442,
      "נע": 3443,
      "meida": 3444,
      "omyel": 3445,
      "נען": 3446,
      "ĠCohen": 3447,
      "ukun": 3448,
      "ĠBaldwin": 3449,
      "өнья": 3450,
      "ĠQuot": 3451,
      "anganese": 3452,
      "SPE": 3453,
      "currentComponent": 3454,
      "Ġالمصفوفه": 3455,
      "OKR": 3456,
      "Ġacompan": 3457,
      "QueueRoot": 3458,
      "ĠNadia": 3459,
      "Ġduž": 3460,
      "Ġterv": 3461,
      "GUND": 3462,
      "mias": 3463,
      "れない": 3464,
      "Ġавтоматлары": 3465,
      "amh": 3466,
      "Ġparad": 3467,
      "onding": 3468,
      "Ġzásob": 3469,
      "bia": 3470,
      "ajas": 3471,
      "бро": 3472,
      "Ġproces": 3473,
      "ώσ": 3474,
      "ngl": 3475,
      "ĠQuick": 3476,
      "Ġmathemat": 3477,
      "ведения": 3478,
      "ulumi": 3479,
      "VSFAULT": 3480,
      "ĠRaton": 3481,
      "Ġсодержа": 3482,
      "wString": 3483,
      "ĠHfn": 3484,
      "ielsen": 3485,
      "खम": 3486,
      "मखम": 3487,
      "arras": 3488,
      "Ġदमखम": 3489,
      "syringe": 3490,
      "algebras": 3491,
      "itimate": 3492,
      "чени": 3493,
      "êng": 3494,
      "entro": 3495,
      "Ġwspółp": 3496,
      "Ġმან": 3497,
      "Ġsputum": 3498,
      "ویت": 3499,
      "Ġlid": 3500,
      "Ġالسم": 3501,
      "ак": 3502,
      "šku": 3503,
      "roff": 3504,
      "Ġاظ": 3505,
      "личие": 3506,
      "ToReference": 3507,
      "يبه": 3508,
      "devkit": 3509,
      "management": 3510,
      "portál": 3511,
      "Ġgeï": 3512,
      "მატ": 3513,
      "ulina": 3514,
      "ĠLil": 3515,
      "市场": 3516,
      "isRunning": 3517,
      "velte": 3518,
      "Ġصلاح": 3519,
      "ことを": 3520,
      "Ġita": 3521,
      "дных": 3522,
      "Ġدلو": 3523,
      "Ġitaque": 3524,
      "ĠDaisy": 3525,
      "thati": 3526,
      "ĠEesti": 3527,
      "iconductor": 3528,
      "лень": 3529,
      "Generator": 3530,
      "عمال": 3531,
      "edience": 3532,
      "бами": 3533,
      "itements": 3534,
      "Ġmengaj": 3535,
      "торин": 3536,
      "rewsbury": 3537,
      "faceted": 3538,
      "ĠVic": 3539,
      "mason": 3540,
      "coff": 3541,
      "ĠSinclair": 3542,
      "ĠGant": 3543,
      "WebKit": 3544,
      "RIOT": 3545,
      "rayal": 3546,
      "csv": 3547,
      "Ġlectus": 3548,
      "ствую": 3549,
      "ющей": 3550,
      "acent": 3551,
      "ANDE": 3552,
      "entuan": 3553,
      "aroos": 3554,
      "chman": 3555,
      "ilevel": 3556,
      "ArgsConstructor": 3557,
      "aitement": 3558,
      "rasında": 3559,
      "Ġnotched": 3560,
      "Ġجديد": 3561,
      "ubon": 3562,
      "egang": 3563,
      "PCA": 3564,
      "ĠAkbar": 3565,
      "ĠADR": 3566,
      "ractions": 3567,
      "Ġsuccumb": 3568,
      "Ġएस": 3569,
      "ĠGwen": 3570,
      "ĠNurs": 3571,
      "Ġстать": 3572,
      "Ġminify": 3573,
      "astudio": 3574,
      "წინ": 3575,
      "ĠSDP": 3576,
      "Ġرجسٹ": 3577,
      "ĠTiki": 3578,
      "Singolare": 3579,
      "ısıyla": 3580,
      "ĠTunisia": 3581,
      "DispatchRequest": 3582,
      "wad": 3583,
      "ĠShan": 3584,
      "Ġabd": 3585,
      "Ġgird": 3586,
      "торе": 3587,
      "leans": 3588,
      "shake": 3589,
      "Ġجوړونک": 3590,
      "Ġgiornata": 3591,
      "Ġwechsel": 3592,
      "ĠCanton": 3593,
      "screw": 3594,
      "Ġafterlife": 3595,
      "jane": 3596,
      "ĠMDA": 3597,
      "QTT": 3598,
      "ĠРей": 3599,
      "Ġ문": 3600,
      "Ġdyn": 3601,
      "Ġ문제": 3602,
      "Ġאח": 3603,
      "DLE": 3604,
      "ſs": 3605,
      "цу": 3606,
      "neſs": 3607,
      "Ġканце": 3608,
      "ĠCedex": 3609,
      "Ġkonz": 3610,
      "attuv": 3611,
      "attuvasena": 3612,
      "Prec": 3613,
      "ĠRowling": 3614,
      "ĠTRANS": 3615,
      "ĠngOnInit": 3616,
      "ContentTypes": 3617,
      "eged": 3618,
      "Ġinclu": 3619,
      "izedBox": 3620,
      "Cooldown": 3621,
      "ürich": 3622,
      "Ġmenstru": 3623,
      "imsy": 3624,
      "urpose": 3625,
      "Ġrepent": 3626,
      "Ġhoc": 3627,
      "equals": 3628,
      "ĠLutz": 3629,
      "пенди": 3630,
      "sler": 3631,
      "Ġllevan": 3632,
      "Ġالات": 3633,
      "uste": 3634,
      "Ġmovie": 3635,
      "ĠPenelope": 3636,
      "STE": 3637,
      "ĠHeidelberg": 3638,
      "idyl": 3639,
      "FileSystem": 3640,
      "owym": 3641,
      "FORMATION": 3642,
      "imized": 3643,
      "efs": 3644,
      "علام": 3645,
      "rtList": 3646,
      "ĠHidalgo": 3647,
      "clide": 3648,
      "ڑی": 3649,
      "ĠNietzsche": 3650,
      "amnă": 3651,
      "CONFIG": 3652,
      "ĠDorchester": 3653,
      "фона": 3654,
      "family": 3655,
      "Ġprogen": 3656,
      "roduct": 3657,
      "ĠPatton": 3658,
      "óstico": 3659,
      "ĠSouthport": 3660,
      "emás": 3661,
      "Ġjuin": 3662,
      "ых": 3663,
      "ĠVacc": 3664,
      "Ġunters": 3665,
      "ifadə": 3666,
      "Ġmia": 3667,
      "ряз": 3668,
      "ävät": 3669,
      "ственности": 3670,
      "Ġexpedi": 3671,
      "ພວ": 3672,
      "ĠImport": 3673,
      "ĠNADPH": 3674,
      "ພວກ": 3675,
      "tencent": 3676,
      "ĠNiz": 3677,
      "örg": 3678,
      "Ġsapien": 3679,
      "țional": 3680,
      "ĠFons": 3681,
      "ĠFonseca": 3682,
      "ĠCox": 3683,
      "дох": 3684,
      "ĠDaf": 3685,
      "GUI": 3686,
      "ĠGink": 3687,
      "Ġلم": 3688,
      "Ġdendritic": 3689,
      "Feign": 3690,
      "Ġwo": 3691,
      "FIX": 3692,
      "ტიკ": 3693,
      "olome": 3694,
      "Ġتار": 3695,
      "ilai": 3696,
      "triangleleft": 3697,
      "Ġcarbohyd": 3698,
      "Ġcondens": 3699,
      "Ġpostérieures": 3700,
      "AspNetUser": 3701,
      "Ġстарије": 3702,
      "ĠVerdi": 3703,
      "Ġحاض": 3704,
      "Ġزمین": 3705,
      "okkaido": 3706,
      "TimeDict": 3707,
      "Ġpediat": 3708,
      "тинен": 3709,
      "Ġbattle": 3710,
      "сных": 3711,
      "Ġluk": 3712,
      "テナ": 3713,
      "テナンス": 3714,
      "ĠZeitsch": 3715,
      "essels": 3716,
      "theorem": 3717,
      "onical": 3718,
      "Ġاب": 3719,
      "sono": 3720,
      "ĠGel": 3721,
      "ĠVig": 3722,
      "Parameteri": 3723,
      "uillez": 3724,
      "вак": 3725,
      "σία": 3726,
      "ĠLugo": 3727,
      "jonen": 3728,
      "يبقى": 3729,
      "ĠCaputo": 3730,
      "hadow": 3731,
      "omore": 3732,
      "ergewöhn": 3733,
      "رياض": 3734,
      "ĠNoetherian": 3735,
      "WebApi": 3736,
      "Ġissuers": 3737,
      "ライプ": 3738,
      "شتہ": 3739,
      "hein": 3740,
      "ashore": 3741,
      "Ġvorbe": 3742,
      "alaikumsalam": 3743,
      "selValue": 3744,
      "Ġellen": 3745,
      "econom": 3746,
      "Ġchère": 3747,
      "hatikan": 3748,
      "spers": 3749,
      "ioides": 3750,
      "スタンダ": 3751,
      "imte": 3752,
      "Ġbroch": 3753,
      "respArray": 3754,
      "дем": 3755,
      "rockets": 3756,
      "umé": 3757,
      "oggio": 3758,
      "OrDefault": 3759,
      "Ġlegal": 3760,
      "ampuan": 3761,
      "ĠCyril": 3762,
      "anguard": 3763,
      "ĠPett": 3764,
      "ĠMBS": 3765,
      "Ġbios": 3766,
      "ĠNin": 3767,
      "Ġвікісторінку": 3768,
      "VELOP": 3769,
      "Ġmô": 3770,
      "IBLE": 3771,
      "hando": 3772,
      "PointSize": 3773,
      "ĠACM": 3774,
      "Ġedt": 3775,
      "phosphate": 3776,
      "oyl": 3777,
      "JavaScript": 3778,
      "Ġกรรม": 3779,
      "ĠBSE": 3780,
      "ĠKinect": 3781,
      "ĠJuven": 3782,
      "iczne": 3783,
      "tede": 3784,
      "Ġпрад": 3785,
      "viridis": 3786,
      "Ġمبار": 3787,
      "ktir": 3788,
      "rages": 3789,
      "ĠWolverines": 3790,
      "ĠAIA": 3791,
      "InBackground": 3792,
      "ĠUGA": 3793,
      "ĠBie": 3794,
      "DetailUIJobIcon": 3795,
      "記事": 3796,
      "nbs": 3797,
      "ByMerging": 3798,
      "romyalgia": 3799,
      "šić": 3800,
      "Ġلاز": 3801,
      "ecomm": 3802,
      "тного": 3803,
      "routingHeader": 3804,
      "Ġshrew": 3805,
      "Ġplu": 3806,
      "გუფ": 3807,
      "გუფი": 3808,
      "ĠJug": 3809,
      "verde": 3810,
      "ullary": 3811,
      "ällt": 3812,
      "ĠBül": 3813,
      "getParameter": 3814,
      "Ġجمع": 3815,
      "orgung": 3816,
      "ahas": 3817,
      "oglobulin": 3818,
      "eraus": 3819,
      "Fragmentation": 3820,
      "Ġprofane": 3821,
      "ĠFatima": 3822,
      "Ġالآ": 3823,
      "Ġsubtlet": 3824,
      "ĠRial": 3825,
      "Ġgreet": 3826,
      "hov": 3827,
      "rost": 3828,
      "Salle": 3829,
      "ruciating": 3830,
      "ستين": 3831,
      "paralleled": 3832,
      "Marne": 3833,
      "Ġcumplen": 3834,
      "ĠRajiv": 3835,
      "avic": 3836,
      "рович": 3837,
      "cursive": 3838,
      "ĠSiO": 3839,
      "ίναι": 3840,
      "nity": 3841,
      "Ġdruh": 3842,
      "Ġneur": 3843,
      "Ġhed": 3844,
      "Ġдогово": 3845,
      "ParaName": 3846,
      "ĠTNFR": 3847,
      "länd": 3848,
      "ĠCONCLUS": 3849,
      "WidgetItem": 3850,
      "tev": 3851,
      "lingen": 3852,
      "Ġvoces": 3853,
      "Break": 3854,
      "ennessee": 3855,
      "RVCT": 3856,
      "zyg": 3857,
      "ĠAudio": 3858,
      "یاں": 3859,
      "pecColor": 3860,
      "Ġplate": 3861,
      "LogProfile": 3862,
      "Ġventil": 3863,
      "ointe": 3864,
      "Ġпродов": 3865,
      "ття": 3866,
      "ettel": 3867,
      "ĠBedi": 3868,
      "Ġglaub": 3869,
      "Ġtrusses": 3870,
      "vur": 3871,
      "Ġrespe": 3872,
      "Ġнапо": 3873,
      "ayv": 3874,
      "Ġaustenitic": 3875,
      "Ġgla": 3876,
      "Ġhiver": 3877,
      "acci": 3878,
      "ĠPhilipp": 3879,
      "Ġsubchapter": 3880,
      "ĠZust": 3881,
      "ázquez": 3882,
      "ĠSwift": 3883,
      "ĠCGRect": 3884,
      "Ġaltt": 3885,
      "Ġalttext": 3886,
      "ĠglTranslatef": 3887,
      "erate": 3888,
      "Ġهسه": 3889,
      "ahy": 3890,
      "Ġvyh": 3891,
      "kowania": 3892,
      "ĠTCU": 3893,
      "IsClearedBy": 3894,
      "Ġunu": 3895,
      "UDN": 3896,
      "TIMESTAMP": 3897,
      "bukkit": 3898,
      "ĠPatriots": 3899,
      "unakan": 3900,
      "emies": 3901,
      "ogador": 3902,
      "LaunchAction": 3903,
      "ĠNar": 3904,
      "Ġswipe": 3905,
      "ĠTestAvg": 3906,
      "separated": 3907,
      "ĠGerald": 3908,
      "nir": 3909,
      "ĠIt": 3910,
      "oLocations": 3911,
      "Ġbrush": 3912,
      "quinox": 3913,
      "ĠsAlarm": 3914,
      "ĠtcpHeader": 3915,
      "ешь": 3916,
      "ĠCitri": 3917,
      "ĠCitrix": 3918,
      "اطع": 3919,
      "ressible": 3920,
      "cheek": 3921,
      "jecture": 3922,
      "atthane": 3923,
      "ĠYvonne": 3924,
      "észet": 3925,
      "RELATIVA": 3926,
      "cendo": 3927,
      "عام": 3928,
      "務用": 3929,
      "業務用": 3930,
      "peas": 3931,
      "urrence": 3932,
      "يجي": 3933,
      "Ġtink": 3934,
      "Ġcarn": 3935,
      "bandSize": 3936,
      "ثير": 3937,
      "Ġnasel": 3938,
      "particip": 3939,
      "стная": 3940,
      "rava": 3941,
      "ĠgivenChar": 3942,
      "Ġsapi": 3943,
      "Ġimpr": 3944,
      "guild": 3945,
      "ĠRBC": 3946,
      "СТЬ": 3947,
      "Ġkawa": 3948,
      "ĠNasa": 3949,
      "Represent": 3950,
      "Ġالاحت": 3951,
      "ająca": 3952,
      "ĠNSE": 3953,
      "Ġasist": 3954,
      "Wal": 3955,
      "Ġह": 3956,
      "ampilan": 3957,
      "Ġтабли": 3958,
      "lesh": 3959,
      "ieno": 3960,
      "gorod": 3961,
      "aloko": 3962,
      "sciutto": 3963,
      "assan": 3964,
      "isu": 3965,
      "incible": 3966,
      "subheader": 3967,
      "CUSS": 3968,
      "ĠCler": 3969,
      "Ġviel": 3970,
      "ĠESM": 3971,
      "umet": 3972,
      "ütün": 3973,
      "Ġnoble": 3974,
      "Ġzroz": 3975,
      "Ġspre": 3976,
      "ĠVij": 3977,
      "toolt": 3978,
      "ittarius": 3979,
      "alde": 3980,
      "rasi": 3981,
      "ropolis": 3982,
      "ĠKling": 3983,
      "Ġphenomen": 3984,
      "addSql": 3985,
      "Ġмуниципа": 3986,
      "ĠEXIST": 3987,
      "ĠuseCustom": 3988,
      "kg": 3989,
      "Ġzast": 3990,
      "rith": 3991,
      "мор": 3992,
      "大きい": 3993,
      "шками": 3994,
      "Ġcomet": 3995,
      "ileg": 3996,
      "ĠPotts": 3997,
      "iotsitewise": 3998,
      "Ġstargazer": 3999,
      "Ġtrimestre": 4000,
      "displayWidth": 4001,
      "Ath": 4002,
      "ĠRuntimeError": 4003,
      "cTempVal": 4004,
      "Ġsinter": 4005,
      "стого": 4006,
      "desIP": 4007,
      "Ġplaats": 4008,
      "Ġподска": 4009,
      "ĠcPix": 4010,
      "indentLevel": 4011,
      "цеп": 4012,
      "Ġsediment": 4013,
      "ĠShar": 4014,
      "Ġsemis": 4015,
      "პირ": 4016,
      "gcolor": 4017,
      "ĠUML": 4018,
      "гры": 4019,
      "Ġatrial": 4020,
      "ĠADMINISTR": 4021,
      "Ġproch": 4022,
      "protected": 4023,
      "ĠWindow": 4024,
      "UPA": 4025,
      "Ġbaşarı": 4026,
      "Ġgewann": 4027,
      "ستہ": 4028,
      "Ġobliter": 4029,
      "PLOAD": 4030,
      "Ġآشنا": 4031,
      "APPRO": 4032,
      "szág": 4033,
      "erun": 4034,
      "urdy": 4035,
      "ĠresetCounters": 4036,
      "llbracket": 4037,
      "ĠtitleImageUrl": 4038,
      "Ġspreads": 4039,
      "例文": 4040,
      "例文帳に追加": 4041,
      "ĠPueb": 4042,
      "роме": 4043,
      "verifica": 4044,
      "Ġentsch": 4045,
      "ĠthrowIf": 4046,
      "ቶችን": 4047,
      "тара": 4048,
      "mathb": 4049,
      "LastGen": 4050,
      "Ġraggi": 4051,
      "íny": 4052,
      "riminate": 4053,
      "Ġназвал": 4054,
      "cznych": 4055,
      "ophysical": 4056,
      "alist": 4057,
      "ruire": 4058,
      "Ġwrink": 4059,
      "igio": 4060,
      "LineEdit": 4061,
      "คโ": 4062,
      "Ġtraff": 4063,
      "คโน": 4064,
      "nagyobb": 4065,
      "ensitivity": 4066,
      "romax": 4067,
      "ĠOsman": 4068,
      "Ġलखनऊ": 4069,
      "ĠBellevue": 4070,
      "WithPath": 4071,
      "ábado": 4072,
      "redirect": 4073,
      "anko": 4074,
      "Ġenfe": 4075,
      "fasst": 4076,
      "ěla": 4077,
      "sortie": 4078,
      "Techn": 4079,
      "лии": 4080,
      "ĠDN": 4081,
      "ልግ": 4082,
      "ገልግ": 4083,
      "ገልግሎ": 4084,
      "ĠHornets": 4085,
      "onbury": 4086,
      "unki": 4087,
      "QRSTUVWXYZ": 4088,
      "omponent": 4089,
      "Ġconduc": 4090,
      "nun": 4091,
      "Ġmites": 4092,
      "Mess": 4093,
      "ifié": 4094,
      "Ġстратегия": 4095,
      "ĠDrag": 4096,
      "apatos": 4097,
      "oeud": 4098,
      "ĠAmelia": 4099,
      "Ġhomotopic": 4100,
      "Ġcostit": 4101,
      "Ġκαθ": 4102,
      "pkey": 4103,
      "Ġmanifi": 4104,
      "rocos": 4105,
      "Ġmicrocos": 4106,
      "Ġwad": 4107,
      "ĠAdapter": 4108,
      "contours": 4109,
      "Ġcold": 4110,
      "ĠPaola": 4111,
      "Ġحدی": 4112,
      "embry": 4113,
      "CreateInfo": 4114,
      "デザイン": 4115,
      "anut": 4116,
      "ĠBrown": 4117,
      "Ġdisappro": 4118,
      "Ġgrop": 4119,
      "Ġnumb": 4120,
      "DbType": 4121,
      "パール": 4122,
      "Ġчов": 4123,
      "йдет": 4124,
      "inę": 4125,
      "Ġdiber": 4126,
      "itioned": 4127,
      "ĠLMP": 4128,
      "ọi": 4129,
      "ivitis": 4130,
      "ührung": 4131,
      "ügen": 4132,
      "chst": 4133,
      "yección": 4134,
      "omatik": 4135,
      "Ġstress": 4136,
      "жами": 4137,
      "ibernate": 4138,
      "soft": 4139,
      "ĠNAP": 4140,
      "ĠPalmas": 4141,
      "тные": 4142,
      "νού": 4143,
      "ULATION": 4144,
      "ĠRadford": 4145,
      "zeugt": 4146,
      "ULES": 4147,
      "arsko": 4148,
      "чик": 4149,
      "ĠLic": 4150,
      "ĠBick": 4151,
      "INDE": 4152,
      "Ġالاح": 4153,
      "Ġindium": 4154,
      "icolor": 4155,
      "Beans": 4156,
      "ině": 4157,
      "Ġpout": 4158,
      "Ġbungal": 4159,
      "Ġstorm": 4160,
      "startButton": 4161,
      "ĠHooper": 4162,
      "Pub": 4163,
      "SERV": 4164,
      "YP": 4165,
      "Ġechelon": 4166,
      "Ġoligonucle": 4167,
      "modelLogin": 4168,
      "ambarkan": 4169,
      "нным": 4170,
      "ĠFur": 4171,
      "andin": 4172,
      "getBoolean": 4173,
      "igroup": 4174,
      "ĠShor": 4175,
      "ωνα": 4176,
      "yal": 4177,
      "Ġawk": 4178,
      "Ġпору": 4179,
      "ĠWildcats": 4180,
      "ĠLoretta": 4181,
      "illust": 4182,
      "elev": 4183,
      "ürn": 4184,
      "Equals": 4185,
      "ĠUSAID": 4186,
      "کاری": 4187,
      "ĠcreateApp": 4188,
      "Ġstump": 4189,
      "ĠmovingRect": 4190,
      "Ġanesthet": 4191,
      "opathic": 4192,
      "Ġparthenogenetic": 4193,
      "icies": 4194,
      "odisc": 4195,
      "ĠСу": 4196,
      "ılım": 4197,
      "VENTION": 4198,
      "windigkeit": 4199,
      "ĠPierce": 4200,
      "Hive": 4201,
      "andled": 4202,
      "MinIntensity": 4203,
      "ALE": 4204,
      "ĠArden": 4205,
      "ihanna": 4206,
      "ilters": 4207,
      "وانی": 4208,
      "ĠLivingston": 4209,
      "цени": 4210,
      "غراف": 4211,
      "ĠRSC": 4212,
      "intre": 4213,
      "Ġtanı": 4214,
      "roots": 4215,
      "ĠDummy": 4216,
      "Ġhablando": 4217,
      "Ġhydroph": 4218,
      "eries": 4219,
      "ĠSpr": 4220,
      "قبل": 4221,
      "Ġmohabbat": 4222,
      "ForEach": 4223,
      "ĠCERN": 4224,
      "JsonPart": 4225,
      "ĠSNP": 4226,
      "Ġsandal": 4227,
      "ĠChauc": 4228,
      "Ġirreg": 4229,
      "Ġilust": 4230,
      "ĠChaucer": 4231,
      "incare": 4232,
      "olics": 4233,
      "Ġmutl": 4234,
      "ميم": 4235,
      "useum": 4236,
      "onter": 4237,
      "ccione": 4238,
      "деш": 4239,
      "Ġindef": 4240,
      "Ġน": 4241,
      "Ġpember": 4242,
      "Ġthalam": 4243,
      "ĠCarrington": 4244,
      "ĠPSF": 4245,
      "Research": 4246,
      "ĠDmit": 4247,
      "وني": 4248,
      "ĠTAP": 4249,
      "ترة": 4250,
      "DebugTest": 4251,
      "Ġмета": 4252,
      "Ġχρή": 4253,
      "ATOR": 4254,
      "ĠAlic": 4255,
      "fois": 4256,
      "ANDA": 4257,
      "ĠEdd": 4258,
      "Ġبیوی": 4259,
      "pageno": 4260,
      "لوار": 4261,
      "efeated": 4262,
      "haven": 4263,
      "CycleOffset": 4264,
      "userdetails": 4265,
      "matik": 4266,
      "epe": 4267,
      "Dates": 4268,
      "Ġanaerobic": 4269,
      "ĠEstad": 4270,
      "Ġбелән": 4271,
      "FILE": 4272,
      "Ġvět": 4273,
      "ĠHast": 4274,
      "ĠSteck": 4275,
      "Ġbū": 4276,
      "yanka": 4277,
      "etically": 4278,
      "ĠStyle": 4279,
      "ĠAltern": 4280,
      "ĠSPM": 4281,
      "يڪ": 4282,
      "ierry": 4283,
      "Ġجيڪ": 4284,
      "ièrement": 4285,
      "ĠBhd": 4286,
      "unut": 4287,
      "ığın": 4288,
      "ĠMcGuire": 4289,
      "IRQ": 4290,
      "Ġниз": 4291,
      "Ġchedd": 4292,
      "scr": 4293,
      "mathscr": 4294,
      "Ġcheddar": 4295,
      "ImportGroup": 4296,
      "aughters": 4297,
      "MDEwOl": 4298,
      "Ġpeat": 4299,
      "ĠHassel": 4300,
      "ĠODDS": 4301,
      "estens": 4302,
      "Ġпроведен": 4303,
      "Ġsalami": 4304,
      "Ġبالط": 4305,
      "ĠABP": 4306,
      "ĠDrop": 4307,
      "Ġverl": 4308,
      "innen": 4309,
      "adolid": 4310,
      "ĠPati": 4311,
      "ственное": 4312,
      "itans": 4313,
      "Ġdevastating": 4314,
      "Recogn": 4315,
      "итать": 4316,
      "FontFace": 4317,
      "ecy": 4318,
      "Ġсимво": 4319,
      "Ġmagnetores": 4320,
      "KeyboardButton": 4321,
      "Ġporttitor": 4322,
      "ĠSharePoint": 4323,
      "Ġوالر": 4324,
      "AspectRatio": 4325,
      "kos": 4326,
      "ailure": 4327,
      "vac": 4328,
      "ĠArthur": 4329,
      "obec": 4330,
      "Ġprohl": 4331,
      "pple": 4332,
      "Analy": 4333,
      "oshima": 4334,
      "Ġhust": 4335,
      "Schmidt": 4336,
      "MDP": 4337,
      "кратно": 4338,
      "ĠSamp": 4339,
      "ĠCand": 4340,
      "Ġchas": 4341,
      "ksom": 4342,
      "لاعب": 4343,
      "Comment": 4344,
      "мно": 4345,
      "фик": 4346,
      "Ġesfuer": 4347,
      "Ġnadi": 4348,
      "Ġrzeczy": 4349,
      "насти": 4350,
      "ĠbuildFor": 4351,
      "GetParaPkg": 4352,
      "Ġbele": 4353,
      "arthritis": 4354,
      "ĠWaz": 4355,
      "elow": 4356,
      "omized": 4357,
      "Ġwicked": 4358,
      "ivac": 4359,
      "ointment": 4360,
      "Vac": 4361,
      "wale": 4362,
      "Ġkuid": 4363,
      "ĠWARRANT": 4364,
      "aganda": 4365,
      "xff": 4366,
      "جیب": 4367,
      "iours": 4368,
      "Ġszko": 4369,
      "mens": 4370,
      "ocious": 4371,
      "Ġperempt": 4372,
      "ualan": 4373,
      "Ġдрама": 4374,
      "ĠScientology": 4375,
      "動方程式": 4376,
      "波動方程式": 4377,
      "ĠChik": 4378,
      "isseur": 4379,
      "afu": 4380,
      "neet": 4381,
      "emps": 4382,
      "oist": 4383,
      "gean": 4384,
      "TextStyle": 4385,
      "Ġdecad": 4386,
      "IRD": 4387,
      "MIB": 4388,
      "Ġвари": 4389,
      "ĠTMD": 4390,
      "oleh": 4391,
      "PointerException": 4392,
      "atterson": 4393,
      "TOGRAM": 4394,
      "ĠNEX": 4395,
      "fullscreen": 4396,
      "Ġeuc": 4397,
      "genommen": 4398,
      "صه": 4399,
      "Ġالحصه": 4400,
      "ĠCerv": 4401,
      "Ġextrémité": 4402,
      "ogeneities": 4403,
      "Capture": 4404,
      "dropdown": 4405,
      "ravy": 4406,
      "ină": 4407,
      "ĠDOC": 4408,
      "ĠTuti": 4409,
      "ĠMia": 4410,
      "testimon": 4411,
      "ĠGreensboro": 4412,
      "Ġquae": 4413,
      "жал": 4414,
      "Ġnascetur": 4415,
      "vira": 4416,
      "StateType": 4417,
      "Ġhrá": 4418,
      "ĠJesus": 4419,
      "سطس": 4420,
      "пети": 4421,
      "iple": 4422,
      "었습니다": 4423,
      "ĠBurroughs": 4424,
      "Ġkiz": 4425,
      "ushima": 4426,
      "циони": 4427,
      "hle": 4428,
      "ouched": 4429,
      "chnik": 4430,
      "štu": 4431,
      "نائي": 4432,
      "ресень": 4433,
      "ườn": 4434,
      "INSTANCE": 4435,
      "含ま": 4436,
      "ĠgetConnection": 4437,
      "بيع": 4438,
      "ardu": 4439,
      "Ġdislik": 4440,
      "äche": 4441,
      "Ġrecog": 4442,
      "jala": 4443,
      "cett": 4444,
      "Ġcrafts": 4445,
      "ssr": 4446,
      "Ġмыкты": 4447,
      "ะไ": 4448,
      "ะไร": 4449,
      "angenheit": 4450,
      "ĠHills": 4451,
      "IsNullOr": 4452,
      "ĠPlant": 4453,
      "Ġkuz": 4454,
      "ĠЮрий": 4455,
      "Ġfals": 4456,
      "ĠChung": 4457,
      "ectoria": 4458,
      "اندان": 4459,
      "rangian": 4460,
      "ĠRank": 4461,
      "GRU": 4462,
      "Ġovipares": 4463,
      "auso": 4464,
      "ður": 4465,
      "Bonus": 4466,
      "oniaz": 4467,
      "oniazid": 4468,
      "ĠRuff": 4469,
      "Ġnuev": 4470,
      "ьев": 4471,
      "ajaan": 4472,
      "iasis": 4473,
      "admin": 4474,
      "ĠAladdin": 4475,
      "eszcze": 4476,
      "entraî": 4477,
      "ственные": 4478,
      "Ġinoxid": 4479,
      "astikan": 4480,
      "多少": 4481,
      "Ġdecir": 4482,
      "vom": 4483,
      "Ġwell": 4484,
      "Laur": 4485,
      "ĠCarleton": 4486,
      "inform": 4487,
      "Ġсери": 4488,
      "houd": 4489,
      "Ġlacin": 4490,
      "Ġlacinia": 4491,
      "eningrad": 4492,
      "Advert": 4493,
      "Ġსაქ": 4494,
      "MovementControls": 4495,
      "Ġhaud": 4496,
      "Ġcosm": 4497,
      "Ġpotest": 4498,
      "Ġpluripotent": 4499,
      "Ġenseñ": 4500,
      "ალურ": 4501,
      "Mord": 4502,
      "Ġiph": 4503,
      "ĠuseRef": 4504,
      "Ġcél": 4505,
      "اکر": 4506,
      "DATUM": 4507,
      "rzej": 4508,
      "をご覧": 4509,
      "ĠCus": 4510,
      "ecoin": 4511,
      "ĠgetDate": 4512,
      "Ġurb": 4513,
      "Ġпредела": 4514,
      "pointer": 4515,
      "ustus": 4516,
      "Ġbeğ": 4517,
      "تماع": 4518,
      "生日": 4519,
      "誕生日": 4520,
      "Ġdeserunt": 4521,
      "ĠCicero": 4522,
      "alem": 4523,
      "Flexstr": 4524,
      "その他": 4525,
      "سلم": 4526,
      "的な": 4527,
      "บาย": 4528,
      "ậm": 4529,
      "ĠTek": 4530,
      "insley": 4531,
      "Ġpamo": 4532,
      "Cloud": 4533,
      "dokka": 4534,
      "Ġbip": 4535,
      "ĠMoira": 4536,
      "EventEmitter": 4537,
      "ದರ": 4538,
      "oises": 4539,
      "Ġdod": 4540,
      "ссии": 4541,
      "ermaid": 4542,
      "Ġshì": 4543,
      "ĠPUR": 4544,
      "OnFileChange": 4545,
      "ĠExpt": 4546,
      "Ġesclus": 4547,
      "ĠHans": 4548,
      "Ġtécn": 4549,
      "kran": 4550,
      "ertal": 4551,
      "ĠBeyonce": 4552,
      "ĠSorrento": 4553,
      "ĠteamTable": 4554,
      "უნქ": 4555,
      "otros": 4556,
      "yue": 4557,
      "Ġстуден": 4558,
      "ლებიც": 4559,
      "Ġsurcharge": 4560,
      "érêt": 4561,
      "зите": 4562,
      "Ġявления": 4563,
      "mun": 4564,
      "ạm": 4565,
      "ラスト": 4566,
      "ccgi": 4567,
      "Ġinscre": 4568,
      "iyi": 4569,
      "ADING": 4570,
      "かります": 4571,
      "ystring": 4572,
      "ptuous": 4573,
      "StartX": 4574,
      "Ġболот": 4575,
      "Ġпопере": 4576,
      "ATHER": 4577,
      "теле": 4578,
      "addContainer": 4579,
      "Ġaproxim": 4580,
      "Ġscall": 4581,
      "ĠHuerta": 4582,
      "owler": 4583,
      "engkapi": 4584,
      "ĠAby": 4585,
      "ordinaire": 4586,
      "ĠoperandSize": 4587,
      "Ġgloss": 4588,
      "安全": 4589,
      "átu": 4590,
      "рую": 4591,
      "ĠaddCriterion": 4592,
      "woman": 4593,
      "ĠGoodyear": 4594,
      "берём": 4595,
      "Ġhsize": 4596,
      "Ġلاع": 4597,
      "ĠHedge": 4598,
      "بيق": 4599,
      "ingin": 4600,
      "Formatter": 4601,
      "NOV": 4602,
      "hur": 4603,
      "ĠISC": 4604,
      "raient": 4605,
      "ungy": 4606,
      "Ġкой": 4607,
      "éries": 4608,
      "Mir": 4609,
      "itiva": 4610,
      "ĠRockville": 4611,
      "ĠmyBuilder": 4612,
      "carousel": 4613,
      "合わせて": 4614,
      "Ġhof": 4615,
      "ĠNicholson": 4616,
      "ieux": 4617,
      "ĠErit": 4618,
      "Ġآموز": 4619,
      "BON": 4620,
      "Ġemple": 4621,
      "permalink": 4622,
      "rə": 4623,
      "ərə": 4624,
      "diff": 4625,
      "ibur": 4626,
      "ĠspacerItem": 4627,
      "kowy": 4628,
      "ĠKxh": 4629,
      "ANNEL": 4630,
      "Ġunderstatement": 4631,
      "thebetterindia": 4632,
      "Ġbhfuil": 4633,
      "зал": 4634,
      "Immediate": 4635,
      "Ġrecombination": 4636,
      "anha": 4637,
      "ClickListener": 4638,
      "Ġмаксима": 4639,
      "Ġaccur": 4640,
      "ახებ": 4641,
      "eryl": 4642,
      "ĠPublic": 4643,
      "ستا": 4644,
      "Ġdémont": 4645,
      "ĠthumbnailUrl": 4646,
      "Ġalkal": 4647,
      "ĠPed": 4648,
      "Ġvill": 4649,
      "ългария": 4650,
      "движи": 4651,
      "Ġsemif": 4652,
      "Ġبواسط": 4653,
      "accept": 4654,
      "Ġگرو": 4655,
      "ĠNoContent": 4656,
      "vary": 4657,
      "Ġпрекра": 4658,
      "ĠStaffel": 4659,
      "angor": 4660,
      "ĠfontFamily": 4661,
      "шкина": 4662,
      "Culture": 4663,
      "sat": 4664,
      "ერი": 4665,
      "дах": 4666,
      "Ġmeille": 4667,
      "ĠStringBuffer": 4668,
      "有限": 4669,
      "有限公司": 4670,
      "oward": 4671,
      "Ġjot": 4672,
      "Ġсек": 4673,
      "Ġالمبار": 4674,
      "Ġpcl": 4675,
      "oxel": 4676,
      "Ġmuque": 4677,
      "phobic": 4678,
      "getStudentNo": 4679,
      "OMS": 4680,
      "писание": 4681,
      "Ġgingham": 4682,
      "meal": 4683,
      "lasti": 4684,
      "ockito": 4685,
      "acho": 4686,
      "UFACT": 4687,
      "Ġpomocí": 4688,
      "ĠEee": 4689,
      "kaa": 4690,
      "ichés": 4691,
      "discord": 4692,
      "reader": 4693,
      "ĠArora": 4694,
      "ĠЛьво": 4695,
      "niki": 4696,
      "Topology": 4697,
      "нове": 4698,
      "ĠTind": 4699,
      "Ġgh": 4700,
      "Ġاثر": 4701,
      "Ġنسب": 4702,
      "chrot": 4703,
      "chrotron": 4704,
      "dzy": 4705,
      "iędzy": 4706,
      "SubDirectoryPath": 4707,
      "LTH": 4708,
      "ActiveClass": 4709,
      "قوق": 4710,
      "ピンク": 4711,
      "Ġويم": 4712,
      "oglas": 4713,
      "Ġofx": 4714,
      "aría": 4715,
      "Ġcuid": 4716,
      "Ġللم": 4717,
      "ĠnowDate": 4718,
      "Ġjoking": 4719,
      "glyphs": 4720,
      "dx": 4721,
      "Ġsdx": 4722,
      "NoError": 4723,
      "ьогодні": 4724,
      "zept": 4725,
      "Razibul": 4726,
      "ĠCalvert": 4727,
      "Ġjednou": 4728,
      "Ġarchae": 4729,
      "Ġpunctulatis": 4730,
      "fdPar": 4731,
      "Ġpayee": 4732,
      "farande": 4733,
      "ignano": 4734,
      "хар": 4735,
      "Ġzdję": 4736,
      "Ġkompakt": 4737,
      "Ġfactory": 4738,
      "üste": 4739,
      "äude": 4740,
      "atilde": 4741,
      "Ġnegar": 4742,
      "Ġasign": 4743,
      "Ġforceps": 4744,
      "Ġcommerc": 4745,
      "apetva": 4746,
      "ĠHSE": 4747,
      "nosis": 4748,
      "anje": 4749,
      "ĠBromley": 4750,
      "ANIES": 4751,
      "Ġہوگ": 4752,
      "klär": 4753,
      "Errorf": 4754,
      "شور": 4755,
      "ĠShack": 4756,
      "cyj": 4757,
      "حدى": 4758,
      "nesdays": 4759,
      "HUS": 4760,
      "Ġtact": 4761,
      "Ġboyunca": 4762,
      "Ġtowel": 4763,
      "hita": 4764,
      "つけた": 4765,
      "ĠTie": 4766,
      "cparam": 4767,
      "ĠBusiness": 4768,
      "Ġjumpa": 4769,
      "ĠMulder": 4770,
      "ترل": 4771,
      "AtPath": 4772,
      "Ġhairdry": 4773,
      "mare": 4774,
      "Ġflaves": 4775,
      "Alban": 4776,
      "loon": 4777,
      "abria": 4778,
      "Ġلح": 4779,
      "Ġتعالى": 4780,
      "Ġolvidado": 4781,
      "ĠTCPAssignment": 4782,
      "akup": 4783,
      "ĠNIM": 4784,
      "Ġcontrô": 4785,
      "Ġsettlor": 4786,
      "umbra": 4787,
      "Ġlevel": 4788,
      "Ġhetukatt": 4789,
      "uable": 4790,
      "umbi": 4791,
      "вел": 4792,
      "INTS": 4793,
      "áce": 4794,
      "ĠMadd": 4795,
      "leges": 4796,
      "itious": 4797,
      "astics": 4798,
      "ĠCouns": 4799,
      "Ġباد": 4800,
      "ĠmaxLength": 4801,
      "رسٹ": 4802,
      "utage": 4803,
      "ĠFel": 4804,
      "marine": 4805,
      "tfine": 4806,
      "executeUpdate": 4807,
      "Ġнако": 4808,
      "Ġemancip": 4809,
      "acakt": 4810,
      "ĠAdapt": 4811,
      "chung": 4812,
      "rbara": 4813,
      "ĠCain": 4814,
      "شاہ": 4815,
      "imis": 4816,
      "ścia": 4817,
      "ĠEndgame": 4818,
      "ĠEAS": 4819,
      "ĠSwo": 4820,
      "Ġწარ": 4821,
      "ĠVerme": 4822,
      "Chk": 4823,
      "ĠProcess": 4824,
      "urul": 4825,
      "Ġالفلسط": 4826,
      "ilà": 4827,
      "メン": 4828,
      "Ġsho": 4829,
      "Ġസ": 4830,
      "Ġസമ": 4831,
      "Ġумолча": 4832,
      "好き": 4833,
      "ĠBOSS": 4834,
      "warz": 4835,
      "Ġagacch": 4836,
      "Ġυπά": 4837,
      "ĠnumArray": 4838,
      "ボン": 4839,
      "permit": 4840,
      "ビネット": 4841,
      "úrese": 4842,
      "SKA": 4843,
      "ĠpostureProxy": 4844,
      "ĠLump": 4845,
      "orded": 4846,
      "ambers": 4847,
      "Ġsaucer": 4848,
      "Ġlibert": 4849,
      "ĠPPC": 4850,
      "Ġtriun": 4851,
      "Ġyksi": 4852,
      "ĠqDebug": 4853,
      "Ġtert": 4854,
      "Ġ기": 4855,
      "Ġنہ": 4856,
      "ехали": 4857,
      "ږئ": 4858,
      "Ġولوبیږئ": 4859,
      "смотря": 4860,
      "Ġperplex": 4861,
      "glEnd": 4862,
      "Gioco": 4863,
      "englisch": 4864,
      "Ġškol": 4865,
      "isos": 4866,
      "чется": 4867,
      "PreferenceKeys": 4868,
      "Wür": 4869,
      "Ġchub": 4870,
      "менный": 4871,
      "ĠnovoProduto": 4872,
      "Aula": 4873,
      "ĠSheng": 4874,
      "Ġvezet": 4875,
      "rta": 4876,
      "ckiego": 4877,
      "nilvadipine": 4878,
      "erum": 4879,
      "encoded": 4880,
      "borderwidth": 4881,
      "อาก": 4882,
      "ĠTMC": 4883,
      "лору": 4884,
      "Ġdernière": 4885,
      "Ġокт": 4886,
      "Ġtsa": 4887,
      "Ġhiko": 4888,
      "placing": 4889,
      "يروس": 4890,
      "Ġpedibus": 4891,
      "ĠVeronica": 4892,
      "amycin": 4893,
      "ĠJamaica": 4894,
      "ĠVors": 4895,
      "หลาย": 4896,
      "ĠCroft": 4897,
      "ĠPee": 4898,
      "cwd": 4899,
      "ĠTham": 4900,
      "Ġerz": 4901,
      "Ġпреимуще": 4902,
      "ĠTEM": 4903,
      "svg": 4904,
      "Ġdian": 4905,
      "IFE": 4906,
      "Ġkron": 4907,
      "Ġпово": 4908,
      "umball": 4909,
      "nje": 4910,
      "Ġtorrent": 4911,
      "Devices": 4912,
      "Dynam": 4913,
      "ĠUsman": 4914,
      "ĠSlovenian": 4915,
      "ページ": 4916,
      "stro": 4917,
      "áni": 4918,
      "orderLine": 4919,
      "Ġrifi": 4920,
      "ĠRooney": 4921,
      "makt": 4922,
      "ĠMediaType": 4923,
      "apanam": 4924,
      "дко": 4925,
      "起来": 4926,
      "ĠNir": 4927,
      "Ġfost": 4928,
      "Ġим": 4929,
      "atenate": 4930,
      "Ġstunted": 4931,
      "vasive": 4932,
      "Ġالدوره": 4933,
      "smo": 4934,
      "acyl": 4935,
      "FIELDS": 4936,
      "ッテ": 4937,
      "ikhil": 4938,
      "ッテリー": 4939,
      "Ġالمن": 4940,
      "Ġюби": 4941,
      "ĠDemonstr": 4942,
      "adora": 4943,
      "cellulose": 4944,
      "Ġresigning": 4945,
      "ciem": 4946,
      "ĠCoach": 4947,
      "ómico": 4948,
      "gbar": 4949,
      "Analyser": 4950,
      "Ġhre": 4951,
      "ĠEbert": 4952,
      "olgens": 4953,
      "Altura": 4954,
      "ĠEmily": 4955,
      "larini": 4956,
      "aboratory": 4957,
      "ĠAllah": 4958,
      "mapstruct": 4959,
      "Ġpith": 4960,
      "ramid": 4961,
      "Ġsurpassing": 4962,
      "Vlad": 4963,
      "Ġ거": 4964,
      "Ġвыра": 4965,
      "icillium": 4966,
      "ĠBath": 4967,
      "хема": 4968,
      "ĠAless": 4969,
      "Ġقابل": 4970,
      "Ġquartile": 4971,
      "Ġsalir": 4972,
      "prepare": 4973,
      "itario": 4974,
      "plified": 4975,
      "Ġhurd": 4976,
      "Ġench": 4977,
      "getFullName": 4978,
      "ĠGos": 4979,
      "пециа": 4980,
      "ardt": 4981,
      "Ġразде": 4982,
      "forgettable": 4983,
      "lices": 4984,
      "Ġμέ": 4985,
      "VICE": 4986,
      "Ġmonaster": 4987,
      "ĠPMA": 4988,
      "Ġnond": 4989,
      "aund": 4990,
      "Ġdaar": 4991,
      "elps": 4992,
      "ĠPhelps": 4993,
      "pence": 4994,
      "ĠScro": 4995,
      "Ġshank": 4996,
      "Same": 4997,
      "éné": 4998,
      "czyk": 4999,
      "vag": 5000,
      "ĠendExpNow": 5001,
      "uminous": 5002,
      "rahydro": 5003,
      "Ġniew": 5004,
      "ĠOrrell": 5005,
      "ickej": 5006,
      "bye": 5007,
      "Ġsult": 5008,
      "ĠShadow": 5009,
      "ancement": 5010,
      "ものは": 5011,
      "Ġчасы": 5012,
      "Ġsue": 5013,
      "Ġcook": 5014,
      "Ġaffection": 5015,
      "ĠBeerObj": 5016,
      "Ġcuer": 5017,
      "ĠKazakh": 5018,
      "Ġjuxtap": 5019,
      "pwm": 5020,
      "idere": 5021,
      "ĠPiot": 5022,
      "Ġexem": 5023,
      "PARTMENT": 5024,
      "Ġimpoz": 5025,
      "managerpage": 5026,
      "ĠAbstract": 5027,
      "Ġ프": 5028,
      "Ġ프로": 5029,
      "StubCompat": 5030,
      "ĠMcCormick": 5031,
      "يكون": 5032,
      "Ġattach": 5033,
      "hedron": 5034,
      "ĠAlgeria": 5035,
      "estes": 5036,
      "Ġbrown": 5037,
      "Ġپیغم": 5038,
      "chloride": 5039,
      "ĠclockRadius": 5040,
      "ruppen": 5041,
      "DIFF": 5042,
      "stered": 5043,
      "ĠBet": 5044,
      "Such": 5045,
      "ĠBland": 5046,
      "لاميذ": 5047,
      "hkar": 5048,
      "startTimestamp": 5049,
      "Ġπολ": 5050,
      "นาม": 5051,
      "ρακ": 5052,
      "ĠResearch": 5053,
      "risis": 5054,
      "цами": 5055,
      "aphylococcus": 5056,
      "Ġexagger": 5057,
      "aphthalene": 5058,
      "ĠWrest": 5059,
      "ubert": 5060,
      "Ġкада": 5061,
      "Ġwsz": 5062,
      "Ġkasar": 5063,
      "ĠGyne": 5064,
      "デル": 5065,
      "モデル": 5066,
      "RESS": 5067,
      "ĠRSM": 5068,
      "Ġponerse": 5069,
      "ジュアル": 5070,
      "Ġhear": 5071,
      "ларын": 5072,
      "vij": 5073,
      "Ġподдер": 5074,
      "ĠHayward": 5075,
      "ări": 5076,
      "Ġretra": 5077,
      "Ġvehement": 5078,
      "úa": 5079,
      "rekli": 5080,
      "Ġkerat": 5081,
      "ĠAuft": 5082,
      "óso": 5083,
      "Ġatan": 5084,
      "Ġmyth": 5085,
      "ászló": 5086,
      "Ġträgt": 5087,
      "keley": 5088,
      "Street": 5089,
      "iladi": 5090,
      "ivad": 5091,
      "ĠLala": 5092,
      "ĠSerp": 5093,
      "ĠMeredith": 5094,
      "نوان": 5095,
      "AutoSize": 5096,
      "đa": 5097,
      "vođa": 5098,
      "ĠJMS": 5099,
      "Ġaastal": 5100,
      "هور": 5101,
      "evol": 5102,
      "ĠPogis": 5103,
      "urrection": 5104,
      "ĠFris": 5105,
      "ophagus": 5106,
      "moh": 5107,
      "ственная": 5108,
      "ĠGlast": 5109,
      "шель": 5110,
      "بان": 5111,
      "Ġrougeâtres": 5112,
      "Routine": 5113,
      "ilmesi": 5114,
      "ĠMichaela": 5115,
      "ونکہ": 5116,
      "кість": 5117,
      "StarBinBuf": 5118,
      "ceğiz": 5119,
      "ĠBennett": 5120,
      "Webpack": 5121,
      "ĠTarget": 5122,
      "odeled": 5123,
      "Ġcone": 5124,
      "ĠNeder": 5125,
      "Propagation": 5126,
      "Ġszczeg": 5127,
      "Ġtarget": 5128,
      "Ġпси": 5129,
      "ikai": 5130,
      "Ġслад": 5131,
      "vants": 5132,
      "DBES": 5133,
      "SCRIBE": 5134,
      "Ġreloc": 5135,
      "Ġgoofy": 5136,
      "Ġvamp": 5137,
      "полне": 5138,
      "лимп": 5139,
      "ĠMaxine": 5140,
      "οδο": 5141,
      "ĠDurch": 5142,
      "ObjectName": 5143,
      "toothpaste": 5144,
      "ĠNaN": 5145,
      "オー": 5146,
      "Ġ생각해": 5147,
      "ĠsetObject": 5148,
      "allerg": 5149,
      "ĠPolyn": 5150,
      "beta": 5151,
      "ĠSSm": 5152,
      "Ġsafegu": 5153,
      "Ġfinance": 5154,
      "Ġpaździer": 5155,
      "Ġdices": 5156,
      "ĠBN": 5157,
      "pel": 5158,
      "ĠBuc": 5159,
      "itta": 5160,
      "ĠVIH": 5161,
      "ység": 5162,
      "Ġدانش": 5163,
      "ĠGCB": 5164,
      "Ġema": 5165,
      "ĠGCBO": 5166,
      "othèque": 5167,
      "venth": 5168,
      "cida": 5169,
      "Ġvagin": 5170,
      "inud": 5171,
      "endar": 5172,
      "Ġчис": 5173,
      "Przeczytaj": 5174,
      "mogorov": 5175,
      "bardziej": 5176,
      "assis": 5177,
      "StarCore": 5178,
      "Correspond": 5179,
      "ĠPotsdam": 5180,
      "Ġnouve": 5181,
      "Ġсва": 5182,
      "ĠSett": 5183,
      "คา": 5184,
      "interpol": 5185,
      "Ġneko": 5186,
      "зме": 5187,
      "icka": 5188,
      "keyValue": 5189,
      "Gon": 5190,
      "andex": 5191,
      "воре": 5192,
      "save": 5193,
      "spawn": 5194,
      "Ġبلو": 5195,
      "ĠYor": 5196,
      "Ġتعین": 5197,
      "Ġdurum": 5198,
      "omentum": 5199,
      "γραφ": 5200,
      "Ġsnd": 5201,
      "rocchia": 5202,
      "ジナル": 5203,
      "Ġدکھ": 5204,
      "ابد": 5205,
      "dürü": 5206,
      "réd": 5207,
      "ĠUConn": 5208,
      "wch": 5209,
      "Ġशकत": 5210,
      "ہور": 5211,
      "ĠOrioles": 5212,
      "idé": 5213,
      "Ġvern": 5214,
      "Ġfenómeno": 5215,
      "omist": 5216,
      "ualitas": 5217,
      "Ġспі": 5218,
      "OneFrame": 5219,
      "axter": 5220,
      "ĠScrib": 5221,
      "Ġpsychiat": 5222,
      "Ġコ": 5223,
      "リーズ": 5224,
      "bakan": 5225,
      "слов": 5226,
      "hened": 5227,
      "ĠEas": 5228,
      "Ġarre": 5229,
      "angements": 5230,
      "ombo": 5231,
      "ographically": 5232,
      "lisher": 5233,
      "Ġsaját": 5234,
      "ĠSerial": 5235,
      "ienza": 5236,
      "Ġちゃ": 5237,
      "ĠJupyter": 5238,
      "ようにな": 5239,
      "ervice": 5240,
      "پے": 5241,
      "Ġروپے": 5242,
      "oglycos": 5243,
      "ård": 5244,
      "guardo": 5245,
      "Smart": 5246,
      "イッチ": 5247,
      "ayet": 5248,
      "Ġnoirâtres": 5249,
      "ĠMell": 5250,
      "Ġčlan": 5251,
      "Ġkullanı": 5252,
      "ĠAustral": 5253,
      "Ġالثالث": 5254,
      "legate": 5255,
      "jska": 5256,
      "Ġniv": 5257,
      "gent": 5258,
      "Cursor": 5259,
      "ĠMessage": 5260,
      "ĠNant": 5261,
      "ebles": 5262,
      "ĠTerrit": 5263,
      "ĠHanuman": 5264,
      "Square": 5265,
      "ũng": 5266,
      "Integrante": 5267,
      "ulp": 5268,
      "reflectionMap": 5269,
      "ĠInfl": 5270,
      "ĠODI": 5271,
      "už": 5272,
      "Bus": 5273,
      "ydd": 5274,
      "Storyboard": 5275,
      "Ġchied": 5276,
      "ĠPist": 5277,
      "ĠNgh": 5278,
      "Ġschol": 5279,
      "Ġмя": 5280,
      "لاش": 5281,
      "ĠSIGN": 5282,
      "Ġقاعد": 5283,
      "ĠHelm": 5284,
      "ĠBrigitte": 5285,
      "Carlton": 5286,
      "イビー": 5287,
      "ĠMahesh": 5288,
      "ĠonSubmit": 5289,
      "cı": 5290,
      "Ġurch": 5291,
      "Ġthorn": 5292,
      "kis": 5293,
      "ዐይ": 5294,
      "cią": 5295,
      "closing": 5296,
      "ዐይን": 5297,
      "Summer": 5298,
      "uatan": 5299,
      "Ġcotid": 5300,
      "Ġ주": 5301,
      "AbsolutePath": 5302,
      "Ġحنا": 5303,
      "zyma": 5304,
      "Ġantib": 5305,
      "ĠWatertown": 5306,
      "ĠKejriwal": 5307,
      "mg": 5308,
      "isins": 5309,
      "Ġтео": 5310,
      "ĠИрина": 5311,
      "cone": 5312,
      "StarSrvGroup": 5313,
      "ĠLois": 5314,
      "shape": 5315,
      "ihuahua": 5316,
      "tego": 5317,
      "andum": 5318,
      "ĠdefList": 5319,
      "antil": 5320,
      "Ġpráct": 5321,
      "inical": 5322,
      "ĠNAG": 5323,
      "Ġsuddhakatt": 5324,
      "ĠMatch": 5325,
      "Ġphleg": 5326,
      "arble": 5327,
      "рко": 5328,
      "сами": 5329,
      "sModule": 5330,
      "Ġdhan": 5331,
      "ĠUSC": 5332,
      "Ġсообщи": 5333,
      "льного": 5334,
      "зья": 5335,
      "ĠDate": 5336,
      "cerpt": 5337,
      "を楽し": 5338,
      "CEED": 5339,
      "alloween": 5340,
      "ósticos": 5341,
      "Ġdialog": 5342,
      "Ġantig": 5343,
      "Ġquantile": 5344,
      "oncer": 5345,
      "isinde": 5346,
      "ırım": 5347,
      "orithms": 5348,
      "uffix": 5349,
      "واره": 5350,
      "charCode": 5351,
      "Ġstyles": 5352,
      "agra": 5353,
      "ặc": 5354,
      "Ġverschied": 5355,
      "Ġnunc": 5356,
      "Compiler": 5357,
      "サート": 5358,
      "Ġdio": 5359,
      "Kaynakça": 5360,
      "ĠDonegal": 5361,
      "kami": 5362,
      "ĠApna": 5363,
      "ĠRoop": 5364,
      "ingale": 5365,
      "Ġcland": 5366,
      "ĠКра": 5367,
      "ĠSubhanahu": 5368,
      "WeakTableMutex": 5369,
      "loch": 5370,
      "Ġspoł": 5371,
      "atini": 5372,
      "anaa": 5373,
      "Ġпопуляр": 5374,
      "setVisibility": 5375,
      "Ġclenched": 5376,
      "ĠAlvin": 5377,
      "imbledon": 5378,
      "Ġrecl": 5379,
      "bumper": 5380,
      "Ġbhuv": 5381,
      "Gruntfile": 5382,
      "گری": 5383,
      "ungry": 5384,
      "rograph": 5385,
      "radiation": 5386,
      "ĠCermak": 5387,
      "ĠTanaka": 5388,
      "лід": 5389,
      "Ġجرام": 5390,
      "POSIX": 5391,
      "ĠBrooke": 5392,
      "ICKEL": 5393,
      "etrable": 5394,
      "Ġimpenetrable": 5395,
      "мено": 5396,
      "Ġvesicles": 5397,
      "Ġnibbacan": 5398,
      "شهر": 5399,
      "Ġpeaks": 5400,
      "させて": 5401,
      "ĠLillian": 5402,
      "Slate": 5403,
      "ĠisEmpty": 5404,
      "Ġформи": 5405,
      "шенко": 5406,
      "жку": 5407,
      "iesel": 5408,
      "gary": 5409,
      "kring": 5410,
      "hanti": 5411,
      "ĠGlendale": 5412,
      "iculation": 5413,
      "ĠIsabella": 5414,
      "ĠShy": 5415,
      "διά": 5416,
      "Ġoauth": 5417,
      "iefert": 5418,
      "ollowing": 5419,
      "Ġالسعودي": 5420,
      "ĠLincolnshire": 5421,
      "ĠMiloš": 5422,
      "ĠNato": 5423,
      "ĠMadsen": 5424,
      "ĠBerlusconi": 5425,
      "ĠCrete": 5426,
      "Ġnaturalist": 5427,
      "Ġliel": 5428,
      "رحبا": 5429,
      "Ġsting": 5430,
      "erees": 5431,
      "ĠCoronado": 5432,
      "ガラス": 5433,
      "Ġcareless": 5434,
      "ünschen": 5435,
      "вей": 5436,
      "Жен": 5437,
      "emoration": 5438,
      "rights": 5439,
      "lesias": 5440,
      "ambuco": 5441,
      "Ġлітоў": 5442,
      "Ġzooms": 5443,
      "όσ": 5444,
      "ĠSig": 5445,
      "ĠGolan": 5446,
      "ategoria": 5447,
      "ĠMendes": 5448,
      "ĠSigmund": 5449,
      "uala": 5450,
      "yrd": 5451,
      "chter": 5452,
      "Ġmartyrd": 5453,
      "Ġmartyrdom": 5454,
      "izoen": 5455,
      "moins": 5456,
      "BLES": 5457,
      "कल": 5458,
      "ATP": 5459,
      "Ġнапря": 5460,
      "processable": 5461,
      "farwydd": 5462,
      "ĠMoy": 5463,
      "ĠPolyte": 5464,
      "Ġcontro": 5465,
      "EDIA": 5466,
      "biggl": 5467,
      "ĠEarle": 5468,
      "scatter": 5469,
      "Sever": 5470,
      "łach": 5471,
      "روز": 5472,
      "createServer": 5473,
      "wers": 5474,
      "ItemGroup": 5475,
      "ĠVerk": 5476,
      "Ġشرط": 5477,
      "Ġdön": 5478,
      "Ġмона": 5479,
      "ĠCommonwealth": 5480,
      "esai": 5481,
      "imgInit": 5482,
      "Ġлиц": 5483,
      "aiman": 5484,
      "esterd": 5485,
      "esterday": 5486,
      "hemm": 5487,
      "Ġausgest": 5488,
      "ĠAntib": 5489,
      "Ġtantrums": 5490,
      "tpl": 5491,
      "ulação": 5492,
      "ierd": 5493,
      "ĠZul": 5494,
      "ĠCasey": 5495,
      "Ġdesto": 5496,
      "chak": 5497,
      "ínc": 5498,
      "atios": 5499,
      "íncipe": 5500,
      "ĠMCT": 5501,
      "ĠEndpoint": 5502,
      "ברת": 5503,
      "ĠNadine": 5504,
      "Trigger": 5505,
      "Ġзапи": 5506,
      "ujjati": 5507,
      "arently": 5508,
      "Ġnash": 5509,
      "Ġthoáng": 5510,
      "erei": 5511,
      "afx": 5512,
      "Ġvertebr": 5513,
      "ĠLant": 5514,
      "רוי": 5515,
      "raújo": 5516,
      "ĠAraújo": 5517,
      "Ġaffez": 5518,
      "Ġtransvers": 5519,
      "Ship": 5520,
      "Ġhypothalam": 5521,
      "itio": 5522,
      "ĠSrivastava": 5523,
      "Ġlucifer": 5524,
      "Ġsession": 5525,
      "ĠHanson": 5526,
      "utty": 5527,
      "FBSDKGraph": 5528,
      "backer": 5529,
      "ĠBiotechn": 5530,
      "Ġпотен": 5531,
      "Ġپرا": 5532,
      "ĠFEMA": 5533,
      "ĠOndo": 5534,
      "ግብ": 5535,
      "Ġምግብ": 5536,
      "dout": 5537,
      "ĠRMA": 5538,
      "Ġبدا": 5539,
      "artha": 5540,
      "ashov": 5541,
      "ĠcustList": 5542,
      "Ġaneu": 5543,
      "ēia": 5544,
      "Ġdew": 5545,
      "Ġkēia": 5546,
      "اہم": 5547,
      "ĠRFC": 5548,
      "ĠgetInstance": 5549,
      "Hub": 5550,
      "Ġkehad": 5551,
      "Ġбезопас": 5552,
      "ინი": 5553,
      "retreat": 5554,
      "ĠCompt": 5555,
      "ĠWW": 5556,
      "берите": 5557,
      "Assemblies": 5558,
      "Ġbrem": 5559,
      "genic": 5560,
      "Ġbrems": 5561,
      "olí": 5562,
      "開催": 5563,
      "Ġstatist": 5564,
      "enteri": 5565,
      "Ġقوان": 5566,
      "含规": 5567,
      "隐含规": 5568,
      "PhCH": 5569,
      "隐含规则": 5570,
      "ĠMainz": 5571,
      "aceans": 5572,
      "كتر": 5573,
      "ĠRiy": 5574,
      "ĠDME": 5575,
      "Ġقائ": 5576,
      "apore": 5577,
      "otland": 5578,
      "Ġутвер": 5579,
      "mals": 5580,
      "ĠAngie": 5581,
      "креп": 5582,
      "itumor": 5583,
      "Ġmicroarray": 5584,
      "ĠVLAN": 5585,
      "fling": 5586,
      "وكي": 5587,
      "ĠEET": 5588,
      "Ġاوكي": 5589,
      "Ġequilib": 5590,
      "Ġкух": 5591,
      "Ġنج": 5592,
      "Ġлисто": 5593,
      "ishna": 5594,
      "orest": 5595,
      "Ġdents": 5596,
      "Ġelb": 5597,
      "mersible": 5598,
      "ĠCX": 5599,
      "Ġcompetit": 5600,
      "вайте": 5601,
      "ĠchargingStation": 5602,
      "etest": 5603,
      "кновен": 5604,
      "venue": 5605,
      "Ġmacroph": 5606,
      "Ġshen": 5607,
      "ĠLampard": 5608,
      "اوار": 5609,
      "blr": 5610,
      "ĠMcLaughlin": 5611,
      "setRequest": 5612,
      "Ġbunk": 5613,
      "Ġcomprend": 5614,
      "iddlewares": 5615,
      "ĠMurt": 5616,
      "Aeonium": 5617,
      "Ġrins": 5618,
      "icile": 5619,
      "ĠAPS": 5620,
      "Ġhomesch": 5621,
      "ctime": 5622,
      "ottak": 5623,
      "Ġlogic": 5624,
      "Ġبہانہ": 5625,
      "hasil": 5626,
      "Ġلگا": 5627,
      "HttpMethod": 5628,
      "아요": 5629,
      "Ġназна": 5630,
      "ĠtotalBlockUsedA": 5631,
      "Ġvelik": 5632,
      "ĠChap": 5633,
      "Ġconsent": 5634,
      "ĠEpile": 5635,
      "Conformance": 5636,
      "Ġtorque": 5637,
      "ORICAL": 5638,
      "Ġoor": 5639,
      "OpenCamera": 5640,
      "Ġdobrze": 5641,
      "ĠDSP": 5642,
      "нус": 5643,
      "Ġpomer": 5644,
      "Ġqar": 5645,
      "Ġnå": 5646,
      "MainWindow": 5647,
      "クション": 5648,
      "ĠIbar": 5649,
      "нему": 5650,
      "ConfigRequest": 5651,
      "ĠCông": 5652,
      "ĠMarty": 5653,
      "BottomOf": 5654,
      "Ġspringboard": 5655,
      "Ġsynergies": 5656,
      "入品": 5657,
      "輸入品": 5658,
      "otid": 5659,
      "ĠFach": 5660,
      "meni": 5661,
      "ĠNathalie": 5662,
      "riy": 5663,
      "arab": 5664,
      "Ġprelim": 5665,
      "efile": 5666,
      "Ġедно": 5667,
      "Ġpyr": 5668,
      "laublich": 5669,
      "لود": 5670,
      "artition": 5671,
      "RefSet": 5672,
      "presso": 5673,
      "ĠГор": 5674,
      "PFA": 5675,
      "uniqueItems": 5676,
      "ĠRepe": 5677,
      "aglia": 5678,
      "ERGY": 5679,
      "omans": 5680,
      "даги": 5681,
      "Flask": 5682,
      "ĠГу": 5683,
      "Ġîns": 5684,
      "Ġtxt": 5685,
      "ĠFog": 5686,
      "MSBuild": 5687,
      "раб": 5688,
      "riline": 5689,
      "iciar": 5690,
      "Ġabbey": 5691,
      "sle": 5692,
      "usso": 5693,
      "NOMBRE": 5694,
      "Ġthistle": 5695,
      "areers": 5696,
      "ĠAbia": 5697,
      "Ġcircuit": 5698,
      "gak": 5699,
      "ĠVoj": 5700,
      "cursors": 5701,
      "yaj": 5702,
      "ishw": 5703,
      "endimento": 5704,
      "rances": 5705,
      "Ġprocé": 5706,
      "ORIZ": 5707,
      "Ġзимо": 5708,
      "ريع": 5709,
      "calleft": 5710,
      "代引き": 5711,
      "ĠFairfield": 5712,
      "Sullivan": 5713,
      "ĠAmn": 5714,
      "ĠPas": 5715,
      "arası": 5716,
      "ĠMugabe": 5717,
      "ValMap": 5718,
      "Ġtroubles": 5719,
      "ĠBSTC": 5720,
      "Ġساي": 5721,
      "ለም": 5722,
      "Ġvéh": 5723,
      "ĠVit": 5724,
      "imshow": 5725,
      "ワンピ": 5726,
      "ワンピース": 5727,
      "たた": 5728,
      "LEMN": 5729,
      "ygod": 5730,
      "たたみ": 5731,
      "ĠHoy": 5732,
      "ymax": 5733,
      "Ġmutagen": 5734,
      "Gur": 5735,
      "Ġgegr": 5736,
      "thead": 5737,
      "лью": 5738,
      "Ġtượng": 5739,
      "Mobile": 5740,
      "Ġmadd": 5741,
      "Ġobil": 5742,
      "ĠMON": 5743,
      "льки": 5744,
      "NotEmpty": 5745,
      "Ġmedulla": 5746,
      "ĠPeac": 5747,
      "PHIA": 5748,
      "ران": 5749,
      "Ġnuis": 5750,
      "Ġapl": 5751,
      "Ġtotam": 5752,
      "inator": 5753,
      "Ġcytyle": 5754,
      "お願い致します": 5755,
      "digit": 5756,
      "Gloria": 5757,
      "ĠXiang": 5758,
      "aní": 5759,
      "рые": 5760,
      "Ġpons": 5761,
      "ermont": 5762,
      "toBe": 5763,
      "SIGNED": 5764,
      "Ġbols": 5765,
      "arthed": 5766,
      "ĠHoskins": 5767,
      "Ġмоде": 5768,
      "ĠTOC": 5769,
      "jsce": 5770,
      "דיה": 5771,
      "ĠHess": 5772,
      "шому": 5773,
      "knię": 5774,
      "BlockHash": 5775,
      "anneau": 5776,
      "دان": 5777,
      "ĠTajik": 5778,
      "корд": 5779,
      "sendLog": 5780,
      "odoro": 5781,
      "Ġproven": 5782,
      "espère": 5783,
      "wif": 5784,
      "Ġsidel": 5785,
      "ĠCline": 5786,
      "Ġquo": 5787,
      "omento": 5788,
      "Ġklad": 5789,
      "ĠLem": 5790,
      "ĠSocrates": 5791,
      "ancock": 5792,
      "おり": 5793,
      "Ġfencing": 5794,
      "actionBar": 5795,
      "TestSource": 5796,
      "žel": 5797,
      "AssetsResponse": 5798,
      "ambuk": 5799,
      "Ġsubtropical": 5800,
      "addImage": 5801,
      "Ġsuffered": 5802,
      "ĠBritney": 5803,
      "ĠDora": 5804,
      "Ġtreacher": 5805,
      "ĠMajka": 5806,
      "pmm": 5807,
      "Altern": 5808,
      "Ġkwal": 5809,
      "باز": 5810,
      "Ġkhen": 5811,
      "Референ": 5812,
      "чением": 5813,
      "razio": 5814,
      "ęt": 5815,
      "iejęt": 5816,
      "Ġinwon": 5817,
      "мих": 5818,
      "goal": 5819,
      "uban": 5820,
      "mLogin": 5821,
      "ĠRxe": 5822,
      "Positions": 5823,
      "KeysFiltered": 5824,
      "aturi": 5825,
      "Ġtarix": 5826,
      "Ġمتحده": 5827,
      "ーパー": 5828,
      "Ġcoleg": 5829,
      "ilst": 5830,
      "nda": 5831,
      "étrica": 5832,
      "Ġpermitt": 5833,
      "îne": 5834,
      "AMS": 5835,
      "Ġcleaved": 5836,
      "ancellationToken": 5837,
      "国内": 5838,
      "Ġfelic": 5839,
      "ĠEvalu": 5840,
      "Ġупа": 5841,
      "лым": 5842,
      "TeX": 5843,
      "Ġporo": 5844,
      "ректор": 5845,
      "altura": 5846,
      "Ġсудо": 5847,
      "ĠXerox": 5848,
      "ĠFujita": 5849,
      "estrel": 5850,
      "ändig": 5851,
      "StarGo": 5852,
      "جيل": 5853,
      "rigues": 5854,
      "Ġกระ": 5855,
      "aic": 5856,
      "ĠFing": 5857,
      "ĠOverton": 5858,
      "Superview": 5859,
      "Ġdés": 5860,
      "chedelic": 5861,
      "locationX": 5862,
      "Rail": 5863,
      "cMove": 5864,
      "ĠpcMove": 5865,
      "ocytic": 5866,
      "Ġkaro": 5867,
      "ntity": 5868,
      "Restore": 5869,
      "сыпа": 5870,
      "GLOBAL": 5871,
      "ĠAIC": 5872,
      "Ġfiref": 5873,
      "ĠGeraldine": 5874,
      "qda": 5875,
      "ysh": 5876,
      "ĠFTE": 5877,
      "ĠDyer": 5878,
      "Ġگور": 5879,
      "crop": 5880,
      "Ġkec": 5881,
      "Underv": 5882,
      "ĠPeri": 5883,
      "udahan": 5884,
      "Ġspits": 5885,
      "itimes": 5886,
      "ĠFast": 5887,
      "grand": 5888,
      "Ġfantast": 5889,
      "Ġchromedp": 5890,
      "BinaryOperation": 5891,
      "ziem": 5892,
      "arza": 5893,
      "Ġming": 5894,
      "Ġterren": 5895,
      "ovac": 5896,
      "returnValues": 5897,
      "ôte": 5898,
      "ansas": 5899,
      "Ġwomb": 5900,
      "Ġcous": 5901,
      "imread": 5902,
      "ĠWander": 5903,
      "Ġsubter": 5904,
      "られる": 5905,
      "Ġprič": 5906,
      "èles": 5907,
      "Ġsatte": 5908,
      "eye": 5909,
      "რავ": 5910,
      "ALTERNATIVNAMEN": 5911,
      "プレゼント": 5912,
      "ĠAngular": 5913,
      "Ġbrainstorm": 5914,
      "ĠWell": 5915,
      "ĠSurrey": 5916,
      "antren": 5917,
      "ými": 5918,
      "ゴン": 5919,
      "ლება": 5920,
      "iril": 5921,
      "Ġunul": 5922,
      "თვის": 5923,
      "ĠTInner": 5924,
      "ĠElaine": 5925,
      "gc": 5926,
      "ĠcurrentValue": 5927,
      "ĠFernand": 5928,
      "available": 5929,
      "Ġfonctionnal": 5930,
      "Ġyuk": 5931,
      "şam": 5932,
      "Ġпродол": 5933,
      "featureType": 5934,
      "sette": 5935,
      "NAME": 5936,
      "ўным": 5937,
      "etched": 5938,
      "ĠSolic": 5939,
      "stepCharacter": 5940,
      "Smooth": 5941,
      "ĠPars": 5942,
      "plitude": 5943,
      "ĠEdge": 5944,
      "adin": 5945,
      "idders": 5946,
      "oureux": 5947,
      "Ġآز": 5948,
      "ĠGettys": 5949,
      "inisc": 5950,
      "gült": 5951,
      "жды": 5952,
      "akannya": 5953,
      "τσι": 5954,
      "elloWorld": 5955,
      "Ġentrevista": 5956,
      "ĠOkt": 5957,
      "Ġprophyl": 5958,
      "ĠHermione": 5959,
      "DNN": 5960,
      "gry": 5961,
      "Ġdiffus": 5962,
      "Ġulterior": 5963,
      "ĠFERC": 5964,
      "ĠVlad": 5965,
      "Ġcompass": 5966,
      "Ġarterioles": 5967,
      "РСР": 5968,
      "込んだ": 5969,
      "Ġстаро": 5970,
      "EARCH": 5971,
      "জর": 5972,
      "Ġনজর": 5973,
      "ĠDrey": 5974,
      "jäl": 5975,
      "blica": 5976,
      "которые": 5977,
      "Ġсла": 5978,
      "Ġdismin": 5979,
      "ĠMalt": 5980,
      "aggi": 5981,
      "vern": 5982,
      "años": 5983,
      "getMove": 5984,
      "ĠSCT": 5985,
      "ĠReap": 5986,
      "Ġincididunt": 5987,
      "ieras": 5988,
      "ينة": 5989,
      "amerikan": 5990,
      "Ġфран": 5991,
      "Ġstrutt": 5992,
      "Ġdread": 5993,
      "დეს": 5994,
      "DBC": 5995,
      "insi": 5996,
      "ChangeString": 5997,
      "Ġroom": 5998,
      "innah": 5999,
      "eliest": 6000,
      "Ġgrim": 6001,
      "یده": 6002,
      "ĠPandya": 6003,
      "ĠWeld": 6004,
      "Ġpoison": 6005,
      "čnosti": 6006,
      "ewords": 6007,
      "ousing": 6008,
      "Ġسه": 6009,
      "aginate": 6010,
      "コレ": 6011,
      "ahasan": 6012,
      "Ġflavonoid": 6013,
      "ormul": 6014,
      "Ġtranscriptome": 6015,
      "Circ": 6016,
      "Ġloophole": 6017,
      "IFEST": 6018,
      "اقی": 6019,
      "Ġchildnya": 6020,
      "ĠXian": 6021,
      "ĠGilm": 6022,
      "Ġтера": 6023,
      "ĠGilmore": 6024,
      "ildet": 6025,
      "ĠTable": 6026,
      "ekra": 6027,
      "TRY": 6028,
      "ĠDian": 6029,
      "Ġdilat": 6030,
      "ĠstatusBar": 6031,
      "ĠIgre": 6032,
      "Employ": 6033,
      "brating": 6034,
      "يكية": 6035,
      "ĠCampe": 6036,
      "istles": 6037,
      "Ġfué": 6038,
      "ĠDordrecht": 6039,
      "Ġsamband": 6040,
      "kenn": 6041,
      "ĠCron": 6042,
      "ĠHook": 6043,
      "pey": 6044,
      "VAC": 6045,
      "idikan": 6046,
      "Ġترتيب": 6047,
      "BtnFill": 6048,
      "ĠMink": 6049,
      "idu": 6050,
      "Ġbibendum": 6051,
      "スキ": 6052,
      "ĠKeyword": 6053,
      "Ġdali": 6054,
      "Ġbilli": 6055,
      "osage": 6056,
      "Ġréc": 6057,
      "Schneider": 6058,
      "ToArabic": 6059,
      "Ġзаро": 6060,
      "urgery": 6061,
      "Ġcolle": 6062,
      "Ġseñal": 6063,
      "ĠHaiti": 6064,
      "UIKit": 6065,
      "ificado": 6066,
      "Ġขวด": 6067,
      "querysearch": 6068,
      "ĠНаталья": 6069,
      "Ġنکال": 6070,
      "Ġfistule": 6071,
      "ĠWalther": 6072,
      "ulph": 6073,
      "ĠDFT": 6074,
      "oprene": 6075,
      "spac": 6076,
      "varo": 6077,
      "ĠDaphne": 6078,
      "Ġontstaan": 6079,
      "rät": 6080,
      "Ġtör": 6081,
      "requestFocus": 6082,
      "ĠSFC": 6083,
      "лла": 6084,
      "otechnical": 6085,
      "Ġplayground": 6086,
      "Ġvale": 6087,
      "wei": 6088,
      "Ġdescob": 6089,
      "Ġheadless": 6090,
      "ilikom": 6091,
      "Ġذره": 6092,
      "MkvDir": 6093,
      "obao": 6094,
      "ittäin": 6095,
      "ĠEylül": 6096,
      "ĠUms": 6097,
      "Ġembod": 6098,
      "ĠRov": 6099,
      "fficient": 6100,
      "ĠIPC": 6101,
      "Ġروان": 6102,
      "Ġσει": 6103,
      "chas": 6104,
      "ulia": 6105,
      "Ġparabola": 6106,
      "ĠMPS": 6107,
      "ĠjobSearchRepo": 6108,
      "を入": 6109,
      "tmp": 6110,
      "udders": 6111,
      "lvmama": 6112,
      "inec": 6113,
      "ροφο": 6114,
      "Triplet": 6115,
      "ĠSchreiber": 6116,
      "ambil": 6117,
      "fing": 6118,
      "Ġsubsidence": 6119,
      "ومو": 6120,
      "yka": 6121,
      "vej": 6122,
      "buah": 6123,
      "Ġsetzt": 6124,
      "ĠCarpath": 6125,
      "žić": 6126,
      "ierto": 6127,
      "ĠTym": 6128,
      "dragon": 6129,
      "iliter": 6130,
      "スム": 6131,
      "ĠPLHIV": 6132,
      "スムーズ": 6133,
      "aacute": 6134,
      "etele": 6135,
      "ämän": 6136,
      "dej": 6137,
      "ίνουν": 6138,
      "ĠTweed": 6139,
      "ToStr": 6140,
      "Ġdisting": 6141,
      "Ġстрани": 6142,
      "Ġتامین": 6143,
      "deps": 6144,
      "álních": 6145,
      "Ġdettag": 6146,
      "ĠDario": 6147,
      "ĠAuto": 6148,
      "ĠReal": 6149,
      "ĠBundes": 6150,
      "multirow": 6151,
      "ĠBowie": 6152,
      "első": 6153,
      "ĠFoam": 6154,
      "Ġvutta": 6155,
      "Ġمای": 6156,
      "uelo": 6157,
      "Ġsadr": 6158,
      "ceq": 6159,
      "ĠFauc": 6160,
      "ĠFauci": 6161,
      "ónd": 6162,
      "Ġtegas": 6163,
      "ĠLola": 6164,
      "ónde": 6165,
      "Ġplotting": 6166,
      "ĠTets": 6167,
      "перы": 6168,
      "ĠMSA": 6169,
      "rimos": 6170,
      "ĠGalbraith": 6171,
      "engo": 6172,
      "ელის": 6173,
      "orbent": 6174,
      "PartResult": 6175,
      "blest": 6176,
      "liono": 6177,
      "MyShop": 6178,
      "idão": 6179,
      "ncbi": 6180,
      "ĠMaxim": 6181,
      "ĠMorb": 6182,
      "akata": 6183,
      "ĠMorbi": 6184,
      "Ġміс": 6185,
      "ĠPGR": 6186,
      "ucl": 6187,
      "edir": 6188,
      "ektedir": 6189,
      "CategoryId": 6190,
      "输入": 6191,
      "Prime": 6192,
      "zości": 6193,
      "bread": 6194,
      "zos": 6195,
      "ccedil": 6196,
      "Ġepiph": 6197,
      "ajā": 6198,
      "Ġلو": 6199,
      "TEA": 6200,
      "Ġпреми": 6201,
      "Ġएड": 6202,
      "Ġmura": 6203,
      "tract": 6204,
      "ĠSacramento": 6205,
      "Ġrodean": 6206,
      "aient": 6207,
      "maso": 6208,
      "しくて": 6209,
      "ĠYYY": 6210,
      "ĠYYYY": 6211,
      "erca": 6212,
      "enchen": 6213,
      "ermen": 6214,
      "getDefault": 6215,
      "VoidHunter": 6216,
      "ĠcallSettings": 6217,
      "Ġaura": 6218,
      "badlogic": 6219,
      "lois": 6220,
      "erder": 6221,
      "不到": 6222,
      "évrier": 6223,
      "boys": 6224,
      "Ġوقل": 6225,
      "ohama": 6226,
      "Ġtransceiver": 6227,
      "ላጊ": 6228,
      "ፈላጊ": 6229,
      "Ġللك": 6230,
      "commonByteArray": 6231,
      "Ġtiss": 6232,
      "Ġcá": 6233,
      "matchCondition": 6234,
      "Ġreentry": 6235,
      "yce": 6236,
      "γρά": 6237,
      "Ġtume": 6238,
      "UMS": 6239,
      "zące": 6240,
      "დილ": 6241,
      "Ġسره": 6242,
      "bank": 6243,
      "Ġunsupervised": 6244,
      "atzen": 6245,
      "unen": 6246,
      "ĠPPI": 6247,
      "ĠBach": 6248,
      "ĠTec": 6249,
      "Ġsopr": 6250,
      "aura": 6251,
      "Ġзаме": 6252,
      "chinen": 6253,
      "Ġprez": 6254,
      "intage": 6255,
      "ĠMCA": 6256,
      "ĠHamming": 6257,
      "Ġwykorzyst": 6258,
      "Ġsubdued": 6259,
      "Ġfej": 6260,
      "Ġazar": 6261,
      "rewn": 6262,
      "ceil": 6263,
      "metto": 6264,
      "ierta": 6265,
      "usch": 6266,
      "ĠLaurel": 6267,
      "etings": 6268,
      "Ġcontó": 6269,
      "ĠSancho": 6270,
      "ujud": 6271,
      "Ġnegó": 6272,
      "yty": 6273,
      "ريد": 6274,
      "SystemColors": 6275,
      "furter": 6276,
      "ixing": 6277,
      "adese": 6278,
      "Ġآسی": 6279,
      "ĠBotox": 6280,
      "ayscale": 6281,
      "Ġأي": 6282,
      "consulté": 6283,
      "Ġorden": 6284,
      "DVR": 6285,
      "baix": 6286,
      "ĠFlan": 6287,
      "ĠDior": 6288,
      "Ġoprav": 6289,
      "ohnson": 6290,
      "Ġasymptotics": 6291,
      "ĠABSOR": 6292,
      "ییر": 6293,
      "ĠBIS": 6294,
      "Ġسلام": 6295,
      "SRPInterface": 6296,
      "Ġexpend": 6297,
      "isel": 6298,
      "idene": 6299,
      "ĠJen": 6300,
      "Ġbrowsing": 6301,
      "ĠNumeric": 6302,
      "ním": 6303,
      "ĠConserv": 6304,
      "orkeling": 6305,
      "Ġgreek": 6306,
      "ĠSmackDown": 6307,
      "Ġperone": 6308,
      "sine": 6309,
      "InputValue": 6310,
      "Ġdiatom": 6311,
      "fq": 6312,
      "fqsen": 6313,
      "ата": 6314,
      "тил": 6315,
      "Ġtái": 6316,
      "Ġاعت": 6317,
      "xcor": 6318,
      "clas": 6319,
      "ScienceStudent": 6320,
      "рби": 6321,
      "روں": 6322,
      "stanbul": 6323,
      "Ġtokopedia": 6324,
      "Ġvolutpat": 6325,
      "uos": 6326,
      "AGO": 6327,
      "ĠToul": 6328,
      "стройки": 6329,
      "ĠEugenia": 6330,
      "下げ": 6331,
      "値下げ": 6332,
      "lys": 6333,
      "Ġімен": 6334,
      "risa": 6335,
      "Ġbloque": 6336,
      "reciation": 6337,
      "Beer": 6338,
      "onnaise": 6339,
      "Ġstolet": 6340,
      "jaya": 6341,
      "ĠАлександ": 6342,
      "ânia": 6343,
      "ĠIMP": 6344,
      "abilidad": 6345,
      "lardır": 6346,
      "iculture": 6347,
      "Ġpartner": 6348,
      "Ġeb": 6349,
      "ффици": 6350,
      "эффици": 6351,
      "acre": 6352,
      "pportune": 6353,
      "ربه": 6354,
      "ĠTECHN": 6355,
      "Ġperjury": 6356,
      "yat": 6357,
      "баров": 6358,
      "atiable": 6359,
      "odesmium": 6360,
      "Ġsatd": 6361,
      "rens": 6362,
      "ancis": 6363,
      "Ġمان": 6364,
      "substring": 6365,
      "ibilities": 6366,
      "Kenn": 6367,
      "rime": 6368,
      "Ġdach": 6369,
      "enya": 6370,
      "ĠRew": 6371,
      "ély": 6372,
      "ĠCondo": 6373,
      "Ġkosten": 6374,
      "Ġclín": 6375,
      "Ġhide": 6376,
      "kul": 6377,
      "ürk": 6378,
      "atedAt": 6379,
      "فاق": 6380,
      "Ġпоч": 6381,
      "Workbook": 6382,
      "aturally": 6383,
      "Ġერთი": 6384,
      "nashville": 6385,
      "Tov": 6386,
      "мию": 6387,
      "aghan": 6388,
      "Exposure": 6389,
      "ĠТатьяна": 6390,
      "シー": 6391,
      "ĠWait": 6392,
      "Ġverst": 6393,
      "एम": 6394,
      "एमएस": 6395,
      "Ġadvent": 6396,
      "ritin": 6397,
      "etted": 6398,
      "Ġferritin": 6399,
      "ĠmdlMeshVD": 6400,
      "UAGES": 6401,
      "üller": 6402,
      "дравствуйте": 6403,
      "Ġсвер": 6404,
      "ĠLein": 6405,
      "Ġsuggest": 6406,
      "Ġchampions": 6407,
      "ĠCSC": 6408,
      "avy": 6409,
      "Perfect": 6410,
      "ობაში": 6411,
      "otas": 6412,
      "Ġzajed": 6413,
      "thrust": 6414,
      "ĠWilkes": 6415,
      "Ġאון": 6416,
      "ssc": 6417,
      "icillin": 6418,
      "Ġсель": 6419,
      "GEN": 6420,
      "SAFER": 6421,
      "DEFGHIJKLMNOP": 6422,
      "FileData": 6423,
      "Ġfontweight": 6424,
      "impulan": 6425,
      "Ġvende": 6426,
      "Ġفرو": 6427,
      "Ġnullable": 6428,
      "Ġleu": 6429,
      "ድግ": 6430,
      "ድግዳ": 6431,
      "obbly": 6432,
      "რივი": 6433,
      "čius": 6434,
      "ĠLoad": 6435,
      "ĠCollabor": 6436,
      "vic": 6437,
      "icarb": 6438,
      "oxylic": 6439,
      "Ġکرتی": 6440,
      "icarboxylic": 6441,
      "adv": 6442,
      "Stabil": 6443,
      "ändert": 6444,
      "ইচ": 6445,
      "ĠTimor": 6446,
      "AndUpdate": 6447,
      "ĠEdmonds": 6448,
      "utim": 6449,
      "ampaign": 6450,
      "ĠCFM": 6451,
      "ĠOlive": 6452,
      "erweise": 6453,
      "izan": 6454,
      "ĠWIB": 6455,
      "Ġигро": 6456,
      "Ġcorrig": 6457,
      "ственными": 6458,
      "Credits": 6459,
      "olazione": 6460,
      "Ġبرس": 6461,
      "Ġللق": 6462,
      "Ġतलब": 6463,
      "ĠKoh": 6464,
      "ĠspineItem": 6465,
      "obacterial": 6466,
      "Ġdentées": 6467,
      "γμα": 6468,
      "ControlPTV": 6469,
      "sib": 6470,
      "Ġjuríd": 6471,
      "çamento": 6472,
      "tsv": 6473,
      "čių": 6474,
      "oxet": 6475,
      "TimeUnit": 6476,
      "faith": 6477,
      "ĠBoga": 6478,
      "etsk": 6479,
      "тик": 6480,
      "rifying": 6481,
      "married": 6482,
      "eqn": 6483,
      "Ġfeit": 6484,
      "Ġwaist": 6485,
      "ორის": 6486,
      "presa": 6487,
      "igest": 6488,
      "aruh": 6489,
      "ĠVARIA": 6490,
      "斯拉": 6491,
      "特斯拉": 6492,
      "يير": 6493,
      "Ġcondo": 6494,
      "Ġzuen": 6495,
      "fortunate": 6496,
      "ĠMaf": 6497,
      "Ġunlaw": 6498,
      "radiol": 6499,
      "ToList": 6500,
      "רים": 6501,
      "Machine": 6502,
      "ایط": 6503,
      "Upgrade": 6504,
      "Ġتعلم": 6505,
      "ありが": 6506,
      "Ġanisot": 6507,
      "Ġfruct": 6508,
      "PanelView": 6509,
      "フェ": 6510,
      "ĠRamesh": 6511,
      "adigane": 6512,
      "ופה": 6513,
      "reif": 6514,
      "ĠALLO": 6515,
      "coil": 6516,
      "lstm": 6517,
      "ambahkan": 6518,
      "صير": 6519,
      "тельных": 6520,
      "čni": 6521,
      "Ġmergeddata": 6522,
      "vann": 6523,
      "alámb": 6524,
      "ĠBeasley": 6525,
      "Ġfermentum": 6526,
      "Ġmegap": 6527,
      "インタビュー": 6528,
      "horm": 6529,
      "Ġheave": 6530,
      "wx": 6531,
      "aturan": 6532,
      "vien": 6533,
      "ĠMTLTexture": 6534,
      "Ġکاز": 6535,
      "Ġzeal": 6536,
      "Keyword": 6537,
      "idum": 6538,
      "hattisgarh": 6539,
      "Ġisch": 6540,
      "EDULE": 6541,
      "Ġabit": 6542,
      "ĠTarantino": 6543,
      "igues": 6544,
      "YNAMIC": 6545,
      "Balt": 6546,
      "Ġhứng": 6547,
      "Ġisoform": 6548,
      "ĠHaitian": 6549,
      "Ġبام": 6550,
      "Ġالعرب": 6551,
      "Pipeline": 6552,
      "embrane": 6553,
      "ینده": 6554,
      "ĠUIAlert": 6555,
      "ĠIHAOAVOA": 6556,
      "jskiego": 6557,
      "ĠSarm": 6558,
      "Ġinvit": 6559,
      "Ġgewähr": 6560,
      "öne": 6561,
      "Ġlume": 6562,
      "Ġalberg": 6563,
      "Ġpenguins": 6564,
      "Ġalberga": 6565,
      "ラリー": 6566,
      "eslint": 6567,
      "ĠВан": 6568,
      "ónicos": 6569,
      "Ġmilliard": 6570,
      "Ġдере": 6571,
      "ClO": 6572,
      "цата": 6573,
      "Ġfoams": 6574,
      "ĠChatt": 6575,
      "Ġvuccanti": 6576,
      "ĠonlyOwner": 6577,
      "marking": 6578,
      "ĠBresc": 6579,
      "ĠBrescia": 6580,
      "лакти": 6581,
      "rotz": 6582,
      "Ġlemmas": 6583,
      "Ġdump": 6584,
      "تاجها": 6585,
      "ĠmaxY": 6586,
      "Ġtanger": 6587,
      "Ġterrest": 6588,
      "Ġbrist": 6589,
      "ذر": 6590,
      "ĠKersh": 6591,
      "ĠKershaw": 6592,
      "ریز": 6593,
      "vali": 6594,
      "ソフト": 6595,
      "ビング": 6596,
      "onnement": 6597,
      "нис": 6598,
      "äuser": 6599,
      "obia": 6600,
      "ĠOwn": 6601,
      "atoires": 6602,
      "acağız": 6603,
      "Ġمدی": 6604,
      "Metaxy": 6605,
      "Interrupt": 6606,
      "Ġee": 6607,
      "diendo": 6608,
      "jsko": 6609,
      "selfobj": 6610,
      "Ġneck": 6611,
      "ורה": 6612,
      "atot": 6613,
      "тельным": 6614,
      "phenylsulfanyl": 6615,
      "ĠKays": 6616,
      "ĠNEG": 6617,
      "eveloped": 6618,
      "Runnable": 6619,
      "eradish": 6620,
      "gimento": 6621,
      "想到": 6622,
      "没想到": 6623,
      "antle": 6624,
      "volt": 6625,
      "Ġसदर": 6626,
      "Ġúltimos": 6627,
      "arlings": 6628,
      "ቀም": 6629,
      "vitro": 6630,
      "manufact": 6631,
      "sol": 6632,
      "individ": 6633,
      "oyle": 6634,
      "AvlTree": 6635,
      "Popp": 6636,
      "Poppins": 6637,
      "Ġskut": 6638,
      "ורים": 6639,
      "Ġsıv": 6640,
      "Ġcity": 6641,
      "versive": 6642,
      "Ġganó": 6643,
      "Ġوالت": 6644,
      "rega": 6645,
      "Ġدون": 6646,
      "Ġencomp": 6647,
      "track": 6648,
      "asthen": 6649,
      "SDK": 6650,
      "vaj": 6651,
      "icias": 6652,
      "zier": 6653,
      "Ġgsi": 6654,
      "Ġsvil": 6655,
      "šta": 6656,
      "mData": 6657,
      "ĠChamberlain": 6658,
      "Ġtoug": 6659,
      "fft": 6660,
      "JWT": 6661,
      "ekš": 6662,
      "чами": 6663,
      "örk": 6664,
      "ZEN": 6665,
      "ĠSudanese": 6666,
      "icients": 6667,
      "GULDUR": 6668,
      "ucchini": 6669,
      "ĠDonner": 6670,
      "hst": 6671,
      "visions": 6672,
      "ĠACS": 6673,
      "ĠGerd": 6674,
      "ĠJesuit": 6675,
      "ĠATR": 6676,
      "企业": 6677,
      "ionately": 6678,
      "Ġnodemailer": 6679,
      "Ġthermonuclear": 6680,
      "ĠTorn": 6681,
      "querdo": 6682,
      "ĠTaunton": 6683,
      "Ġtức": 6684,
      "Ġваж": 6685,
      "Ġハンド": 6686,
      "รอบ": 6687,
      "acency": 6688,
      "unate": 6689,
      "ĠInclude": 6690,
      "Ġالنس": 6691,
      "SecurityMarks": 6692,
      "cidas": 6693,
      "Ġcomeback": 6694,
      "Ġrecordó": 6695,
      "ĠTayyip": 6696,
      "aport": 6697,
      "renewcommand": 6698,
      "etters": 6699,
      "ramar": 6700,
      "Ġпункт": 6701,
      "STRAINT": 6702,
      "ურთიერთ": 6703,
      "ertz": 6704,
      "ĠShow": 6705,
      "WIL": 6706,
      "ĠPenn": 6707,
      "Ġпоя": 6708,
      "ahankan": 6709,
      "ĠMcGr": 6710,
      "ĠTour": 6711,
      "тім": 6712,
      "oux": 6713,
      "DNA": 6714,
      "ĠHenn": 6715,
      "сток": 6716,
      "Ġsufrido": 6717,
      "Ġcaul": 6718,
      "ĠOFDM": 6719,
      "uduk": 6720,
      "ĠВул": 6721,
      "TintColor": 6722,
      "वळ": 6723,
      "ĠType": 6724,
      "aita": 6725,
      "ĠCanaria": 6726,
      "Ġscint": 6727,
      "Fram": 6728,
      "льности": 6729,
      "qualiter": 6730,
      "lance": 6731,
      "Ġsklearn": 6732,
      "худ": 6733,
      "ouns": 6734,
      "Ġtestclass": 6735,
      "Ġmalesuada": 6736,
      "ĠGALL": 6737,
      "Ġمیک": 6738,
      "Ġcolon": 6739,
      "eldorf": 6740,
      "masht": 6741,
      "ĠErfol": 6742,
      "Ġsweetest": 6743,
      "ĠServi": 6744,
      "Meta": 6745,
      "óle": 6746,
      "ottes": 6747,
      "countplot": 6748,
      "Ġбел": 6749,
      "nativeElement": 6750,
      "ĠSSI": 6751,
      "urea": 6752,
      "Ġestrat": 6753,
      "ünftig": 6754,
      "Ġmiteinander": 6755,
      "Ġpisan": 6756,
      "astrar": 6757,
      "Ġrecorrer": 6758,
      "小程序": 6759,
      "İM": 6760,
      "izarse": 6761,
      "ogyakarta": 6762,
      "Ġdiffé": 6763,
      "currentCharacter": 6764,
      "Droite": 6765,
      "Ġutilisons": 6766,
      "динку": 6767,
      "ürgen": 6768,
      "ĠAstronom": 6769,
      "rosk": 6770,
      "roskop": 6771,
      "chaoxing": 6772,
      "Ġpuk": 6773,
      "ahuje": 6774,
      "ĠTrinity": 6775,
      "ĠBlackburn": 6776,
      "bock": 6777,
      "occan": 6778,
      "Ġbahsede": 6779,
      "جست": 6780,
      "arupani": 6781,
      "apen": 6782,
      "retien": 6783,
      "ĠCharlene": 6784,
      "itioners": 6785,
      "Ġestablish": 6786,
      "ayaran": 6787,
      "pInBuffer": 6788,
      "adapt": 6789,
      "istered": 6790,
      "Fetch": 6791,
      "Ġvina": 6792,
      "üşt": 6793,
      "ÕES": 6794,
      "ènes": 6795,
      "herlands": 6796,
      "ĠProng": 6797,
      "Ġbegren": 6798,
      "нам": 6799,
      "літы": 6800,
      "Ġprogr": 6801,
      "рила": 6802,
      "дор": 6803,
      "icto": 6804,
      "ĠLoth": 6805,
      "thin": 6806,
      "Ġtestator": 6807,
      "ĠDom": 6808,
      "Ġशर": 6809,
      "arantine": 6810,
      "ystyle": 6811,
      "Ġmask": 6812,
      "ĠWein": 6813,
      "register": 6814,
      "abhar": 6815,
      "ائب": 6816,
      "immung": 6817,
      "ĠKirk": 6818,
      "FormProvider": 6819,
      "ASMA": 6820,
      "ĠСерге": 6821,
      "ಳಸ": 6822,
      "봅시": 6823,
      "explained": 6824,
      "Ġಬಳಸ": 6825,
      "봅시다": 6826,
      "шты": 6827,
      "ĠAGC": 6828,
      "unteers": 6829,
      "ĠMilli": 6830,
      "trt": 6831,
      "igheten": 6832,
      "Ġcomple": 6833,
      "ĠPetra": 6834,
      "Ġfierc": 6835,
      "últ": 6836,
      "Ġورح": 6837,
      "Ġرون": 6838,
      "ektion": 6839,
      "ĠHumphries": 6840,
      "ĠPollard": 6841,
      "ĠESA": 6842,
      "volence": 6843,
      "Ġmastic": 6844,
      "BUNDLE": 6845,
      "ĠLam": 6846,
      "ukone": 6847,
      "Ġраст": 6848,
      "RetResult": 6849,
      "ĠDFA": 6850,
      "Ġexpert": 6851,
      "Truth": 6852,
      "Ġaerob": 6853,
      "builtin": 6854,
      "Rite": 6855,
      "ĠGri": 6856,
      "IBRARY": 6857,
      "ĠExpend": 6858,
      "abla": 6859,
      "ĠBeal": 6860,
      "Ġני": 6861,
      "Ġyatharaham": 6862,
      "yez": 6863,
      "щины": 6864,
      "ĠGiuliani": 6865,
      "Ġcep": 6866,
      "chid": 6867,
      "idual": 6868,
      "exam": 6869,
      "ennan": 6870,
      "IPOP": 6871,
      "ĠARN": 6872,
      "fless": 6873,
      "Ġheyday": 6874,
      "AWSJavaScript": 6875,
      "oky": 6876,
      "Olymp": 6877,
      "ĠKardash": 6878,
      "ilight": 6879,
      "чений": 6880,
      "ĠNipp": 6881,
      "ابس": 6882,
      "Ġmetabol": 6883,
      "Ġcic": 6884,
      "Ġnegoc": 6885,
      "ştur": 6886,
      "ĠMinMaxScaler": 6887,
      "ĠVanden": 6888,
      "perienced": 6889,
      "ĠCoolidge": 6890,
      "нин": 6891,
      "ĠTimur": 6892,
      "Ġالصفح": 6893,
      "ANCIAL": 6894,
      "romeDriver": 6895,
      "Ġproblem": 6896,
      "Ġplastic": 6897,
      "ryt": 6898,
      "юсь": 6899,
      "ĠProlog": 6900,
      "ゴールド": 6901,
      "ĠADC": 6902,
      "Ham": 6903,
      "ritto": 6904,
      "ĠHardin": 6905,
      "izziness": 6906,
      "ĠgetSupport": 6907,
      "ĠSwitchCompat": 6908,
      "ĠFernanda": 6909,
      "Curs": 6910,
      "קום": 6911,
      "ĠWalters": 6912,
      "notlocked": 6913,
      "ulit": 6914,
      "Ġhamp": 6915,
      "gek": 6916,
      "Ġheut": 6917,
      "ovl": 6918,
      "ĠElovl": 6919,
      "ový": 6920,
      "Broad": 6921,
      "ĠLuck": 6922,
      "Delet": 6923,
      "yatiti": 6924,
      "ĠCoxeter": 6925,
      "ĠGöl": 6926,
      "Jähr": 6927,
      "atia": 6928,
      "ĠRafa": 6929,
      "ĠSchwarzschild": 6930,
      "getLong": 6931,
      "телей": 6932,
      "ہر": 6933,
      "τά": 6934,
      "anzen": 6935,
      "لهم": 6936,
      "AnimationClip": 6937,
      "тика": 6938,
      "Ġkek": 6939,
      "Ġentram": 6940,
      "της": 6941,
      "mee": 6942,
      "ĠCric": 6943,
      "ilded": 6944,
      "Loss": 6945,
      "seq": 6946,
      "olutely": 6947,
      "ODO": 6948,
      "Ġinterrupt": 6949,
      "ĠBret": 6950,
      "Ġleit": 6951,
      "itej": 6952,
      "Ġproverb": 6953,
      "Ġнеиз": 6954,
      "ラウンド": 6955,
      "チー": 6956,
      "モチー": 6957,
      "Ġdzi": 6958,
      "Ġtrasp": 6959,
      "モチーフ": 6960,
      "Ġatthakath": 6961,
      "Ġdechlorination": 6962,
      "Ġзла": 6963,
      "iciencies": 6964,
      "Ġkahelar": 6965,
      "robe": 6966,
      "zus": 6967,
      "ograft": 6968,
      "oden": 6969,
      "Ġprobation": 6970,
      "taro": 6971,
      "Ġdemie": 6972,
      "Osc": 6973,
      "jc": 6974,
      "Ġڪ": 6975,
      "ĠEnrich": 6976,
      "dbjc": 6977,
      "CaseMissense": 6978,
      "wright": 6979,
      "AppSettings": 6980,
      "ĠHispan": 6981,
      "сторон": 6982,
      "води": 6983,
      "Ġelic": 6984,
      "ĠDFS": 6985,
      "antages": 6986,
      "umnos": 6987,
      "Ġсохра": 6988,
      "Ġheap": 6989,
      "Ġотвер": 6990,
      "نامج": 6991,
      "škai": 6992,
      "мены": 6993,
      "Ġсвой": 6994,
      "érences": 6995,
      "ĠXing": 6996,
      "Ġпур": 6997,
      "ĠWikidata": 6998,
      "ĠFind": 6999,
      "Ġsubcl": 7000,
      "getImageFolder": 7001,
      "Ġbrowser": 7002,
      "Ġمشرف": 7003,
      "imen": 7004,
      "inkler": 7005,
      "ĠMcCann": 7006,
      "Ġwund": 7007,
      "ĠStalingrad": 7008,
      "StoredKeys": 7009,
      "ĠAnaly": 7010,
      "ntag": 7011,
      "ehan": 7012,
      "Ġposl": 7013,
      "ĠSheehan": 7014,
      "vala": 7015,
      "Bever": 7016,
      "Ġunital": 7017,
      "agenes": 7018,
      "Ġdakkh": 7019,
      "ĠHaga": 7020,
      "itié": 7021,
      "Ġcandlestick": 7022,
      "inski": 7023,
      "Ġgrace": 7024,
      "かけた": 7025,
      "ĠLuh": 7026,
      "ダイヤ": 7027,
      "Ġparmes": 7028,
      "mounted": 7029,
      "Ġreú": 7030,
      "ipelines": 7031,
      "Ġpya": 7032,
      "Ġpains": 7033,
      "Ġnetto": 7034,
      "Ġlasci": 7035,
      "Ġчы": 7036,
      "əri": 7037,
      "tapping": 7038,
      "łod": 7039,
      "ĠSlovens": 7040,
      "نىڭ": 7041,
      "ĠLittleton": 7042,
      "Ġخلي": 7043,
      "CreationFailed": 7044,
      "zwe": 7045,
      "Ġwaven": 7046,
      "жай": 7047,
      "addington": 7048,
      "Ġhotiti": 7049,
      "ĠTrafalgar": 7050,
      "FEN": 7051,
      "ĠBhand": 7052,
      "stato": 7053,
      "quina": 7054,
      "Ġvrh": 7055,
      "ĠAvery": 7056,
      "Ġkwiet": 7057,
      "Ġinger": 7058,
      "Ġنوا": 7059,
      "Ġجلو": 7060,
      "rache": 7061,
      "ceral": 7062,
      "WindowTitle": 7063,
      "ĠConstantine": 7064,
      "öny": 7065,
      "ocator": 7066,
      "embangan": 7067,
      "ามารถ": 7068,
      "פרי": 7069,
      "Ġсосто": 7070,
      "ède": 7071,
      "Ġcomorbidities": 7072,
      "íte": 7073,
      "ĠSelect": 7074,
      "enação": 7075,
      "theria": 7076,
      "Ġconifers": 7077,
      "Ġреда": 7078,
      "Ġمتحد": 7079,
      "Ġbyl": 7080,
      "ĠChern": 7081,
      "Ġlinger": 7082,
      "affee": 7083,
      "IfExists": 7084,
      "svn": 7085,
      "Ġنقص": 7086,
      "Ġشورای": 7087,
      "ĠNCT": 7088,
      "Ġジャン": 7089,
      "Ġआज": 7090,
      "ĠDuncan": 7091,
      "ĠHabib": 7092,
      "Ġindulge": 7093,
      "游戏": 7094,
      "تباين": 7095,
      "oulos": 7096,
      "дового": 7097,
      "Ġaprend": 7098,
      "ĠUntersuch": 7099,
      "uminate": 7100,
      "Ġالتم": 7101,
      "дневно": 7102,
      "ĠmaxHeight": 7103,
      "Ġliegt": 7104,
      "ĠLibyan": 7105,
      "HEY": 7106,
      "ĠMetz": 7107,
      "skipped": 7108,
      "liest": 7109,
      "Ġпротивополо": 7110,
      "mouseout": 7111,
      "ĠAsher": 7112,
      "сен": 7113,
      "forge": 7114,
      "cej": 7115,
      "Ġfür": 7116,
      "ĠBuildable": 7117,
      "alers": 7118,
      "ĠThin": 7119,
      "Urls": 7120,
      "igts": 7121,
      "ĠLibert": 7122,
      "დება": 7123,
      "uelto": 7124,
      "Ġ경": 7125,
      "Ġ경우": 7126,
      "axaca": 7127,
      "Ġvelit": 7128,
      "Ġgelişmeler": 7129,
      "oxane": 7130,
      "ravings": 7131,
      "rcParams": 7132,
      "gete": 7133,
      "ezeigt": 7134,
      "щей": 7135,
      "Ġbatter": 7136,
      "plotlib": 7137,
      "pekte": 7138,
      "Ġmycel": 7139,
      "Ġleptonic": 7140,
      "dzić": 7141,
      "HeaderAccept": 7142,
      "Flood": 7143,
      "Ġjamb": 7144,
      "ולם": 7145,
      "Ġshallower": 7146,
      "科学": 7147,
      "Ġcatch": 7148,
      "Ġüks": 7149,
      "Gaussian": 7150,
      "ôme": 7151,
      "Ġотмеча": 7152,
      "omac": 7153,
      "Ġأن": 7154,
      "ningarna": 7155,
      "sses": 7156,
      "ĠUlysses": 7157,
      "wych": 7158,
      "zana": 7159,
      "ĠEttha": 7160,
      "Ġpoursu": 7161,
      "сной": 7162,
      "きました": 7163,
      "ясплат": 7164,
      "ĠPLAN": 7165,
      "Ġcomical": 7166,
      "ņas": 7167,
      "pdo": 7168,
      "ĠAbh": 7169,
      "orschung": 7170,
      "foo": 7171,
      "venidos": 7172,
      "ertDialog": 7173,
      "Ġзара": 7174,
      "confirm": 7175,
      "mol": 7176,
      "Ġleach": 7177,
      "estima": 7178,
      "hiq": 7179,
      "plementation": 7180,
      "ĠPicard": 7181,
      "avos": 7182,
      "вело": 7183,
      "Ġattho": 7184,
      "ĠMongolia": 7185,
      "Ġsublimation": 7186,
      "akkhand": 7187,
      "ubh": 7188,
      "Ġdilakukan": 7189,
      "ĠshouldUse": 7190,
      "Ġexact": 7191,
      "Ġالعاش": 7192,
      "ibilidades": 7193,
      "rparam": 7194,
      "ĠLuther": 7195,
      "ظيم": 7196,
      "Ġspol": 7197,
      "ĠSCRE": 7198,
      "Ġkale": 7199,
      "ĠREACT": 7200,
      "swipe": 7201,
      "atai": 7202,
      "login": 7203,
      "reff": 7204,
      "Ġconvin": 7205,
      "ServletException": 7206,
      "льзу": 7207,
      "ประส": 7208,
      "Ġдизай": 7209,
      "rolo": 7210,
      "PLOY": 7211,
      "ĠFall": 7212,
      "fusc": 7213,
      "がございます": 7214,
      "براير": 7215,
      "ństw": 7216,
      "jad": 7217,
      "pherd": 7218,
      "ĠPNP": 7219,
      "ĠPaige": 7220,
      "acyjnego": 7221,
      "anski": 7222,
      "Ġcaud": 7223,
      "ouchers": 7224,
      "ayaan": 7225,
      "ολ": 7226,
      "ambut": 7227,
      "Todos": 7228,
      "ĠClara": 7229,
      "یال": 7230,
      "ĠMPI": 7231,
      "Ġخیال": 7232,
      "Ġдопо": 7233,
      "Ġrough": 7234,
      "ĠAppPage": 7235,
      "ającym": 7236,
      "Ġpina": 7237,
      "Ġtomb": 7238,
      "Ġmenjel": 7239,
      "urricular": 7240,
      "Ġparler": 7241,
      "ocumented": 7242,
      "BlackSholes": 7243,
      "sysc": 7244,
      "boor": 7245,
      "aminophen": 7246,
      "Ġintoxicated": 7247,
      "syscall": 7248,
      "ĠBU": 7249,
      "Ġelse": 7250,
      "ĠcurrentWeather": 7251,
      "Ġresear": 7252,
      "BrI": 7253,
      "MAPbBrI": 7254,
      "Ġdamp": 7255,
      "children": 7256,
      "ĠNext": 7257,
      "Ġcinch": 7258,
      "Ġturpis": 7259,
      "λλην": 7260,
      "ható": 7261,
      "Ġmitten": 7262,
      "Classifier": 7263,
      "しない": 7264,
      "maxLength": 7265,
      "レクトリ": 7266,
      "Ġvivere": 7267,
      "akhir": 7268,
      "ĠEzek": 7269,
      "coe": 7270,
      "ĠPacheco": 7271,
      "ขา": 7272,
      "Ġpuer": 7273,
      "remely": 7274,
      "Ġengulf": 7275,
      "feitos": 7276,
      "рядок": 7277,
      "airement": 7278,
      "PrintError": 7279,
      "ĠSaf": 7280,
      "Montgomery": 7281,
      "ĠTencent": 7282,
      "commut": 7283,
      "ĠSRS": 7284,
      "ريقه": 7285,
      "녕하세요": 7286,
      "sorf": 7287,
      "posable": 7288,
      "Ġadjournment": 7289,
      "sorfinaly": 7290,
      "Ġcoars": 7291,
      "quilla": 7292,
      "assium": 7293,
      "copter": 7294,
      "ĠhandlerInput": 7295,
      "Ġgati": 7296,
      "Ġpask": 7297,
      "Ġkerült": 7298,
      "inien": 7299,
      "Ġcoul": 7300,
      "bey": 7301,
      "ĠEpid": 7302,
      "bodyParser": 7303,
      "igate": 7304,
      "Ġconfidential": 7305,
      "уна": 7306,
      "asidd": 7307,
      "Ġpersonen": 7308,
      "Ġganar": 7309,
      "ouchement": 7310,
      "Ġگرد": 7311,
      "Ġvalue": 7312,
      "Ġвспо": 7313,
      "icum": 7314,
      "opedic": 7315,
      "ushchev": 7316,
      "מו": 7317,
      "Ġtat": 7318,
      "Ġproceder": 7319,
      "রত": 7320,
      "Ġпунк": 7321,
      "itsu": 7322,
      "requent": 7323,
      "Ġanterior": 7324,
      "ĠCSO": 7325,
      "هره": 7326,
      "Ġprag": 7327,
      "StrTo": 7328,
      "router": 7329,
      "Ġrendez": 7330,
      "idens": 7331,
      "ĠDante": 7332,
      "Ġdemikian": 7333,
      "ĠCecil": 7334,
      "setC": 7335,
      "Ġtránh": 7336,
      "Ġεν": 7337,
      "BERT": 7338,
      "emple": 7339,
      "locator": 7340,
      "لية": 7341,
      "borg": 7342,
      "ĠPROBLE": 7343,
      "cadilly": 7344,
      "pectives": 7345,
      "Ġznamen": 7346,
      "licas": 7347,
      "urence": 7348,
      "ĠDisp": 7349,
      "Ġوالاح": 7350,
      "Ġdécerné": 7351,
      "elda": 7352,
      "Ġمجم": 7353,
      "Ġvasodil": 7354,
      "Ġposled": 7355,
      "версите": 7356,
      "ĠBu": 7357,
      "สม": 7358,
      "assar": 7359,
      "Ġparagraph": 7360,
      "ĠLobkowicz": 7361,
      "ilinear": 7362,
      "ĠAph": 7363,
      "<UNK>": 7364
    },
    "old_vocab": {
      "!": 0,
      "\"": 1,
      "#": 2,
      "$": 3,
      "%": 4,
      "&": 5,
      "'": 6,
      "(": 7,
      ")": 8,
      "*": 9,
      "+": 10,
      ",": 11,
      "-": 12,
      ".": 13,
      "/": 14,
      "0": 15,
      "1": 16,
      "2": 17,
      "3": 18,
      "4": 19,
      "5": 20,
      "6": 21,
      "7": 22,
      "8": 23,
      "9": 24,
      ":": 25,
      ";": 26,
      "<": 27,
      "=": 28,
      ">": 29,
      "?": 30,
      "@": 31,
      "A": 32,
      "B": 33,
      "C": 34,
      "D": 35,
      "E": 36,
      "F": 37,
      "G": 38,
      "H": 39,
      "I": 40,
      "J": 41,
      "K": 42,
      "L": 43,
      "M": 44,
      "N": 45,
      "O": 46,
      "P": 47,
      "Q": 48,
      "R": 49,
      "S": 50,
      "T": 51,
      "U": 52,
      "V": 53,
      "W": 54,
      "X": 55,
      "Y": 56,
      "Z": 57,
      "[": 58,
      "\\": 59,
      "]": 60,
      "^": 61,
      "_": 62,
      "`": 63,
      "a": 64,
      "b": 65,
      "c": 66,
      "d": 67,
      "e": 68,
      "f": 69,
      "g": 70,
      "h": 71,
      "i": 72,
      "j": 73,
      "k": 74,
      "l": 75,
      "m": 76,
      "n": 77,
      "o": 78,
      "p": 79,
      "q": 80,
      "r": 81,
      "s": 82,
      "t": 83,
      "u": 84,
      "v": 85,
      "w": 86,
      "x": 87,
      "y": 88,
      "z": 89,
      "{": 90,
      "|": 91,
      "}": 92,
      "~": 93,
      "¡": 94,
      "¢": 95,
      "£": 96,
      "¤": 97,
      "¥": 98,
      "¦": 99,
      "§": 100,
      "¨": 101,
      "©": 102,
      "ª": 103,
      "«": 104,
      "¬": 105,
      "®": 106,
      "¯": 107,
      "°": 108,
      "±": 109,
      "²": 110,
      "³": 111,
      "´": 112,
      "µ": 113,
      "¶": 114,
      "·": 115,
      "¸": 116,
      "¹": 117,
      "º": 118,
      "»": 119,
      "¼": 120,
      "½": 121,
      "¾": 122,
      "¿": 123,
      "À": 124,
      "Á": 125,
      "Â": 126,
      "Ã": 127,
      "Ä": 128,
      "Å": 129,
      "Æ": 130,
      "Ç": 131,
      "È": 132,
      "É": 133,
      "Ê": 134,
      "Ë": 135,
      "Ì": 136,
      "Í": 137,
      "Î": 138,
      "Ï": 139,
      "Ð": 140,
      "Ñ": 141,
      "Ò": 142,
      "Ó": 143,
      "Ô": 144,
      "Õ": 145,
      "Ö": 146,
      "×": 147,
      "Ø": 148,
      "Ù": 149,
      "Ú": 150,
      "Û": 151,
      "Ü": 152,
      "Ý": 153,
      "Þ": 154,
      "ß": 155,
      "à": 156,
      "á": 157,
      "â": 158,
      "ã": 159,
      "ä": 160,
      "å": 161,
      "æ": 162,
      "ç": 163,
      "è": 164,
      "é": 165,
      "ê": 166,
      "ë": 167,
      "ì": 168,
      "í": 169,
      "î": 170,
      "ï": 171,
      "ð": 172,
      "ñ": 173,
      "ò": 174,
      "ó": 175,
      "ô": 176,
      "õ": 177,
      "ö": 178,
      "÷": 179,
      "ø": 180,
      "ù": 181,
      "ú": 182,
      "û": 183,
      "ü": 184,
      "ý": 185,
      "þ": 186,
      "ÿ": 187,
      "Ā": 188,
      "ā": 189,
      "Ă": 190,
      "ă": 191,
      "Ą": 192,
      "ą": 193,
      "Ć": 194,
      "ć": 195,
      "Ĉ": 196,
      "ĉ": 197,
      "Ċ": 198,
      "ċ": 199,
      "Č": 200,
      "č": 201,
      "Ď": 202,
      "ď": 203,
      "Đ": 204,
      "đ": 205,
      "Ē": 206,
      "ē": 207,
      "Ĕ": 208,
      "ĕ": 209,
      "Ė": 210,
      "ė": 211,
      "Ę": 212,
      "ę": 213,
      "Ě": 214,
      "ě": 215,
      "Ĝ": 216,
      "ĝ": 217,
      "Ğ": 218,
      "ğ": 219,
      "Ġ": 220,
      "ġ": 221,
      "Ģ": 222,
      "ģ": 223,
      "Ĥ": 224,
      "ĥ": 225,
      "Ħ": 226,
      "ħ": 227,
      "Ĩ": 228,
      "ĩ": 229,
      "Ī": 230,
      "ī": 231,
      "Ĭ": 232,
      "ĭ": 233,
      "Į": 234,
      "į": 235,
      "İ": 236,
      "ı": 237,
      "Ĳ": 238,
      "ĳ": 239,
      "Ĵ": 240,
      "ĵ": 241,
      "Ķ": 242,
      "ķ": 243,
      "ĸ": 244,
      "Ĺ": 245,
      "ĺ": 246,
      "Ļ": 247,
      "ļ": 248,
      "Ľ": 249,
      "ľ": 250,
      "Ŀ": 251,
      "ŀ": 252,
      "Ł": 253,
      "ł": 254,
      "Ń": 255,
      "ń": 256,
      "ņ": 257,
      "ň": 258,
      "ō": 259,
      "ő": 260,
      "œ": 261,
      "ř": 262,
      "Ś": 263,
      "ś": 264,
      "Ş": 265,
      "ş": 266,
      "Š": 267,
      "š": 268,
      "ţ": 269,
      "ť": 270,
      "ũ": 271,
      "ū": 272,
      "ŭ": 273,
      "ů": 274,
      "ű": 275,
      "ų": 276,
      "ź": 277,
      "ż": 278,
      "ž": 279,
      "ſ": 280,
      "ơ": 281,
      "Ư": 282,
      "ư": 283,
      "ǎ": 284,
      "ǒ": 285,
      "ș": 286,
      "ț": 287,
      "ə": 288,
      "Α": 289,
      "Γ": 290,
      "Δ": 291,
      "Ε": 292,
      "Κ": 293,
      "Μ": 294,
      "Π": 295,
      "Σ": 296,
      "ά": 297,
      "έ": 298,
      "ή": 299,
      "ί": 300,
      "α": 301,
      "β": 302,
      "γ": 303,
      "δ": 304,
      "ε": 305,
      "ζ": 306,
      "η": 307,
      "θ": 308,
      "ι": 309,
      "κ": 310,
      "λ": 311,
      "μ": 312,
      "ν": 313,
      "ξ": 314,
      "ο": 315,
      "π": 316,
      "ρ": 317,
      "ς": 318,
      "σ": 319,
      "τ": 320,
      "υ": 321,
      "φ": 322,
      "χ": 323,
      "ψ": 324,
      "ω": 325,
      "ϊ": 326,
      "ό": 327,
      "ύ": 328,
      "ώ": 329,
      "Є": 330,
      "І": 331,
      "А": 332,
      "Б": 333,
      "В": 334,
      "Г": 335,
      "Д": 336,
      "Е": 337,
      "Ж": 338,
      "З": 339,
      "И": 340,
      "К": 341,
      "Л": 342,
      "М": 343,
      "Н": 344,
      "О": 345,
      "П": 346,
      "Р": 347,
      "С": 348,
      "Т": 349,
      "У": 350,
      "Ф": 351,
      "Х": 352,
      "Ц": 353,
      "Ч": 354,
      "Ш": 355,
      "Ь": 356,
      "Э": 357,
      "Ю": 358,
      "Я": 359,
      "а": 360,
      "б": 361,
      "в": 362,
      "г": 363,
      "д": 364,
      "е": 365,
      "ж": 366,
      "з": 367,
      "и": 368,
      "й": 369,
      "к": 370,
      "л": 371,
      "м": 372,
      "н": 373,
      "о": 374,
      "п": 375,
      "р": 376,
      "с": 377,
      "т": 378,
      "у": 379,
      "ф": 380,
      "х": 381,
      "ц": 382,
      "ч": 383,
      "ш": 384,
      "щ": 385,
      "ъ": 386,
      "ы": 387,
      "ь": 388,
      "э": 389,
      "ю": 390,
      "я": 391,
      "ё": 392,
      "ђ": 393,
      "є": 394,
      "і": 395,
      "ї": 396,
      "ј": 397,
      "љ": 398,
      "њ": 399,
      "ћ": 400,
      "ў": 401,
      "ғ": 402,
      "җ": 403,
      "қ": 404,
      "ң": 405,
      "ү": 406,
      "ҳ": 407,
      "һ": 408,
      "Ӏ": 409,
      "ә": 410,
      "ө": 411,
      "ա": 412,
      "գ": 413,
      "դ": 414,
      "ե": 415,
      "զ": 416,
      "է": 417,
      "ը": 418,
      "թ": 419,
      "ի": 420,
      "լ": 421,
      "ծ": 422,
      "կ": 423,
      "հ": 424,
      "մ": 425,
      "յ": 426,
      "ն": 427,
      "ո": 428,
      "չ": 429,
      "պ": 430,
      "ջ": 431,
      "ռ": 432,
      "ս": 433,
      "վ": 434,
      "տ": 435,
      "ր": 436,
      "ց": 437,
      "ւ": 438,
      "ք": 439,
      "א": 440,
      "ב": 441,
      "ג": 442,
      "ד": 443,
      "ה": 444,
      "ו": 445,
      "ז": 446,
      "ח": 447,
      "ט": 448,
      "י": 449,
      "ך": 450,
      "כ": 451,
      "ל": 452,
      "ם": 453,
      "מ": 454,
      "ן": 455,
      "נ": 456,
      "ס": 457,
      "ע": 458,
      "פ": 459,
      "צ": 460,
      "ק": 461,
      "ר": 462,
      "ש": 463,
      "ת": 464,
      "ء": 465,
      "آ": 466,
      "أ": 467,
      "ؤ": 468,
      "إ": 469,
      "ئ": 470,
      "ا": 471,
      "ب": 472,
      "ة": 473,
      "ت": 474,
      "ث": 475,
      "ج": 476,
      "ح": 477,
      "خ": 478,
      "د": 479,
      "ذ": 480,
      "ر": 481,
      "ز": 482,
      "س": 483,
      "ش": 484,
      "ص": 485,
      "ض": 486,
      "ط": 487,
      "ظ": 488,
      "ع": 489,
      "غ": 490,
      "ـ": 491,
      "ف": 492,
      "ق": 493,
      "ك": 494,
      "ل": 495,
      "م": 496,
      "ن": 497,
      "ه": 498,
      "و": 499,
      "ى": 500,
      "ي": 501,
      "ٹ": 502,
      "ټ": 503,
      "پ": 504,
      "ځ": 505,
      "څ": 506,
      "چ": 507,
      "ڈ": 508,
      "ډ": 509,
      "ڑ": 510,
      "ړ": 511,
      "ږ": 512,
      "ژ": 513,
      "ک": 514,
      "ڪ": 515,
      "ګ": 516,
      "ڭ": 517,
      "گ": 518,
      "ں": 519,
      "ڻ": 520,
      "ھ": 521,
      "ۀ": 522,
      "ہ": 523,
      "ی": 524,
      "ۍ": 525,
      "ێ": 526,
      "ې": 527,
      "ے": 528,
      "ە": 529,
      "अ": 530,
      "आ": 531,
      "इ": 532,
      "ई": 533,
      "उ": 534,
      "ऊ": 535,
      "ऋ": 536,
      "ए": 537,
      "ऑ": 538,
      "ओ": 539,
      "औ": 540,
      "क": 541,
      "ख": 542,
      "ग": 543,
      "घ": 544,
      "च": 545,
      "ज": 546,
      "झ": 547,
      "ट": 548,
      "ठ": 549,
      "ड": 550,
      "ढ": 551,
      "ण": 552,
      "त": 553,
      "थ": 554,
      "द": 555,
      "ध": 556,
      "न": 557,
      "प": 558,
      "फ": 559,
      "ब": 560,
      "भ": 561,
      "म": 562,
      "य": 563,
      "र": 564,
      "ल": 565,
      "ळ": 566,
      "व": 567,
      "श": 568,
      "ष": 569,
      "स": 570,
      "ह": 571,
      "ज़": 572,
      "ड़": 573,
      "অ": 574,
      "আ": 575,
      "ই": 576,
      "উ": 577,
      "এ": 578,
      "ও": 579,
      "ঔ": 580,
      "ক": 581,
      "খ": 582,
      "গ": 583,
      "ঘ": 584,
      "চ": 585,
      "ছ": 586,
      "জ": 587,
      "ট": 588,
      "ঠ": 589,
      "ণ": 590,
      "ত": 591,
      "থ": 592,
      "দ": 593,
      "ধ": 594,
      "ন": 595,
      "প": 596,
      "ফ": 597,
      "ব": 598,
      "ভ": 599,
      "ম": 600,
      "য": 601,
      "র": 602,
      "ল": 603,
      "শ": 604,
      "ষ": 605,
      "স": 606,
      "হ": 607,
      "ৎ": 608,
      "ড়": 609,
      "য়": 610,
      "ਆ": 611,
      "ਕ": 612,
      "ਣ": 613,
      "ਨ": 614,
      "ਪ": 615,
      "ਰ": 616,
      "અ": 617,
      "આ": 618,
      "ઉ": 619,
      "ક": 620,
      "ખ": 621,
      "ગ": 622,
      "જ": 623,
      "ણ": 624,
      "ત": 625,
      "દ": 626,
      "ન": 627,
      "પ": 628,
      "ફ": 629,
      "ભ": 630,
      "મ": 631,
      "ય": 632,
      "ર": 633,
      "લ": 634,
      "ળ": 635,
      "વ": 636,
      "સ": 637,
      "அ": 638,
      "ஆ": 639,
      "இ": 640,
      "உ": 641,
      "க": 642,
      "ச": 643,
      "ட": 644,
      "ண": 645,
      "த": 646,
      "ந": 647,
      "ன": 648,
      "ப": 649,
      "ம": 650,
      "ய": 651,
      "ர": 652,
      "ற": 653,
      "ல": 654,
      "ழ": 655,
      "வ": 656,
      "ఆ": 657,
      "ఇ": 658,
      "క": 659,
      "ఘ": 660,
      "చ": 661,
      "ట": 662,
      "డ": 663,
      "ణ": 664,
      "త": 665,
      "న": 666,
      "య": 667,
      "ర": 668,
      "ల": 669,
      "వ": 670,
      "ಅ": 671,
      "ಇ": 672,
      "ಎ": 673,
      "ಒ": 674,
      "ಔ": 675,
      "ಕ": 676,
      "ಗ": 677,
      "ಜ": 678,
      "ಡ": 679,
      "ಣ": 680,
      "ತ": 681,
      "ದ": 682,
      "ಧ": 683,
      "ನ": 684,
      "ಬ": 685,
      "ಮ": 686,
      "ಯ": 687,
      "ರ": 688,
      "ಲ": 689,
      "ಳ": 690,
      "ವ": 691,
      "ಷ": 692,
      "ಸ": 693,
      "ಹ": 694,
      "അ": 695,
      "ആ": 696,
      "ഉ": 697,
      "ക": 698,
      "ഘ": 699,
      "ട": 700,
      "ണ": 701,
      "ത": 702,
      "ന": 703,
      "പ": 704,
      "ഭ": 705,
      "മ": 706,
      "യ": 707,
      "ര": 708,
      "റ": 709,
      "ഴ": 710,
      "വ": 711,
      "ശ": 712,
      "ഷ": 713,
      "സ": 714,
      "ൻ": 715,
      "ർ": 716,
      "ൽ": 717,
      "අ": 718,
      "ඔ": 719,
      "ක": 720,
      "ඟ": 721,
      "ට": 722,
      "ණ": 723,
      "ත": 724,
      "න": 725,
      "ප": 726,
      "බ": 727,
      "ම": 728,
      "ර": 729,
      "ස": 730,
      "ก": 731,
      "ข": 732,
      "ค": 733,
      "ง": 734,
      "จ": 735,
      "ฉ": 736,
      "ช": 737,
      "ซ": 738,
      "ญ": 739,
      "ฐ": 740,
      "ณ": 741,
      "ด": 742,
      "ต": 743,
      "ถ": 744,
      "ท": 745,
      "ธ": 746,
      "น": 747,
      "บ": 748,
      "ป": 749,
      "ผ": 750,
      "พ": 751,
      "ฟ": 752,
      "ภ": 753,
      "ม": 754,
      "ย": 755,
      "ร": 756,
      "ล": 757,
      "ว": 758,
      "ศ": 759,
      "ษ": 760,
      "ส": 761,
      "ห": 762,
      "อ": 763,
      "ะ": 764,
      "า": 765,
      "ำ": 766,
      "เ": 767,
      "แ": 768,
      "โ": 769,
      "ใ": 770,
      "ไ": 771,
      "ๆ": 772,
      "ກ": 773,
      "ຂ": 774,
      "ຄ": 775,
      "ງ": 776,
      "ຈ": 777,
      "ຍ": 778,
      "ດ": 779,
      "ຕ": 780,
      "ຖ": 781,
      "ທ": 782,
      "ນ": 783,
      "ບ": 784,
      "ປ": 785,
      "ຜ": 786,
      "ພ": 787,
      "ມ": 788,
      "ລ": 789,
      "ວ": 790,
      "ສ": 791,
      "ຫ": 792,
      "ອ": 793,
      "ຮ": 794,
      "ະ": 795,
      "າ": 796,
      "ເ": 797,
      "ແ": 798,
      "ໂ": 799,
      "ໜ": 800,
      "ა": 801,
      "ბ": 802,
      "გ": 803,
      "დ": 804,
      "ე": 805,
      "ვ": 806,
      "ზ": 807,
      "თ": 808,
      "ი": 809,
      "კ": 810,
      "ლ": 811,
      "მ": 812,
      "ნ": 813,
      "ო": 814,
      "პ": 815,
      "რ": 816,
      "ს": 817,
      "ტ": 818,
      "უ": 819,
      "ფ": 820,
      "ქ": 821,
      "ღ": 822,
      "ყ": 823,
      "შ": 824,
      "ჩ": 825,
      "ც": 826,
      "ძ": 827,
      "წ": 828,
      "ჭ": 829,
      "ხ": 830,
      "ჯ": 831,
      "ሁ": 832,
      "ሂ": 833,
      "ሃ": 834,
      "ህ": 835,
      "ሆ": 836,
      "ለ": 837,
      "ሉ": 838,
      "ላ": 839,
      "ሌ": 840,
      "ል": 841,
      "ሎ": 842,
      "መ": 843,
      "ሚ": 844,
      "ማ": 845,
      "ም": 846,
      "ረ": 847,
      "ሪ": 848,
      "ራ": 849,
      "ር": 850,
      "ሮ": 851,
      "ሰ": 852,
      "ሱ": 853,
      "ሳ": 854,
      "ሴ": 855,
      "ስ": 856,
      "ሽ": 857,
      "ቀ": 858,
      "ቃ": 859,
      "ቅ": 860,
      "በ": 861,
      "ባ": 862,
      "ብ": 863,
      "ተ": 864,
      "ታ": 865,
      "ት": 866,
      "ቶ": 867,
      "ቸ": 868,
      "ች": 869,
      "ኋ": 870,
      "ነ": 871,
      "ኒ": 872,
      "ና": 873,
      "ኔ": 874,
      "ን": 875,
      "ኘ": 876,
      "ኛ": 877,
      "ኝ": 878,
      "አ": 879,
      "እ": 880,
      "ከ": 881,
      "ካ": 882,
      "ክ": 883,
      "ኳ": 884,
      "ወ": 885,
      "ው": 886,
      "ዎ": 887,
      "ዐ": 888,
      "ዓ": 889,
      "ዙ": 890,
      "ዚ": 891,
      "የ": 892,
      "ዩ": 893,
      "ያ": 894,
      "ይ": 895,
      "ደ": 896,
      "ዱ": 897,
      "ዲ": 898,
      "ዳ": 899,
      "ዴ": 900,
      "ድ": 901,
      "ጀ": 902,
      "ጃ": 903,
      "ገ": 904,
      "ጊ": 905,
      "ጋ": 906,
      "ግ": 907,
      "ጠ": 908,
      "ጣ": 909,
      "ጥ": 910,
      "ጨ": 911,
      "ፈ": 912,
      "ፊ": 913,
      "ፋ": 914,
      "ፍ": 915,
      "ṇ": 916,
      "ạ": 917,
      "Ả": 918,
      "ả": 919,
      "ấ": 920,
      "ầ": 921,
      "ẩ": 922,
      "ẫ": 923,
      "ậ": 924,
      "ắ": 925,
      "ằ": 926,
      "ẳ": 927,
      "ẵ": 928,
      "ặ": 929,
      "ẹ": 930,
      "ẻ": 931,
      "ế": 932,
      "ề": 933,
      "ể": 934,
      "ễ": 935,
      "ệ": 936,
      "ỉ": 937,
      "ị": 938,
      "ọ": 939,
      "ỏ": 940,
      "ố": 941,
      "ồ": 942,
      "ổ": 943,
      "ỗ": 944,
      "ộ": 945,
      "ớ": 946,
      "ờ": 947,
      "ở": 948,
      "ỡ": 949,
      "ợ": 950,
      "ụ": 951,
      "ủ": 952,
      "ứ": 953,
      "ừ": 954,
      "ử": 955,
      "ữ": 956,
      "ự": 957,
      "ỳ": 958,
      "ỹ": 959,
      "ὴ": 960,
      "ὶ": 961,
      "ὸ": 962,
      "ῦ": 963,
      "ῶ": 964,
      "々": 965,
      "あ": 966,
      "い": 967,
      "う": 968,
      "え": 969,
      "お": 970,
      "か": 971,
      "が": 972,
      "き": 973,
      "ぎ": 974,
      "く": 975,
      "ぐ": 976,
      "け": 977,
      "げ": 978,
      "こ": 979,
      "ご": 980,
      "さ": 981,
      "ざ": 982,
      "し": 983,
      "じ": 984,
      "す": 985,
      "ず": 986,
      "せ": 987,
      "そ": 988,
      "ぞ": 989,
      "た": 990,
      "だ": 991,
      "ち": 992,
      "っ": 993,
      "つ": 994,
      "づ": 995,
      "て": 996,
      "で": 997,
      "と": 998,
      "ど": 999,
      "な": 1000,
      "に": 1001,
      "ぬ": 1002,
      "ね": 1003,
      "の": 1004,
      "は": 1005,
      "ば": 1006,
      "ぱ": 1007,
      "ひ": 1008,
      "び": 1009,
      "ぴ": 1010,
      "ぶ": 1011,
      "ぷ": 1012,
      "べ": 1013,
      "ほ": 1014,
      "ぽ": 1015,
      "ま": 1016,
      "み": 1017,
      "む": 1018,
      "め": 1019,
      "も": 1020,
      "ゃ": 1021,
      "や": 1022,
      "ゆ": 1023,
      "ょ": 1024,
      "よ": 1025,
      "ら": 1026,
      "り": 1027,
      "る": 1028,
      "れ": 1029,
      "ろ": 1030,
      "わ": 1031,
      "を": 1032,
      "ん": 1033,
      "ァ": 1034,
      "ア": 1035,
      "ィ": 1036,
      "イ": 1037,
      "ゥ": 1038,
      "ウ": 1039,
      "ェ": 1040,
      "エ": 1041,
      "ォ": 1042,
      "オ": 1043,
      "カ": 1044,
      "ガ": 1045,
      "キ": 1046,
      "ギ": 1047,
      "ク": 1048,
      "グ": 1049,
      "ケ": 1050,
      "ゲ": 1051,
      "コ": 1052,
      "ゴ": 1053,
      "サ": 1054,
      "ザ": 1055,
      "シ": 1056,
      "ジ": 1057,
      "ス": 1058,
      "ズ": 1059,
      "セ": 1060,
      "ゼ": 1061,
      "ソ": 1062,
      "ゾ": 1063,
      "タ": 1064,
      "ダ": 1065,
      "チ": 1066,
      "ヂ": 1067,
      "ッ": 1068,
      "ツ": 1069,
      "テ": 1070,
      "デ": 1071,
      "ト": 1072,
      "ド": 1073,
      "ナ": 1074,
      "ニ": 1075,
      "ネ": 1076,
      "ノ": 1077,
      "ハ": 1078,
      "バ": 1079,
      "パ": 1080,
      "ヒ": 1081,
      "ビ": 1082,
      "ピ": 1083,
      "フ": 1084,
      "ブ": 1085,
      "プ": 1086,
      "ヘ": 1087,
      "ベ": 1088,
      "ペ": 1089,
      "ホ": 1090,
      "ボ": 1091,
      "ポ": 1092,
      "マ": 1093,
      "ミ": 1094,
      "ム": 1095,
      "メ": 1096,
      "モ": 1097,
      "ャ": 1098,
      "ヤ": 1099,
      "ュ": 1100,
      "ユ": 1101,
      "ョ": 1102,
      "ヨ": 1103,
      "ラ": 1104,
      "リ": 1105,
      "ル": 1106,
      "レ": 1107,
      "ロ": 1108,
      "ワ": 1109,
      "ン": 1110,
      "ヴ": 1111,
      "ー": 1112,
      "ㅋ": 1113,
      "一": 1114,
      "丁": 1115,
      "七": 1116,
      "万": 1117,
      "丈": 1118,
      "三": 1119,
      "上": 1120,
      "下": 1121,
      "不": 1122,
      "与": 1123,
      "专": 1124,
      "世": 1125,
      "业": 1126,
      "东": 1127,
      "两": 1128,
      "严": 1129,
      "並": 1130,
      "个": 1131,
      "中": 1132,
      "丰": 1133,
      "串": 1134,
      "为": 1135,
      "主": 1136,
      "丽": 1137,
      "么": 1138,
      "义": 1139,
      "之": 1140,
      "乐": 1141,
      "九": 1142,
      "也": 1143,
      "习": 1144,
      "书": 1145,
      "了": 1146,
      "争": 1147,
      "事": 1148,
      "二": 1149,
      "于": 1150,
      "云": 1151,
      "互": 1152,
      "五": 1153,
      "亚": 1154,
      "些": 1155,
      "交": 1156,
      "产": 1157,
      "京": 1158,
      "亮": 1159,
      "人": 1160,
      "亿": 1161,
      "什": 1162,
      "仅": 1163,
      "今": 1164,
      "介": 1165,
      "仕": 1166,
      "他": 1167,
      "付": 1168,
      "代": 1169,
      "令": 1170,
      "以": 1171,
      "们": 1172,
      "件": 1173,
      "价": 1174,
      "任": 1175,
      "份": 1176,
      "企": 1177,
      "伍": 1178,
      "众": 1179,
      "优": 1180,
      "伙": 1181,
      "会": 1182,
      "伝": 1183,
      "传": 1184,
      "伯": 1185,
      "伴": 1186,
      "似": 1187,
      "但": 1188,
      "位": 1189,
      "住": 1190,
      "体": 1191,
      "何": 1192,
      "作": 1193,
      "你": 1194,
      "佳": 1195,
      "使": 1196,
      "來": 1197,
      "例": 1198,
      "供": 1199,
      "便": 1200,
      "係": 1201,
      "俄": 1202,
      "保": 1203,
      "信": 1204,
      "俱": 1205,
      "個": 1206,
      "們": 1207,
      "候": 1208,
      "値": 1209,
      "值": 1210,
      "做": 1211,
      "停": 1212,
      "健": 1213,
      "備": 1214,
      "催": 1215,
      "像": 1216,
      "優": 1217,
      "儿": 1218,
      "允": 1219,
      "元": 1220,
      "充": 1221,
      "先": 1222,
      "克": 1223,
      "児": 1224,
      "党": 1225,
      "入": 1226,
      "全": 1227,
      "八": 1228,
      "公": 1229,
      "六": 1230,
      "共": 1231,
      "关": 1232,
      "兴": 1233,
      "其": 1234,
      "具": 1235,
      "典": 1236,
      "内": 1237,
      "円": 1238,
      "再": 1239,
      "写": 1240,
      "冲": 1241,
      "决": 1242,
      "况": 1243,
      "准": 1244,
      "凝": 1245,
      "出": 1246,
      "函": 1247,
      "分": 1248,
      "切": 1249,
      "列": 1250,
      "则": 1251,
      "创": 1252,
      "初": 1253,
      "別": 1254,
      "利": 1255,
      "别": 1256,
      "到": 1257,
      "制": 1258,
      "券": 1259,
      "前": 1260,
      "剧": 1261,
      "剩": 1262,
      "副": 1263,
      "劇": 1264,
      "力": 1265,
      "办": 1266,
      "功": 1267,
      "加": 1268,
      "务": 1269,
      "动": 1270,
      "助": 1271,
      "効": 1272,
      "動": 1273,
      "務": 1274,
      "募": 1275,
      "包": 1276,
      "化": 1277,
      "北": 1278,
      "区": 1279,
      "十": 1280,
      "午": 1281,
      "半": 1282,
      "华": 1283,
      "协": 1284,
      "单": 1285,
      "南": 1286,
      "単": 1287,
      "博": 1288,
      "卡": 1289,
      "却": 1290,
      "历": 1291,
      "原": 1292,
      "厳": 1293,
      "去": 1294,
      "叁": 1295,
      "参": 1296,
      "及": 1297,
      "友": 1298,
      "収": 1299,
      "发": 1300,
      "取": 1301,
      "受": 1302,
      "变": 1303,
      "口": 1304,
      "古": 1305,
      "句": 1306,
      "另": 1307,
      "只": 1308,
      "可": 1309,
      "台": 1310,
      "史": 1311,
      "右": 1312,
      "号": 1313,
      "司": 1314,
      "各": 1315,
      "合": 1316,
      "同": 1317,
      "名": 1318,
      "后": 1319,
      "向": 1320,
      "否": 1321,
      "含": 1322,
      "听": 1323,
      "告": 1324,
      "员": 1325,
      "周": 1326,
      "味": 1327,
      "呼": 1328,
      "命": 1329,
      "和": 1330,
      "品": 1331,
      "哈": 1332,
      "响": 1333,
      "員": 1334,
      "哥": 1335,
      "哪": 1336,
      "唯": 1337,
      "商": 1338,
      "問": 1339,
      "喜": 1340,
      "営": 1341,
      "器": 1342,
      "四": 1343,
      "回": 1344,
      "因": 1345,
      "园": 1346,
      "囲": 1347,
      "図": 1348,
      "围": 1349,
      "国": 1350,
      "图": 1351,
      "圈": 1352,
      "園": 1353,
      "土": 1354,
      "在": 1355,
      "地": 1356,
      "圳": 1357,
      "场": 1358,
      "块": 1359,
      "坡": 1360,
      "型": 1361,
      "城": 1362,
      "域": 1363,
      "基": 1364,
      "埼": 1365,
      "報": 1366,
      "場": 1367,
      "塔": 1368,
      "境": 1369,
      "增": 1370,
      "墨": 1371,
      "士": 1372,
      "声": 1373,
      "売": 1374,
      "壹": 1375,
      "处": 1376,
      "备": 1377,
      "変": 1378,
      "复": 1379,
      "外": 1380,
      "多": 1381,
      "够": 1382,
      "大": 1383,
      "天": 1384,
      "太": 1385,
      "夫": 1386,
      "失": 1387,
      "头": 1388,
      "夹": 1389,
      "奈": 1390,
      "女": 1391,
      "好": 1392,
      "如": 1393,
      "始": 1394,
      "委": 1395,
      "娱": 1396,
      "嬉": 1397,
      "子": 1398,
      "字": 1399,
      "存": 1400,
      "学": 1401,
      "孩": 1402,
      "學": 1403,
      "它": 1404,
      "安": 1405,
      "完": 1406,
      "定": 1407,
      "宝": 1408,
      "实": 1409,
      "実": 1410,
      "客": 1411,
      "室": 1412,
      "宮": 1413,
      "家": 1414,
      "容": 1415,
      "寄": 1416,
      "富": 1417,
      "實": 1418,
      "寧": 1419,
      "对": 1420,
      "导": 1421,
      "対": 1422,
      "専": 1423,
      "将": 1424,
      "小": 1425,
      "少": 1426,
      "尔": 1427,
      "尤": 1428,
      "就": 1429,
      "尼": 1430,
      "尽": 1431,
      "尿": 1432,
      "局": 1433,
      "层": 1434,
      "届": 1435,
      "屋": 1436,
      "展": 1437,
      "属": 1438,
      "層": 1439,
      "島": 1440,
      "川": 1441,
      "工": 1442,
      "巧": 1443,
      "巨": 1444,
      "差": 1445,
      "己": 1446,
      "已": 1447,
      "巴": 1448,
      "币": 1449,
      "市": 1450,
      "布": 1451,
      "师": 1452,
      "希": 1453,
      "带": 1454,
      "帳": 1455,
      "常": 1456,
      "幅": 1457,
      "平": 1458,
      "年": 1459,
      "并": 1460,
      "幼": 1461,
      "广": 1462,
      "庁": 1463,
      "広": 1464,
      "序": 1465,
      "库": 1466,
      "应": 1467,
      "底": 1468,
      "店": 1469,
      "府": 1470,
      "度": 1471,
      "康": 1472,
      "建": 1473,
      "开": 1474,
      "式": 1475,
      "引": 1476,
      "强": 1477,
      "当": 1478,
      "录": 1479,
      "形": 1480,
      "影": 1481,
      "役": 1482,
      "待": 1483,
      "很": 1484,
      "律": 1485,
      "後": 1486,
      "従": 1487,
      "得": 1488,
      "微": 1489,
      "徴": 1490,
      "心": 1491,
      "必": 1492,
      "忍": 1493,
      "志": 1494,
      "忙": 1495,
      "応": 1496,
      "念": 1497,
      "态": 1498,
      "怎": 1499,
      "思": 1500,
      "性": 1501,
      "总": 1502,
      "息": 1503,
      "悉": 1504,
      "您": 1505,
      "情": 1506,
      "想": 1507,
      "意": 1508,
      "愛": 1509,
      "感": 1510,
      "愿": 1511,
      "態": 1512,
      "戏": 1513,
      "成": 1514,
      "我": 1515,
      "或": 1516,
      "戲": 1517,
      "户": 1518,
      "房": 1519,
      "所": 1520,
      "手": 1521,
      "才": 1522,
      "打": 1523,
      "払": 1524,
      "找": 1525,
      "承": 1526,
      "技": 1527,
      "把": 1528,
      "投": 1529,
      "択": 1530,
      "护": 1531,
      "担": 1532,
      "拉": 1533,
      "招": 1534,
      "拟": 1535,
      "拡": 1536,
      "择": 1537,
      "括": 1538,
      "拿": 1539,
      "持": 1540,
      "指": 1541,
      "振": 1542,
      "捌": 1543,
      "换": 1544,
      "据": 1545,
      "排": 1546,
      "採": 1547,
      "接": 1548,
      "控": 1549,
      "推": 1550,
      "提": 1551,
      "搜": 1552,
      "摄": 1553,
      "撒": 1554,
      "操": 1555,
      "擎": 1556,
      "支": 1557,
      "改": 1558,
      "政": 1559,
      "故": 1560,
      "效": 1561,
      "教": 1562,
      "散": 1563,
      "数": 1564,
      "整": 1565,
      "敵": 1566,
      "數": 1567,
      "文": 1568,
      "料": 1569,
      "断": 1570,
      "斯": 1571,
      "新": 1572,
      "方": 1573,
      "施": 1574,
      "无": 1575,
      "日": 1576,
      "时": 1577,
      "明": 1578,
      "易": 1579,
      "是": 1580,
      "显": 1581,
      "時": 1582,
      "普": 1583,
      "晴": 1584,
      "智": 1585,
      "暖": 1586,
      "暮": 1587,
      "曲": 1588,
      "更": 1589,
      "書": 1590,
      "最": 1591,
      "會": 1592,
      "月": 1593,
      "有": 1594,
      "朋": 1595,
      "服": 1596,
      "朗": 1597,
      "望": 1598,
      "期": 1599,
      "未": 1600,
      "本": 1601,
      "术": 1602,
      "机": 1603,
      "杂": 1604,
      "材": 1605,
      "束": 1606,
      "条": 1607,
      "来": 1608,
      "杯": 1609,
      "東": 1610,
      "构": 1611,
      "果": 1612,
      "柒": 1613,
      "染": 1614,
      "柔": 1615,
      "标": 1616,
      "校": 1617,
      "株": 1618,
      "样": 1619,
      "核": 1620,
      "格": 1621,
      "案": 1622,
      "档": 1623,
      "梅": 1624,
      "森": 1625,
      "業": 1626,
      "極": 1627,
      "楽": 1628,
      "概": 1629,
      "榜": 1630,
      "様": 1631,
      "模": 1632,
      "樣": 1633,
      "権": 1634,
      "機": 1635,
      "次": 1636,
      "欢": 1637,
      "欲": 1638,
      "款": 1639,
      "正": 1640,
      "此": 1641,
      "步": 1642,
      "殊": 1643,
      "段": 1644,
      "每": 1645,
      "比": 1646,
      "毕": 1647,
      "民": 1648,
      "気": 1649,
      "氧": 1650,
      "求": 1651,
      "污": 1652,
      "決": 1653,
      "沒": 1654,
      "没": 1655,
      "河": 1656,
      "治": 1657,
      "況": 1658,
      "法": 1659,
      "波": 1660,
      "注": 1661,
      "洋": 1662,
      "活": 1663,
      "流": 1664,
      "浏": 1665,
      "海": 1666,
      "消": 1667,
      "涉": 1668,
      "深": 1669,
      "混": 1670,
      "添": 1671,
      "游": 1672,
      "源": 1673,
      "满": 1674,
      "滤": 1675,
      "漂": 1676,
      "潛": 1677,
      "澳": 1678,
      "炉": 1679,
      "点": 1680,
      "為": 1681,
      "無": 1682,
      "然": 1683,
      "照": 1684,
      "熟": 1685,
      "爱": 1686,
      "片": 1687,
      "版": 1688,
      "牌": 1689,
      "牙": 1690,
      "物": 1691,
      "特": 1692,
      "状": 1693,
      "独": 1694,
      "献": 1695,
      "獲": 1696,
      "率": 1697,
      "玉": 1698,
      "玖": 1699,
      "环": 1700,
      "现": 1701,
      "班": 1702,
      "現": 1703,
      "球": 1704,
      "理": 1705,
      "甚": 1706,
      "生": 1707,
      "用": 1708,
      "由": 1709,
      "申": 1710,
      "电": 1711,
      "男": 1712,
      "画": 1713,
      "界": 1714,
      "異": 1715,
      "疫": 1716,
      "病": 1717,
      "発": 1718,
      "登": 1719,
      "白": 1720,
      "百": 1721,
      "的": 1722,
      "皆": 1723,
      "监": 1724,
      "目": 1725,
      "直": 1726,
      "相": 1727,
      "省": 1728,
      "看": 1729,
      "県": 1730,
      "真": 1731,
      "眼": 1732,
      "着": 1733,
      "督": 1734,
      "知": 1735,
      "石": 1736,
      "码": 1737,
      "研": 1738,
      "础": 1739,
      "确": 1740,
      "確": 1741,
      "示": 1742,
      "社": 1743,
      "神": 1744,
      "离": 1745,
      "秀": 1746,
      "私": 1747,
      "种": 1748,
      "科": 1749,
      "称": 1750,
      "程": 1751,
      "稚": 1752,
      "種": 1753,
      "稳": 1754,
      "積": 1755,
      "究": 1756,
      "空": 1757,
      "立": 1758,
      "竞": 1759,
      "章": 1760,
      "端": 1761,
      "笔": 1762,
      "符": 1763,
      "第": 1764,
      "等": 1765,
      "筑": 1766,
      "简": 1767,
      "算": 1768,
      "管": 1769,
      "篇": 1770,
      "簡": 1771,
      "簽": 1772,
      "米": 1773,
      "类": 1774,
      "精": 1775,
      "糖": 1776,
      "系": 1777,
      "素": 1778,
      "索": 1779,
      "紫": 1780,
      "細": 1781,
      "紹": 1782,
      "終": 1783,
      "組": 1784,
      "経": 1785,
      "結": 1786,
      "絡": 1787,
      "給": 1788,
      "絶": 1789,
      "続": 1790,
      "綺": 1791,
      "緒": 1792,
      "線": 1793,
      "締": 1794,
      "繁": 1795,
      "繋": 1796,
      "繰": 1797,
      "级": 1798,
      "线": 1799,
      "组": 1800,
      "织": 1801,
      "绍": 1802,
      "经": 1803,
      "结": 1804,
      "给": 1805,
      "络": 1806,
      "统": 1807,
      "继": 1808,
      "续": 1809,
      "维": 1810,
      "缓": 1811,
      "编": 1812,
      "网": 1813,
      "罗": 1814,
      "置": 1815,
      "美": 1816,
      "考": 1817,
      "者": 1818,
      "而": 1819,
      "耶": 1820,
      "联": 1821,
      "聞": 1822,
      "肆": 1823,
      "股": 1824,
      "肯": 1825,
      "育": 1826,
      "能": 1827,
      "腕": 1828,
      "自": 1829,
      "至": 1830,
      "致": 1831,
      "航": 1832,
      "般": 1833,
      "良": 1834,
      "色": 1835,
      "艺": 1836,
      "节": 1837,
      "英": 1838,
      "范": 1839,
      "获": 1840,
      "萄": 1841,
      "营": 1842,
      "落": 1843,
      "著": 1844,
      "葡": 1845,
      "董": 1846,
      "虑": 1847,
      "虚": 1848,
      "蛋": 1849,
      "行": 1850,
      "術": 1851,
      "衣": 1852,
      "表": 1853,
      "被": 1854,
      "裙": 1855,
      "裡": 1856,
      "製": 1857,
      "複": 1858,
      "西": 1859,
      "要": 1860,
      "見": 1861,
      "規": 1862,
      "視": 1863,
      "覚": 1864,
      "覧": 1865,
      "覺": 1866,
      "见": 1867,
      "观": 1868,
      "规": 1869,
      "视": 1870,
      "览": 1871,
      "觉": 1872,
      "角": 1873,
      "解": 1874,
      "言": 1875,
      "計": 1876,
      "記": 1877,
      "設": 1878,
      "許": 1879,
      "詳": 1880,
      "認": 1881,
      "誕": 1882,
      "語": 1883,
      "說": 1884,
      "説": 1885,
      "読": 1886,
      "調": 1887,
      "講": 1888,
      "謝": 1889,
      "證": 1890,
      "議": 1891,
      "讓": 1892,
      "计": 1893,
      "认": 1894,
      "让": 1895,
      "记": 1896,
      "许": 1897,
      "论": 1898,
      "设": 1899,
      "访": 1900,
      "证": 1901,
      "识": 1902,
      "诉": 1903,
      "词": 1904,
      "译": 1905,
      "话": 1906,
      "该": 1907,
      "误": 1908,
      "说": 1909,
      "请": 1910,
      "读": 1911,
      "谓": 1912,
      "豊": 1913,
      "象": 1914,
      "財": 1915,
      "販": 1916,
      "買": 1917,
      "費": 1918,
      "質": 1919,
      "購": 1920,
      "贈": 1921,
      "负": 1922,
      "责": 1923,
      "质": 1924,
      "购": 1925,
      "费": 1926,
      "资": 1927,
      "赤": 1928,
      "起": 1929,
      "超": 1930,
      "越": 1931,
      "趣": 1932,
      "足": 1933,
      "跟": 1934,
      "路": 1935,
      "身": 1936,
      "車": 1937,
      "転": 1938,
      "軽": 1939,
      "較": 1940,
      "輸": 1941,
      "车": 1942,
      "转": 1943,
      "软": 1944,
      "轻": 1945,
      "较": 1946,
      "辑": 1947,
      "输": 1948,
      "辨": 1949,
      "込": 1950,
      "达": 1951,
      "过": 1952,
      "迎": 1953,
      "运": 1954,
      "近": 1955,
      "返": 1956,
      "还": 1957,
      "这": 1958,
      "进": 1959,
      "连": 1960,
      "迪": 1961,
      "追": 1962,
      "送": 1963,
      "适": 1964,
      "选": 1965,
      "逊": 1966,
      "這": 1967,
      "通": 1968,
      "速": 1969,
      "造": 1970,
      "連": 1971,
      "遇": 1972,
      "遊": 1973,
      "過": 1974,
      "道": 1975,
      "違": 1976,
      "適": 1977,
      "選": 1978,
      "還": 1979,
      "那": 1980,
      "邮": 1981,
      "部": 1982,
      "都": 1983,
      "配": 1984,
      "酒": 1985,
      "采": 1986,
      "里": 1987,
      "重": 1988,
      "量": 1989,
      "金": 1990,
      "録": 1991,
      "链": 1992,
      "销": 1993,
      "错": 1994,
      "键": 1995,
      "長": 1996,
      "长": 1997,
      "門": 1998,
      "開": 1999,
      "間": 2000,
      "関": 2001,
      "閲": 2002,
      "關": 2003,
      "门": 2004,
      "问": 2005,
      "间": 2006,
      "阅": 2007,
      "防": 2008,
      "阿": 2009,
      "附": 2010,
      "际": 2011,
      "限": 2012,
      "院": 2013,
      "除": 2014,
      "隐": 2015,
      "際": 2016,
      "雅": 2017,
      "集": 2018,
      "難": 2019,
      "雰": 2020,
      "零": 2021,
      "電": 2022,
      "需": 2023,
      "青": 2024,
      "非": 2025,
      "面": 2026,
      "音": 2027,
      "響": 2028,
      "頂": 2029,
      "項": 2030,
      "頭": 2031,
      "題": 2032,
      "願": 2033,
      "類": 2034,
      "页": 2035,
      "项": 2036,
      "须": 2037,
      "领": 2038,
      "题": 2039,
      "额": 2040,
      "食": 2041,
      "飲": 2042,
      "館": 2043,
      "馆": 2044,
      "駅": 2045,
      "駐": 2046,
      "马": 2047,
      "验": 2048,
      "高": 2049,
      "鹿": 2050,
      "麗": 2051,
      "麼": 2052,
      "黑": 2053,
      "가": 2054,
      "각": 2055,
      "간": 2056,
      "감": 2057,
      "갑": 2058,
      "같": 2059,
      "개": 2060,
      "갤": 2061,
      "거": 2062,
      "건": 2063,
      "겁": 2064,
      "것": 2065,
      "게": 2066,
      "겠": 2067,
      "결": 2068,
      "경": 2069,
      "계": 2070,
      "고": 2071,
      "곱": 2072,
      "공": 2073,
      "과": 2074,
      "관": 2075,
      "광": 2076,
      "굉": 2077,
      "교": 2078,
      "구": 2079,
      "국": 2080,
      "그": 2081,
      "글": 2082,
      "금": 2083,
      "기": 2084,
      "길": 2085,
      "까": 2086,
      "나": 2087,
      "난": 2088,
      "내": 2089,
      "너": 2090,
      "네": 2091,
      "넷": 2092,
      "년": 2093,
      "녕": 2094,
      "노": 2095,
      "는": 2096,
      "늘": 2097,
      "능": 2098,
      "니": 2099,
      "님": 2100,
      "다": 2101,
      "단": 2102,
      "답": 2103,
      "당": 2104,
      "대": 2105,
      "더": 2106,
      "데": 2107,
      "도": 2108,
      "동": 2109,
      "되": 2110,
      "된": 2111,
      "됩": 2112,
      "드": 2113,
      "든": 2114,
      "들": 2115,
      "등": 2116,
      "디": 2117,
      "따": 2118,
      "때": 2119,
      "떻": 2120,
      "라": 2121,
      "람": 2122,
      "랍": 2123,
      "래": 2124,
      "랜": 2125,
      "램": 2126,
      "랫": 2127,
      "러": 2128,
      "럭": 2129,
      "런": 2130,
      "럼": 2131,
      "렇": 2132,
      "레": 2133,
      "려": 2134,
      "련": 2135,
      "령": 2136,
      "로": 2137,
      "록": 2138,
      "롤": 2139,
      "르": 2140,
      "른": 2141,
      "를": 2142,
      "름": 2143,
      "리": 2144,
      "릭": 2145,
      "린": 2146,
      "립": 2147,
      "마": 2148,
      "막": 2149,
      "만": 2150,
      "말": 2151,
      "머": 2152,
      "메": 2153,
      "며": 2154,
      "면": 2155,
      "명": 2156,
      "모": 2157,
      "무": 2158,
      "문": 2159,
      "뭐": 2160,
      "미": 2161,
      "민": 2162,
      "바": 2163,
      "반": 2164,
      "발": 2165,
      "밝": 2166,
      "방": 2167,
      "버": 2168,
      "벌": 2169,
      "법": 2170,
      "베": 2171,
      "벤": 2172,
      "변": 2173,
      "별": 2174,
      "보": 2175,
      "본": 2176,
      "볼": 2177,
      "봅": 2178,
      "부": 2179,
      "북": 2180,
      "분": 2181,
      "불": 2182,
      "브": 2183,
      "블": 2184,
      "비": 2185,
      "빠": 2186,
      "사": 2187,
      "산": 2188,
      "살": 2189,
      "삼": 2190,
      "삽": 2191,
      "상": 2192,
      "새": 2193,
      "생": 2194,
      "서": 2195,
      "선": 2196,
      "설": 2197,
      "세": 2198,
      "션": 2199,
      "소": 2200,
      "수": 2201,
      "순": 2202,
      "스": 2203,
      "습": 2204,
      "슷": 2205,
      "시": 2206,
      "식": 2207,
      "신": 2208,
      "실": 2209,
      "심": 2210,
      "십": 2211,
      "써": 2212,
      "씀": 2213,
      "아": 2214,
      "안": 2215,
      "않": 2216,
      "알": 2217,
      "암": 2218,
      "았": 2219,
      "앞": 2220,
      "야": 2221,
      "양": 2222,
      "얘": 2223,
      "어": 2224,
      "언": 2225,
      "얼": 2226,
      "업": 2227,
      "없": 2228,
      "었": 2229,
      "에": 2230,
      "여": 2231,
      "역": 2232,
      "열": 2233,
      "였": 2234,
      "영": 2235,
      "예": 2236,
      "오": 2237,
      "온": 2238,
      "와": 2239,
      "완": 2240,
      "요": 2241,
      "용": 2242,
      "우": 2243,
      "운": 2244,
      "울": 2245,
      "움": 2246,
      "워": 2247,
      "원": 2248,
      "위": 2249,
      "유": 2250,
      "으": 2251,
      "은": 2252,
      "을": 2253,
      "음": 2254,
      "의": 2255,
      "이": 2256,
      "인": 2257,
      "일": 2258,
      "입": 2259,
      "있": 2260,
      "자": 2261,
      "작": 2262,
      "잖": 2263,
      "장": 2264,
      "재": 2265,
      "적": 2266,
      "전": 2267,
      "점": 2268,
      "정": 2269,
      "제": 2270,
      "젝": 2271,
      "조": 2272,
      "존": 2273,
      "좋": 2274,
      "죠": 2275,
      "주": 2276,
      "준": 2277,
      "줍": 2278,
      "중": 2279,
      "즈": 2280,
      "지": 2281,
      "진": 2282,
      "쪽": 2283,
      "차": 2284,
      "찬": 2285,
      "처": 2286,
      "체": 2287,
      "최": 2288,
      "츠": 2289,
      "카": 2290,
      "캐": 2291,
      "컨": 2292,
      "컴": 2293,
      "코": 2294,
      "콘": 2295,
      "크": 2296,
      "키": 2297,
      "타": 2298,
      "탄": 2299,
      "태": 2300,
      "터": 2301,
      "털": 2302,
      "테": 2303,
      "텐": 2304,
      "템": 2305,
      "토": 2306,
      "통": 2307,
      "튜": 2308,
      "트": 2309,
      "특": 2310,
      "파": 2311,
      "페": 2312,
      "펴": 2313,
      "포": 2314,
      "폼": 2315,
      "퓨": 2316,
      "프": 2317,
      "플": 2318,
      "필": 2319,
      "하": 2320,
      "학": 2321,
      "한": 2322,
      "할": 2323,
      "함": 2324,
      "합": 2325,
      "해": 2326,
      "했": 2327,
      "향": 2328,
      "혔": 2329,
      "형": 2330,
      "홈": 2331,
      "확": 2332,
      "회": 2333,
      "히": 2334,
      "Ａ": 2335,
      "Ｅ": 2336,
      "Ｎ": 2337,
      "Ｐ": 2338,
      "er": 2339,
[...]
