{
  "version": "1.0",
  "truncation": null,
  "padding": null,
  "added_tokens": [
    {
      "id": 10432,
      "content": "<UNK>",
      "single_word": false,
      "lstrip": false,
      "rstrip": false,
      "normalized": true,
      "special": true
    },
    {
      "id": 10433,
      "content": "<｜end▁of▁sentence｜>",
      "single_word": false,
      "lstrip": false,
      "rstrip": false,
      "normalized": true,
      "special": true
    },
    {
      "id": 10434,
      "content": "<｜pad｜>",
      "single_word": false,
      "lstrip": false,
      "rstrip": false,
      "normalized": true,
      "special": true
    },
    {
      "id": 10435,
      "content": "<｜begin▁of▁sentence｜>",
      "single_word": false,
      "lstrip": false,
      "rstrip": false,
      "normalized": true,
      "special": true
    }
  ],
  "normalizer": {
    "type": "Sequence",
    "normalizers": []
  },
  "pre_tokenizer": {
    "type": "Sequence",
    "pretokenizers": [
      {
        "type": "Split",
        "pattern": {
          "Regex": "[\\r\\n]"
        },
        "behavior": "Isolated",
        "invert": false
      },
      {
        "type": "Split",
        "pattern": {
          "Regex": "\\s?[A-Za-zµÀ-ÖØ-öø-ƺƼ-ƿǄ-ʓʕ-ʯͰ-ͳͶͷͻ-ͽͿΆΈ-ΊΌΎ-ΡΣ-ϵϷ-ҁҊ-ԯԱ-ՖႠ-ჅᎠ-Ᏽᏸ-ᏽᲐ-ᲺᲽ-Ჿᴀ-ᴫᵫ-ᵷᵹ-ᶚḀ-ἕἘ-Ἕἠ-ὅὈ-Ὅὐ-ὗὙὛὝὟ-ώᾀ-ᾴᾶ-ᾼιῂ-ῄῆ-ῌῐ-ΐῖ-Ίῠ-Ῥῲ-ῴῶ-ῼℂℇℊ-ℓℕℙ-ℝℤΩℨK-ℭℯ-ℴℹℼ-ℿⅅ-ⅉⅎↃↄⰀ-ⱻⱾ-ⳤⳫ-ⳮⳲⳳꙀ-ꙭꚀ-ꚛꜢ-ꝯꝱ-ꞇꞋ-ꞎꭰ-ꮿﬀ-ﬆﬓ-ﬗＡ-Ｚａ-ｚ𐐀-𐑏𐒰-𐓓𐓘-𐓻𐲀-𐲲𐳀-𐳲𑢠-𑣟𞤀-𞥃]+"
        },
        "behavior": "Isolated",
        "invert": false
      },
      {
        "type": "Split",
        "pattern": {
          "Regex": "\\s?[!-/:-~！-／：-～‘-‟　-。]+"
        },
        "behavior": "Isolated",
        "invert": false
      },
      {
        "type": "Split",
        "pattern": {
          "Regex": "\\s+$"
        },
        "behavior": "Isolated",
        "invert": false
      },
      {
        "type": "Split",
        "pattern": {
          "Regex": "[一-龥ࠀ-一가-퟿]+"
        },
        "behavior": "Isolated",
        "invert": false
      },
      {
        "type": "Digits",
        "individual_digits": true
      },
      {
        "type": "ByteLevel",
        "add_prefix_space": false,
        "trim_offsets": true,
        "use_regex": false
      }
    ]
  },
  "post_processor": {
    "type": "ByteLevel",
    "add_prefix_space": true,
    "trim_offsets": false,
    "use_regex": true
  },
  "decoder": {
    "type": "ByteLevel",
    "add_prefix_space": true,
    "trim_offsets": true,
    "use_regex": true
  },
  "model": {
    "type": "BPE",
    "dropout": null,
    "unk_token": "<UNK>",
    "continuing_subword_prefix": null,
    "end_of_word_suffix": null,
    "fuse_unk": false,
    "byte_fallback": false,
    "ignore_merges": false,
    "bMax_frequency": true,
    "max_frequency": 254107538,
    "vocab": {
      "mate": 0,
      "ĠGerv": 1,
      "Ġpolka": 2,
      "Aden": 3,
      "Ġadvogado": 4,
      "Ġaventuras": 5,
      "Ġeingesetzt": 6,
      "Ġmocy": 7,
      "ĠCET": 8,
      "incent": 9,
      "playground": 10,
      "дена": 11,
      "ĠSachsen": 12,
      "Ġludicrous": 13,
      "Ġestaban": 14,
      "Ġagricultural": 15,
      "дою": 16,
      "Ġwhistle": 17,
      "Ġdihedral": 18,
      "Ġ가능": 19,
      "Ġसतत": 20,
      "licken": 21,
      "然后": 22,
      "Ġcurcumin": 23,
      "ointers": 24,
      "Ġjurusan": 25,
      "Ġсобственного": 26,
      "Ġpiedi": 27,
      "asText": 28,
      "Ġscald": 29,
      "Surf": 30,
      "Ġmalls": 31,
      "Ġfuro": 32,
      "Ġбага": 33,
      "Ġспря": 34,
      "Ġaraç": 35,
      "ipas": 36,
      "Ġfinalizar": 37,
      "Ġteg": 38,
      "Ġraf": 39,
      "Ġencontró": 40,
      "Ġcollectif": 41,
      "bait": 42,
      "Ġlexical": 43,
      "iska": 44,
      "ĠXIV": 45,
      "ĠBamberger": 46,
      "Ġҳ": 47,
      "Ġজন": 48,
      "ам": 49,
      "গণ": 50,
      "Ġобознача": 51,
      "ĠAnnotated": 52,
      "Ġҳам": 53,
      "Ġজনগণ": 54,
      "वकर": 55,
      "Ġkif": 56,
      "ographystyle": 57,
      "Ġpropellers": 58,
      "Ġलवकर": 59,
      "ĠRaila": 60,
      "Ġpiston": 61,
      "yrıca": 62,
      "mma": 63,
      "plugins": 64,
      "Ġintre": 65,
      "ParamList": 66,
      "Ġtocc": 67,
      "Ġmasterpieces": 68,
      "ĠDiaries": 69,
      "ĠassertEquals": 70,
      "hankelijk": 71,
      "hcim": 72,
      "Ġarise": 73,
      "ĠThal": 74,
      "Ġдетства": 75,
      "ĠCerr": 76,
      "Ġterl": 77,
      "ĠMaduro": 78,
      "ĠKubrick": 79,
      "ONLINE": 80,
      "pointA": 81,
      "ĠSlice": 82,
      "Portfolio": 83,
      "Ġблизо": 84,
      "Ġhope": 85,
      "BuildConfig": 86,
      "ERTY": 87,
      "uddersfield": 88,
      "sız": 89,
      "Ġavar": 90,
      "Ġfruitless": 91,
      "urization": 92,
      "Ġniña": 93,
      "Ġverbinden": 94,
      "Ġbioqu": 95,
      "ShoppingCart": 96,
      "infty": 97,
      "Ġтому": 98,
      "rstrip": 99,
      "though": 100,
      "histogram": 101,
      "ох": 102,
      "Ġhacer": 103,
      "ĠExceptions": 104,
      "perturbed": 105,
      "Ball": 106,
      "Klein": 107,
      "ĠMarks": 108,
      "ĠPank": 109,
      "Ġstát": 110,
      "boiler": 111,
      "overline": 112,
      "Ġkterý": 113,
      "Ġasignatura": 114,
      "ĠBoardwalk": 115,
      "Ġformic": 116,
      "wechsl": 117,
      "gpt": 118,
      "atual": 119,
      "の一": 120,
      "sequelize": 121,
      "Ġjuvenile": 122,
      "TAniPaf": 123,
      "dison": 124,
      "emens": 125,
      "BSD": 126,
      "Ġsérie": 127,
      "ĠJaguars": 128,
      "Ġcoasters": 129,
      "Ġdecar": 130,
      "Ġdarse": 131,
      "Ġブーツ": 132,
      "дной": 133,
      "Ġказа": 134,
      "isierten": 135,
      "geoLocation": 136,
      "JFrame": 137,
      "crs": 138,
      "ĠDose": 139,
      "ĠFlair": 140,
      "ĠMirza": 141,
      "SCOPE": 142,
      "Bbb": 143,
      "üyor": 144,
      "ĠBIT": 145,
      "ĠBoa": 146,
      "Ġéclair": 147,
      "ĠEntityManager": 148,
      "Ġsofr": 149,
      "ĠTokugawa": 150,
      "ösungen": 151,
      "etna": 152,
      "лица": 153,
      "spar": 154,
      "Ġsamt": 155,
      "Ġnourish": 156,
      "Ġmanto": 157,
      "Ġbtn": 158,
      "Ġبنات": 159,
      "Chaer": 160,
      "Ġoov": 161,
      "ĠgetMax": 162,
      "Ġmeses": 163,
      "Ġuporab": 164,
      "drum": 165,
      "innerHTML": 166,
      "Ġlounges": 167,
      "PLACES": 168,
      "их": 169,
      "Ġمعی": 170,
      "ĠDarlington": 171,
      "արկ": 172,
      "Ġsurfboard": 173,
      "Ġfamiliarity": 174,
      "arbeitung": 175,
      "raff": 176,
      "vaart": 177,
      "iazioni": 178,
      "ودي": 179,
      "ĠbalanceOf": 180,
      "Cors": 181,
      "Ġgrd": 182,
      "Ġbackstage": 183,
      "Ġseating": 184,
      "Ġhormon": 185,
      "Ġzad": 186,
      "ĠShanks": 187,
      "ĠapiKey": 188,
      "gitlab": 189,
      "Ġbugs": 190,
      "Ġarrec": 191,
      "GroupBox": 192,
      "Ġallgemeinen": 193,
      "ĠRug": 194,
      "Ġblaster": 195,
      "Ġsamedi": 196,
      "LookAndFeels": 197,
      "hende": 198,
      "Planck": 199,
      "Ġrevolutionize": 200,
      "urah": 201,
      "Ġteritor": 202,
      "Ġevap": 203,
      "ĠYucatan": 204,
      "غرافيا": 205,
      "ĠIMM": 206,
      "Ġمرم": 207,
      "ĠТар": 208,
      "Ġenjoyment": 209,
      "ĠIMMEDI": 210,
      "crackers": 211,
      "Ġluminosity": 212,
      "copyOf": 213,
      "Ġmètre": 214,
      "gebnis": 215,
      "ecured": 216,
      "ĠVerwendung": 217,
      "Ġunsecured": 218,
      "ĠAdvice": 219,
      "Ġgrayish": 220,
      "Ġdraft": 221,
      "ĠCalder": 222,
      "beth": 223,
      "Ġcron": 224,
      "Ġfibrosis": 225,
      "LISTEN": 226,
      "odem": 227,
      "Ġexif": 228,
      "Ġigual": 229,
      "imgs": 230,
      "ĠИталия": 231,
      "стами": 232,
      "ĠNavbar": 233,
      "Ġespecificar": 234,
      "Ġпровести": 235,
      "Pog": 236,
      "بانی": 237,
      "Ġdifund": 238,
      "ĠHolliday": 239,
      "hopping": 240,
      "記の": 241,
      "Ġпреди": 242,
      "Ġbadge": 243,
      "Ġвыступи": 244,
      "ĠТой": 245,
      "ώντας": 246,
      "ĠShortcuts": 247,
      "Ġvolcanoes": 248,
      "plicative": 249,
      "Ġsavage": 250,
      "Ġвулкан": 251,
      "abung": 252,
      "Ġبقت": 253,
      "Ġحرام": 254,
      "ovania": 255,
      "Ġovercrowded": 256,
      "weza": 257,
      "toFloat": 258,
      "StatusInternal": 259,
      "Ġcaptcha": 260,
      "piej": 261,
      "expect": 262,
      "Ġсты": 263,
      "Ġrestrained": 264,
      "merc": 265,
      "下的": 266,
      "Ġsagging": 267,
      "ucus": 268,
      "Ġcontiene": 269,
      "ĠGillette": 270,
      "ĠHok": 271,
      "Ġembodies": 272,
      "Half": 273,
      "ĠHalf": 274,
      "шава": 275,
      "ĠISSUE": 276,
      "mqtt": 277,
      "ĠGiv": 278,
      "rades": 279,
      "Ġrevoc": 280,
      "Ġsidste": 281,
      "hair": 282,
      "нову": 283,
      "Ġuniversit": 284,
      "Ġterms": 285,
      "Ġразлични": 286,
      "Tela": 287,
      "Ġプレゼント": 288,
      "伙伴": 289,
      "ĠJamb": 290,
      "Ġzelf": 291,
      "رفته": 292,
      "ĠPháp": 293,
      "ĠMuay": 294,
      "enen": 295,
      "ĠGordo": 296,
      "Ġволос": 297,
      "Ġabandoning": 298,
      "Ġneuropathy": 299,
      "Ġvoldo": 300,
      "daad": 301,
      "Ġdisseminate": 302,
      "Ġfácilmente": 303,
      "Ġlän": 304,
      "heran": 305,
      "ApiModel": 306,
      "permutation": 307,
      "ρεύ": 308,
      "ĠGrey": 309,
      "offsets": 310,
      "ĠEpisodes": 311,
      "Ġconspicuous": 312,
      "Ġlặng": 313,
      "groupby": 314,
      "ĠFransiya": 315,
      "ĠAeonium": 316,
      "Ġdespe": 317,
      "élite": 318,
      "Ġtemperament": 319,
      "Ġfledgling": 320,
      "shovel": 321,
      "Ġnitrite": 322,
      "Ġđiển": 323,
      "Ġcoda": 324,
      "epis": 325,
      "Ġdevono": 326,
      "ĠINFORM": 327,
      "ingwood": 328,
      "ĠBuf": 329,
      "ĠDau": 330,
      "Ġspond": 331,
      "Ġпоба": 332,
      "Ġparticular": 333,
      "ĠCollingwood": 334,
      "Ġlinearization": 335,
      "hoon": 336,
      "Ġseek": 337,
      "インスト": 338,
      "enclose": 339,
      "ĠReward": 340,
      "Ġshield": 341,
      "arged": 342,
      "ĠScratch": 343,
      "Ġcountertops": 344,
      "ampak": 345,
      "Ġestá": 346,
      "OGND": 347,
      "ĠHumanos": 348,
      "obnie": 349,
      "Random": 350,
      "wiaz": 351,
      "Ġgwiaz": 352,
      "Ġجاتی": 353,
      "Ġměst": 354,
      "articolo": 355,
      "Ġzanim": 356,
      "Ġrůzných": 357,
      "ĠFraction": 358,
      "Ġмарт": 359,
      "上げて": 360,
      "ĠEPO": 361,
      "слава": 362,
      "lou": 363,
      "ĠZeppelin": 364,
      "ĠCluj": 365,
      "Ġfacere": 366,
      "Ġvéhicules": 367,
      "Ġvoucher": 368,
      "elems": 369,
      "Ġgehe": 370,
      "icionados": 371,
      "Ġساعات": 372,
      "ĠLieber": 373,
      "depos": 374,
      "Ġocurren": 375,
      "mechanical": 376,
      "ĠSchnee": 377,
      "sld": 378,
      "iroz": 379,
      "Ġbunun": 380,
      "Ġnong": 381,
      "довой": 382,
      "ĠIVA": 383,
      "ĠGhaz": 384,
      "으니까": 385,
      "Ġмогут": 386,
      "ティック": 387,
      "ĠEncyclop": 388,
      "adid": 389,
      "Ġalanine": 390,
      "Ġsoloist": 391,
      "Ġfornire": 392,
      "Ġالأصفر": 393,
      "არგ": 394,
      "Ġfined": 395,
      "userAgent": 396,
      "Ġváy": 397,
      "Ġприветствую": 398,
      "eo": 399,
      "xaml": 400,
      "Ġhaka": 401,
      "ĠFiber": 402,
      "ĠNRP": 403,
      "Ġobe": 404,
      "Ġقوس": 405,
      "Ġđeo": 406,
      "افي": 407,
      "Ġdessous": 408,
      "Ġgevonden": 409,
      "cccccc": 410,
      "ĠheaderShown": 411,
      "κια": 412,
      "Ġshir": 413,
      "Ġimpenetr": 414,
      "plers": 415,
      "Collider": 416,
      "ĠplayerName": 417,
      "ĠVasil": 418,
      "Ġdecembrie": 419,
      "Ġerhöhen": 420,
      "φέρ": 421,
      "mane": 422,
      "unas": 423,
      "Ġkitt": 424,
      "darkMode": 425,
      "lattice": 426,
      "Ġpixels": 427,
      "ĠPDK": 428,
      "ĠJira": 429,
      "Ġcooled": 430,
      "Ġapartments": 431,
      "xa": 432,
      "बक": 433,
      "Ġbxa": 434,
      "ĠVass": 435,
      "ĠBrink": 436,
      "Ġsorella": 437,
      "Ġसबक": 438,
      "ĠTAG": 439,
      "Ġflasks": 440,
      "Ġremot": 441,
      "Ġодно": 442,
      "Ġnaszym": 443,
      "memcpy": 444,
      "ĠETFs": 445,
      "Ġdrie": 446,
      "Ġkız": 447,
      "oufl": 448,
      "proposition": 449,
      "Ġdioxygen": 450,
      "Ġзді": 451,
      "Ġuomo": 452,
      "Ġwhitespace": 453,
      "Ġfearless": 454,
      "asjoner": 455,
      "Ġneste": 456,
      "Ġsucks": 457,
      "Ġdünyaya": 458,
      "Ġato": 459,
      "userManager": 460,
      "Ġatof": 461,
      "góc": 462,
      "pov": 463,
      "ماه": 464,
      "itia": 465,
      "ĠBIM": 466,
      "StripMenuItem": 467,
      "Ġшири": 468,
      "Ġувеличения": 469,
      "こともある": 470,
      "dsb": 471,
      "Ġpasó": 472,
      "ĠRenew": 473,
      "ĠItalian": 474,
      "TIMES": 475,
      "ĠСпорттук": 476,
      "Ġtogg": 477,
      "ĠCNG": 478,
      "heroes": 479,
      "Ġderby": 480,
      "Ġlocksmith": 481,
      "ĠPathfinder": 482,
      "Administrator": 483,
      "dynamics": 484,
      "ĠFonbet": 485,
      "étation": 486,
      "ĠGoode": 487,
      "WEEN": 488,
      "üml": 489,
      "OLS": 490,
      "Ġмарта": 491,
      "nton": 492,
      "Ġbenc": 493,
      "ĠWOM": 494,
      "ĠStrad": 495,
      "Ġutopian": 496,
      "imdb": 497,
      "preceq": 498,
      "emeen": 499,
      "swürdig": 500,
      "Ġkerusakan": 501,
      "simplified": 502,
      "ĠloadImage": 503,
      "fence": 504,
      "stek": 505,
      "Ġwget": 506,
      "expo": 507,
      "Ġsubmenu": 508,
      "Ġпредстоя": 509,
      "Ġsaludables": 510,
      "Ġgifting": 511,
      "Ġusize": 512,
      "Ġrife": 513,
      "Ġpoved": 514,
      "Ġaquest": 515,
      "ĠShropshire": 516,
      "Ġrestre": 517,
      "Ġالجلد": 518,
      "Ġアクセ": 519,
      "Ġdiosa": 520,
      "Ġthirty": 521,
      "weist": 522,
      "Ġяким": 523,
      "Fut": 524,
      "Ġفقد": 525,
      "ĠMontag": 526,
      "izontally": 527,
      "Ġcommentary": 528,
      "Ġjaponais": 529,
      "Ġফরম": 530,
      "reservoir": 531,
      "Lon": 532,
      "ĠSath": 533,
      "Ġfluv": 534,
      "cott": 535,
      "Ġtaper": 536,
      "Ġцик": 537,
      "lycerin": 538,
      "пси": 539,
      "Ġsuret": 540,
      "ándose": 541,
      "ĠRajapak": 542,
      "Ġsmoot": 543,
      "Ġsureties": 544,
      "ĠArap": 545,
      "avon": 546,
      "Ġcôtes": 547,
      "Ġکریں": 548,
      "crc": 549,
      "estas": 550,
      "ĠKör": 551,
      "ürm": 552,
      "Ġeffectually": 553,
      "Ġانگل": 554,
      "Ġflooded": 555,
      "ĠTrash": 556,
      "ToBe": 557,
      "ĠReyn": 558,
      "atov": 559,
      "Ġbrom": 560,
      "Ġsling": 561,
      "اديم": 562,
      "OrElse": 563,
      "ština": 564,
      "Ġapologizing": 565,
      "ĠDekker": 566,
      "ゆっくり": 567,
      "ĠEcon": 568,
      "Ġscalar": 569,
      "に入れて": 570,
      "Ġfarther": 571,
      "Ġrecharge": 572,
      "lovepo": 573,
      "Ġezingu": 574,
      "Ġhozzá": 575,
      "lovepoetry": 576,
      "omag": 577,
      "ĠCllr": 578,
      "ĠPles": 579,
      "ĠPawar": 580,
      "ĠParish": 581,
      "Ġсвого": 582,
      "Ġrolled": 583,
      "Ġcentrifugation": 584,
      "MongoClient": 585,
      "Murphy": 586,
      "ĠGIFT": 587,
      "Ġنسم": 588,
      "Ġmixte": 589,
      "Ġбез": 590,
      "REDIR": 591,
      "mniejs": 592,
      "ĠRés": 593,
      "Ġinder": 594,
      "Ġappraised": 595,
      "Fiber": 596,
      "avano": 597,
      "ringer": 598,
      "Ġaccelerated": 599,
      "Eloquent": 600,
      "这意味着": 601,
      "Ġchasing": 602,
      "Ġgestures": 603,
      "Ġcouronne": 604,
      "cfr": 605,
      "ône": 606,
      "Ġسری": 607,
      "urupani": 608,
      "cyan": 609,
      "Sqrt": 610,
      "gcd": 611,
      "Ġworm": 612,
      "Ġwinter": 613,
      "chromed": 614,
      "ffineTransform": 615,
      "φέρον": 616,
      "ĠSobolev": 617,
      "iseries": 618,
      "ĠNgModule": 619,
      "Ġdrown": 620,
      "ĠPRL": 621,
      "stim": 622,
      "Ġcesium": 623,
      "Ġdiyor": 624,
      "SOFT": 625,
      "Ġpotion": 626,
      "Ġيتح": 627,
      "Communities": 628,
      "Ġtokoh": 629,
      "Ġtačiau": 630,
      "affles": 631,
      "PHAM": 632,
      "ASTIC": 633,
      "Ġnations": 634,
      "Stable": 635,
      "ĠCapone": 636,
      "Ġhráč": 637,
      "Menus": 638,
      "Wires": 639,
      "Ġلال": 640,
      "Ġabe": 641,
      "чиков": 642,
      "Ġtemporada": 643,
      "Ġreligiosas": 644,
      "Ġspecificity": 645,
      "Ġfieles": 646,
      "iole": 647,
      "вается": 648,
      "Seal": 649,
      "fuzzy": 650,
      "Ġnke": 651,
      "ĠUTM": 652,
      "arii": 653,
      "relser": 654,
      "Ġradon": 655,
      "Poss": 656,
      "Ġrepression": 657,
      "Ġprovas": 658,
      "Ġbombshell": 659,
      "ĠRubber": 660,
      "erai": 661,
      "Ġsimbolo": 662,
      "ipts": 663,
      "Ġlados": 664,
      "antica": 665,
      "merich": 666,
      "Ġfunnel": 667,
      "świę": 668,
      "storms": 669,
      "ĠBFS": 670,
      "ĠErg": 671,
      "Ġघटक": 672,
      "ĠРос": 673,
      "occasione": 674,
      "Ġsinners": 675,
      "Ġslur": 676,
      "Ġmeerdere": 677,
      "Ġعجیب": 678,
      "Ġartefact": 679,
      "CONFIGURE": 680,
      "Ġexperimentado": 681,
      "wärts": 682,
      "omir": 683,
      "ĠeCommerce": 684,
      "Ġsmack": 685,
      "ĠTherapist": 686,
      "ĠPrior": 687,
      "victoria": 688,
      "refreshToken": 689,
      "Ġmime": 690,
      "queued": 691,
      "Ġenvoy": 692,
      "Ġвыбрали": 693,
      "idl": 694,
      "cache": 695,
      "ENEMYPLACE": 696,
      "akova": 697,
      "barth": 698,
      "baliknya": 699,
      "activiti": 700,
      "Ġczłon": 701,
      "онер": 702,
      "chunks": 703,
      "ortium": 704,
      "ĠIdeas": 705,
      "Ġwoes": 706,
      "ĠEnix": 707,
      "Ġgalactose": 708,
      "ponsors": 709,
      "epochs": 710,
      "claw": 711,
      "ĠINDI": 712,
      "ĠVPC": 713,
      "Ġactos": 714,
      "Ġreunir": 715,
      "Ġинформационной": 716,
      "Ġkane": 717,
      "Ġбекер": 718,
      "Ġمنشور": 719,
      "Ġçarp": 720,
      "ĠcreateImage": 721,
      "ĠDIRECT": 722,
      "Ġзае": 723,
      "ĠAller": 724,
      "Ġsynapses": 725,
      "alve": 726,
      "shot": 727,
      "Ġparâ": 728,
      "Ġrevenus": 729,
      "Ġpusher": 730,
      "Ġconvincing": 731,
      "ليو": 732,
      "Ġartisan": 733,
      "Ġunsus": 734,
      "SKAction": 735,
      "Ġrusse": 736,
      "ĠAcht": 737,
      "ĠKrav": 738,
      "Ideas": 739,
      "Ġfeet": 740,
      "Ġcárc": 741,
      "ミック": 742,
      "Ġdiffplay": 743,
      "Ġsulit": 744,
      "Wallet": 745,
      "ĠŠ": 746,
      "ĠGift": 747,
      "Ġمكت": 748,
      "Ġnegativ": 749,
      "acetate": 750,
      "ĠŠpan": 751,
      "Ġciek": 752,
      "getNode": 753,
      "Ġpesawat": 754,
      "configFile": 755,
      "ĠOhm": 756,
      "Ġstellt": 757,
      "ĠRequestMethod": 758,
      "ABCDEFGHIJKLMNOP": 759,
      "シーズン": 760,
      "ĠBör": 761,
      "Ġjsem": 762,
      "ismatch": 763,
      "Ġmateri": 764,
      "Ġglycine": 765,
      "キレ": 766,
      "ĠMalik": 767,
      "fastq": 768,
      "Ġvstup": 769,
      "Hepinize": 770,
      "キレイ": 771,
      "ĠAlek": 772,
      "Ġdeterred": 773,
      "pena": 774,
      "ĠDuro": 775,
      "Ġji": 776,
      "ĠTreeMap": 777,
      "Ġحاضر": 778,
      "ĠPillar": 779,
      "adne": 780,
      "Ġober": 781,
      "Ġoverexpression": 782,
      "Ġبازیکن": 783,
      "Ġolvidar": 784,
      "Ġunderpinned": 785,
      "noun": 786,
      "Ġpolice": 787,
      "Ġsugli": 788,
      "ĠBlanket": 789,
      "ĠSOS": 790,
      "Ġcrushed": 791,
      "Ġznacz": 792,
      "Ġquarries": 793,
      "Writable": 794,
      "менение": 795,
      "Ġafferm": 796,
      "ĠResistant": 797,
      "Ġfiglio": 798,
      "Ġzakl": 799,
      "йный": 800,
      "Ġyana": 801,
      "Ġуйный": 802,
      "meas": 803,
      "ujudkan": 804,
      "ĠGölü": 805,
      "Ġballerina": 806,
      "ĠYouT": 807,
      "Ġlordship": 808,
      "Ġkust": 809,
      "Ġplek": 810,
      "Ġferia": 811,
      "Ġkapal": 812,
      "Ġстроку": 813,
      "Ġالسماء": 814,
      "Ġglycos": 815,
      "selectors": 816,
      "ĠDayan": 817,
      "ĠVolunteers": 818,
      "вяз": 819,
      "Ġالمركز": 820,
      "زاز": 821,
      "нуть": 822,
      "ĠClon": 823,
      "withProperties": 824,
      "ĠShip": 825,
      "ophone": 826,
      "ĠSeason": 827,
      "kovi": 828,
      "Season": 829,
      "Ġscrambled": 830,
      "Ġpracy": 831,
      "Ġenthalten": 832,
      "Ġросій": 833,
      "อกาส": 834,
      "出した": 835,
      "ĠHunger": 836,
      "artikel": 837,
      "Ġleapt": 838,
      "Ġchildrens": 839,
      "Ġofrecemos": 840,
      "tart": 841,
      "ĠSos": 842,
      "ĠSco": 843,
      "toContain": 844,
      "TANK": 845,
      "ĠNEC": 846,
      "ehrt": 847,
      "raten": 848,
      "Ġmisty": 849,
      "перыі": 850,
      "gekehrt": 851,
      "PF": 852,
      "itens": 853,
      "ĠWPF": 854,
      "ĠElsev": 855,
      "ĠCRISPR": 856,
      "ĠElsevier": 857,
      "ellent": 858,
      "ларга": 859,
      "Ġبیش": 860,
      "wertung": 861,
      "ophosph": 862,
      "Ġatrocities": 863,
      "pendown": 864,
      "Ġunconventional": 865,
      "anatom": 866,
      "Ġholo": 867,
      "Ġdistraught": 868,
      "Ġuñas": 869,
      "Ġcorta": 870,
      "Loren": 871,
      "ĠJot": 872,
      "radiance": 873,
      "Ġirradiance": 874,
      "marque": 875,
      "ĠBahia": 876,
      "ĠSchwester": 877,
      "wheels": 878,
      "legel": 879,
      "Ġsebelum": 880,
      "lni": 881,
      "یدار": 882,
      "ĠAnglic": 883,
      "EEG": 884,
      "iciens": 885,
      "ĠZweifel": 886,
      "ĠIFN": 887,
      "anin": 888,
      "untes": 889,
      "ordinated": 890,
      "vascular": 891,
      "ĠMặt": 892,
      "Ġخلال": 893,
      "ĠАрхивная": 894,
      "Ġutili": 895,
      "openai": 896,
      "Ġcopa": 897,
      "Ġerzählt": 898,
      "ĠDelay": 899,
      "Ġtille": 900,
      "Ġrende": 901,
      "olverine": 902,
      "symfony": 903,
      "ĠWelding": 904,
      "オリジナル": 905,
      "Ġexha": 906,
      "гай": 907,
      "ĠobjectMapper": 908,
      "BUF": 909,
      "hilangan": 910,
      "Ġtilting": 911,
      "Ġexhausted": 912,
      "Khe": 913,
      "abot": 914,
      "UEL": 915,
      "ambient": 916,
      "Ġعنہ": 917,
      "ĠNusantara": 918,
      "gleichen": 919,
      "municipal": 920,
      "Ġnha": 921,
      "ĠRuto": 922,
      "Ġstel": 923,
      "ĠCorpus": 924,
      "apatillas": 925,
      "ĠCIE": 926,
      "Ġcommande": 927,
      "Ġendoplasmic": 928,
      "EventHandler": 929,
      "Ġkautta": 930,
      "slots": 931,
      "Ġsilo": 932,
      "ĠCURLOPT": 933,
      "frast": 934,
      "molecular": 935,
      "ĠMere": 936,
      "ĠEscrit": 937,
      "Ġcama": 938,
      "Ġremind": 939,
      "位同學": 940,
      "各位同學": 941,
      "ĠZacks": 942,
      "Ġبحيث": 943,
      "ĠKuznet": 944,
      "cmb": 945,
      "جين": 946,
      "ĠHels": 947,
      "Ġconvi": 948,
      "upts": 949,
      "Ġнашу": 950,
      "Ġnguy": 951,
      "Ġunsightly": 952,
      "Ġhaupts": 953,
      "ĠstartDate": 954,
      "ĠSurvivor": 955,
      "Ġélevée": 956,
      "Ġiskust": 957,
      "Ġwarrantless": 958,
      "Ġhauptsächlich": 959,
      "Ġkuni": 960,
      "Ġtoit": 961,
      "ımda": 962,
      "Ġdobry": 963,
      "Ġسنوات": 964,
      "ĠPolsce": 965,
      "Ġriun": 966,
      "如何": 967,
      "ichung": 968,
      "lina": 969,
      "otek": 970,
      "onske": 971,
      "тической": 972,
      "Ġtrú": 973,
      "Ġuranium": 974,
      "Ġostrich": 975,
      "Ġyaptık": 976,
      "cards": 977,
      "ágot": 978,
      "ĠFilipinos": 979,
      "ĠHAIR": 980,
      "Ġحلق": 981,
      "taire": 982,
      "treasure": 983,
      "Ġdisliked": 984,
      "Ġplacent": 985,
      "columnIndex": 986,
      "гор": 987,
      "ĠAdvers": 988,
      "Ġbolts": 989,
      "Ġtolerated": 990,
      "ოში": 991,
      "Ġole": 992,
      "Ġinfographics": 993,
      "ĠnonEmpty": 994,
      "ĠSabtu": 995,
      "Ġребенок": 996,
      "Ġkredi": 997,
      "localScale": 998,
      "zeugen": 999,
      "Ġlightening": 1000,
      "ĠIncent": 1001,
      "Ġscrapped": 1002,
      "uzu": 1003,
      "Ġnegócio": 1004,
      "行って": 1005,
      "bares": 1006,
      "Ġطور": 1007,
      "ĠParyayvachi": 1008,
      "řit": 1009,
      "ĠRussian": 1010,
      "Ġclout": 1011,
      "Ġmoratorium": 1012,
      "Ġaccel": 1013,
      "ĠfinalList": 1014,
      "数据集": 1015,
      "ĠYemeni": 1016,
      "Ġformato": 1017,
      "ĠNodeJS": 1018,
      "Ġსაქართველოს": 1019,
      "ĠGeburtstag": 1020,
      "retrofit": 1021,
      "mps": 1022,
      "Ġoyunc": 1023,
      "ĠJosephson": 1024,
      "Ġrepentance": 1025,
      "Ġفرانسه": 1026,
      "Ġchute": 1027,
      "Ġinflating": 1028,
      "scrollTo": 1029,
      "Ġگلوکار": 1030,
      "ĠBAH": 1031,
      "пози": 1032,
      "Ġhasht": 1033,
      "phosphine": 1034,
      "ála": 1035,
      "Ġmaf": 1036,
      "Ġبعد": 1037,
      "ólito": 1038,
      "phenoxymethyl": 1039,
      "ĠCaball": 1040,
      "Ġprossimo": 1041,
      "ĠSchwe": 1042,
      "Ġoda": 1043,
      "λογή": 1044,
      "Ġarşivlendi": 1045,
      "silk": 1046,
      "ĠDuis": 1047,
      "Ġڈالر": 1048,
      "Ġbins": 1049,
      "ateľ": 1050,
      "Ġslij": 1051,
      "Ġencuentra": 1052,
      "ĠВулкан": 1053,
      "pace": 1054,
      "itesi": 1055,
      "textvariable": 1056,
      "ĠSoh": 1057,
      "newlines": 1058,
      "ĠSeu": 1059,
      "Mgr": 1060,
      "ĠSupp": 1061,
      "viii": 1062,
      "ĠEcuadorian": 1063,
      "Ġinl": 1064,
      "imidazole": 1065,
      "Ġdeserialize": 1066,
      "aporation": 1067,
      "anneer": 1068,
      "Ġantagonism": 1069,
      "MgO": 1070,
      "stwo": 1071,
      "ĠTREAT": 1072,
      "FRAGMENT": 1073,
      "Ġcoronavirus": 1074,
      "Ġimmobilier": 1075,
      "Bueno": 1076,
      "Ġpicket": 1077,
      "Ġrested": 1078,
      "Ġmuñ": 1079,
      "Ġvich": 1080,
      "Ġafield": 1081,
      "чая": 1082,
      "czki": 1083,
      "ĠPrendre": 1084,
      "Ġgraisse": 1085,
      "enskap": 1086,
      "ĠShetland": 1087,
      "Ġwaw": 1088,
      "Ġrask": 1089,
      "ĠLarn": 1090,
      "Ġhommes": 1091,
      "themealdb": 1092,
      "ĠKolmogorov": 1093,
      "ตรา": 1094,
      "orec": 1095,
      "ProfileAction": 1096,
      "Ġacontecer": 1097,
      "东省": 1098,
      "广东省": 1099,
      "ĠSeal": 1100,
      "хів": 1101,
      "anem": 1102,
      "stencil": 1103,
      "Ġhanem": 1104,
      "Ġkoje": 1105,
      "ptive": 1106,
      "Ġskon": 1107,
      "ĠBlum": 1108,
      "deviceID": 1109,
      "WISE": 1110,
      "ĠEta": 1111,
      "Ġjuda": 1112,
      "Ġchiq": 1113,
      "eclipse": 1114,
      "ĠNara": 1115,
      "Ġfilly": 1116,
      "Ġטור": 1117,
      "Ġdenoting": 1118,
      "Ġvendar": 1119,
      "Ġметр": 1120,
      "ĠAccelerated": 1121,
      "pail": 1122,
      "stwa": 1123,
      "Ġpakai": 1124,
      "Ġdicht": 1125,
      "Ġdawa": 1126,
      "tones": 1127,
      "Dockerfile": 1128,
      "ViewState": 1129,
      "noisy": 1130,
      "телями": 1131,
      "ópez": 1132,
      "Ġfalar": 1133,
      "Ġgorg": 1134,
      "ercard": 1135,
      "ĠMcKenzie": 1136,
      "ĠMastercard": 1137,
      "Ġlichen": 1138,
      "Ġเนาะ": 1139,
      "Kub": 1140,
      "atangan": 1141,
      "Ġacus": 1142,
      "ĠStraw": 1143,
      "alabel": 1144,
      "Ġsows": 1145,
      "чики": 1146,
      "ErrorException": 1147,
      "Ġrepertoire": 1148,
      "Ġheartily": 1149,
      "Ġressent": 1150,
      "Ġaufge": 1151,
      "Ġsœur": 1152,
      "Watcher": 1153,
      "Ġscarf": 1154,
      "となりました": 1155,
      "Ġamerican": 1156,
      "Ġایسے": 1157,
      "ĠFrédéric": 1158,
      "SQLException": 1159,
      "Ġthinning": 1160,
      "Ġholomorphic": 1161,
      "ĠBrigham": 1162,
      "Ġпрофессор": 1163,
      "tib": 1164,
      "grond": 1165,
      "Ġmalade": 1166,
      "Ġproposer": 1167,
      "Ġjezelf": 1168,
      "Ġobesity": 1169,
      "Ġpadrão": 1170,
      "lived": 1171,
      "هيل": 1172,
      "Ġfeme": 1173,
      "Ġприняли": 1174,
      "Ġberkel": 1175,
      "Ġmosquitoes": 1176,
      "Ġcelsius": 1177,
      "ĠSynchron": 1178,
      "Ġzil": 1179,
      "Disclaimer": 1180,
      "Ġpaw": 1181,
      "тельности": 1182,
      "MOUSE": 1183,
      "לק": 1184,
      "ĠMav": 1185,
      "Ġexalt": 1186,
      "Ġналичи": 1187,
      "Ġmartyrs": 1188,
      "ファスナー": 1189,
      "Ġחלק": 1190,
      "Ġлюбых": 1191,
      "zka": 1192,
      "ĠOurs": 1193,
      "twig": 1194,
      "Ġintimidated": 1195,
      "Ġdeporte": 1196,
      "listening": 1197,
      "ĠSlob": 1198,
      "ологи": 1199,
      "Ġbisnis": 1200,
      "Ġwatchdog": 1201,
      "Ġnemen": 1202,
      "ReadKey": 1203,
      "smoio": 1204,
      "ĠTempat": 1205,
      "Ġسلمان": 1206,
      "Ġруки": 1207,
      "Ġgrammes": 1208,
      "Ġtijekom": 1209,
      "ванию": 1210,
      "ĠMilton": 1211,
      "asin": 1212,
      "Ġhinzu": 1213,
      "Ġosmotic": 1214,
      "ĠDaten": 1215,
      "льников": 1216,
      "ativecomm": 1217,
      "creativecomm": 1218,
      "Ġkhat": 1219,
      "Ġμου": 1220,
      "Ġsymptom": 1221,
      "ĠPavilion": 1222,
      "ĠTurkmenistan": 1223,
      "creativecommons": 1224,
      "ĠFis": 1225,
      "ارو": 1226,
      "ettet": 1227,
      "addi": 1228,
      "Ġradiol": 1229,
      "hesion": 1230,
      "Ġtiềm": 1231,
      "Ġtaip": 1232,
      "Ġașa": 1233,
      "Ġradiolysis": 1234,
      "HALF": 1235,
      "ĠIgu": 1236,
      "ostream": 1237,
      "лих": 1238,
      "Ġpewter": 1239,
      "ĠBuffy": 1240,
      "точка": 1241,
      "čaj": 1242,
      "ĠHUR": 1243,
      "Ġanta": 1244,
      "Ġolímp": 1245,
      "Ġexpulsion": 1246,
      "Ġudal": 1247,
      "ĠWorkout": 1248,
      "不支持": 1249,
      "дис": 1250,
      "Ġreparto": 1251,
      "Ġwynosi": 1252,
      "ruk": 1253,
      "όμε": 1254,
      "Ġarth": 1255,
      "Ġничек": 1256,
      "Ġsurvival": 1257,
      "further": 1258,
      "lern": 1259,
      "ĠRoca": 1260,
      "ської": 1261,
      "ĠGao": 1262,
      "ĠJunio": 1263,
      "Ġbays": 1264,
      "axios": 1265,
      "Ġhomely": 1266,
      "ĠMcCarthy": 1267,
      "Ġsigui": 1268,
      "ĠBiennale": 1269,
      "Ġgum": 1270,
      "obucket": 1271,
      "Ġesophagus": 1272,
      "Ġrestar": 1273,
      "ĠMorty": 1274,
      "ĠVojvod": 1275,
      "Ġ모": 1276,
      "습을": 1277,
      "Ġlunch": 1278,
      "льника": 1279,
      "Ġpoł": 1280,
      "Ġsimplicial": 1281,
      "Ġ모습을": 1282,
      "TFE": 1283,
      "ĠMature": 1284,
      "ĠPTFE": 1285,
      "Ġfibroblasts": 1286,
      "ベース": 1287,
      "ulata": 1288,
      "ĠMAM": 1289,
      "Ġkarenge": 1290,
      "Ġstraps": 1291,
      "Ġexperience": 1292,
      "Ġٹیک": 1293,
      "Ġclimax": 1294,
      "Ġvíctima": 1295,
      "Gregor": 1296,
      "Ġenergije": 1297,
      "Ġdispersing": 1298,
      "Ġclosely": 1299,
      "Ġиспан": 1300,
      "Ġdealership": 1301,
      "aphosa": 1302,
      "sadquotes": 1303,
      "ĠPunjab": 1304,
      "βάλ": 1305,
      "ĠSzent": 1306,
      "Ġmonte": 1307,
      "Ġrefined": 1308,
      "Ġпонравилось": 1309,
      "Ġhábito": 1310,
      "hadoop": 1311,
      "ĠSahel": 1312,
      "Ġeines": 1313,
      "aryan": 1314,
      "joining": 1315,
      "ченные": 1316,
      "Ġfalei": 1317,
      "inescent": 1318,
      "Ġتخص": 1319,
      "Ġslots": 1320,
      "Ġразличи": 1321,
      "PrefabAsset": 1322,
      "ifndef": 1323,
      "Ġlanded": 1324,
      "ĠITALY": 1325,
      "Ġrégions": 1326,
      "ĠPrisons": 1327,
      "Ġrehabilitated": 1328,
      "ontas": 1329,
      "Ġplaster": 1330,
      "ндарт": 1331,
      "ĠANAL": 1332,
      "Ġpropositions": 1333,
      "Specific": 1334,
      "administrator": 1335,
      "йом": 1336,
      "iebel": 1337,
      "ĠSalim": 1338,
      "ĠMavericks": 1339,
      "Ġunten": 1340,
      "ĠBloss": 1341,
      "Ġclav": 1342,
      "Ġserpentine": 1343,
      "Ġالاكس": 1344,
      "Ġالقض": 1345,
      "τικά": 1346,
      "Ġстоимости": 1347,
      "Ġgelten": 1348,
      "Ġnominally": 1349,
      "Ġrusso": 1350,
      "ĠORN": 1351,
      "Ġкоже": 1352,
      "inguém": 1353,
      "SRPObject": 1354,
      "Ġšto": 1355,
      "ĠORNL": 1356,
      "ĠMbit": 1357,
      "ენტ": 1358,
      "Ġnasz": 1359,
      "Ġvirksom": 1360,
      "aih": 1361,
      "ĠComVisible": 1362,
      "Typography": 1363,
      "gifts": 1364,
      "elerine": 1365,
      "ĠANSI": 1366,
      "Ġwaste": 1367,
      "shunt": 1368,
      "Ġoiseaux": 1369,
      "Ġartikk": 1370,
      "یدن": 1371,
      "スタン": 1372,
      "Ġойнойт": 1373,
      "Ġartikkel": 1374,
      "Boa": 1375,
      "ĠHighness": 1376,
      "ለዚህ": 1377,
      "电视": 1378,
      "überküloz": 1379,
      "Ġስለዚህ": 1380,
      "ĠDungeon": 1381,
      "Ġerforderlich": 1382,
      "Ġpairs": 1383,
      "fluent": 1384,
      "urgie": 1385,
      "barplot": 1386,
      "Ġтести": 1387,
      "itemName": 1388,
      "Ġrealidade": 1389,
      "Ġburnout": 1390,
      "gaan": 1391,
      "ナップ": 1392,
      "Ġstory": 1393,
      "arino": 1394,
      "Ġabsences": 1395,
      "OGEN": 1396,
      "Ġrecklessly": 1397,
      "ĠHartley": 1398,
      "ĠHelmholtz": 1399,
      "ĠtemplateUrl": 1400,
      "Ġaerial": 1401,
      "setVisible": 1402,
      "Ġobituary": 1403,
      "SEPARATOR": 1404,
      "ĠMongols": 1405,
      "Ġrefreshed": 1406,
      "Ġپوست": 1407,
      "Ġří": 1408,
      "Ġponen": 1409,
      "Ġobligado": 1410,
      "Ġříjna": 1411,
      "Ġdestination": 1412,
      "Ġprivil": 1413,
      "ĠBayesian": 1414,
      "ĠTorr": 1415,
      "ostok": 1416,
      "Ġpredatory": 1417,
      "LOY": 1418,
      "Ġtetr": 1419,
      "Ġније": 1420,
      "Ġβα": 1421,
      "Ġsisält": 1422,
      "Ġvocal": 1423,
      "Ġنگر": 1424,
      "ĠOptim": 1425,
      "kaz": 1426,
      "モーション": 1427,
      "Ġosv": 1428,
      "хии": 1429,
      "Wa": 1430,
      "Ġdesea": 1431,
      "ĠWilton": 1432,
      "Ġпищи": 1433,
      "Ġsurvive": 1434,
      "Learning": 1435,
      "Waiter": 1436,
      "jir": 1437,
      "âts": 1438,
      "Ġnourr": 1439,
      "ĠSPDX": 1440,
      "Ġdina": 1441,
      "Ġالاب": 1442,
      "Ġcontradicted": 1443,
      "Ġpenetration": 1444,
      "Ġtaint": 1445,
      "ledning": 1446,
      "espite": 1447,
      "チェック": 1448,
      "Ġسهله": 1449,
      "Ġны": 1450,
      "نیم": 1451,
      "apiUrl": 1452,
      "Ġнынеш": 1453,
      "Ġ例文帳に追加": 1454,
      "ĠhWnd": 1455,
      "Ġjah": 1456,
      "Ġxix": 1457,
      "ĠГоспо": 1458,
      "Joke": 1459,
      "INVISIBLE": 1460,
      "Ġmeurt": 1461,
      "Ġconjugated": 1462,
      "pix": 1463,
      "Ġslick": 1464,
      "Ġsaque": 1465,
      "Polygon": 1466,
      "Нау": 1467,
      "ĠCarey": 1468,
      "ĠColgate": 1469,
      "Ġinstru": 1470,
      "Ġmillionaire": 1471,
      "Ġfaveur": 1472,
      "żej": 1473,
      "فور": 1474,
      "Ġparallax": 1475,
      "Ġperiód": 1476,
      "Ġcompliment": 1477,
      "ディション": 1478,
      "ĠIllumin": 1479,
      "Ġscaler": 1480,
      "ĠEEOC": 1481,
      "ĠPrash": 1482,
      "Ġvolcan": 1483,
      "Ġweaning": 1484,
      "supreme": 1485,
      "spanish": 1486,
      "kurat": 1487,
      "FileVersion": 1488,
      "ahanan": 1489,
      "parts": 1490,
      "RANK": 1491,
      "Ġbowiem": 1492,
      "Arn": 1493,
      "alsa": 1494,
      "Ġđấy": 1495,
      "ĠRevol": 1496,
      "PlatformTarget": 1497,
      "apas": 1498,
      "Ġindenture": 1499,
      "ometers": 1500,
      "Ġyapıyor": 1501,
      "hapsody": 1502,
      "Daisy": 1503,
      "UED": 1504,
      "centerX": 1505,
      "เทพ": 1506,
      "ĠNilsson": 1507,
      "Mor": 1508,
      "Ġrebounding": 1509,
      "ĠRemark": 1510,
      "Morris": 1511,
      "Ġσου": 1512,
      "Ġedilir": 1513,
      "Ġespa": 1514,
      "を受け": 1515,
      "bley": 1516,
      "stall": 1517,
      "Ġthèse": 1518,
      "Ġuso": 1519,
      "PRODUCT": 1520,
      "Ġoxidizing": 1521,
      "ĠSoares": 1522,
      "Ġbắn": 1523,
      "ürzt": 1524,
      "Ġzákladě": 1525,
      "ĠSox": 1526,
      "Ġство": 1527,
      "作用": 1528,
      "Ġllu": 1529,
      "serif": 1530,
      "Ġveren": 1531,
      "TRIG": 1532,
      "TIMER": 1533,
      "Ġworshipped": 1534,
      "lumat": 1535,
      "ĠChica": 1536,
      "Ġtriste": 1537,
      "Ġtravail": 1538,
      "циями": 1539,
      "Ġbevest": 1540,
      "cccnc": 1541,
      "Ġgiocatori": 1542,
      "Ġudziel": 1543,
      "Ġdecidido": 1544,
      "initiated": 1545,
      "liel": 1546,
      "Ġdłu": 1547,
      "berapa": 1548,
      "ĠBREED": 1549,
      "Ġsih": 1550,
      "ĠWSL": 1551,
      "Ġcarving": 1552,
      "hop": 1553,
      "oriya": 1554,
      "Ġmahall": 1555,
      "RequestId": 1556,
      "Ġkullanım": 1557,
      "withId": 1558,
      "cretion": 1559,
      "yska": 1560,
      "isLen": 1561,
      "ĠToen": 1562,
      "ĠHemp": 1563,
      "Ġverlor": 1564,
      "ĠGuid": 1565,
      "نیٹ": 1566,
      "Ġsimplified": 1567,
      "Ġpersuasion": 1568,
      "ĠEzekiel": 1569,
      "Ġverloren": 1570,
      "înes": 1571,
      "ята": 1572,
      "Ġremporte": 1573,
      "روض": 1574,
      "ĠTCL": 1575,
      "Ġbless": 1576,
      "Ġhospitality": 1577,
      "MTAB": 1578,
      "olta": 1579,
      "Ġkarakter": 1580,
      "Ġgörül": 1581,
      "מצא": 1582,
      "ĠErfahrung": 1583,
      "ĠCatarina": 1584,
      "isotropic": 1585,
      "Ġmercur": 1586,
      "Ġиспользование": 1587,
      "ĠVirgen": 1588,
      "Ġmenerapkan": 1589,
      "getActiveSheet": 1590,
      "опера": 1591,
      "ĠEmbar": 1592,
      "Ġchromosomes": 1593,
      "ĠNamib": 1594,
      "Ġرسمي": 1595,
      "DAG": 1596,
      "Ġandar": 1597,
      "Ġconséquent": 1598,
      "Ġenthusi": 1599,
      "Ġreu": 1600,
      "aisie": 1601,
      "ניים": 1602,
      "heiten": 1603,
      "Ġseasons": 1604,
      "GAG": 1605,
      "Ġvolgen": 1606,
      "lightblue": 1607,
      "kong": 1608,
      "Ġparticol": 1609,
      "ĠGovernorate": 1610,
      "Ġshang": 1611,
      "Ġpalin": 1612,
      "Ġgenerous": 1613,
      "leyeceğiz": 1614,
      "Veh": 1615,
      "Ġdischarge": 1616,
      "ToBounds": 1617,
      "ĠParent": 1618,
      "ĠManus": 1619,
      "Ġпутем": 1620,
      "Ġdenied": 1621,
      "Ġcaméra": 1622,
      "ĠStub": 1623,
      "Ġrallied": 1624,
      "Ġtransversal": 1625,
      "Ġقائم": 1626,
      "普通的": 1627,
      "ĠMaggiore": 1628,
      "vere": 1629,
      "portive": 1630,
      "ĠminValue": 1631,
      "Ġwheeled": 1632,
      "measuredangle": 1633,
      "yuk": 1634,
      "ĠCret": 1635,
      "maur": 1636,
      "Ġmooring": 1637,
      "Ġjoystick": 1638,
      "ĠSaison": 1639,
      "ĠPelle": 1640,
      "Ġlube": 1641,
      "ittances": 1642,
      "ĠLeit": 1643,
      "laut": 1644,
      "usher": 1645,
      "AudioFocus": 1646,
      "Ġfueran": 1647,
      "Ġпротягом": 1648,
      "Mast": 1649,
      "ubuntu": 1650,
      "Ġcláus": 1651,
      "Ġterrenos": 1652,
      "Affine": 1653,
      "ĠPRS": 1654,
      "Ġrendah": 1655,
      "Ġdrugiej": 1656,
      "itore": 1657,
      "Ġpaging": 1658,
      "стам": 1659,
      "Ġvitamin": 1660,
      "ĠINSTIT": 1661,
      "інки": 1662,
      "CMakeFiles": 1663,
      "Clik": 1664,
      "Ġstratosphere": 1665,
      "Ġпромышлен": 1666,
      "ümü": 1667,
      "ĠAmmon": 1668,
      "Ġconstamment": 1669,
      "rofen": 1670,
      "ĠSaltar": 1671,
      "uprofen": 1672,
      "Ġibuprofen": 1673,
      "ĠCecilia": 1674,
      "ulat": 1675,
      "Ġkua": 1676,
      "mén": 1677,
      "erjee": 1678,
      "ĠphoneNumber": 1679,
      "Ġsupremo": 1680,
      "glial": 1681,
      "Ġразве": 1682,
      "Ġsleeps": 1683,
      "Ġculmination": 1684,
      "InProgress": 1685,
      "ciju": 1686,
      "Ġлежа": 1687,
      "Ġdeepened": 1688,
      "Ġescribió": 1689,
      "nitz": 1690,
      "служ": 1691,
      "ĠSCHOOL": 1692,
      "PixelRatio": 1693,
      "ĠRotten": 1694,
      "ĠJealous": 1695,
      "Ġрели": 1696,
      "Ġaccelerators": 1697,
      "dri": 1698,
      "emote": 1699,
      "Ġnih": 1700,
      "angal": 1701,
      "Plas": 1702,
      "Ġinjectors": 1703,
      "Ġcirculación": 1704,
      "mayı": 1705,
      "Ġspokoj": 1706,
      "ạy": 1707,
      "ĠGale": 1708,
      "нях": 1709,
      "baseUrl": 1710,
      "ĠTouchable": 1711,
      "Ġocéano": 1712,
      "Ġورځې": 1713,
      "ĠGroom": 1714,
      "Ġscams": 1715,
      "Ġtopaz": 1716,
      "товар": 1717,
      "Ġbeatae": 1718,
      "ĠappContext": 1719,
      "Ġкрае": 1720,
      "Ġfrais": 1721,
      "Ġsuccessively": 1722,
      "ĠЛеони": 1723,
      "Ġnegócios": 1724,
      "Ġnegocio": 1725,
      "今回の": 1726,
      "ăpadă": 1727,
      "Ġlipop": 1728,
      "اهای": 1729,
      "ведении": 1730,
      "Ġпопулярных": 1731,
      "Ġlipoprote": 1732,
      "Ġczek": 1733,
      "Ġtetromino": 1734,
      "Ġبھر": 1735,
      "ホール": 1736,
      "flink": 1737,
      "Ġontology": 1738,
      "avance": 1739,
      "Ġacaso": 1740,
      "Ġsmall": 1741,
      "ĠClarion": 1742,
      "Ġprepara": 1743,
      "Ġattentive": 1744,
      "ĠTLabel": 1745,
      "Ġinformieren": 1746,
      "Ġdescribed": 1747,
      "Ġpalsy": 1748,
      "Tom": 1749,
      "dives": 1750,
      "adayo": 1751,
      "申し上げ": 1752,
      "spender": 1753,
      "IDENT": 1754,
      "getHeight": 1755,
      "comboBox": 1756,
      "τες": 1757,
      "čina": 1758,
      "Parcel": 1759,
      "Ġepitopes": 1760,
      "Ġdisallowed": 1761,
      "Ġquede": 1762,
      "ĠisAuthenticated": 1763,
      "Ġpointillés": 1764,
      "shin": 1765,
      "firstSending": 1766,
      "oprol": 1767,
      "scala": 1768,
      "Ġбул": 1769,
      "esterno": 1770,
      "ĠKarn": 1771,
      "solvent": 1772,
      "svet": 1773,
      "Ġdisob": 1774,
      "Ġорганів": 1775,
      "bans": 1776,
      "ĠGEL": 1777,
      "ĠOblast": 1778,
      "Ġμια": 1779,
      "Ġligature": 1780,
      "Ġuko": 1781,
      "Ġtranscendental": 1782,
      "Ġbelül": 1783,
      "GPa": 1784,
      "Connected": 1785,
      "Ġсамого": 1786,
      "Ġzealous": 1787,
      "Ġoffert": 1788,
      "خی": 1789,
      "ĠGPS": 1790,
      "ictus": 1791,
      "νομ": 1792,
      "Amendment": 1793,
      "خیص": 1794,
      "Ġniiden": 1795,
      "Ġsuccinctly": 1796,
      "Ġmountains": 1797,
      "ĠShroff": 1798,
      "σιά": 1799,
      "himqttrvm": 1800,
      "Elliott": 1801,
      "ĠMina": 1802,
      "ĠLapp": 1803,
      "Ġparéntesis": 1804,
      "Ġyakni": 1805,
      "Ġfett": 1806,
      "tted": 1807,
      "Ġdoes": 1808,
      "Ġmargarine": 1809,
      "Ġgentamicin": 1810,
      "Ġresidentes": 1811,
      "Fet": 1812,
      "zca": 1813,
      "Ġsighted": 1814,
      "innaker": 1815,
      "UMP": 1816,
      "listof": 1817,
      "Ġdamning": 1818,
      "Ġexotic": 1819,
      "ĠgetKey": 1820,
      "Ġniest": 1821,
      "Ġcollectively": 1822,
      "داشت": 1823,
      "ĠShik": 1824,
      "umbotron": 1825,
      "StringVar": 1826,
      "Ġگھر": 1827,
      "Ġmagasins": 1828,
      "ミル": 1829,
      "Ġyelled": 1830,
      "Ġteie": 1831,
      "Ġpyruvate": 1832,
      "Ġoverlapped": 1833,
      "ĠRequire": 1834,
      "ミルク": 1835,
      "Ġverr": 1836,
      "лимпиа": 1837,
      "Ġбожомолдору": 1838,
      "Federal": 1839,
      "cente": 1840,
      "Ġmuertos": 1841,
      "Ġkövetkező": 1842,
      "Ġlecteurs": 1843,
      "Ġtrampoline": 1844,
      "vollen": 1845,
      "Ġcruising": 1846,
      "ĠAGRICULTURE": 1847,
      "үүн": 1848,
      "Ġgiành": 1849,
      "ĠAppear": 1850,
      "فرج": 1851,
      "ĠMLA": 1852,
      "ĠAdonis": 1853,
      "lasso": 1854,
      "ĠЗак": 1855,
      "Ġprincesa": 1856,
      "ėjo": 1857,
      "isChecked": 1858,
      "Ġusato": 1859,
      "Ġreservar": 1860,
      "Ġattenuate": 1861,
      "fnisse": 1862,
      "였다": 1863,
      "enziale": 1864,
      "Ġumum": 1865,
      "stractions": 1866,
      "Ġsuccesso": 1867,
      "ĠBedürfnisse": 1868,
      "Ġremarqué": 1869,
      "pul": 1870,
      "riots": 1871,
      "imak": 1872,
      "scrap": 1873,
      "nosť": 1874,
      "Ġnghịch": 1875,
      "Ġگرفته": 1876,
      "Ġhates": 1877,
      "nbhost": 1878,
      "Ġсана": 1879,
      "Ġsuperstition": 1880,
      "Ġkuba": 1881,
      "trx": 1882,
      "caler": 1883,
      "ánea": 1884,
      "Ġپروفیسر": 1885,
      "erasan": 1886,
      "ĠPNS": 1887,
      "Ġfaisant": 1888,
      "ĠMundial": 1889,
      "enan": 1890,
      "Ġісто": 1891,
      "Ġsowing": 1892,
      "ĠYANG": 1893,
      "crunch": 1894,
      "держание": 1895,
      "ตำรวจ": 1896,
      "ოლი": 1897,
      "Ġkrit": 1898,
      "Ġвда": 1899,
      "isticated": 1900,
      "ĠLevant": 1901,
      "孩子们": 1902,
      "Ġchâteau": 1903,
      "Ġجول": 1904,
      "ناف": 1905,
      "ĠITF": 1906,
      "ınızı": 1907,
      "wold": 1908,
      "Ġceram": 1909,
      "ĠDestiny": 1910,
      "ikko": 1911,
      "Bitter": 1912,
      "立て": 1913,
      "ĠWehr": 1914,
      "Ġbeaten": 1915,
      "ĠAsante": 1916,
      "Ġpopulace": 1917,
      "TNF": 1918,
      "組み立て": 1919,
      "Ġdistill": 1920,
      "daar": 1921,
      "цията": 1922,
      "Ġკარ": 1923,
      "wayne": 1924,
      "FAS": 1925,
      "ĠPFAS": 1926,
      "Ġусили": 1927,
      "espa": 1928,
      "Ġassh": 1929,
      "arctica": 1930,
      "bayes": 1931,
      "acionales": 1932,
      "Ġرہیں": 1933,
      "Ġepitome": 1934,
      "ĠStreptococcus": 1935,
      "Sel": 1936,
      "adhatu": 1937,
      "azone": 1938,
      "Ġspanned": 1939,
      "Ġtrims": 1940,
      "Ġindig": 1941,
      "wał": 1942,
      "Ġnonempty": 1943,
      "rieron": 1944,
      "Ġturnt": 1945,
      "Ġfrontier": 1946,
      "ہودی": 1947,
      "iddish": 1948,
      "Ġیہودی": 1949,
      "Ġpolicías": 1950,
      "overlapping": 1951,
      "ĠSDG": 1952,
      "сэн": 1953,
      "admission": 1954,
      "Ġnennen": 1955,
      "ĠYıld": 1956,
      "ĠProtest": 1957,
      "writeHead": 1958,
      "Ġremarquer": 1959,
      "Ġcheckboxes": 1960,
      "Greet": 1961,
      "fgets": 1962,
      "actionBarTab": 1963,
      "Ġemergent": 1964,
      "ĠCOLLATE": 1965,
      "ĠCONTAINER": 1966,
      "ĠAşağı": 1967,
      "illions": 1968,
      "scratch": 1969,
      "ĠMortara": 1970,
      "optimal": 1971,
      "mul": 1972,
      "chacha": 1973,
      "Ġschal": 1974,
      "Ġdescrito": 1975,
      "matmul": 1976,
      "ĠMATERIAL": 1977,
      "ĠSOD": 1978,
      "ĠaddTask": 1979,
      "aatkan": 1980,
      "anfaatkan": 1981,
      "ĠNikol": 1982,
      "iella": 1983,
      "жением": 1984,
      "Ġinfile": 1985,
      "Ġİyi": 1986,
      "Ġaffirmat": 1987,
      "Ġhammering": 1988,
      "Ġheps": 1989,
      "ĠLPARAM": 1990,
      "Ġremembers": 1991,
      "Ġtots": 1992,
      "ĠOlsen": 1993,
      "Ġsvjet": 1994,
      "Ġvuol": 1995,
      "anshi": 1996,
      "Ġaas": 1997,
      "роят": 1998,
      "Ġdestructor": 1999,
      "Ġcatheter": 2000,
      "BooleanField": 2001,
      "Ġkuru": 2002,
      "Ġhealthy": 2003,
      "ĠSud": 2004,
      "Ġderrière": 2005,
      "Ġdaarbij": 2006,
      "Ġbegeistert": 2007,
      "ĠLjubljana": 2008,
      "anier": 2009,
      "isOpen": 2010,
      "urde": 2011,
      "ĠDri": 2012,
      "ĠLanier": 2013,
      "ĠProverbs": 2014,
      "Ġréel": 2015,
      "Ġnových": 2016,
      "ĠĐồng": 2017,
      "Ġмуниципалите": 2018,
      "cana": 2019,
      "Ġgeneralizing": 2020,
      "pesas": 2021,
      "zantine": 2022,
      "Ġalcohol": 2023,
      "toBytes": 2024,
      "ointing": 2025,
      "Ġтурни": 2026,
      "WORKS": 2027,
      "брав": 2028,
      "ToDo": 2029,
      "Ġinflam": 2030,
      "Ġمشتمل": 2031,
      "Mees": 2032,
      "Ġdécrites": 2033,
      "ĠkeyPressed": 2034,
      "Ġშეიძლება": 2035,
      "Ġdst": 2036,
      "Ġhamil": 2037,
      "ĠUHS": 2038,
      "Ġslept": 2039,
      "ĠFahrzeuge": 2040,
      "ĠZagreb": 2041,
      "Ġtir": 2042,
      "Ġबजर": 2043,
      "opération": 2044,
      "RequestMethod": 2045,
      "Ġformatting": 2046,
      "mck": 2047,
      "xavier": 2048,
      "ÉN": 2049,
      "ĠGÉN": 2050,
      "ĠEhren": 2051,
      "ikti": 2052,
      "Ġlifeline": 2053,
      "Ġrekind": 2054,
      "Ġmemberikan": 2055,
      "ĠCuv": 2056,
      "Ġklaus": 2057,
      "Ġunbear": 2058,
      "Ġunofficial": 2059,
      "Ġreten": 2060,
      "brun": 2061,
      "LIGENCE": 2062,
      "reporter": 2063,
      "Ġdisebut": 2064,
      "Ġporém": 2065,
      "ĠNEGLIGENCE": 2066,
      "ppone": 2067,
      "hashes": 2068,
      "Ġglassy": 2069,
      "city": 2070,
      "Ġdxc": 2071,
      "ĠTige": 2072,
      "ĠNapoli": 2073,
      "ĠPATRIOT": 2074,
      "Ġanam": 2075,
      "Ġgeschrieben": 2076,
      "ブリ": 2077,
      "Ġcumin": 2078,
      "ĠRPS": 2079,
      "рие": 2080,
      "Ġquarta": 2081,
      "ブリッド": 2082,
      "врат": 2083,
      "Ġstove": 2084,
      "buscar": 2085,
      "нется": 2086,
      "Ġanual": 2087,
      "Rejected": 2088,
      "rierte": 2089,
      "libs": 2090,
      "Ġproximate": 2091,
      "Ġfilmmakers": 2092,
      "Ġplaces": 2093,
      "Ġelectr": 2094,
      "Ġपरम": 2095,
      "Ġinstituted": 2096,
      "Ġafloat": 2097,
      "Ġqualquer": 2098,
      "Ġполном": 2099,
      "ĠPSOE": 2100,
      "ĠKuala": 2101,
      "Ġyapacağız": 2102,
      "と思いますが": 2103,
      "ĠJackson": 2104,
      "faa": 2105,
      "Ġrigging": 2106,
      "Ġpatrimoine": 2107,
      "ĠAlessandra": 2108,
      "Ġhatched": 2109,
      "Ġdecal": 2110,
      "ĠBrunch": 2111,
      "Ġfalamos": 2112,
      "estream": 2113,
      "verlet": 2114,
      "كيت": 2115,
      "ccionar": 2116,
      "irled": 2117,
      "awie": 2118,
      "Ġindem": 2119,
      "мын": 2120,
      "angerschaft": 2121,
      "Ġsmoothing": 2122,
      "Ġnegligent": 2123,
      "Ġfanciful": 2124,
      "Ġdella": 2125,
      "Ġdậy": 2126,
      "Ġfolds": 2127,
      "Ġchina": 2128,
      "scrire": 2129,
      "Ġviện": 2130,
      "Ġtombe": 2131,
      "Ġfoodstuffs": 2132,
      "ĠБългария": 2133,
      "Ġپرورش": 2134,
      "Ġrơi": 2135,
      "pharm": 2136,
      "Ġblobs": 2137,
      "Ġendemic": 2138,
      "lijah": 2139,
      "UTHERN": 2140,
      "Duplicates": 2141,
      "ĠBattle": 2142,
      "ĠEhr": 2143,
      "ĠPublik": 2144,
      "Ġvanaf": 2145,
      "ldre": 2146,
      "Ġmeninas": 2147,
      "OSU": 2148,
      "ρευ": 2149,
      "credibly": 2150,
      "Ġhacemos": 2151,
      "Ġdowngraded": 2152,
      "Ġprivat": 2153,
      "Ġleger": 2154,
      "ĠCasc": 2155,
      "Ġlive": 2156,
      "Ġúspě": 2157,
      "Marshaler": 2158,
      "sponge": 2159,
      "Ġniệm": 2160,
      "Ġnaš": 2161,
      "ĠMunicipal": 2162,
      "ARGE": 2163,
      "Ġада": 2164,
      "Ġпублі": 2165,
      "Ġgamle": 2166,
      "eveloping": 2167,
      "Ġポケット": 2168,
      "Ġfootprint": 2169,
      "Meter": 2170,
      "Ġalış": 2171,
      "rapati": 2172,
      "aneo": 2173,
      "Ġعاما": 2174,
      "тельность": 2175,
      "Ġεμπ": 2176,
      "Ġquestão": 2177,
      "רום": 2178,
      "ĠFrey": 2179,
      "Ġaligns": 2180,
      "ĠMew": 2181,
      "Ġclay": 2182,
      "Ġseide": 2183,
      "Ġencarg": 2184,
      "omeness": 2185,
      "ローブ": 2186,
      "ĠFiguren": 2187,
      "ĠBtu": 2188,
      "ĠLänder": 2189,
      "ĠWett": 2190,
      "Ġalmak": 2191,
      "Ġpyro": 2192,
      "Ġjoueurs": 2193,
      "ätta": 2194,
      "Ġlectura": 2195,
      "Ġдорогу": 2196,
      "Ġcrusade": 2197,
      "Ġnho": 2198,
      "Ġlugares": 2199,
      "მიან": 2200,
      "Ġused": 2201,
      "Ġнашей": 2202,
      "Ġbölüm": 2203,
      "τισ": 2204,
      "ĠKore": 2205,
      "Ġpatria": 2206,
      "Ġsorti": 2207,
      "Ġundercut": 2208,
      "Ġfossero": 2209,
      "Infer": 2210,
      "Unlocked": 2211,
      "Ġsahibi": 2212,
      "Ġmieście": 2213,
      "ĠstringWith": 2214,
      "InRange": 2215,
      "Ġтво": 2216,
      "RequestBody": 2217,
      "Ġmasu": 2218,
      "Ġfábrica": 2219,
      "Ġantigua": 2220,
      "Ġвышла": 2221,
      "Ġdioxide": 2222,
      "Ġدرد": 2223,
      "цима": 2224,
      "Ġradical": 2225,
      "Ġlạc": 2226,
      "Ġоткло": 2227,
      "chtig": 2228,
      "QUI": 2229,
      "Ġartyku": 2230,
      "Ġcontienen": 2231,
      "Ġgön": 2232,
      "ĠNeck": 2233,
      "Ġphú": 2234,
      "ĠAcacia": 2235,
      "writeValue": 2236,
      "Ġshelved": 2237,
      "Ġfär": 2238,
      "ĠRar": 2239,
      "ontainer": 2240,
      "IContainer": 2241,
      "Ġapparatus": 2242,
      "Ġmydb": 2243,
      "ウド": 2244,
      "Ġocclusion": 2245,
      "ĠRhiz": 2246,
      "Ġunwarrant": 2247,
      "ĠCartesian": 2248,
      "Ġللمعارف": 2249,
      "クラウド": 2250,
      "Ġostatnich": 2251,
      "Ġweet": 2252,
      "Ġquasip": 2253,
      "adiyah": 2254,
      "Ġabsen": 2255,
      "Ġparado": 2256,
      "Ġrozp": 2257,
      "ĠStringVar": 2258,
      "と呼": 2259,
      "Ġdemuestra": 2260,
      "леты": 2261,
      "Ġнеобы": 2262,
      "ństwa": 2263,
      "ĠScripts": 2264,
      "と呼ば": 2265,
      "рел": 2266,
      "warte": 2267,
      "ĠCOUNT": 2268,
      "Ġesso": 2269,
      "ضبط": 2270,
      "ĠAzi": 2271,
      "скопа": 2272,
      "Ġudara": 2273,
      "ĠArabs": 2274,
      "ĠAgric": 2275,
      "ResourcesErrors": 2276,
      "Gift": 2277,
      "Ġmomen": 2278,
      "Ġneuest": 2279,
      "iciembre": 2280,
      "Ġжить": 2281,
      "Ġsigner": 2282,
      "レポート": 2283,
      "tsi": 2284,
      "achtung": 2285,
      "tagName": 2286,
      "Ġabstrak": 2287,
      "Ġtailed": 2288,
      "getWidth": 2289,
      "setLocation": 2290,
      "zle": 2291,
      "ĠBode": 2292,
      "Ġzach": 2293,
      "manu": 2294,
      "Ġantiguo": 2295,
      "bouquet": 2296,
      "provements": 2297,
      "Ġkav": 2298,
      "Ġgalore": 2299,
      "Ġsparsebundle": 2300,
      "ĠConfederacy": 2301,
      "Bene": 2302,
      "Ġditu": 2303,
      "Ġnib": 2304,
      "Ġreminds": 2305,
      "ĠCommunities": 2306,
      "paging": 2307,
      "Ġtrae": 2308,
      "ĠAndrey": 2309,
      "deltaTime": 2310,
      "ĠMarcia": 2311,
      "Ġпои": 2312,
      "зел": 2313,
      "ĠItalien": 2314,
      "Ġخوشه": 2315,
      "Ġannualized": 2316,
      "wają": 2317,
      "acija": 2318,
      "ĠWim": 2319,
      "geek": 2320,
      "Ġinduces": 2321,
      "Ġterras": 2322,
      "Ġinsists": 2323,
      "ĠBride": 2324,
      "Ġhechos": 2325,
      "Ġsouffle": 2326,
      "כים": 2327,
      "Ġshorth": 2328,
      "Whis": 2329,
      "Ġрусской": 2330,
      "Ġtanda": 2331,
      "usta": 2332,
      "Ġالاعدادي": 2333,
      "Ġdelle": 2334,
      "Ġcasamento": 2335,
      "ĠTrento": 2336,
      "Ġpuris": 2337,
      "ĠHelio": 2338,
      "Ġtotalidad": 2339,
      "Ġrarest": 2340,
      "Ġpary": 2341,
      "ĠRakh": 2342,
      "therapy": 2343,
      "Ġsymptomatic": 2344,
      "occurring": 2345,
      "moto": 2346,
      "ĠBags": 2347,
      "andr": 2348,
      "Executor": 2349,
      "accomp": 2350,
      "ורי": 2351,
      "ショップ": 2352,
      "وطه": 2353,
      "Ġnevy": 2354,
      "ĠOla": 2355,
      "ESSIONS": 2356,
      "Ġvehículos": 2357,
      "txtName": 2358,
      "eduanya": 2359,
      "Ġbilgi": 2360,
      "ĠBaşkan": 2361,
      "Ġspokeswoman": 2362,
      "GIT": 2363,
      "ĠBrim": 2364,
      "Ġenvelope": 2365,
      "shows": 2366,
      "owlapi": 2367,
      "Ġpolytopes": 2368,
      "Ġвся": 2369,
      "blockquote": 2370,
      "おすすめです": 2371,
      "Mard": 2372,
      "rmt": 2373,
      "PageView": 2374,
      "ندر": 2375,
      "Wax": 2376,
      "ĠВсем": 2377,
      "Ġהחד": 2378,
      "Ġmiércoles": 2379,
      "Ġgimnaz": 2380,
      "Ġfeta": 2381,
      "naissance": 2382,
      "Ġসফর": 2383,
      "Ġróżnych": 2384,
      "Ġsaludable": 2385,
      "urls": 2386,
      "ithvi": 2387,
      "Ġpromotes": 2388,
      "ĠPetersen": 2389,
      "Denied": 2390,
      "ĠΓ": 2391,
      "воен": 2392,
      "ievements": 2393,
      "一个个": 2394,
      "ĠCinco": 2395,
      "Ġcolectivo": 2396,
      "Ġsns": 2397,
      "Ġluxury": 2398,
      "jsdelivr": 2399,
      "Ġeingerichtet": 2400,
      "Ġالعاشر": 2401,
      "ĠRAX": 2402,
      "ĠKagan": 2403,
      "Ġcladding": 2404,
      "ĠAngkor": 2405,
      "ĠЗапа": 2406,
      "Ġfrequented": 2407,
      "traduitEnCPP": 2408,
      "Ġanniversaire": 2409,
      "qian": 2410,
      "Ġnord": 2411,
      "ĠErfolg": 2412,
      "Gee": 2413,
      "лери": 2414,
      "heart": 2415,
      "Ġacest": 2416,
      "Ġshoved": 2417,
      "Ġamu": 2418,
      "Unis": 2419,
      "prentice": 2420,
      "Ġrond": 2421,
      "eeq": 2422,
      "ĠFranti": 2423,
      "Ġstirrer": 2424,
      "ĠVault": 2425,
      "Ġpreschool": 2426,
      "Ġgelin": 2427,
      "EXIT": 2428,
      "Ġmassless": 2429,
      "Ġsurvives": 2430,
      "Ell": 2431,
      "odate": 2432,
      "Ġmenina": 2433,
      "ĠAudiodate": 2434,
      "Ġhaja": 2435,
      "Ġsnippet": 2436,
      "islav": 2437,
      "писать": 2438,
      "ĠAngebote": 2439,
      "issements": 2440,
      "Ġмесяцев": 2441,
      "ĠVasa": 2442,
      "iania": 2443,
      "indungi": 2444,
      "ĠShui": 2445,
      "Ġglorie": 2446,
      "Buenas": 2447,
      "jml": 2448,
      "더라고": 2449,
      "Ġmayo": 2450,
      "ズニ": 2451,
      "irculation": 2452,
      "research": 2453,
      "Ġrecirculation": 2454,
      "Ġوجہ": 2455,
      "ズニー": 2456,
      "Ġdziel": 2457,
      "Referee": 2458,
      "mtq": 2459,
      "Ġsmoothie": 2460,
      "Ġexhaustion": 2461,
      "Ġtacky": 2462,
      "rauf": 2463,
      "Ġdrauf": 2464,
      "ĠSprint": 2465,
      "Ġpreds": 2466,
      "Ġzabaw": 2467,
      "Ġсправед": 2468,
      "Ġdisrupting": 2469,
      "Ġdisent": 2470,
      "Ġelu": 2471,
      "ĠNewParaPkg": 2472,
      "Ġeconomía": 2473,
      "zocht": 2474,
      "Ġlest": 2475,
      "akesh": 2476,
      "ĠOption": 2477,
      "ĠChis": 2478,
      "iscipl": 2479,
      "waypoints": 2480,
      "Ġüle": 2481,
      "يكي": 2482,
      "ĠGründung": 2483,
      "Ġmultidiscipl": 2484,
      "ボリューム": 2485,
      "Ġиндиви": 2486,
      "laintiffs": 2487,
      "hbase": 2488,
      "Ġঘ": 2489,
      "টন": 2490,
      "ĠBeton": 2491,
      "Ġvented": 2492,
      "Ġالرئيس": 2493,
      "емом": 2494,
      "ämme": 2495,
      "THRESHOLD": 2496,
      "Ġঘটন": 2497,
      "Ġиной": 2498,
      "ription": 2499,
      "rescription": 2500,
      "Ġbirinci": 2501,
      "Ġcomforted": 2502,
      "Ġbuddha": 2503,
      "としても": 2504,
      "VERNMENT": 2505,
      "Evalu": 2506,
      "ĠArik": 2507,
      "Ġmiracle": 2508,
      "Ġditch": 2509,
      "Ġbát": 2510,
      "iyev": 2511,
      "Ġkhai": 2512,
      "localhost": 2513,
      "ĠJsonSerializer": 2514,
      "Ġpalpable": 2515,
      "bona": 2516,
      "Excess": 2517,
      "Ġfece": 2518,
      "ĠOverhead": 2519,
      "MOND": 2520,
      "Ġсоревнования": 2521,
      "Ġligands": 2522,
      "Ġmatrimonio": 2523,
      "Ġstylesheet": 2524,
      "ئر": 2525,
      "ĠMüller": 2526,
      "Ġreaff": 2527,
      "geoj": 2528,
      "Ġjueves": 2529,
      "CrossOrigin": 2530,
      "Ġrusa": 2531,
      "Ġویئر": 2532,
      "geojson": 2533,
      "jst": 2534,
      "nommen": 2535,
      "Ġmiddlewares": 2536,
      "ĠPurse": 2537,
      "Ġvietnam": 2538,
      "Ġбрен": 2539,
      "ClCompile": 2540,
      "Ġدیتی": 2541,
      "Ġሰ": 2542,
      "Ġresurgence": 2543,
      "Ġdirige": 2544,
      "Ġتربيع": 2545,
      "Ġሰዎች": 2546,
      "Ġtaw": 2547,
      "ĠWynn": 2548,
      "Ġofficers": 2549,
      "Ġstronger": 2550,
      "Aik": 2551,
      "Ġmarriages": 2552,
      "Ġgrupos": 2553,
      "Ġstoneware": 2554,
      "fork": 2555,
      "Ġkese": 2556,
      "PERMISSION": 2557,
      "ĠPagination": 2558,
      "Ġmouv": 2559,
      "Ġhovered": 2560,
      "Ġappasidd": 2561,
      "ĠAndes": 2562,
      "ĠFertility": 2563,
      "isPresent": 2564,
      "Ġsurvived": 2565,
      "ĠSmyth": 2566,
      "Ġпразд": 2567,
      "Hig": 2568,
      "Ġcualquier": 2569,
      "Ġsphing": 2570,
      "Ġnächsten": 2571,
      "Ġalku": 2572,
      "Ġmultin": 2573,
      "Ġpolarizer": 2574,
      "Ġfenomeni": 2575,
      "refour": 2576,
      "vise": 2577,
      "ĠComer": 2578,
      "Ġlấy": 2579,
      "niak": 2580,
      "Ġlograron": 2581,
      "フォロー": 2582,
      "Ġocurre": 2583,
      "Ġtoepassing": 2584,
      "ĠCasper": 2585,
      "Ġқол": 2586,
      "Ġشناخته": 2587,
      "がる": 2588,
      "上がる": 2589,
      "resnet": 2590,
      "argmin": 2591,
      "Ġhumaines": 2592,
      "lastKey": 2593,
      "Ġтрябва": 2594,
      "pods": 2595,
      "Ġбуль": 2596,
      "Ġالسي": 2597,
      "Capricorn": 2598,
      "ĠreadFile": 2599,
      "zzi": 2600,
      "ĠABSTRACT": 2601,
      "Ġвикористовувати": 2602,
      "Ġvej": 2603,
      "urbation": 2604,
      "Ġroller": 2605,
      "esist": 2606,
      "ческими": 2607,
      "Ġdifficile": 2608,
      "ハート": 2609,
      "ĠDIAM": 2610,
      "Ġcorps": 2611,
      "Ġقاف": 2612,
      "ĠRecyclerView": 2613,
      "ĠListItem": 2614,
      "Kurt": 2615,
      "beweg": 2616,
      "dling": 2617,
      "ρκε": 2618,
      "ệch": 2619,
      "esquerdo": 2620,
      "Ġlệch": 2621,
      "Ġaims": 2622,
      "Ġрады": 2623,
      "ĠgetServer": 2624,
      "Ġαρκε": 2625,
      "Ġnguyên": 2626,
      "Ġnación": 2627,
      "Ġconcede": 2628,
      "Lips": 2629,
      "τούν": 2630,
      "ブラ": 2631,
      "isco": 2632,
      "ĠKet": 2633,
      "անի": 2634,
      "ブラシ": 2635,
      "UInteger": 2636,
      "بھی": 2637,
      "Ġpools": 2638,
      "ydı": 2639,
      "ligare": 2640,
      "समझ": 2641,
      "SNAPSHOT": 2642,
      "пля": 2643,
      "ĠIván": 2644,
      "ikuwa": 2645,
      "Ġالجامعة": 2646,
      "Ġpopping": 2647,
      "ĠSinha": 2648,
      "ĠReader": 2649,
      "voiced": 2650,
      "Ġrepública": 2651,
      "udarstven": 2652,
      "entgen": 2653,
      "Ġpřes": 2654,
      "Ġpoking": 2655,
      "Ġдіа": 2656,
      "Ġвку": 2657,
      "atty": 2658,
      "Ġbesteht": 2659,
      "νει": 2660,
      "пион": 2661,
      "Ġsatisfiable": 2662,
      "Ġanniversary": 2663,
      "ĠReliability": 2664,
      "نوت": 2665,
      "Ġlàng": 2666,
      "Ġeile": 2667,
      "Ġпоки": 2668,
      "Ġننوت": 2669,
      "PROC": 2670,
      "Ġадво": 2671,
      "Ġholographic": 2672,
      "ANIUM": 2673,
      "Ġmetastatic": 2674,
      "ĠTripoli": 2675,
      "лкой": 2676,
      "Ġребён": 2677,
      "Ġрусского": 2678,
      "ĠRafał": 2679,
      "Ġfatto": 2680,
      "ĠSponge": 2681,
      "ziest": 2682,
      "UserSettings": 2683,
      "selectAll": 2684,
      "Years": 2685,
      "strconv": 2686,
      "Ġdispense": 2687,
      "Ġtenetur": 2688,
      "під": 2689,
      "Ġbatch": 2690,
      "ĠDuterte": 2691,
      "endoza": 2692,
      "ĠБога": 2693,
      "Ġpersonnalité": 2694,
      "都可以": 2695,
      "Ġnera": 2696,
      "ĠMaraton": 2697,
      "Ġgönder": 2698,
      "Ġmanifolds": 2699,
      "ĠENEM": 2700,
      "दय": 2701,
      "Ġउदय": 2702,
      "Ġwynik": 2703,
      "ĠWheeler": 2704,
      "Aws": 2705,
      "Ġflattering": 2706,
      "Ġdepletion": 2707,
      "спомина": 2708,
      "Herald": 2709,
      "Ġmaanden": 2710,
      "ProjectReference": 2711,
      "themem": 2712,
      "Ġсало": 2713,
      "Ġbitterness": 2714,
      "фіка": 2715,
      "Ġреальности": 2716,
      "JUST": 2717,
      "ĠOles": 2718,
      "Ġrespetar": 2719,
      "Ġhibernation": 2720,
      "tornado": 2721,
      "Ġchí": 2722,
      "ĠsetResult": 2723,
      "ĠcenterX": 2724,
      "ĠФранции": 2725,
      "Ġinference": 2726,
      "Ġpiè": 2727,
      "keny": 2728,
      "lake": 2729,
      "Ġbxc": 2730,
      "Ġvirus": 2731,
      "ĠEclipse": 2732,
      "っているので": 2733,
      "Ġtraversed": 2734,
      "Ġexpectant": 2735,
      "Ġويكيپيديا": 2736,
      "BID": 2737,
      "hob": 2738,
      "ukung": 2739,
      "NameValuePair": 2740,
      "Ġcomplained": 2741,
      "Ġaseguró": 2742,
      "ĠdeleteAll": 2743,
      "Ġکاروبار": 2744,
      "pairs": 2745,
      "Ġguise": 2746,
      "Ġterminated": 2747,
      "AccessException": 2748,
      "Ġspotify": 2749,
      "AnalyzeAction": 2750,
      "oed": 2751,
      "Ġهام": 2752,
      "itaj": 2753,
      "Ġlite": 2754,
      "ってしまう": 2755,
      "Ġenergética": 2756,
      "ĠTravers": 2757,
      "Ġহরত": 2758,
      "leau": 2759,
      "Ġkuchen": 2760,
      "Ġsplicing": 2761,
      "ĠHancock": 2762,
      "riptyline": 2763,
      "Ġrector": 2764,
      "Ġпоказать": 2765,
      "Ġnedeni": 2766,
      "Ġابنائي": 2767,
      "Ġmeiner": 2768,
      "Ġdivisors": 2769,
      "Ġjogadores": 2770,
      "weisung": 2771,
      "Ġmètres": 2772,
      "openjdk": 2773,
      "ĠfileSize": 2774,
      "Ġслучаев": 2775,
      "Ġспине": 2776,
      "xhr": 2777,
      "なども": 2778,
      "ĠStraits": 2779,
      "Russian": 2780,
      "iences": 2781,
      "ĠNagel": 2782,
      "ĠProfession": 2783,
      "рыва": 2784,
      "Ġpena": 2785,
      "ĠHö": 2786,
      "までも": 2787,
      "Ġvecchio": 2788,
      "MODIFY": 2789,
      "ĠOutputStream": 2790,
      "awr": 2791,
      "Ġنشر": 2792,
      "Ġსაფ": 2793,
      "Ġconcealed": 2794,
      "ĠRanchi": 2795,
      "CDATA": 2796,
      "Ġdeepening": 2797,
      "ĠDanilo": 2798,
      "DECLARE": 2799,
      "Ġteach": 2800,
      "Ġtrams": 2801,
      "ĠSIT": 2802,
      "attere": 2803,
      "Ġcourthouse": 2804,
      "āna": 2805,
      "Ġdour": 2806,
      "irez": 2807,
      "ĠHydra": 2808,
      "cg": 2809,
      "Ġsump": 2810,
      "Ġmcg": 2811,
      "Ġявляются": 2812,
      "Ġсередине": 2813,
      "žený": 2814,
      "racotta": 2815,
      "rena": 2816,
      "Ġterracotta": 2817,
      "Ġhomogene": 2818,
      "Ġbelievable": 2819,
      "Paddle": 2820,
      "вку": 2821,
      "дный": 2822,
      "rola": 2823,
      "Ġсправ": 2824,
      "Ġприста": 2825,
      "lieben": 2826,
      "Ġfondly": 2827,
      "ევს": 2828,
      "ĠTOK": 2829,
      "EFORE": 2830,
      "ĠSarmiento": 2831,
      "ĠTOKEN": 2832,
      "ジオ": 2833,
      "ĠBits": 2834,
      "Ġkompl": 2835,
      "リート": 2836,
      "Ġdissolve": 2837,
      "ĠMeters": 2838,
      "SRPInterfaceItem": 2839,
      "Jacobi": 2840,
      "Ġpuck": 2841,
      "Ġsucked": 2842,
      "ĠВален": 2843,
      "TextViewStyle": 2844,
      "zám": 2845,
      "angulo": 2846,
      "Ġattract": 2847,
      "Ġmatroid": 2848,
      "Ġeasier": 2849,
      "odoc": 2850,
      "Ġпожи": 2851,
      "ĠReis": 2852,
      "Ġالفيز": 2853,
      "IconButton": 2854,
      "Ġregião": 2855,
      "ĠBurgundy": 2856,
      "Ġلينك": 2857,
      "vironnement": 2858,
      "Ġbună": 2859,
      "avas": 2860,
      "Ġoutgoing": 2861,
      "Ġfreg": 2862,
      "ileges": 2863,
      "FromBody": 2864,
      "punct": 2865,
      "Ġدع": 2866,
      "Ġबहन": 2867,
      "Ġdull": 2868,
      "Ġmột": 2869,
      "Ġпокра": 2870,
      "Ġconfused": 2871,
      "Ġpublicaciones": 2872,
      "Ġoxidant": 2873,
      "Vcs": 2874,
      "hereafter": 2875,
      "ĠMesa": 2876,
      "puppet": 2877,
      "CFT": 2878,
      "を提供": 2879,
      "ĠNix": 2880,
      "trajectory": 2881,
      "Ġstdout": 2882,
      "Ġhess": 2883,
      "вили": 2884,
      "Ġferal": 2885,
      "Ġmenikah": 2886,
      "baan": 2887,
      "Ġélus": 2888,
      "Ġtrash": 2889,
      "Ġilluminate": 2890,
      "商务": 2891,
      "minen": 2892,
      "ĠКри": 2893,
      "电子商务": 2894,
      "と考えられる": 2895,
      "ĠEcho": 2896,
      "Ġспор": 2897,
      "ĠOsborne": 2898,
      "などを": 2899,
      "getIndex": 2900,
      "Ġappoints": 2901,
      "Ġmers": 2902,
      "Ġيلا": 2903,
      "ĠFlügel": 2904,
      "Ġcamisa": 2905,
      "Ġpublicados": 2906,
      "Ġscrapes": 2907,
      "ĠEcole": 2908,
      "lcc": 2909,
      "Ġход": 2910,
      "resist": 2911,
      "resistance": 2912,
      "ĠResistance": 2913,
      "Ġintelligently": 2914,
      "keleton": 2915,
      "Mail": 2916,
      "Spacer": 2917,
      "ĠAppel": 2918,
      "いたり": 2919,
      "ĠRahe": 2920,
      "Ġmengajak": 2921,
      "roč": 2922,
      "ĠMatis": 2923,
      "ĠFIN": 2924,
      "Ġchond": 2925,
      "Ġaligned": 2926,
      "Ġpolizia": 2927,
      "ĠMatisse": 2928,
      "Ġчле": 2929,
      "Ġдоби": 2930,
      "Ġsubmits": 2931,
      "ĠPolizei": 2932,
      "parking": 2933,
      "мене": 2934,
      "Ġmince": 2935,
      "Ġquedar": 2936,
      "orealistic": 2937,
      "Bec": 2938,
      "Ġexogenous": 2939,
      "ĠSSH": 2940,
      "ĠHadoop": 2941,
      "Ġинформации": 2942,
      "Ġctr": 2943,
      "Ġباید": 2944,
      "forward": 2945,
      "Ġserums": 2946,
      "Ġmoeilijk": 2947,
      "Ġtala": 2948,
      "Ġaap": 2949,
      "スーツ": 2950,
      "ancienne": 2951,
      "Ġtillage": 2952,
      "ĠTyre": 2953,
      "Ġрізні": 2954,
      "Ġアウター": 2955,
      "Ġaktu": 2956,
      "ĠSiberian": 2957,
      "Ġscena": 2958,
      "ITICAL": 2959,
      "Ġpatrons": 2960,
      "Ġlepiej": 2961,
      "lmfit": 2962,
      "قع": 2963,
      "Ġcomunidades": 2964,
      "Ġالواقع": 2965,
      "шком": 2966,
      "Ġdenial": 2967,
      "ADDING": 2968,
      "ĠVarsity": 2969,
      "haal": 2970,
      "ciano": 2971,
      "ĠAriz": 2972,
      "Ġtraite": 2973,
      "UNDO": 2974,
      "Ġtiempos": 2975,
      "Ġtürlü": 2976,
      "Ġترا": 2977,
      "ĠCollage": 2978,
      "usize": 2979,
      "Ġофі": 2980,
      "Ġرکھنا": 2981,
      "sexy": 2982,
      "Ġbyte": 2983,
      "cellSize": 2984,
      "Ġniž": 2985,
      "Ġconvirtió": 2986,
      "mány": 2987,
      "Ġmum": 2988,
      "ĠSow": 2989,
      "Ġstable": 2990,
      "ilerin": 2991,
      "Genero": 2992,
      "Ġtuo": 2993,
      "Ġcubed": 2994,
      "Ġtalla": 2995,
      "riamo": 2996,
      "apayati": 2997,
      "Ġposi": 2998,
      "Ġete": 2999,
      "ٹو": 3000,
      "ĠPlas": 3001,
      "Ġمنٹو": 3002,
      "WebSocket": 3003,
      "Ġlinemen": 3004,
      "Funny": 3005,
      "lains": 3006,
      "rgb": 3007,
      "Ġtestifying": 3008,
      "Ġsamod": 3009,
      "negl": 3010,
      "ĠfirstName": 3011,
      "Ġreinstated": 3012,
      "SpringBoot": 3013,
      "Ġپہنچ": 3014,
      "Ġfolded": 3015,
      "вому": 3016,
      "Payout": 3017,
      "sass": 3018,
      "ĠSyllabus": 3019,
      "Ġlupa": 3020,
      "ĠFul": 3021,
      "numberOfRecords": 3022,
      "Ġscrive": 3023,
      "Ġcaric": 3024,
      "Ġharassed": 3025,
      "Ġcorpus": 3026,
      "Sonic": 3027,
      "Ġsüt": 3028,
      "axa": 3029,
      "Ġзаинтере": 3030,
      "Snippet": 3031,
      "COMMON": 3032,
      "ĠTipps": 3033,
      "ĠThierry": 3034,
      "Ġشاف": 3035,
      "Ġgiud": 3036,
      "ĠResist": 3037,
      "RowNum": 3038,
      "Ġotot": 3039,
      "ĠMaest": 3040,
      "configuring": 3041,
      "Ġsuppressed": 3042,
      "Ġstraighten": 3043,
      "Ġdelegations": 3044,
      "stylesheet": 3045,
      "banner": 3046,
      "shtë": 3047,
      "është": 3048,
      "chill": 3049,
      "Ġрад": 3050,
      "EnableCOMDAT": 3051,
      "Ġالحديد": 3052,
      "mehndi": 3053,
      "Ġsubmitted": 3054,
      "Ġconsist": 3055,
      "butadiene": 3056,
      "Ġcraz": 3057,
      "Ġvik": 3058,
      "ItemList": 3059,
      "Ġhospice": 3060,
      "userdata": 3061,
      "Ġneurotic": 3062,
      "ĠArial": 3063,
      "coronavirus": 3064,
      "Ġjednost": 3065,
      "Ġaugustus": 3066,
      "Ġbailout": 3067,
      "WHEREAS": 3068,
      "ĠWrath": 3069,
      "Ġdisequ": 3070,
      "тивные": 3071,
      "Ġτου": 3072,
      "ĠDefaultTargets": 3073,
      "elby": 3074,
      "ارين": 3075,
      "bois": 3076,
      "ĠSpin": 3077,
      "Ġaxially": 3078,
      "ĠEshelby": 3079,
      "ĠGef": 3080,
      "Ġunrival": 3081,
      "вою": 3082,
      "ĠSteph": 3083,
      "Ġderniers": 3084,
      "セックス": 3085,
      "ĠFAS": 3086,
      "mentare": 3087,
      "Ġتوه": 3088,
      "Ġavanti": 3089,
      "Ġallons": 3090,
      "Ġتوهان": 3091,
      "Ġexosomes": 3092,
      "Ġakademik": 3093,
      "toNumber": 3094,
      "ĠArtik": 3095,
      "feuille": 3096,
      "LayoutInflater": 3097,
      "ĠДва": 3098,
      "Ġfullscreen": 3099,
      "Ġportefeuille": 3100,
      "kur": 3101,
      "imide": 3102,
      "ĠNabi": 3103,
      "imageBase": 3104,
      "Ġcerca": 3105,
      "бенок": 3106,
      "この記事": 3107,
      "abele": 3108,
      "akum": 3109,
      "Ġmengangkat": 3110,
      "ĠInteg": 3111,
      "ĠGU": 3112,
      "firstChild": 3113,
      "ĠSprinkle": 3114,
      "ISSU": 3115,
      "ofType": 3116,
      "Ġtiêu": 3117,
      "Ġseduced": 3118,
      "Ġuygulam": 3119,
      "Ġhombre": 3120,
      "estern": 3121,
      "ován": 3122,
      "Ġjoint": 3123,
      "Ġнакло": 3124,
      "ĠOrsay": 3125,
      "Ġbuckles": 3126,
      "Ġüberprüft": 3127,
      "zez": 3128,
      "ĠCamar": 3129,
      "جت": 3130,
      "Ġtruc": 3131,
      "Ġحجت": 3132,
      "Ġmarah": 3133,
      "Ġформате": 3134,
      "Ġβρίσκεται": 3135,
      "arency": 3136,
      "ĠBucure": 3137,
      "idase": 3138,
      "Ġaustral": 3139,
      "ĠCFRP": 3140,
      "Ġlavish": 3141,
      "Ġпеременную": 3142,
      "orientation": 3143,
      "Ġmek": 3144,
      "Ġchum": 3145,
      "Ġcontraseña": 3146,
      "Ġcuarto": 3147,
      "Ġgroupes": 3148,
      "odesk": 3149,
      "Ġsangre": 3150,
      "COP": 3151,
      "Ġmarry": 3152,
      "ĠJehova": 3153,
      "Ġerythematosus": 3154,
      "ovací": 3155,
      "Ġmerid": 3156,
      "ĠAscension": 3157,
      "ĠBOL": 3158,
      "ĠApJ": 3159,
      "WebView": 3160,
      "мії": 3161,
      "Ġearthy": 3162,
      "KO": 3163,
      "hlt": 3164,
      "ewerk": 3165,
      "Ġantigen": 3166,
      "Screw": 3167,
      "KOV": 3168,
      "তক": 3169,
      "akor": 3170,
      "вода": 3171,
      "Ġকতক": 3172,
      "Ġvictories": 3173,
      "ĠSchlaf": 3174,
      "Ġکئے": 3175,
      "Ġöğret": 3176,
      "Ġmature": 3177,
      "Ġspielt": 3178,
      "Ġinvariant": 3179,
      "Ġconstitutions": 3180,
      "出现的": 3181,
      "ylan": 3182,
      "Ġmottled": 3183,
      "Ġصہیونیوں": 3184,
      "Ġmeninos": 3185,
      "Ġmein": 3186,
      "הק": 3187,
      "להק": 3188,
      "Ġmacer": 3189,
      "Boogie": 3190,
      "Ġlégales": 3191,
      "corrh": 3192,
      "להקה": 3193,
      "Ġстр": 3194,
      "Ġlayoffs": 3195,
      "Ġمتاثر": 3196,
      "سند": 3197,
      "ĠBillie": 3198,
      "Ġپسند": 3199,
      "Ġsmelting": 3200,
      "ĠAlloc": 3201,
      "Ġmatte": 3202,
      "ächs": 3203,
      "Ġframebuffer": 3204,
      "Ġmúsicas": 3205,
      "acceptable": 3206,
      "ĠSemiconductors": 3207,
      "Ġbijzonder": 3208,
      "Ġcomando": 3209,
      "iraj": 3210,
      "Ġhalen": 3211,
      "Ġнайбіль": 3212,
      "ĠACTIV": 3213,
      "SplashScreen": 3214,
      "ĠDots": 3215,
      "Ġsubmarine": 3216,
      "Ġassurent": 3217,
      "ĠSpark": 3218,
      "Ġpenggunaan": 3219,
      "Ġfuturistic": 3220,
      "Ġประเทศ": 3221,
      "exposureButton": 3222,
      "superuser": 3223,
      "ARN": 3224,
      "Ġinsults": 3225,
      "Ġazide": 3226,
      "Ġsprints": 3227,
      "ĠSeekBar": 3228,
      "Ġآهن": 3229,
      "ĠHispanic": 3230,
      "Ġpromenade": 3231,
      "сны": 3232,
      "ĠLok": 3233,
      "Ġتكلم": 3234,
      "ĠNoyes": 3235,
      "Ġmuqueuse": 3236,
      "Ġcreed": 3237,
      "ĠSyri": 3238,
      "ĠKyrgyzstan": 3239,
      "दन": 3240,
      "Ġसदन": 3241,
      "Ġроссийского": 3242,
      "اليد": 3243,
      "Ġeject": 3244,
      "ukuran": 3245,
      "vertx": 3246,
      "Ġviability": 3247,
      "ĠAntioxid": 3248,
      "uirre": 3249,
      "Ġachieving": 3250,
      "Ġinkább": 3251,
      "Lad": 3252,
      "ура": 3253,
      "ĠTann": 3254,
      "ecommerce": 3255,
      "Ġslic": 3256,
      "disposing": 3257,
      "ĠBaer": 3258,
      "Sebastian": 3259,
      "Ġজনক": 3260,
      "Ġtahu": 3261,
      "感じで": 3262,
      "Oreal": 3263,
      "dala": 3264,
      "angkutan": 3265,
      "вості": 3266,
      "lineWidth": 3267,
      "ванне": 3268,
      "Ġellipsis": 3269,
      "GET": 3270,
      "Ġtanh": 3271,
      "Ġvakar": 3272,
      "urgiu": 3273,
      "Ġinadvert": 3274,
      "ĠBUDGET": 3275,
      "Ġcnv": 3276,
      "ifax": 3277,
      "dataFormat": 3278,
      "ĠEureka": 3279,
      "itsar": 3280,
      "Ġdisposiciones": 3281,
      "Ġdeteriorating": 3282,
      "ĠDuchess": 3283,
      "ĠDispersion": 3284,
      "Ġproff": 3285,
      "Ġsette": 3286,
      "Ġlawful": 3287,
      "omass": 3288,
      "Ġdepressions": 3289,
      "deny": 3290,
      "getSession": 3291,
      "Ġکردہ": 3292,
      "ĠHaji": 3293,
      "beats": 3294,
      "vinyl": 3295,
      "bés": 3296,
      "Укупно": 3297,
      "Ġtse": 3298,
      "ĠBYU": 3299,
      "ĠPorcelain": 3300,
      "ftone": 3301,
      "ادل": 3302,
      "ĠassertFalse": 3303,
      "Ġнаселения": 3304,
      "Ġcommunautés": 3305,
      "Ġкаждой": 3306,
      "ĠHardy": 3307,
      "cipl": 3308,
      "Ġkét": 3309,
      "Ġstave": 3310,
      "ระบบ": 3311,
      "WordArray": 3312,
      "Ġletzten": 3313,
      "jor": 3314,
      "ĠKids": 3315,
      "Ġunison": 3316,
      "Ġacclimat": 3317,
      "ærer": 3318,
      "ihl": 3319,
      "ĠMujhe": 3320,
      "Ġsimilares": 3321,
      "ravers": 3322,
      "slave": 3323,
      "Ġattravers": 3324,
      "Ġقرمز": 3325,
      "Ġorice": 3326,
      "Ġمیوز": 3327,
      "toDouble": 3328,
      "ĠGlobo": 3329,
      "Ġপরপর": 3330,
      "Ġrecommandée": 3331,
      "Ġgirlfriend": 3332,
      "xen": 3333,
      "doctrine": 3334,
      "Ġrendition": 3335,
      "Ġdiamant": 3336,
      "chetto": 3337,
      "Ġtol": 3338,
      "Ġdrills": 3339,
      "ĠGael": 3340,
      "ĠDépart": 3341,
      "ንድ": 3342,
      "Ġyawning": 3343,
      "ismi": 3344,
      "Ġnegative": 3345,
      "Dropout": 3346,
      "Ġአንድ": 3347,
      "重要的": 3348,
      "negative": 3349,
      "Ġhöher": 3350,
      "ĠPlt": 3351,
      "Ġкостю": 3352,
      "Ġconseguido": 3353,
      "ĠPltf": 3354,
      "Ġcystic": 3355,
      "Ġorally": 3356,
      "Ġhumains": 3357,
      "Ġassertive": 3358,
      "Ġrevenu": 3359,
      "Ġanschließend": 3360,
      "jdt": 3361,
      "Ġgắn": 3362,
      "Ġzeta": 3363,
      "Flair": 3364,
      "Ġaham": 3365,
      "Ġvaginal": 3366,
      "Ġcometido": 3367,
      "šem": 3368,
      "ĠBcl": 3369,
      "Ġresilience": 3370,
      "stackpath": 3371,
      "Ġleth": 3372,
      "ĠBOC": 3373,
      "Ġagglut": 3374,
      "awy": 3375,
      "Ġthickened": 3376,
      "Ġشہادت": 3377,
      "ĠPDO": 3378,
      "essayer": 3379,
      "Ġepisodi": 3380,
      "Ġsanguí": 3381,
      "Ġundivided": 3382,
      "Ġrelieve": 3383,
      "بغ": 3384,
      "Ġподъ": 3385,
      "رفة": 3386,
      "بغي": 3387,
      "コスメ": 3388,
      "ĠCritic": 3389,
      "Ġbiv": 3390,
      "Ġtrovato": 3391,
      "自身": 3392,
      "ĠCNS": 3393,
      "Ġvond": 3394,
      "Ġtoen": 3395,
      "ĠARISING": 3396,
      "Ġadhesives": 3397,
      "osene": 3398,
      "Ġhaus": 3399,
      "ĠNarc": 3400,
      "ELO": 3401,
      "Ġecce": 3402,
      "Ġالعزيز": 3403,
      "Ġunsol": 3404,
      "Ġkerosene": 3405,
      "Ġdoğru": 3406,
      "NEGATIVE": 3407,
      "Ġcradle": 3408,
      "Ġffm": 3409,
      "Ġatento": 3410,
      "TAK": 3411,
      "ĠHighlands": 3412,
      "Ġرہنما": 3413,
      "Ġinvolunt": 3414,
      "EndTime": 3415,
      "ĠValence": 3416,
      "ĠEtc": 3417,
      "Ġvle": 3418,
      "ĠVStack": 3419,
      "setminus": 3420,
      "Ġfrères": 3421,
      "Ġček": 3422,
      "Opts": 3423,
      "turquoise": 3424,
      "Facade": 3425,
      "ponential": 3426,
      "ĠThar": 3427,
      "Ġdeaminase": 3428,
      "Ġmagnetized": 3429,
      "Ġrespeito": 3430,
      "kaw": 3431,
      "下午": 3432,
      "日下午": 3433,
      "orel": 3434,
      "Ġextermin": 3435,
      "Ġcoarse": 3436,
      "Ġshirtless": 3437,
      "ĠSLO": 3438,
      "Ġнабу": 3439,
      "Ġmultitud": 3440,
      "Ġpréparations": 3441,
      "krét": 3442,
      "ッフ": 3443,
      "Ġbaca": 3444,
      "ĠAlien": 3445,
      "Ġsubcellular": 3446,
      "Commands": 3447,
      "スタッフ": 3448,
      "ĠATG": 3449,
      "Ġriddle": 3450,
      "agonia": 3451,
      "filament": 3452,
      "ĠNovos": 3453,
      "ĠKubernetes": 3454,
      "ĠChildren": 3455,
      "bedded": 3456,
      "Ġcommuters": 3457,
      "Ġcalving": 3458,
      "Ġcabaret": 3459,
      "autoref": 3460,
      "lymph": 3461,
      "Cadastro": 3462,
      "Cast": 3463,
      "ajer": 3464,
      "ホイール": 3465,
      "ĠNero": 3466,
      "vdash": 3467,
      "Ġfatorial": 3468,
      "Ġпочув": 3469,
      "TouchUpInside": 3470,
      "Ġοποίο": 3471,
      "ĠRoofing": 3472,
      "ĠZane": 3473,
      "Ġالمستقيم": 3474,
      "entario": 3475,
      "Ġзамены": 3476,
      "Ġανθρ": 3477,
      "ĠUncle": 3478,
      "Ġανθρώ": 3479,
      "Ġtower": 3480,
      "ciato": 3481,
      "Ġdevs": 3482,
      "Ġpowiet": 3483,
      "никах": 3484,
      "Ġгрупа": 3485,
      "ĠNantucket": 3486,
      "Ġsichtbar": 3487,
      "Ġsasane": 3488,
      "Ġwyp": 3489,
      "Ġamelyet": 3490,
      "lll": 3491,
      "Ġpassenger": 3492,
      "KIN": 3493,
      "tdown": 3494,
      "ĠInterfer": 3495,
      "лля": 3496,
      "Ġwatts": 3497,
      "Índ": 3498,
      "ĠÍnd": 3499,
      "Ġسابق": 3500,
      "blocks": 3501,
      "Ġcatapult": 3502,
      "二维": 3503,
      "Ġولی": 3504,
      "ĠShoot": 3505,
      "idação": 3506,
      "quisites": 3507,
      "二维码": 3508,
      "Penn": 3509,
      "Ġintérieur": 3510,
      "Ġшпански": 3511,
      "Ġreservados": 3512,
      "ĠCovid": 3513,
      "Ġcaoutch": 3514,
      "rukh": 3515,
      "チイ": 3516,
      "ニチイ": 3517,
      "Ġterza": 3518,
      "などに": 3519,
      "ĠMog": 3520,
      "manifold": 3521,
      "ĠEGFR": 3522,
      "スポーツ": 3523,
      "ĠRET": 3524,
      "ĠKhmer": 3525,
      "Ġalimentare": 3526,
      "anych": 3527,
      "CHANG": 3528,
      "remia": 3529,
      "Ġbaos": 3530,
      "MAPE": 3531,
      "Ġbarco": 3532,
      "Trunc": 3533,
      "Ġdvou": 3534,
      "Ġhadir": 3535,
      "corruption": 3536,
      "Ġdenkt": 3537,
      "ApiKey": 3538,
      "atsiya": 3539,
      "Ġconvain": 3540,
      "Ġჩვენ": 3541,
      "Ġショルダーバッグ": 3542,
      "Ġreplying": 3543,
      "raisers": 3544,
      "inthe": 3545,
      "ното": 3546,
      "ĠPatel": 3547,
      "uride": 3548,
      "Ġтап": 3549,
      "ĠWorthing": 3550,
      "insc": 3551,
      "Ġsoooo": 3552,
      "Ġhops": 3553,
      "Ġundamaged": 3554,
      "brigen": 3555,
      "Ġbusy": 3556,
      "Ġdüzen": 3557,
      "ĠdigitalWrite": 3558,
      "Ġоки": 3559,
      "Ġxấu": 3560,
      "лені": 3561,
      "ĠCoin": 3562,
      "Ġроссийский": 3563,
      "Ġmagnificence": 3564,
      "Ġduda": 3565,
      "ĠJenn": 3566,
      "ĠPaytm": 3567,
      "Ġcommunity": 3568,
      "Ġcommunauté": 3569,
      "Ġcomunidad": 3570,
      "Ġcomunità": 3571,
      "Ġchup": 3572,
      "Ġoccupied": 3573,
      "collapse": 3574,
      "レンチ": 3575,
      "Ġクリア": 3576,
      "enca": 3577,
      "Ġberikut": 3578,
      "Ġordinal": 3579,
      "Ġfolk": 3580,
      "BE": 3581,
      "velyan": 3582,
      "Ġusername": 3583,
      "Ġmessa": 3584,
      "ĠNagasaki": 3585,
      "Ġfileurl": 3586,
      "Ġmagasiner": 3587,
      "shit": 3588,
      "ĠConquer": 3589,
      "Ġrepel": 3590,
      "Ġbiograf": 3591,
      "VENTORY": 3592,
      "Ġérté": 3593,
      "Ġseer": 3594,
      "Ġacadémicos": 3595,
      "KE": 3596,
      "isieren": 3597,
      "ĠHDD": 3598,
      "Ġganhar": 3599,
      "Ġsandbox": 3600,
      "ĠTroubleshooting": 3601,
      "Ġcierra": 3602,
      "Ġsache": 3603,
      "altungs": 3604,
      "crm": 3605,
      "ReactDOM": 3606,
      "von": 3607,
      "neros": 3608,
      "restrict": 3609,
      "ĠSemin": 3610,
      "iml": 3611,
      "Ġreclaiming": 3612,
      "Ġcompuestos": 3613,
      "Ġconfirming": 3614,
      "第一百": 3615,
      "Ġسونے": 3616,
      "ĠKSI": 3617,
      "Ġприйма": 3618,
      "来了": 3619,
      "耶路": 3620,
      "Ġdagli": 3621,
      "Ġwander": 3622,
      "Ġdiuretics": 3623,
      "Ġdirectly": 3624,
      "ĠDirectly": 3625,
      "耶路撒": 3626,
      "ĠNavajo": 3627,
      "Ġtyranny": 3628,
      "Ġconstaté": 3629,
      "lii": 3630,
      "Ġпроник": 3631,
      "Ġмасло": 3632,
      "Ġhesap": 3633,
      "tailwindcss": 3634,
      "Upgradeable": 3635,
      "Ġhoraires": 3636,
      "ĠBush": 3637,
      "Ġпромежу": 3638,
      "Ġiçeren": 3639,
      "ĠChopra": 3640,
      "Ġcider": 3641,
      "Ġscott": 3642,
      "Ġkarit": 3643,
      "ĠCOMPO": 3644,
      "Ġkelompok": 3645,
      "پاکستان": 3646,
      "ĠEch": 3647,
      "Ġepiz": 3648,
      "ĠMascul": 3649,
      "coa": 3650,
      "Ġparch": 3651,
      "Ġslučaj": 3652,
      "cake": 3653,
      "ĠBios": 3654,
      "Ġgider": 3655,
      "Ġmemutuskan": 3656,
      "egaard": 3657,
      "Ġjanuari": 3658,
      "Ġböyle": 3659,
      "ĠProfes": 3660,
      "вне": 3661,
      "Ġbảy": 3662,
      "ersection": 3663,
      "oderma": 3664,
      "Ġlocalised": 3665,
      "וט": 3666,
      "שוט": 3667,
      "Ġhitt": 3668,
      "ĠJAC": 3669,
      "Ġдопол": 3670,
      "Ġhumanos": 3671,
      "Ġgruppi": 3672,
      "wchar": 3673,
      "amana": 3674,
      "ĠPizz": 3675,
      "OTC": 3676,
      "Ġpagination": 3677,
      "Ġachievements": 3678,
      "ĠDoe": 3679,
      "ICAS": 3680,
      "NaBr": 3681,
      "Ġtyphoid": 3682,
      "زیز": 3683,
      "Ġlocalidad": 3684,
      "Ġkuwa": 3685,
      "ĠSurvival": 3686,
      "Ġcranks": 3687,
      "ĠBULLETIN": 3688,
      "ĠDRS": 3689,
      "ĠZol": 3690,
      "Ġfleeing": 3691,
      "Lug": 3692,
      "Ġsearing": 3693,
      "appelijke": 3694,
      "ĠMorrow": 3695,
      "Ġprosecuting": 3696,
      "Ġrých": 3697,
      "awed": 3698,
      "ĠHeaven": 3699,
      "Ġشفنا": 3700,
      "ĠCLO": 3701,
      "Ġlegenda": 3702,
      "Ġcoolant": 3703,
      "Ġdzī": 3704,
      "의역": 3705,
      "ĠJiu": 3706,
      "Ġ정의역": 3707,
      "Ġvengeance": 3708,
      "هما": 3709,
      "Ġpascal": 3710,
      "Ġfakt": 3711,
      "ĠsetTheme": 3712,
      "penup": 3713,
      "kry": 3714,
      "Ġパーカー": 3715,
      "ĠKato": 3716,
      "Ġдемо": 3717,
      "MenuView": 3718,
      "UGS": 3719,
      "Ġumani": 3720,
      "Ġفیصد": 3721,
      "beb": 3722,
      "Ġstakes": 3723,
      "Ġچیمپ": 3724,
      "Ġseparat": 3725,
      "Ġfirmly": 3726,
      "Ġrambut": 3727,
      "Ġenvisage": 3728,
      "catal": 3729,
      "ĠScream": 3730,
      "Ġcephal": 3731,
      "كور": 3732,
      "とおり": 3733,
      "ĠPRACT": 3734,
      "Ġrat": 3735,
      "Ġalten": 3736,
      "Ġpubliés": 3737,
      "OULD": 3738,
      "ĠBonnet": 3739,
      "Ġprisoner": 3740,
      "Ġhipótes": 3741,
      "unuh": 3742,
      "ĠNons": 3743,
      "MOVE": 3744,
      "Ġforwarded": 3745,
      "Ġemblems": 3746,
      "ĠchunkSize": 3747,
      "営業": 3748,
      "Ġborde": 3749,
      "ĠАлександра": 3750,
      "営業時間": 3751,
      "luft": 3752,
      "Ġreproduc": 3753,
      "ĠSemantic": 3754,
      "nucleon": 3755,
      "Ġgrupa": 3756,
      "Ġvelho": 3757,
      "Ġندارد": 3758,
      "Ġвста": 3759,
      "átiles": 3760,
      "ResourceId": 3761,
      "Ġосвобо": 3762,
      "Ġcoloro": 3763,
      "ĠRipple": 3764,
      "ologien": 3765,
      "Ġterrifying": 3766,
      "Ġattack": 3767,
      "hive": 3768,
      "ських": 3769,
      "Ġunterstützen": 3770,
      "randomIndex": 3771,
      "ĠChilton": 3772,
      "йга": 3773,
      "Ġнаше": 3774,
      "ĠLoom": 3775,
      "ĠEDITION": 3776,
      "TEXTURE": 3777,
      "mug": 3778,
      "RequestContext": 3779,
      "Ġsummand": 3780,
      "Ġórganos": 3781,
      "Javadoc": 3782,
      "Ġfels": 3783,
      "ĠNyl": 3784,
      "INION": 3785,
      "uerra": 3786,
      "Ġيج": 3787,
      "Ġdowngrade": 3788,
      "chehen": 3789,
      "ynucle": 3790,
      "Ġnegate": 3791,
      "Ġpursuing": 3792,
      "Ġmicrotubules": 3793,
      "boss": 3794,
      "Ġ등": 3795,
      "Ġclair": 3796,
      "being": 3797,
      "Ġ등으로": 3798,
      "kast": 3799,
      "Ġroky": 3800,
      "Iddict": 3801,
      "Ġمعاش": 3802,
      "RANGER": 3803,
      "Ġsquat": 3804,
      "历了": 3805,
      "经历了": 3806,
      "Ġester": 3807,
      "AppDesigner": 3808,
      "Ġresistência": 3809,
      "Ġcranking": 3810,
      "Ġnibbacanam": 3811,
      "ĠTestAvgCallback": 3812,
      "ĠDimitri": 3813,
      "Ġmenggambarkan": 3814,
      "Ġcerrar": 3815,
      "chodu": 3816,
      "ĠPURCH": 3817,
      "ĠUno": 3818,
      "Ġexib": 3819,
      "Ġневи": 3820,
      "ското": 3821,
      "uccino": 3822,
      "ĠKazakhstan": 3823,
      "dicke": 3824,
      "ωμα": 3825,
      "Ġдоклад": 3826,
      "Ġmatchups": 3827,
      "Ġindulged": 3828,
      "Ġпопулација": 3829,
      "Ġexpériences": 3830,
      "Ġيصل": 3831,
      "Ġновых": 3832,
      "Ġsecures": 3833,
      "Ġreinado": 3834,
      "Ġcoolest": 3835,
      "Ġkülönböző": 3836,
      "Ġந": 3837,
      "கர": 3838,
      "erté": 3839,
      "myTransform": 3840,
      "secret": 3841,
      "Ġdirname": 3842,
      "Ġmartingale": 3843,
      "Ġநகர": 3844,
      "Ġimmutable": 3845,
      "understood": 3846,
      "DUT": 3847,
      "Ġполный": 3848,
      "Ġoccurred": 3849,
      "fairy": 3850,
      "lés": 3851,
      "wara": 3852,
      "Ġcầu": 3853,
      "Ġlaine": 3854,
      "abhave": 3855,
      "Ġantiguas": 3856,
      "ciam": 3857,
      "uvat": 3858,
      "ново": 3859,
      "Ġforeground": 3860,
      "Ġcheap": 3861,
      "ĠCOLLE": 3862,
      "Ġcoinage": 3863,
      "Ġsubmitting": 3864,
      "ĠChampionship": 3865,
      "ĠBaltes": 3866,
      "ottie": 3867,
      "Ġوالأ": 3868,
      "Ġdelhi": 3869,
      "Ġяке": 3870,
      "Ġpretend": 3871,
      "Ġelaboración": 3872,
      "Ġhectic": 3873,
      "ĠFrequ": 3874,
      "Ġtyre": 3875,
      "ĠRahmen": 3876,
      "buc": 3877,
      "differential": 3878,
      "Ġabate": 3879,
      "Ġcentroids": 3880,
      "ĠPolicía": 3881,
      "Ġrump": 3882,
      "Ġcarr": 3883,
      "Ġжени": 3884,
      "Ġpsico": 3885,
      "Ġabiotic": 3886,
      "gette": 3887,
      "NewCollection": 3888,
      "Ġчемпионате": 3889,
      "ทน": 3890,
      "Ġpermittee": 3891,
      "oneph": 3892,
      "ĠCORE": 3893,
      "Ġберез": 3894,
      "Ġyelling": 3895,
      "Ġجای": 3896,
      "mería": 3897,
      "ような": 3898,
      "Ġберезня": 3899,
      "或者": 3900,
      "Ġwade": 3901,
      "Ġbeled": 3902,
      "或者是": 3903,
      "Hull": 3904,
      "されない": 3905,
      "ĠDifer": 3906,
      "argout": 3907,
      "Ġdiverted": 3908,
      "Ġzusätz": 3909,
      "Ġpubblicato": 3910,
      "ĠLeban": 3911,
      "Ġswój": 3912,
      "ĠDynkin": 3913,
      "ڑکی": 3914,
      "iesen": 3915,
      "Ġلڑکی": 3916,
      "Ġظرف": 3917,
      "Ġkhuôn": 3918,
      "ujte": 3919,
      "Ġtàu": 3920,
      "Ġpropre": 3921,
      "Ġقوم": 3922,
      "ĠMedici": 3923,
      "Ġfrightened": 3924,
      "Ġইউজ": 3925,
      "ドラ": 3926,
      "Ġequates": 3927,
      "Ġcarcass": 3928,
      "Ġscrutin": 3929,
      "Begin": 3930,
      "Ġgestational": 3931,
      "zeichnungen": 3932,
      "なくても": 3933,
      "Ġدریا": 3934,
      "Ġfiebre": 3935,
      "Ġnạn": 3936,
      "Ġoffsets": 3937,
      "Ġmemoir": 3938,
      "Ġঅপহরণ": 3939,
      "ĠБоль": 3940,
      "Ġvše": 3941,
      "arıyla": 3942,
      "ĠLength": 3943,
      "Ġpromote": 3944,
      "ĠSome": 3945,
      "Ġrak": 3946,
      "Ġaddiction": 3947,
      "GameOver": 3948,
      "Ġdisciplines": 3949,
      "ĠStel": 3950,
      "веду": 3951,
      "Ġsolitons": 3952,
      "myapp": 3953,
      "ĠDrucker": 3954,
      "ĠWart": 3955,
      "ByUser": 3956,
      "ĠTaq": 3957,
      "Ġsudo": 3958,
      "Ġmanned": 3959,
      "Ġkapas": 3960,
      "Ġilla": 3961,
      "Ġcouro": 3962,
      "Ġwaard": 3963,
      "Ġresistencias": 3964,
      "spirit": 3965,
      "Ġscraping": 3966,
      "Ġgouttes": 3967,
      "bok": 3968,
      "Ġfällt": 3969,
      "Ġлипня": 3970,
      "cope": 3971,
      "Ġpux": 3972,
      "ELF": 3973,
      "Ġاستاذ": 3974,
      "Ġequilibria": 3975,
      "Ġresourceful": 3976,
      "owal": 3977,
      "athery": 3978,
      "Ġpenetrating": 3979,
      "ildiği": 3980,
      "Ġslid": 3981,
      "Ġembaixo": 3982,
      "Ġprevailing": 3983,
      "Ġ살": 3984,
      "тет": 3985,
      "펴보": 3986,
      "Ġtrapez": 3987,
      "Ġpollinators": 3988,
      "Ġ살펴보": 3989,
      "cose": 3990,
      "Ġzemlji": 3991,
      "ĠVerbesser": 3992,
      "usu": 3993,
      "するなど": 3994,
      "Ġシングル": 3995,
      "iquity": 3996,
      "ĠDisney": 3997,
      "hattam": 3998,
      "Ġsurvivor": 3999,
      "Trail": 4000,
      "Cep": 4001,
      "Ġholl": 4002,
      "Ġturbidity": 4003,
      "naver": 4004,
      "Ġpch": 4005,
      "isele": 4006,
      "Ġbodhis": 4007,
      "MATERIAL": 4008,
      "Ġpegawai": 4009,
      "Corps": 4010,
      "Ġvésicules": 4011,
      "Ġinappropriate": 4012,
      "Ġkrv": 4013,
      "Ġverzi": 4014,
      "Ġmoored": 4015,
      "ĠborderRadius": 4016,
      "ulière": 4017,
      "ebel": 4018,
      "ничный": 4019,
      "Ġbeaker": 4020,
      "などは": 4021,
      "PlistBuddy": 4022,
      "Ġtrx": 4023,
      "Ġpredominate": 4024,
      "すぎて": 4025,
      "chop": 4026,
      "riert": 4027,
      "ĠRosa": 4028,
      "жность": 4029,
      "ĠPudding": 4030,
      "Ġdisb": 4031,
      "Ġaspires": 4032,
      "Ġdeportivas": 4033,
      "Ġquaternary": 4034,
      "Ġtoast": 4035,
      "айл": 4036,
      "Ġabstracto": 4037,
      "ĠBandit": 4038,
      "ĠJiří": 4039,
      "babel": 4040,
      "Ġdini": 4041,
      "Ġhis": 4042,
      "ĠDray": 4043,
      "Ġregole": 4044,
      "Ġвыяв": 4045,
      "ĠReligions": 4046,
      "ĠOva": 4047,
      "Ġqueda": 4048,
      "Ġedizione": 4049,
      "Ġالوط": 4050,
      "giveness": 4051,
      "Ġremov": 4052,
      "Pseud": 4053,
      "ĠCessna": 4054,
      "Ġassent": 4055,
      "Ġuseless": 4056,
      "Ġnotizie": 4057,
      "телни": 4058,
      "Ġcomplexion": 4059,
      "Ġхватает": 4060,
      "Ġdeleniti": 4061,
      "にと": 4062,
      "아하는": 4063,
      "Ġsant": 4064,
      "ĠEFT": 4065,
      "ptions": 4066,
      "Decedent": 4067,
      "Ġ좋아하는": 4068,
      "ĠForth": 4069,
      "NUAL": 4070,
      "Ġtuyên": 4071,
      "genza": 4072,
      "Ġpostavlj": 4073,
      "ĠANNUAL": 4074,
      "Ġconsiderados": 4075,
      "などが": 4076,
      "Ġcafes": 4077,
      "umls": 4078,
      "Ġnostru": 4079,
      "Ġdosage": 4080,
      "ését": 4081,
      "Ġvulve": 4082,
      "food": 4083,
      "Ġminimize": 4084,
      "Ġboyfriend": 4085,
      "Ġeagerly": 4086,
      "Ġreh": 4087,
      "owali": 4088,
      "Ġsangue": 4089,
      "ulang": 4090,
      "Ġrefres": 4091,
      "Ġweather": 4092,
      "Ġdivulg": 4093,
      "Ġrejuvenate": 4094,
      "Ġdubai": 4095,
      "Anon": 4096,
      "Ġpromove": 4097,
      "Ġאוי": 4098,
      "Ġpuertos": 4099,
      "Ġالأمريكية": 4100,
      "Ġunge": 4101,
      "Ġrere": 4102,
      "Ġsloth": 4103,
      "ĠWikipédia": 4104,
      "Ġvoorzien": 4105,
      "вана": 4106,
      "Ġflashes": 4107,
      "ĠEmm": 4108,
      "ĠPasswort": 4109,
      "Ġorthogonality": 4110,
      "жин": 4111,
      "Ġvalut": 4112,
      "Ġsunroof": 4113,
      "Ġhurling": 4114,
      "ĠKhab": 4115,
      "Ġveremos": 4116,
      "Ġasseg": 4117,
      "Ġpueb": 4118,
      "Ġaffirming": 4119,
      "Ġنجي": 4120,
      "Ġreferrerpolicy": 4121,
      "ھیل": 4122,
      "emoji": 4123,
      "Ġimidazole": 4124,
      "Ġoure": 4125,
      "Ġپھیل": 4126,
      "Ġinternals": 4127,
      "ĠKraken": 4128,
      "functioning": 4129,
      "ĠGinsburg": 4130,
      "lent": 4131,
      "multer": 4132,
      "学习": 4133,
      "Ġcausality": 4134,
      "kev": 4135,
      "Ġsubsidy": 4136,
      "Ġencephalitis": 4137,
      "guru": 4138,
      "Ġdeeply": 4139,
      "MBOLS": 4140,
      "ĠBloomfield": 4141,
      "Ġistri": 4142,
      "Ġoccuper": 4143,
      "Ġeloquent": 4144,
      "Ġარს": 4145,
      "Ġsimmer": 4146,
      "关系": 4147,
      "Ġneid": 4148,
      "Ġoverflowing": 4149,
      "werken": 4150,
      "obutyl": 4151,
      "Ġsane": 4152,
      "ĠDesar": 4153,
      "Ġجنبي": 4154,
      "ĠCassidy": 4155,
      "ußen": 4156,
      "Ġкоэффициент": 4157,
      "œurs": 4158,
      "риста": 4159,
      "ransition": 4160,
      "Ġاصول": 4161,
      "ĠAragon": 4162,
      "bash": 4163,
      "ĠHobb": 4164,
      "gesi": 4165,
      "Ġمشترك": 4166,
      "Ġzeigt": 4167,
      "Survived": 4168,
      "ĠHobbes": 4169,
      "Ġinterdiscipl": 4170,
      "Ġinférieurs": 4171,
      "Ġстатті": 4172,
      "可以选择": 4173,
      "ĠINTERNAL": 4174,
      "ReadOnly": 4175,
      "Ġsclerosis": 4176,
      "Ġinfrast": 4177,
      "ĠBerth": 4178,
      "Ġkissing": 4179,
      "ĠCampeonato": 4180,
      "Ġdill": 4181,
      "Replacement": 4182,
      "ĠSlick": 4183,
      "Ġсовета": 4184,
      "ählte": 4185,
      "ñal": 4186,
      "Sink": 4187,
      "fragt": 4188,
      "Ġremerc": 4189,
      "Ġpeacetime": 4190,
      "redditmedia": 4191,
      "Ġmodèles": 4192,
      "ური": 4193,
      "ĠpidMotor": 4194,
      "lceil": 4195,
      "vais": 4196,
      "Ġrigs": 4197,
      "Ġwährend": 4198,
      "PSR": 4199,
      "Ġmeisjes": 4200,
      "Ġsellest": 4201,
      "кщо": 4202,
      "Ġcenderung": 4203,
      "Ġfluff": 4204,
      "ĠSpir": 4205,
      "Ġloosening": 4206,
      "Ġmuni": 4207,
      "linic": 4208,
      "Dowell": 4209,
      "chis": 4210,
      "önes": 4211,
      "Ġhongos": 4212,
      "Всем": 4213,
      "が良い": 4214,
      "ĠGeiß": 4215,
      "Ġchirop": 4216,
      "Ġdisagrees": 4217,
      "ĠInfinix": 4218,
      "ĠGeißler": 4219,
      "Ġjuj": 4220,
      "Ġwarping": 4221,
      "CNC": 4222,
      "手中的": 4223,
      "Ġbatik": 4224,
      "TabIndex": 4225,
      "ĠPRIN": 4226,
      "ĠNormandy": 4227,
      "Ġmyeloma": 4228,
      "Ġanys": 4229,
      "landı": 4230,
      "Ġnastęp": 4231,
      "VOLUME": 4232,
      "atok": 4233,
      "Ġволосы": 4234,
      "zta": 4235,
      "inia": 4236,
      "ĠMott": 4237,
      "ĠKrä": 4238,
      "Ġкаких": 4239,
      "ĠTabLayout": 4240,
      "Ġscreaming": 4241,
      "ĠAula": 4242,
      "ĠNGC": 4243,
      "Ġodlu": 4244,
      "ĠObrador": 4245,
      "Calibration": 4246,
      "Ġبیماری": 4247,
      "Ġprospecting": 4248,
      "امام": 4249,
      "cemic": 4250,
      "fand": 4251,
      "Ġtalleres": 4252,
      "winter": 4253,
      "Ġoutnumbered": 4254,
      "ног": 4255,
      "Ġlukewarm": 4256,
      "Ġscrittura": 4257,
      "ĠWoodson": 4258,
      "ĠCanarias": 4259,
      "ogin": 4260,
      "Ġcollapsing": 4261,
      "страницу": 4262,
      "Ġcomentado": 4263,
      "ĠConstituency": 4264,
      "unittest": 4265,
      "redited": 4266,
      "Ġrefining": 4267,
      "Ġdiscredited": 4268,
      "Ġnegativity": 4269,
      "Ġrecomiendo": 4270,
      "COLOG": 4271,
      "hau": 4272,
      "Ġadvising": 4273,
      "ĠHadrian": 4274,
      "استشهاد": 4275,
      "pedido": 4276,
      "Synced": 4277,
      "Ġvive": 4278,
      "ĠYfine": 4279,
      "Ġverir": 4280,
      "Ġsealer": 4281,
      "ELD": 4282,
      "FIELD": 4283,
      "ĠSuf": 4284,
      "Ġالموجود": 4285,
      "complicated": 4286,
      "ĠHelpline": 4287,
      "Ġreflexión": 4288,
      "derm": 4289,
      "Ġeure": 4290,
      "Ġresides": 4291,
      "Ġpiloted": 4292,
      "Ġstylus": 4293,
      "Ġelytra": 4294,
      "Ġάλλο": 4295,
      "Ġایران": 4296,
      "züge": 4297,
      "Ġsockets": 4298,
      "ĠSDW": 4299,
      "usammen": 4300,
      "ĠClash": 4301,
      "ĠPrêmio": 4302,
      "Ġcrumb": 4303,
      "Ġhibernate": 4304,
      "ようになった": 4305,
      "Ġocasião": 4306,
      "Ġcornice": 4307,
      "omé": 4308,
      "Ġnoma": 4309,
      "glfw": 4310,
      "Ġinfancia": 4311,
      "Ġhumanas": 4312,
      "Ġお客様": 4313,
      "grave": 4314,
      "uu": 4315,
      "ocke": 4316,
      "ĠPeer": 4317,
      "Ġrétréci": 4318,
      "Ġshameless": 4319,
      "Ġresurrected": 4320,
      "marked": 4321,
      "ádza": 4322,
      "ĠSummon": 4323,
      "Ġ長": 4324,
      "財布": 4325,
      "Ġerbjuder": 4326,
      "Ġ長財布": 4327,
      "Ġpéné": 4328,
      "ĠSurreal": 4329,
      "Ġбукмекерская": 4330,
      "bildung": 4331,
      "ĠJinping": 4332,
      "Ġpénétr": 4333,
      "collegiate": 4334,
      "ĠSTREET": 4335,
      "Ġwybor": 4336,
      "Ġcerevis": 4337,
      "Ġایپ": 4338,
      "Ġمیرے": 4339,
      "Ġcerevisiae": 4340,
      "Kra": 4341,
      "chond": 4342,
      "onomics": 4343,
      "Ġbuon": 4344,
      "ĠMECHANICAL": 4345,
      "ških": 4346,
      "Ġruk": 4347,
      "Ġخون": 4348,
      "Ġbroth": 4349,
      "Ġtherapeutic": 4350,
      "Ġэкспер": 4351,
      "ĠInMemory": 4352,
      "Ġmało": 4353,
      "Ġtanta": 4354,
      "Ġeuh": 4355,
      "بحث": 4356,
      "RENGTH": 4357,
      "fir": 4358,
      "jshint": 4359,
      "ĠMaret": 4360,
      "Ġhoisted": 4361,
      "Ġpersuading": 4362,
      "ガン": 4363,
      "Ġgaman": 4364,
      "élève": 4365,
      "ματος": 4366,
      "Ġramping": 4367,
      "ディガン": 4368,
      "Ġceased": 4369,
      "ĠValentino": 4370,
      "Ġouter": 4371,
      "Ġcombatt": 4372,
      "ĠNegative": 4373,
      "Negative": 4374,
      "Birthday": 4375,
      "Ġbasse": 4376,
      "uvé": 4377,
      "Ġretrouvé": 4378,
      "okkal": 4379,
      "AniPaf": 4380,
      "Tet": 4381,
      "Episodes": 4382,
      "ılara": 4383,
      "Ġoccasional": 4384,
      "itales": 4385,
      "Ġhospitales": 4386,
      "myItemType": 4387,
      "MEGA": 4388,
      "joke": 4389,
      "ĠInstance": 4390,
      "Ġaudacity": 4391,
      "iceras": 4392,
      "ĠMemoirs": 4393,
      "Ġflipping": 4394,
      "ushman": 4395,
      "Ġophthal": 4396,
      "ĠTrustee": 4397,
      "Ġprotestors": 4398,
      "اديه": 4399,
      "Ġdischarges": 4400,
      "Ġdrewn": 4401,
      "Ġkip": 4402,
      "Ġquarks": 4403,
      "Ġouting": 4404,
      "Ġxác": 4405,
      "Ġwhich": 4406,
      "ĠChez": 4407,
      "ĠTolkien": 4408,
      "getAsJsonObject": 4409,
      "ĠShibuya": 4410,
      "Gruß": 4411,
      "Ġnextline": 4412,
      "ĠRabat": 4413,
      "ĠEscher": 4414,
      "ĠJel": 4415,
      "Ġblot": 4416,
      "ĠMyApplication": 4417,
      "Ġtrafficking": 4418,
      "Ġאיז": 4419,
      "ĠEscherichia": 4420,
      "Ġconsecu": 4421,
      "ことで": 4422,
      "redo": 4423,
      "Ġvictimization": 4424,
      "Ġограничи": 4425,
      "Ġadministrators": 4426,
      "Bike": 4427,
      "clides": 4428,
      "emplo": 4429,
      "cephalus": 4430,
      "Ġkursi": 4431,
      "Ġhuj": 4432,
      "ĠLop": 4433,
      "Ġretort": 4434,
      "aish": 4435,
      "abbe": 4436,
      "ĠFIEL": 4437,
      "ĠVaish": 4438,
      "Ġlocalhost": 4439,
      "Ġtreacherous": 4440,
      "ĠFIELDS": 4441,
      "ẫu": 4442,
      "Ġmẫu": 4443,
      "quitos": 4444,
      "Ġresetting": 4445,
      "ĠMorr": 4446,
      "barrel": 4447,
      "ĠBLOOD": 4448,
      "earnings": 4449,
      "ĠMarquette": 4450,
      "getDefaultSh": 4451,
      "Ġunlucky": 4452,
      "addItem": 4453,
      "ĠSprite": 4454,
      "brough": 4455,
      "ĠCanvas": 4456,
      "Ġsyr": 4457,
      "ĠGABA": 4458,
      "Ġbosh": 4459,
      "Ġзавод": 4460,
      "Ġkhăn": 4461,
      "macd": 4462,
      "Ġhull": 4463,
      "Ġlagu": 4464,
      "ĠVGA": 4465,
      "WithOptions": 4466,
      "Ġсвоем": 4467,
      "Hak": 4468,
      "Ġtev": 4469,
      "Ġnemo": 4470,
      "ادى": 4471,
      "Ġreflexion": 4472,
      "imise": 4473,
      "igheid": 4474,
      "mapSize": 4475,
      "ĠMonaten": 4476,
      "Ġfournisseurs": 4477,
      "Ġoccuring": 4478,
      "Ġentferne": 4479,
      "Ġschwierig": 4480,
      "κτη": 4481,
      "ROS": 4482,
      "OTROS": 4483,
      "ĠRepair": 4484,
      "Ġkoost": 4485,
      "ĠGaspar": 4486,
      "LENGTH": 4487,
      "Ġquà": 4488,
      "Ġdomést": 4489,
      "Ġdeformed": 4490,
      "Ġlaureate": 4491,
      "Ġtrench": 4492,
      "Ġkinn": 4493,
      "DebugInformation": 4494,
      "Ġpohod": 4495,
      "ību": 4496,
      "Ġسكان": 4497,
      "Ġčak": 4498,
      "ĠHoop": 4499,
      "Bhar": 4500,
      "Ġcnpj": 4501,
      "Ġselles": 4502,
      "acor": 4503,
      "ĠBezirk": 4504,
      "mbr": 4505,
      "一个是": 4506,
      "Ġweiß": 4507,
      "Ġsemanal": 4508,
      "excludeFolder": 4509,
      "Ġluft": 4510,
      "ĠBouchard": 4511,
      "Ġmeiosis": 4512,
      "Ġکھیلنے": 4513,
      "Ġsorgt": 4514,
      "ifu": 4515,
      "aiya": 4516,
      "IDAD": 4517,
      "Ġseepage": 4518,
      "ĠAppliance": 4519,
      "Ġlatte": 4520,
      "IDADES": 4521,
      "će": 4522,
      "Ġinactive": 4523,
      "Ġfrantic": 4524,
      "ĠAgricultura": 4525,
      "Agricult": 4526,
      "ĠZeeman": 4527,
      "widths": 4528,
      "Ġautobiography": 4529,
      "Ġinoculum": 4530,
      "Ġхудожник": 4531,
      "ĠГуляць": 4532,
      "Ġannuel": 4533,
      "Ġcowling": 4534,
      "Ġboreal": 4535,
      "בוע": 4536,
      "ĠAuftrag": 4537,
      "μου": 4538,
      "Ġexceptions": 4539,
      "Ġpromover": 4540,
      "dington": 4541,
      "verick": 4542,
      "Ġteething": 4543,
      "Ġváš": 4544,
      "Addo": 4545,
      "Ġwhakam": 4546,
      "Ġуниверситет": 4547,
      "Ġgrafted": 4548,
      "Ġrecue": 4549,
      "costs": 4550,
      "ropower": 4551,
      "Ġsljede": 4552,
      "ĠSchools": 4553,
      "enderal": 4554,
      "Ġставок": 4555,
      "NuGetPackage": 4556,
      "ξεις": 4557,
      "Ġbote": 4558,
      "ĠWitten": 4559,
      "Ġskriv": 4560,
      "Ġबजट": 4561,
      "otimes": 4562,
      "ĠОдин": 4563,
      "Ġteleport": 4564,
      "Ġkomponent": 4565,
      "Ġmartens": 4566,
      "Ġsemblable": 4567,
      "PDO": 4568,
      "Ġclan": 4569,
      "chtigt": 4570,
      "madan": 4571,
      "Ġpäät": 4572,
      "Ġpersegu": 4573,
      "Ġsoov": 4574,
      "бавля": 4575,
      "ĠEXEMPLARY": 4576,
      "ĠPedersen": 4577,
      "Ġpanda": 4578,
      "Ġmeant": 4579,
      "Delayed": 4580,
      "Ġimperson": 4581,
      "Ġantiguos": 4582,
      "ĠStamford": 4583,
      "Ġакчага": 4584,
      "ĠOOP": 4585,
      "burse": 4586,
      "łki": 4587,
      "กำ": 4588,
      "ĠTone": 4589,
      "Ġяич": 4590,
      "กำหนด": 4591,
      "Ġяичко": 4592,
      "IOC": 4593,
      "वड": 4594,
      "ĠHaut": 4595,
      "Ġआवड": 4596,
      "Ġcondos": 4597,
      "Ġpropagation": 4598,
      "ĠHobart": 4599,
      "ĠCiência": 4600,
      "Ġуголов": 4601,
      "Ġprofessional": 4602,
      "անկ": 4603,
      "ĠBeweg": 4604,
      "Ġbrutally": 4605,
      "Ġlighter": 4606,
      "Ġanex": 4607,
      "Ġgrubu": 4608,
      "Ġniño": 4609,
      "Ġsharper": 4610,
      "スペイン": 4611,
      "Ġдевочки": 4612,
      "稳定的": 4613,
      "遇到的": 4614,
      "ĠBram": 4615,
      "Ġmasculino": 4616,
      "ĠFractal": 4617,
      "setRequestHeader": 4618,
      "éo": 4619,
      "Ġmềm": 4620,
      "Ġkéo": 4621,
      "ĠKofi": 4622,
      "Ġloafers": 4623,
      "Ġconjunct": 4624,
      "Ġcriminally": 4625,
      "ėti": 4626,
      "unhofer": 4627,
      "Ġsickening": 4628,
      "Ġauxquelles": 4629,
      "Ġhuesos": 4630,
      "Ġtiết": 4631,
      "Ġجنگ": 4632,
      "Ġтради": 4633,
      "Abi": 4634,
      "href": 4635,
      "Ġunas": 4636,
      "Ġmetter": 4637,
      "Ġrevamped": 4638,
      "QueryResult": 4639,
      "Genres": 4640,
      "ĠNapier": 4641,
      "muc": 4642,
      "Ġsuccede": 4643,
      "ături": 4644,
      "astered": 4645,
      "ĠXeon": 4646,
      "Ġremastered": 4647,
      "ĠKendrick": 4648,
      "مين": 4649,
      "ughter": 4650,
      "Ġприбыль": 4651,
      "Ġfinde": 4652,
      "Ġvex": 4653,
      "Ġeql": 4654,
      "ანა": 4655,
      "Ġmasak": 4656,
      "Ġestablece": 4657,
      "Ġعزیز": 4658,
      "CUL": 4659,
      "zoek": 4660,
      "Ġsimilaire": 4661,
      "Ġлюд": 4662,
      "TOM": 4663,
      "esten": 4664,
      "っていく": 4665,
      "Pur": 4666,
      "rinter": 4667,
      "を有": 4668,
      "Ġsprinter": 4669,
      "Ġneoliberal": 4670,
      "Ġponemos": 4671,
      "Ġbirthday": 4672,
      "を有する": 4673,
      "amount": 4674,
      "Ġkogu": 4675,
      "kovskij": 4676,
      "biss": 4677,
      "ĠLINK": 4678,
      "Ġnotícias": 4679,
      "naval": 4680,
      "Ġgeneralization": 4681,
      "Ġcria": 4682,
      "elbe": 4683,
      "Ġkola": 4684,
      "Ġreborn": 4685,
      "without": 4686,
      "Ġdarah": 4687,
      "ĠSDS": 4688,
      "Ġdaerah": 4689,
      "dogan": 4690,
      "ĠRabin": 4691,
      "ورو": 4692,
      "Ġکولی": 4693,
      "raphe": 4694,
      "ĠSimult": 4695,
      "Ġspoilers": 4696,
      "Ġconfirms": 4697,
      "Ġhesitant": 4698,
      "Ġadenos": 4699,
      "Ġalunos": 4700,
      "这就是": 4701,
      "passenger": 4702,
      "Ġmecánica": 4703,
      "ĠVigil": 4704,
      "Ġרבי": 4705,
      "ĠINFO": 4706,
      "Ġsignatory": 4707,
      "Ġkaki": 4708,
      "Ġурна": 4709,
      "cypress": 4710,
      "Ġporos": 4711,
      "ĠВладимир": 4712,
      "Fused": 4713,
      "airline": 4714,
      "Ġمتن": 4715,
      "StoreException": 4716,
      "ĠNSCs": 4717,
      "Ġdisminución": 4718,
      "чении": 4719,
      "ĠSegu": 4720,
      "Ġwide": 4721,
      "Ġفائ": 4722,
      "Ġजबर": 4723,
      "Ġאבי": 4724,
      "consciously": 4725,
      "setP": 4726,
      "Ġutilizza": 4727,
      "Ġтехни": 4728,
      "ĠWikiped": 4729,
      "slateblue": 4730,
      "Ġtubercles": 4731,
      "ĠCupertino": 4732,
      "Ġterritorio": 4733,
      "prin": 4734,
      "Ġsurprise": 4735,
      "Ġballast": 4736,
      "Ġdanam": 4737,
      "Ġformatos": 4738,
      "ĠCorrosion": 4739,
      "Ġтом": 4740,
      "Ġrevoked": 4741,
      "typography": 4742,
      "Ġउतर": 4743,
      "Ġনরম": 4744,
      "ĠSchubert": 4745,
      "Ġвыз": 4746,
      "uidado": 4747,
      "Ġtenor": 4748,
      "startIndex": 4749,
      "ĠBurmese": 4750,
      "numpy": 4751,
      "ympathetic": 4752,
      "ĠWaist": 4753,
      "Ġqil": 4754,
      "Ġtilby": 4755,
      "Ġнедалеко": 4756,
      "erven": 4757,
      "iciência": 4758,
      "Ġscratches": 4759,
      "Ġsomewhat": 4760,
      "Ġcloves": 4761,
      "Ġastute": 4762,
      "fowl": 4763,
      "Ġpretends": 4764,
      "Ġvoluntad": 4765,
      "ของเรา": 4766,
      "othelial": 4767,
      "ている": 4768,
      "resident": 4769,
      "Ġswelled": 4770,
      "TabText": 4771,
      "Ġdeportiva": 4772,
      "Ġkhawatir": 4773,
      "ולי": 4774,
      "marginY": 4775,
      "Tower": 4776,
      "ĠHase": 4777,
      "Ġxiii": 4778,
      "ĠendGame": 4779,
      "Ġcolliding": 4780,
      "Ġterritório": 4781,
      "ĠKroger": 4782,
      "meier": 4783,
      "cke": 4784,
      "πουργ": 4785,
      "apod": 4786,
      "Ġproto": 4787,
      "Ġhalve": 4788,
      "Ġmultiplicative": 4789,
      "Ġwilde": 4790,
      "лье": 4791,
      "Ġтільки": 4792,
      "Ġcreeps": 4793,
      "ĠDeo": 4794,
      "Ġhesitate": 4795,
      "asgi": 4796,
      "Ġзапусти": 4797,
      "ĠHemsworth": 4798,
      "Ġsaka": 4799,
      "Ġwillful": 4800,
      "Ġഅവത": 4801,
      "ຕາມ": 4802,
      "Ġcomulti": 4803,
      "зили": 4804,
      "Ġgrie": 4805,
      "Ġknowledge": 4806,
      "setAttribute": 4807,
      "stepDeploy": 4808,
      "ĠБоли": 4809,
      "IENTS": 4810,
      "Ġみたい": 4811,
      "игры": 4812,
      "iquette": 4813,
      "Ġpropone": 4814,
      "Ġsaloon": 4815,
      "ĠFontSize": 4816,
      "ROUP": 4817,
      "тивность": 4818,
      "ĠDahmer": 4819,
      "Ġspar": 4820,
      "Ġcollateral": 4821,
      "Ġbulunan": 4822,
      "Estate": 4823,
      "Ġromp": 4824,
      "shear": 4825,
      "inek": 4826,
      "Ġedibles": 4827,
      "Ġmenghind": 4828,
      "ĠGermans": 4829,
      "Ġhtmlentities": 4830,
      "Ġmenghindari": 4831,
      "Ġregistre": 4832,
      "ĠMUM": 4833,
      "Album": 4834,
      "arrows": 4835,
      "rbrack": 4836,
      "Ninja": 4837,
      "Ġconter": 4838,
      "Ġatac": 4839,
      "Ġtransact": 4840,
      "Ġnič": 4841,
      "Ġmaggior": 4842,
      "Ġببین": 4843,
      "posição": 4844,
      "ventus": 4845,
      "Ġclosure": 4846,
      "NIS": 4847,
      "ĠBrion": 4848,
      "Ġног": 4849,
      "Ġyaklaş": 4850,
      "ishwa": 4851,
      "Ġblod": 4852,
      "Ġdownloader": 4853,
      "Ġemphatically": 4854,
      "guh": 4855,
      "Ġparents": 4856,
      "Ġجامعة": 4857,
      "Veteran": 4858,
      "Clo": 4859,
      "ĠLof": 4860,
      "okban": 4861,
      "Ġthấm": 4862,
      "objectId": 4863,
      "Ġintolerance": 4864,
      "Ġnuôi": 4865,
      "Ġllvm": 4866,
      "ĠBaca": 4867,
      "Ġjobb": 4868,
      "usten": 4869,
      "Ġerine": 4870,
      "ärer": 4871,
      "ĠForster": 4872,
      "Ġhidrográf": 4873,
      "件事": 4874,
      "ĠCoronavirus": 4875,
      "Coronavirus": 4876,
      "ĠAbyss": 4877,
      "ĠPfer": 4878,
      "Ġgosto": 4879,
      "ĠHTM": 4880,
      "Ġsensational": 4881,
      "Ġdomenica": 4882,
      "ĠHTMLElement": 4883,
      "Ġmocks": 4884,
      "ĠCrypt": 4885,
      "рис": 4886,
      "Ġrealiza": 4887,
      "Ġinternalization": 4888,
      "automne": 4889,
      "ĠRochelle": 4890,
      "Ġreplenished": 4891,
      "ĠMatthews": 4892,
      "Hook": 4893,
      "ĠBaat": 4894,
      "ĠTach": 4895,
      "йдёт": 4896,
      "Ġдобре": 4897,
      "Ġsectores": 4898,
      "Ġbug": 4899,
      "ĠstatusCode": 4900,
      "jt": 4901,
      "újt": 4902,
      "Ġpark": 4903,
      "Ġherd": 4904,
      "ampur": 4905,
      "Ġкотором": 4906,
      "Ġдругое": 4907,
      "ĠSOFT": 4908,
      "Ġcontestants": 4909,
      "pone": 4910,
      "ĠPell": 4911,
      "alloy": 4912,
      "czę": 4913,
      "volley": 4914,
      "пресс": 4915,
      "Ġkteré": 4916,
      "Ġported": 4917,
      "Nullable": 4918,
      "ĠdeviceInfo": 4919,
      "uak": 4920,
      "Ġبیت": 4921,
      "ĠИтали": 4922,
      "Jew": 4923,
      "ъем": 4924,
      "二章": 4925,
      "十二章": 4926,
      "Ġaga": 4927,
      "Ġmasculina": 4928,
      "Ġدسته": 4929,
      "ĠPrimarily": 4930,
      "Ġproverbial": 4931,
      "Ġкакие": 4932,
      "Ġrédaction": 4933,
      "Ġtolerances": 4934,
      "ĠMecca": 4935,
      "Ġhvilket": 4936,
      "みんな": 4937,
      "itek": 4938,
      "Ġsør": 4939,
      "dsale": 4940,
      "Ġdissipation": 4941,
      "kost": 4942,
      "バック": 4943,
      "ijden": 4944,
      "Ġréserve": 4945,
      "ĠForman": 4946,
      "pmmImp": 4947,
      "Ġsatin": 4948,
      "ĠDocket": 4949,
      "afft": 4950,
      "Ġпул": 4951,
      "Ġتلیفون": 4952,
      "ravés": 4953,
      "тивных": 4954,
      "Ġالفار": 4955,
      "Ġsaranam": 4956,
      "Ġхорошее": 4957,
      "Ġfevereiro": 4958,
      "حاء": 4959,
      "ĠLors": 4960,
      "Ġзако": 4961,
      "morgan": 4962,
      "zina": 4963,
      "churn": 4964,
      "Ġsucceeding": 4965,
      "Ġktórym": 4966,
      "Ġجناح": 4967,
      "osim": 4968,
      "getLocal": 4969,
      "Ġinsidious": 4970,
      "Те": 4971,
      "ĠBana": 4972,
      "cok": 4973,
      "opecia": 4974,
      "Ġalopecia": 4975,
      "Ġeradic": 4976,
      "Ġmagnets": 4977,
      "agenta": 4978,
      "ĠDense": 4979,
      "ĠUtil": 4980,
      "Ġcaesar": 4981,
      "jobb": 4982,
      "endroit": 4983,
      "Ġabhor": 4984,
      "Ġlegjobb": 4985,
      "Ġválida": 4986,
      "Ġhasznál": 4987,
      "ванням": 4988,
      "Ġbenzodiazep": 4989,
      "itura": 4990,
      "ĠPess": 4991,
      "Ġatl": 4992,
      "Ġginger": 4993,
      "bery": 4994,
      "Ġsnuff": 4995,
      "ımızı": 4996,
      "Ġheavenly": 4997,
      "Ġtunic": 4998,
      "Ġauctions": 4999,
      "armes": 5000,
      "ĠThiel": 5001,
      "vara": 5002,
      "āta": 5003,
      "プラ": 5004,
      "uca": 5005,
      "шкин": 5006,
      "スペシャル": 5007,
      "プラグ": 5008,
      "Ġfico": 5009,
      "érateur": 5010,
      "Ġpensando": 5011,
      "ĠDiscipline": 5012,
      "Semitic": 5013,
      "なのに": 5014,
      "Ġthrottle": 5015,
      "ULO": 5016,
      "ĠGeek": 5017,
      "Ġcheckpoint": 5018,
      "Ġsuspense": 5019,
      "hrass": 5020,
      "elands": 5021,
      "Ġinterwoven": 5022,
      "conti": 5023,
      "Ġelectronics": 5024,
      "ĠEphesus": 5025,
      "hrassets": 5026,
      "ikal": 5027,
      "ĠCorso": 5028,
      "Ġairport": 5029,
      "fillStyle": 5030,
      "ĠChampl": 5031,
      "Ġoverhead": 5032,
      "Ġproposons": 5033,
      "ĠChamplain": 5034,
      "olas": 5035,
      "ĠErst": 5036,
      "Ġbesz": 5037,
      "aternal": 5038,
      "Ġnumerador": 5039,
      "Ġjeweil": 5040,
      "Ġпроисходит": 5041,
      "PATCH": 5042,
      "Ġstink": 5043,
      "цин": 5044,
      "iosos": 5045,
      "Ġúzem": 5046,
      "Ġbesuchen": 5047,
      "Ġexuberant": 5048,
      "Ġxer": 5049,
      "Ġfrontman": 5050,
      "Ġlaut": 5051,
      "ниці": 5052,
      "criptor": 5053,
      "verständlich": 5054,
      "Ġdont": 5055,
      "Ġpromouvoir": 5056,
      "ждане": 5057,
      "Ġunanimously": 5058,
      "гер": 5059,
      "ĠStealth": 5060,
      "Ġкрасный": 5061,
      "Ġedi": 5062,
      "ĠPonce": 5063,
      "Ġlisteners": 5064,
      "Ġtweeted": 5065,
      "Ġdangere": 5066,
      "ĠFutureWarning": 5067,
      "失去了": 5068,
      "arsk": 5069,
      "ILING": 5070,
      "ومین": 5071,
      "Ġrollback": 5072,
      "Ġεπισ": 5073,
      "Ġcommonplace": 5074,
      "duck": 5075,
      "peptide": 5076,
      "ajana": 5077,
      "GetLength": 5078,
      "QSpacerItem": 5079,
      "Ġtrrecl": 5080,
      "IFICATIONS": 5081,
      "hetam": 5082,
      "zuc": 5083,
      "erred": 5084,
      "Ġascii": 5085,
      "Ġtrek": 5086,
      "ĠDeferred": 5087,
      "ĠFein": 5088,
      "Ġbandana": 5089,
      "akyReLU": 5090,
      "Ġincumbent": 5091,
      "ĠGymnasium": 5092,
      "Ġelegantly": 5093,
      "我们的": 5094,
      "Ġelucid": 5095,
      "moveTo": 5096,
      "Ġleche": 5097,
      "Ġembody": 5098,
      "criptive": 5099,
      "Ġimagine": 5100,
      "inor": 5101,
      "adl": 5102,
      "чее": 5103,
      "ĠFloret": 5104,
      "anamo": 5105,
      "Ġslander": 5106,
      "elige": 5107,
      "ĠATC": 5108,
      "ĠFields": 5109,
      "Ġকরব": 5110,
      "bundles": 5111,
      "ĠStroke": 5112,
      "Ġmañana": 5113,
      "اندا": 5114,
      "ĠScene": 5115,
      "Ġinsides": 5116,
      "ĠInstrumented": 5117,
      "ITU": 5118,
      "Ġinscrit": 5119,
      "ĠAntioch": 5120,
      "ĠStranger": 5121,
      "builders": 5122,
      "enea": 5123,
      "Ġviscosity": 5124,
      "Ġqueuing": 5125,
      "CXX": 5126,
      "Ġఇ": 5127,
      "తర": 5128,
      "Ġpotrav": 5129,
      "ĠLeBron": 5130,
      "Ġpopolazione": 5131,
      "Ġublox": 5132,
      "Ġఇతర": 5133,
      "JLabel": 5134,
      "ธรรม": 5135,
      "일부터": 5136,
      "Ġfidget": 5137,
      "ĠFourier": 5138,
      "ĠVerge": 5139,
      "widetilde": 5140,
      "logits": 5141,
      "Ġдале": 5142,
      "Ġnombr": 5143,
      "ĠHessen": 5144,
      "ĠProvidence": 5145,
      "expiration": 5146,
      "Ġaggregator": 5147,
      "ĠΔια": 5148,
      "Hispanic": 5149,
      "ĠZeiss": 5150,
      "Ġdeclaring": 5151,
      "Ġacorns": 5152,
      "acchus": 5153,
      "Ġограничен": 5154,
      "Ġਆ": 5155,
      "ਪਣ": 5156,
      "Ġsegreg": 5157,
      "Ġتحقیق": 5158,
      "Ġrecognizes": 5159,
      "Ġscriptlevel": 5160,
      "Ġasegurar": 5161,
      "Ġਆਪਣ": 5162,
      "Ġhinn": 5163,
      "Ġcoales": 5164,
      "Ġنادي": 5165,
      "ĠTRANSACTION": 5166,
      "Ġkrwi": 5167,
      "Ġcannibal": 5168,
      "Ġrushes": 5169,
      "Ġresented": 5170,
      "Ġutan": 5171,
      "Ġrectified": 5172,
      "élie": 5173,
      "öyty": 5174,
      "Ġbakt": 5175,
      "Ġlöyty": 5176,
      "ĠKoff": 5177,
      "Ġلوی": 5178,
      "Ġكان": 5179,
      "Ġcheats": 5180,
      "Ġwelchem": 5181,
      "iwers": 5182,
      "Ġprosecute": 5183,
      "tickets": 5184,
      "班牙": 5185,
      "西班牙": 5186,
      "Ġкраю": 5187,
      "Coefficient": 5188,
      "auro": 5189,
      "Ġتوض": 5190,
      "Ġdiscer": 5191,
      "Ġكبير": 5192,
      "Ġbaşlayan": 5193,
      "Ġتوضی": 5194,
      "scre": 5195,
      "scenes": 5196,
      "argate": 5197,
      "Ġfréquente": 5198,
      "AspNetCore": 5199,
      "ĠOnda": 5200,
      "bure": 5201,
      "kara": 5202,
      "ardı": 5203,
      "conserv": 5204,
      "Ġacademic": 5205,
      "Ġuczniów": 5206,
      "zul": 5207,
      "ĠStowe": 5208,
      "Ġhumana": 5209,
      "Ġcrystallized": 5210,
      "vpn": 5211,
      "Option": 5212,
      "Ġserupa": 5213,
      "HTTPRequest": 5214,
      "Ġинтервью": 5215,
      "Sund": 5216,
      "Ġhydrol": 5217,
      "handleClick": 5218,
      "dataset": 5219,
      "サプライ": 5220,
      "マリ": 5221,
      "Ġkomunitas": 5222,
      "ShaderProgram": 5223,
      "Ġмеханизм": 5224,
      "Ġтермин": 5225,
      "マリン": 5226,
      "Ġlâu": 5227,
      "вол": 5228,
      "пущен": 5229,
      "Ġanaphyl": 5230,
      "Ġoars": 5231,
      "Ġhoher": 5232,
      "ĠSerbian": 5233,
      "Ġhairstyle": 5234,
      "cepan": 5235,
      "Ġsaucepan": 5236,
      "하는데": 5237,
      "titanic": 5238,
      "Ġgore": 5239,
      "ĠTheo": 5240,
      "Ġsmi": 5241,
      "Ġoutcry": 5242,
      "Ġevaporation": 5243,
      "方法は": 5244,
      "UVER": 5245,
      "真的": 5246,
      "COUVER": 5247,
      "clientX": 5248,
      "Ġpandemic": 5249,
      "Dex": 5250,
      "Hg": 5251,
      "pertensive": 5252,
      "Ġfint": 5253,
      "ĠVariables": 5254,
      "Ġреспублики": 5255,
      "の方は": 5256,
      "hoa": 5257,
      "pathi": 5258,
      "Ġتعیین": 5259,
      "destination": 5260,
      "サーバー": 5261,
      "ÇÕES": 5262,
      "ĠFreude": 5263,
      "Ġforskellige": 5264,
      "Ġperfecta": 5265,
      "шчы": 5266,
      "indicated": 5267,
      "Ġsphinx": 5268,
      "Bigl": 5269,
      "कस": 5270,
      "Ġमकस": 5271,
      "ovalent": 5272,
      "ĠSurvive": 5273,
      "Ġcobrar": 5274,
      "Ġgefragt": 5275,
      "Ġvectorstock": 5276,
      "Ġabsenteeism": 5277,
      "Ġbasaltes": 5278,
      "Ġსახელმწიფ": 5279,
      "Ġमकसद": 5280,
      "Ġinroads": 5281,
      "Ġinférieures": 5282,
      "calibur": 5283,
      "Ġrevê": 5284,
      "ımızın": 5285,
      "ικοί": 5286,
      "LIE": 5287,
      "Ġpede": 5288,
      "Ġawaited": 5289,
      "wey": 5290,
      "ĠMaß": 5291,
      "Ġkilka": 5292,
      "atsiooni": 5293,
      "Ġlaunching": 5294,
      "了一个": 5295,
      "Ġهيك": 5296,
      "Repair": 5297,
      "consensus": 5298,
      "Ġsolicited": 5299,
      "Ġzasad": 5300,
      "Ġabre": 5301,
      "Ġвоздух": 5302,
      "bulldozer": 5303,
      "șit": 5304,
      "ეთი": 5305,
      "ĠReactors": 5306,
      "ĠMaris": 5307,
      "Ġinheritance": 5308,
      "Ġстатью": 5309,
      "Ġتیار": 5310,
      "Ġproton": 5311,
      "Ġساق": 5312,
      "ĠEscobar": 5313,
      "Ġhomeschooling": 5314,
      "dDevice": 5315,
      "Ġپیش": 5316,
      "restassured": 5317,
      "CTRL": 5318,
      "herokuapp": 5319,
      "jew": 5320,
      "Ġcyst": 5321,
      "ној": 5322,
      "udeau": 5323,
      "Ġculpa": 5324,
      "empts": 5325,
      "Ġgüç": 5326,
      "ĠSweep": 5327,
      "etään": 5328,
      "Ġdislike": 5329,
      "Ġdisseminated": 5330,
      "Ġtervez": 5331,
      "addam": 5332,
      "Ġgebruikt": 5333,
      "XmlElement": 5334,
      "受欢": 5335,
      "лис": 5336,
      "Ġglavni": 5337,
      "ĠCanopy": 5338,
      "受欢迎": 5339,
      "ĠAaj": 5340,
      "Ġreinvigor": 5341,
      "ĠAktiv": 5342,
      "HIR": 5343,
      "Ġทอง": 5344,
      "Ġgoles": 5345,
      "aircraft": 5346,
      "Ġissues": 5347,
      "Ġрізних": 5348,
      "ĠMORT": 5349,
      "Interpolator": 5350,
      "Ġúnicamente": 5351,
      "ĠPerman": 5352,
      "ilität": 5353,
      "Ġсвоя": 5354,
      "დაც": 5355,
      "ĠDevi": 5356,
      "ótica": 5357,
      "Ġkinase": 5358,
      "Ġconclusions": 5359,
      "Ġმათი": 5360,
      "ĠBienvenido": 5361,
      "lerim": 5362,
      "regnum": 5363,
      "ĠJoshi": 5364,
      "ちゃんと": 5365,
      "FlatAppearance": 5366,
      "AAC": 5367,
      "Ajax": 5368,
      "Budget": 5369,
      "elerinin": 5370,
      "Bokeh": 5371,
      "advers": 5372,
      "ambrian": 5373,
      "Ġaset": 5374,
      "osperm": 5375,
      "ĠPrecambrian": 5376,
      "Ġجميع": 5377,
      "ĠViewGroup": 5378,
      "ĠCGPoint": 5379,
      "asikan": 5380,
      "ĠNSU": 5381,
      "iquetas": 5382,
      "Ġkhí": 5383,
      "Ġmoor": 5384,
      "Ġdobře": 5385,
      "Ġmunicipales": 5386,
      "ĠDOI": 5387,
      "orchid": 5388,
      "ĠNSUInteger": 5389,
      "多い": 5390,
      "或其他": 5391,
      "ensional": 5392,
      "Ġкаби": 5393,
      "ĠTatha": 5394,
      "Ġkors": 5395,
      "ĠHakk": 5396,
      "ajam": 5397,
      "Ġлам": 5398,
      "Ġgladly": 5399,
      "美味": 5400,
      "ĠFSB": 5401,
      "Ġziek": 5402,
      "Ġmodals": 5403,
      "Rüyada": 5404,
      "冲区": 5405,
      "缓冲区": 5406,
      "ĠBryson": 5407,
      "Ġهستند": 5408,
      "hok": 5409,
      "itati": 5410,
      "Ġwios": 5411,
      "getInfo": 5412,
      "sitting": 5413,
      "Ġpreko": 5414,
      "Ġsaurait": 5415,
      "Ġwymag": 5416,
      "Ġhulls": 5417,
      "Ġ이야기를": 5418,
      "jog": 5419,
      "ческую": 5420,
      "traj": 5421,
      "Ġdeliverance": 5422,
      "Ġklar": 5423,
      "боры": 5424,
      "Ġassim": 5425,
      "くなって": 5426,
      "Ġсайта": 5427,
      "ĠTEST": 5428,
      "ĠLUCKY": 5429,
      "Ġعليه": 5430,
      "uching": 5431,
      "currentUser": 5432,
      "Ġcrouching": 5433,
      "Ġsummoned": 5434,
      "Ġmáu": 5435,
      "ĠPte": 5436,
      "scdn": 5437,
      "ĠReplacement": 5438,
      "ĠCOMMUNITY": 5439,
      "Ġувидел": 5440,
      "Ġphe": 5441,
      "ĠOval": 5442,
      "Ġdisapp": 5443,
      "Ġthy": 5444,
      "Ġtrovare": 5445,
      "Ġcoss": 5446,
      "ĠHIR": 5447,
      "Ġэмо": 5448,
      "avelmente": 5449,
      "ĠbeforeEach": 5450,
      "ĠHershey": 5451,
      "Ġgin": 5452,
      "Ġwij": 5453,
      "Ġinteresting": 5454,
      "Ġanvä": 5455,
      "Ġreconsideration": 5456,
      "Ġsledge": 5457,
      "ayutt": 5458,
      "вано": 5459,
      "Ġavanzada": 5460,
      "Ġхарак": 5461,
      "Ġগরম": 5462,
      "Ġkäyttö": 5463,
      "ĠMaverick": 5464,
      "Ġrealtà": 5465,
      "honneur": 5466,
      "getOutputStream": 5467,
      "illerie": 5468,
      "ĠDebi": 5469,
      "ĠBusy": 5470,
      "んですよね": 5471,
      "Ġдве": 5472,
      "gcash": 5473,
      "ĠOEMs": 5474,
      "èrent": 5475,
      "irr": 5476,
      "ĠAnth": 5477,
      "ĠIntVar": 5478,
      "Ġitalia": 5479,
      "Ġpromulgated": 5480,
      "Ġbearing": 5481,
      "plural": 5482,
      "строен": 5483,
      "nces": 5484,
      "Ġönces": 5485,
      "Ġhuu": 5486,
      "Ġعمران": 5487,
      "edin": 5488,
      "Ġvoed": 5489,
      "Ġالمدرسة": 5490,
      "isku": 5491,
      "ĠUg": 5492,
      "Ġсус": 5493,
      "Ġchangeset": 5494,
      "srt": 5495,
      "avascript": 5496,
      "TNT": 5497,
      "Ġбюджета": 5498,
      "Ġروسیه": 5499,
      "Ġجمهوری": 5500,
      "Ġnech": 5501,
      "Ġresusc": 5502,
      "жена": 5503,
      "zących": 5504,
      "Koch": 5505,
      "ĠUch": 5506,
      "ĠgetSize": 5507,
      "Ġwhip": 5508,
      "Ġتعدد": 5509,
      "ĠCowan": 5510,
      "erdapat": 5511,
      "plements": 5512,
      "Ġmesta": 5513,
      "ivasena": 5514,
      "seeing": 5515,
      "Ġadored": 5516,
      "Ġantigos": 5517,
      "Ġмеку": 5518,
      "Ġmarcha": 5519,
      "Ġdavanti": 5520,
      "BusinessType": 5521,
      "ĠVedi": 5522,
      "кат": 5523,
      "ĠOrch": 5524,
      "similar": 5525,
      "Ġflexibly": 5526,
      "Ġhidrógeno": 5527,
      "pción": 5528,
      "Ġpect": 5529,
      "Ġtasse": 5530,
      "Ġgris": 5531,
      "ĠArchived": 5532,
      "jesto": 5533,
      "enapi": 5534,
      "Ġmjesto": 5535,
      "toff": 5536,
      "Ġattains": 5537,
      "centi": 5538,
      "rachten": 5539,
      "ресенье": 5540,
      "ExecutionContext": 5541,
      "mités": 5542,
      "ĠChancery": 5543,
      "Ġназначения": 5544,
      "NSE": 5545,
      "oxine": 5546,
      "Ġsideboard": 5547,
      "Ġالاشكال": 5548,
      "Ġcapp": 5549,
      "vercel": 5550,
      "Ġmeditations": 5551,
      "Ġsayang": 5552,
      "esModule": 5553,
      "Ġmre": 5554,
      "ĠHREF": 5555,
      "ĠUnilever": 5556,
      "Ġпринято": 5557,
      "ĠGarnier": 5558,
      "jegyz": 5559,
      "Ġfists": 5560,
      "Ġreaffirmed": 5561,
      "xlink": 5562,
      "Ġtres": 5563,
      "érales": 5564,
      "ministrazione": 5565,
      "Ġlatérales": 5566,
      "Ġsağlam": 5567,
      "ĠWra": 5568,
      "looms": 5569,
      "ディスク": 5570,
      "zyna": 5571,
      "Ġprey": 5572,
      "Ġclaust": 5573,
      "ĠnewMessage": 5574,
      "Ġtolerant": 5575,
      "ĠMenn": 5576,
      "ĠVM": 5577,
      "скае": 5578,
      "IsIn": 5579,
      "Ġişlet": 5580,
      "gid": 5581,
      "getAction": 5582,
      "ĠAirborne": 5583,
      "Ġwszystkim": 5584,
      "Ġمعاكم": 5585,
      "Ġкрови": 5586,
      "Ġดวง": 5587,
      "Bolt": 5588,
      "endet": 5589,
      "ondale": 5590,
      "Ġantica": 5591,
      "iconfont": 5592,
      "esm": 5593,
      "Ġвенти": 5594,
      "ĠEmulator": 5595,
      "Ġбуди": 5596,
      "Ġktóre": 5597,
      "Ġрусских": 5598,
      "Ġrocker": 5599,
      "Ġunen": 5600,
      "Ġdetd": 5601,
      "locale": 5602,
      "FEC": 5603,
      "ĠSurg": 5604,
      "ĠEnsures": 5605,
      "Ġcultivars": 5606,
      "charCodeAt": 5607,
      "Brend": 5608,
      "ĠMaster": 5609,
      "ervo": 5610,
      "ĠQLabel": 5611,
      "付属": 5612,
      "ĠFirstName": 5613,
      "付属品": 5614,
      "Ġessenti": 5615,
      "Ġkażdym": 5616,
      "Ġサイド": 5617,
      "pour": 5618,
      "Ġhini": 5619,
      "ĠTCR": 5620,
      "Ġtoman": 5621,
      "Ġpaquet": 5622,
      "Ġerstmals": 5623,
      "жом": 5624,
      "ĠSpringfield": 5625,
      "Ġdissipative": 5626,
      "Ġспособны": 5627,
      "ĠGRAM": 5628,
      "Ġuniaxial": 5629,
      "Ġsprou": 5630,
      "Adder": 5631,
      "ĠTrinidad": 5632,
      "物车": 5633,
      "购物车": 5634,
      "Insp": 5635,
      "Ġmantras": 5636,
      "Ġchimney": 5637,
      "Trin": 5638,
      "Ġмировой": 5639,
      "Ġalgae": 5640,
      "Ġjanuár": 5641,
      "Ġüzerinde": 5642,
      "Ġempresas": 5643,
      "Trinity": 5644,
      "Ġyrs": 5645,
      "чала": 5646,
      "Ġконсу": 5647,
      "Reilly": 5648,
      "ĠNeutron": 5649,
      "Ġfünf": 5650,
      "NST": 5651,
      "Ġvela": 5652,
      "mero": 5653,
      "andosi": 5654,
      "Ġsynt": 5655,
      "Ġconsideradas": 5656,
      "ĠprogressBar": 5657,
      "Ġdisparition": 5658,
      "Ġاقوام": 5659,
      "Ġکشتی": 5660,
      "Ġproximal": 5661,
      "Ġالجه": 5662,
      "Ġlaurels": 5663,
      "Ġμπορούν": 5664,
      "rück": 5665,
      "UnitPrice": 5666,
      "Ġroutinely": 5667,
      "Ġpredeceased": 5668,
      "Blood": 5669,
      "rounding": 5670,
      "Ġmagnétique": 5671,
      "ĠcurrentNode": 5672,
      "Ġkoska": 5673,
      "Ġfascia": 5674,
      "getAvgSampleSize": 5675,
      "hiv": 5676,
      "Ġ뭐": 5677,
      "Ġgrom": 5678,
      "ĠDant": 5679,
      "aitu": 5680,
      "тельстве": 5681,
      "ĠRamsay": 5682,
      "Ġ뭐라고": 5683,
      "ธอ": 5684,
      "Ġсвіт": 5685,
      "Ġtentativas": 5686,
      "ĠEnlightenment": 5687,
      "ĠCNC": 5688,
      "Ġvið": 5689,
      "ราม": 5690,
      "Ġjavafx": 5691,
      "Ġfidelity": 5692,
      "ogenen": 5693,
      "Ġлето": 5694,
      "Ġeighties": 5695,
      "Ġإن": 5696,
      "glicht": 5697,
      "Ġmeditative": 5698,
      "rogation": 5699,
      "ĠARM": 5700,
      "Ġpuluh": 5701,
      "Ġermöglicht": 5702,
      "Ġsaludo": 5703,
      "Ġtablero": 5704,
      "Ġmarcó": 5705,
      "ĠActionBar": 5706,
      "Ġmidfielder": 5707,
      "Му": 5708,
      "тке": 5709,
      "Ġaid": 5710,
      "Ġresort": 5711,
      "addSubview": 5712,
      "Ġappalling": 5713,
      "Ġartículos": 5714,
      "Ġkönny": 5715,
      "FilterChain": 5716,
      "Мушко": 5717,
      "aima": 5718,
      "erode": 5719,
      "Ġfidd": 5720,
      "ĠsetCurrent": 5721,
      "layouts": 5722,
      "Ġszen": 5723,
      "Ġzipper": 5724,
      "Ġrescues": 5725,
      "Ġmagar": 5726,
      "Ġआरओ": 5727,
      "하도록": 5728,
      "Cliff": 5729,
      "ĠInoue": 5730,
      "Ġentstehen": 5731,
      "ĠCompiled": 5732,
      "ĠInterrupt": 5733,
      "NoStop": 5734,
      "Ġутро": 5735,
      "ydent": 5736,
      "Ġinterc": 5737,
      "Imputted": 5738,
      "Ġمنطقه": 5739,
      "Ġseamlessly": 5740,
      "Ġautof": 5741,
      "Ġsebel": 5742,
      "Ġpistons": 5743,
      "Ġrecomendamos": 5744,
      "Ġrevolutionaries": 5745,
      "λικό": 5746,
      "κής": 5747,
      "ĠPue": 5748,
      "Ġlujo": 5749,
      "teeth": 5750,
      "Ġсоба": 5751,
      "ອາ": 5752,
      "chrift": 5753,
      "Ġhorned": 5754,
      "Ġacorn": 5755,
      "доне": 5756,
      "Ġmetri": 5757,
      "Ġgehören": 5758,
      "ອາຫານ": 5759,
      "bail": 5760,
      "ĠSzer": 5761,
      "Ġhated": 5762,
      "Experimental": 5763,
      "ĠExperimental": 5764,
      "TestMethod": 5765,
      "Ġмир": 5766,
      "methylation": 5767,
      "Ġexecutors": 5768,
      "Ġrhizosphere": 5769,
      "ĠMikolai": 5770,
      "Ġsuperfluous": 5771,
      "Ġkaks": 5772,
      "Ġresalt": 5773,
      "ĠConey": 5774,
      "columnwidth": 5775,
      "Ġintrauterine": 5776,
      "Ġahi": 5777,
      "Ġgota": 5778,
      "akos": 5779,
      "Ġreconocer": 5780,
      "画像": 5781,
      "ĠTosh": 5782,
      "Ġlames": 5783,
      "ĠHIIT": 5784,
      "Ġdeportivo": 5785,
      "Ġسلسلہ": 5786,
      "ĠWITHOUT": 5787,
      "Ġmilliamperes": 5788,
      "lord": 5789,
      "Ġarit": 5790,
      "Ġscenic": 5791,
      "Ġergeben": 5792,
      "Ġcâștig": 5793,
      "regex": 5794,
      "Ġđâu": 5795,
      "Ġbarbec": 5796,
      "Ġcayó": 5797,
      "ĠSienna": 5798,
      "scalars": 5799,
      "пус": 5800,
      "Ġarchiv": 5801,
      "ĠMarkle": 5802,
      "állítás": 5803,
      "SERVER": 5804,
      "Anh": 5805,
      "replacement": 5806,
      "Ġtyö": 5807,
      "Ġohne": 5808,
      "Ġrefuse": 5809,
      "ĠElectric": 5810,
      "Ġdiferenciar": 5811,
      "ĠHurts": 5812,
      "Ġêtres": 5813,
      "serviceTime": 5814,
      "Ġguerrilla": 5815,
      "例化": 5816,
      "实例化": 5817,
      "ĠFree": 5818,
      "Ġflotte": 5819,
      "Ġconfection": 5820,
      "ہرے": 5821,
      "Ġмать": 5822,
      "ĠGerber": 5823,
      "Ġadvised": 5824,
      "Ġfél": 5825,
      "Ġuniversidades": 5826,
      "Ġnapraw": 5827,
      "дзен": 5828,
      "scott": 5829,
      "ĠRetrieves": 5830,
      "Ġизменения": 5831,
      "вото": 5832,
      "powr": 5833,
      "Ġpersyaratan": 5834,
      "Ġstrung": 5835,
      "ĠSonntag": 5836,
      "שני": 5837,
      "slug": 5838,
      "Ġהשני": 5839,
      "Ġokvir": 5840,
      "Ġgeneralize": 5841,
      "ĠFrühstück": 5842,
      "sockets": 5843,
      "Ġdals": 5844,
      "Ġattuned": 5845,
      "Ġrestrain": 5846,
      "Ġспецифи": 5847,
      "setUp": 5848,
      "ĠBeige": 5849,
      "UserNotification": 5850,
      "ĠPerspectives": 5851,
      "ĠIrvine": 5852,
      "ĠParalym": 5853,
      "mixer": 5854,
      "xref": 5855,
      "clid": 5856,
      "ĠBarrie": 5857,
      "Commission": 5858,
      "invocation": 5859,
      "θρο": 5860,
      "ρθρο": 5861,
      "Ġcollier": 5862,
      "Ġpriestly": 5863,
      "Ġsoddis": 5864,
      "Ġwedding": 5865,
      "ármaz": 5866,
      "therapeutic": 5867,
      "ĠFeed": 5868,
      "TouchEvent": 5869,
      "Ġcientífico": 5870,
      "prestations": 5871,
      "Ġmahal": 5872,
      "Ġpillars": 5873,
      "Ġmakanan": 5874,
      "Ġgick": 5875,
      "Ġکوي": 5876,
      "Ġchargé": 5877,
      "Ġvõivad": 5878,
      "Signing": 5879,
      "สวน": 5880,
      "Ġdaw": 5881,
      "ĠSigning": 5882,
      "Ġwłaśnie": 5883,
      "Ġtutorials": 5884,
      "Ġlucht": 5885,
      "يدية": 5886,
      "Ġcampuran": 5887,
      "Ġetiquette": 5888,
      "ippable": 5889,
      "treated": 5890,
      "Ġlivery": 5891,
      "Skippable": 5892,
      "Ġreckoned": 5893,
      "Ġsosok": 5894,
      "ezz": 5895,
      "Ġembezz": 5896,
      "Ġnamik": 5897,
      "zeb": 5898,
      "rollen": 5899,
      "lebn": 5900,
      "Ġncols": 5901,
      "ICAN": 5902,
      "Ġcurbs": 5903,
      "Ġuridine": 5904,
      "ĠISIS": 5905,
      "عمل": 5906,
      "INTERNAL": 5907,
      "Ġoutubro": 5908,
      "hander": 5909,
      "ելի": 5910,
      "ĠВолодимир": 5911,
      "Ġнанесе": 5912,
      "чие": 5913,
      "ABLISH": 5914,
      "inquirer": 5915,
      "ABLISHED": 5916,
      "加速度": 5917,
      "Ġolimp": 5918,
      "ĠHaupt": 5919,
      "anea": 5920,
      "Ġ때": 5921,
      "δία": 5922,
      "Ġfrog": 5923,
      "Ġszk": 5924,
      "Ġlocalize": 5925,
      "Ġ때문": 5926,
      "arys": 5927,
      "Ġtapering": 5928,
      "Survival": 5929,
      "Ġbich": 5930,
      "ĠODM": 5931,
      "Ġiskol": 5932,
      "NavLink": 5933,
      "セル": 5934,
      "ĠSve": 5935,
      "Ġhung": 5936,
      "Ġvents": 5937,
      "Ġposljed": 5938,
      "キャンセル": 5939,
      "Ġآموزش": 5940,
      "Ġродителей": 5941,
      "reliance": 5942,
      "Ġsignes": 5943,
      "Ġintegrante": 5944,
      "グランド": 5945,
      "Ġflush": 5946,
      "Alg": 5947,
      "ĠSebelum": 5948,
      "INTERVAL": 5949,
      "ĠTep": 5950,
      "ĠWOL": 5951,
      "reté": 5952,
      "ĠPadukone": 5953,
      "হজ": 5954,
      "Ġchân": 5955,
      "ĠJasmine": 5956,
      "Ġincurs": 5957,
      "Ġelbow": 5958,
      "Ġসহজ": 5959,
      "Member": 5960,
      "bam": 5961,
      "ASHI": 5962,
      "Ġenvious": 5963,
      "ĠWochschr": 5964,
      "Ġmecanismos": 5965,
      "šana": 5966,
      "ĠGallardo": 5967,
      "FOOD": 5968,
      "lengths": 5969,
      "Ġschneller": 5970,
      "خور": 5971,
      "ilibr": 5972,
      "Ġstari": 5973,
      "Ġbegins": 5974,
      "Marriage": 5975,
      "ĠEsso": 5976,
      "Ġacademically": 5977,
      "дентификаторы": 5978,
      "Ġtabs": 5979,
      "ĠKada": 5980,
      "ISER": 5981,
      "Ġжаса": 5982,
      "Ġmikä": 5983,
      "ĠMurn": 5984,
      "ĠMathews": 5985,
      "Ġkäs": 5986,
      "Ġalman": 5987,
      "Ġsubmissions": 5988,
      "ĠArtem": 5989,
      "Ġكيف": 5990,
      "Longueur": 5991,
      "bss": 5992,
      "юза": 5993,
      "चन": 5994,
      "anqu": 5995,
      "Ġnears": 5996,
      "Ġknee": 5997,
      "Ġवचन": 5998,
      "Ġроссийской": 5999,
      "sila": 6000,
      "Ġtank": 6001,
      "Ġschreibt": 6002,
      "Ġinvoked": 6003,
      "scriptstyle": 6004,
      "Ġمقامات": 6005,
      "Ġبتاريخ": 6006,
      "キャッシュ": 6007,
      "Semaphore": 6008,
      "iatan": 6009,
      "tabPadding": 6010,
      "Ġaaj": 6011,
      "Spice": 6012,
      "Ġhears": 6013,
      "Ġpiatto": 6014,
      "gevity": 6015,
      "زالة": 6016,
      "ĠDRM": 6017,
      "Unifier": 6018,
      "ĠBlut": 6019,
      "Ġrepaired": 6020,
      "werpen": 6021,
      "Ġدارید": 6022,
      "Ġtambah": 6023,
      "Ġсолнце": 6024,
      "ĠAvoid": 6025,
      "ĠJokes": 6026,
      "Ġоча": 6027,
      "Ġстатей": 6028,
      "ĠKangaroo": 6029,
      "Ġcompanh": 6030,
      "IDENTIAL": 6031,
      "bolts": 6032,
      "ĠRiemannian": 6033,
      "Ġcompanhia": 6034,
      "wirken": 6035,
      "дка": 6036,
      "Ġszint": 6037,
      "Secure": 6038,
      "ĠerrMsg": 6039,
      "Ġreaping": 6040,
      "Ġamante": 6041,
      "Ġconcussion": 6042,
      "Ġtenderness": 6043,
      "sizeof": 6044,
      "campo": 6045,
      "givings": 6046,
      "ĠTern": 6047,
      "ковского": 6048,
      "Ġsaranno": 6049,
      "Ġretirada": 6050,
      "ĠApartments": 6051,
      "нига": 6052,
      "ĠВіль": 6053,
      "ĠREIT": 6054,
      "NaClO": 6055,
      "Ġrápid": 6056,
      "Ġextracellular": 6057,
      "HAN": 6058,
      "icelli": 6059,
      "Ġhdr": 6060,
      "ROHAN": 6061,
      "Ġregina": 6062,
      "Ġtrois": 6063,
      "ĠafterPath": 6064,
      "Ġnutrition": 6065,
      "Ġglaube": 6066,
      "拟机": 6067,
      "虚拟机": 6068,
      "alz": 6069,
      "openid": 6070,
      "amsfonts": 6071,
      "omsday": 6072,
      "Disable": 6073,
      "Ġبكم": 6074,
      "unched": 6075,
      "смотрите": 6076,
      "PERSON": 6077,
      "WERS": 6078,
      "なんです": 6079,
      "Ġmalpractice": 6080,
      "Ġclientele": 6081,
      "xls": 6082,
      "Ġэту": 6083,
      "DEPENDENCIA": 6084,
      "żyw": 6085,
      "Ġнаука": 6086,
      "Ġenterprising": 6087,
      "fahr": 6088,
      "Ġliger": 6089,
      "Ġinlay": 6090,
      "ethers": 6091,
      "TECHN": 6092,
      "ĠMackenzie": 6093,
      "frac": 6094,
      "anticip": 6095,
      "ovas": 6096,
      "Ġbicyclists": 6097,
      "这一切": 6098,
      "boolProp": 6099,
      "anticipated": 6100,
      "プーン": 6101,
      "Ġtiver": 6102,
      "ĠAudioClip": 6103,
      "ssid": 6104,
      "Ġinterp": 6105,
      "Ġmenos": 6106,
      "DSL": 6107,
      "Ġilluminating": 6108,
      "ĠCaw": 6109,
      "ĠInclusive": 6110,
      "haften": 6111,
      "endereco": 6112,
      "Ġmelts": 6113,
      "hika": 6114,
      "ĠAvan": 6115,
      "Ġالإص": 6116,
      "Ġalloying": 6117,
      "Ġdobě": 6118,
      "withtag": 6119,
      "ĠNationen": 6120,
      "Ġacesta": 6121,
      "Ġparip": 6122,
      "Ġالمبلغ": 6123,
      "arbre": 6124,
      "Ġmobilized": 6125,
      "ĠSyr": 6126,
      "Ġkennt": 6127,
      "Ġresor": 6128,
      "licting": 6129,
      "ĠHombre": 6130,
      "ĠOmicron": 6131,
      "Ġwelche": 6132,
      "Ġrzeczyw": 6133,
      "Summ": 6134,
      "ırd": 6135,
      "ĠMixed": 6136,
      "ongono": 6137,
      "ĠSpagna": 6138,
      "ĠStatusCode": 6139,
      "Ġέναν": 6140,
      "Gilbert": 6141,
      "ĠTot": 6142,
      "Ġamass": 6143,
      "Ġjustifica": 6144,
      "Belar": 6145,
      "fore": 6146,
      "pios": 6147,
      "Ġfine": 6148,
      "Ġzub": 6149,
      "Ġehemalige": 6150,
      "Ġveröffentlicht": 6151,
      "ĠDriverManager": 6152,
      "Belarus": 6153,
      "foreach": 6154,
      "Ġgiurid": 6155,
      "Ġadministración": 6156,
      "errorCode": 6157,
      "Nft": 6158,
      "piratory": 6159,
      "ĠZDF": 6160,
      "QtCore": 6161,
      "ĠFrente": 6162,
      "ĠVoltaire": 6163,
      "ĠSSID": 6164,
      "ĠFäh": 6165,
      "ĠChol": 6166,
      "scenario": 6167,
      "Beam": 6168,
      "Ġpovas": 6169,
      "Ġหมาย": 6170,
      "Ġاکث": 6171,
      "Ġdurante": 6172,
      "ĠMechanisms": 6173,
      "saturation": 6174,
      "zine": 6175,
      "Ġdocking": 6176,
      "Ġreembol": 6177,
      "Ġтолькі": 6178,
      "chaften": 6179,
      "ĠForbes": 6180,
      "ĠKünstler": 6181,
      "indd": 6182,
      "Ġfilmy": 6183,
      "Ġterminée": 6184,
      "Localization": 6185,
      "dial": 6186,
      "ĠRhe": 6187,
      "ĠAnatomy": 6188,
      "を示す": 6189,
      "Ġhogi": 6190,
      "UTER": 6191,
      "Ġdebt": 6192,
      "Ġsigne": 6193,
      "Ġजनक": 6194,
      "ộn": 6195,
      "Ġtrộn": 6196,
      "Ġslipper": 6197,
      "ĠBaz": 6198,
      "ggere": 6199,
      "Ġкоторое": 6200,
      "Ġitalien": 6201,
      "sourceEncoding": 6202,
      "ĠSKU": 6203,
      "employed": 6204,
      "jści": 6205,
      "arcade": 6206,
      "Ġbiasing": 6207,
      "Ġsfrutt": 6208,
      "ifelse": 6209,
      "ĠPartition": 6210,
      "Ġpretende": 6211,
      "ционного": 6212,
      "Ġenvisioned": 6213,
      "Ġэкономики": 6214,
      "Ġlese": 6215,
      "Without": 6216,
      "matically": 6217,
      "Persistent": 6218,
      "Ġtöö": 6219,
      "Ġbárm": 6220,
      "Ġпротив": 6221,
      "vanishing": 6222,
      "Ġоказалось": 6223,
      "ĠSYM": 6224,
      "Testables": 6225,
      "Ġঅবত": 6226,
      "Ġenthusiastic": 6227,
      "Sku": 6228,
      "icie": 6229,
      "submitted": 6230,
      "ĠUniversal": 6231,
      "Ġpandemi": 6232,
      "Ġsixteenth": 6233,
      "тод": 6234,
      "ĠMaje": 6235,
      "ChooseCharacter": 6236,
      "ĠWool": 6237,
      "Ġيزيد": 6238,
      "Ġconstituent": 6239,
      "Ġmempert": 6240,
      "ĠMoffat": 6241,
      "Ġży": 6242,
      "Ġtere": 6243,
      "Ġbson": 6244,
      "Ġextracting": 6245,
      "Curly": 6246,
      "Ġchecker": 6247,
      "rendered": 6248,
      "Ġkinemat": 6249,
      "Ġżyciu": 6250,
      "нат": 6251,
      "puter": 6252,
      "decimals": 6253,
      "ĠTextStyle": 6254,
      "Ġsecretive": 6255,
      "Ġobdobí": 6256,
      "bogen": 6257,
      "Ġdelve": 6258,
      "Ġdebe": 6259,
      "Ġclearest": 6260,
      "Newline": 6261,
      "xties": 6262,
      "Ġairports": 6263,
      "ĠArjun": 6264,
      "ĠLég": 6265,
      "Ġсхо": 6266,
      "Ġhairline": 6267,
      "Ġrezultat": 6268,
      "Ġucc": 6269,
      "вени": 6270,
      "ohr": 6271,
      "blow": 6272,
      "ĠCompre": 6273,
      "ĠINIS": 6274,
      "Ġétend": 6275,
      "Ġreadily": 6276,
      "HASH": 6277,
      "jande": 6278,
      "nave": 6279,
      "Ġbyrow": 6280,
      "ývá": 6281,
      "Ġassurer": 6282,
      "Ġuts": 6283,
      "Ġmechanic": 6284,
      "Ġbooted": 6285,
      "Ġsuperconductors": 6286,
      "Ġпсихо": 6287,
      "Ġminder": 6288,
      "Ġdares": 6289,
      "Ġistilah": 6290,
      "Ġрозта": 6291,
      "Ġانتظار": 6292,
      "pbs": 6293,
      "Ġmonod": 6294,
      "ECs": 6295,
      "Ġergän": 6296,
      "しており": 6297,
      "ĠElliott": 6298,
      "Ġواست": 6299,
      "ariu": 6300,
      "Ġدلیل": 6301,
      "OfDay": 6302,
      "Ġالأول": 6303,
      "Ġconveying": 6304,
      "Ġcantik": 6305,
      "Ġreclining": 6306,
      "leve": 6307,
      "Ġgibt": 6308,
      "Ġسالب": 6309,
      "Ġсвоё": 6310,
      "никова": 6311,
      "Ġsoprav": 6312,
      "icija": 6313,
      "ĠMato": 6314,
      "genesis": 6315,
      "Ġmontes": 6316,
      "ordia": 6317,
      "reminder": 6318,
      "Ġهات": 6319,
      "Ġbullet": 6320,
      "xii": 6321,
      "的信息": 6322,
      "Ġbps": 6323,
      "ĠAspir": 6324,
      "Ġhoo": 6325,
      "ĠDrog": 6326,
      "ĠVek": 6327,
      "rounds": 6328,
      "codewords": 6329,
      "ĠSaber": 6330,
      "ĠAzərbaycan": 6331,
      "Ġktorí": 6332,
      "ĠThomson": 6333,
      "iac": 6334,
      "Ġlapar": 6335,
      "ĠWan": 6336,
      "Ġdobre": 6337,
      "Ġمثل": 6338,
      "ocrat": 6339,
      "Ġzac": 6340,
      "Ġtwenties": 6341,
      "PIRED": 6342,
      "вик": 6343,
      "passive": 6344,
      "documentElement": 6345,
      "ĠallClassesLink": 6346,
      "ĠLúc": 6347,
      "Ġyal": 6348,
      "ĠgetHeight": 6349,
      "benzene": 6350,
      "ĠOBC": 6351,
      "Ġsetores": 6352,
      "Ġsavons": 6353,
      "ĠAndrei": 6354,
      "ubmit": 6355,
      "ĠNovem": 6356,
      "Ġcategorical": 6357,
      "ĠCostco": 6358,
      "Ġfasci": 6359,
      "Ġkesk": 6360,
      "spielen": 6361,
      "Ġanore": 6362,
      "ĠZero": 6363,
      "Ġulike": 6364,
      "Tenn": 6365,
      "Ġcười": 6366,
      "Ġvanished": 6367,
      "Ġcoinbase": 6368,
      "Ġداخلی": 6369,
      "ەتی": 6370,
      "合った": 6371,
      "ingar": 6372,
      "peror": 6373,
      "Ġdefec": 6374,
      "rounder": 6375,
      "LLDB": 6376,
      "いたら": 6377,
      "ĠИванов": 6378,
      "トマト": 6379,
      "Ġähm": 6380,
      "Ġsowas": 6381,
      "Ġalrededores": 6382,
      "Ġلري": 6383,
      "Ġtranspos": 6384,
      "Ġadministratif": 6385,
      "Ġbersifat": 6386,
      "Ġчовек": 6387,
      "нков": 6388,
      "Ġtbh": 6389,
      "Ġcountered": 6390,
      "Ġpct": 6391,
      "adz": 6392,
      "Ġappointe": 6393,
      "Ġкоре": 6394,
      "Ġprestigious": 6395,
      "Ġexperiencias": 6396,
      "ということは": 6397,
      "Ġappointees": 6398,
      "ĠFavourite": 6399,
      "Ġохо": 6400,
      "ĠNavier": 6401,
      "Ġверхней": 6402,
      "ყვე": 6403,
      "წყვე": 6404,
      "Ġfinger": 6405,
      "operand": 6406,
      "Ġdimly": 6407,
      "最后一": 6408,
      "Ġہیں": 6409,
      "Ġappropriateness": 6410,
      "Ġgarantir": 6411,
      "Ġbất": 6412,
      "Ġsumar": 6413,
      "Ġlivraison": 6414,
      "Ġlancement": 6415,
      "Ġdisassembled": 6416,
      "hler": 6417,
      "objc": 6418,
      "Ġfibres": 6419,
      "bouw": 6420,
      "wrs": 6421,
      "stations": 6422,
      "Ġimong": 6423,
      "ALANCE": 6424,
      "Ġsawa": 6425,
      "ĠCrash": 6426,
      "lessons": 6427,
      "talent": 6428,
      "Ġmísto": 6429,
      "Herk": 6430,
      "ække": 6431,
      "chanted": 6432,
      "Ġжидко": 6433,
      "конструк": 6434,
      "Ġmirror": 6435,
      "Ġanvänds": 6436,
      "Ġbrad": 6437,
      "ĠAdministrat": 6438,
      "ĠMERCHANTABILITY": 6439,
      "Ġbrady": 6440,
      "Ġiyo": 6441,
      "Ġlayouts": 6442,
      "Ġkinds": 6443,
      "ĠScam": 6444,
      "smiley": 6445,
      "Ġtenacious": 6446,
      "Ġκατά": 6447,
      "Ġрегистра": 6448,
      "ทางการ": 6449,
      "Ġvittoria": 6450,
      "Ġprace": 6451,
      "igheder": 6452,
      "рија": 6453,
      "Ġmyeloid": 6454,
      "Ġopenings": 6455,
      "familiar": 6456,
      "نک": 6457,
      "Ġلنک": 6458,
      "Ġbehaupt": 6459,
      "Ġfabricants": 6460,
      "ĠБалтбет": 6461,
      "ĠHavel": 6462,
      "Ġzape": 6463,
      "Ġالساعة": 6464,
      "ĠMotor": 6465,
      "Ġintellectually": 6466,
      "saraba": 6467,
      "Ġrival": 6468,
      "Ġsábado": 6469,
      "Ġconsenting": 6470,
      "ĠClio": 6471,
      "ĠCRIM": 6472,
      "ĠPIR": 6473,
      "Ġextrane": 6474,
      "udiante": 6475,
      "Ġработой": 6476,
      "Ġdikatakan": 6477,
      "ĠsessionId": 6478,
      "Ġextraneous": 6479,
      "Ġவச": 6480,
      "ismet": 6481,
      "Ġданном": 6482,
      "Ġundetected": 6483,
      "ĠAleksandar": 6484,
      "Ġவசன": 6485,
      "Cllr": 6486,
      "Ġbao": 6487,
      "Ġnaszej": 6488,
      "maven": 6489,
      "ouna": 6490,
      "ctg": 6491,
      "ĠReaper": 6492,
      "Ġcasco": 6493,
      "Ġچھوڑ": 6494,
      "cticamente": 6495,
      "Ġvia": 6496,
      "Ġfibrillation": 6497,
      "asten": 6498,
      "Ġsurviving": 6499,
      "Ġمخطط": 6500,
      "ĠAnas": 6501,
      "ĠgetView": 6502,
      "benhav": 6503,
      "ĠNAND": 6504,
      "ĠWTA": 6505,
      "стье": 6506,
      "Ġfeito": 6507,
      "cosim": 6508,
      "ĠNasir": 6509,
      "Ġmanger": 6510,
      "ĠPerse": 6511,
      "Ġanu": 6512,
      "COMANDA": 6513,
      "Ġheterozygous": 6514,
      "логі": 6515,
      "subfloat": 6516,
      "Fert": 6517,
      "RAEL": 6518,
      "ненно": 6519,
      "ĠCauseway": 6520,
      "Cosine": 6521,
      "Ġwert": 6522,
      "Ġсуток": 6523,
      "salir": 6524,
      "Ġvostre": 6525,
      "uvant": 6526,
      "Ġovog": 6527,
      "ĠSlack": 6528,
      "Ġbelated": 6529,
      "Ġadjuvant": 6530,
      "Ġfigli": 6531,
      "Similar": 6532,
      "GONDOR": 6533,
      "MPs": 6534,
      "ĠSmoky": 6535,
      "ĠMoscou": 6536,
      "Ġmors": 6537,
      "wdir": 6538,
      "Ġacademia": 6539,
      "Ġraincoat": 6540,
      "msubsup": 6541,
      "Ġимају": 6542,
      "Ġsonidos": 6543,
      "Recognizer": 6544,
      "cnc": 6545,
      "ncc": 6546,
      "Ġcancelled": 6547,
      "Ġtempi": 6548,
      "Ġeigentlich": 6549,
      "Ġكلمات": 6550,
      "dimensional": 6551,
      "inscription": 6552,
      "qués": 6553,
      "Ġquizz": 6554,
      "GaussianBlur": 6555,
      "ĠMap": 6556,
      "Ġfreno": 6557,
      "Ġneon": 6558,
      "Ġforbind": 6559,
      "ĠINVEST": 6560,
      "ですから": 6561,
      "Ġslavery": 6562,
      "mel": 6563,
      "rangle": 6564,
      "arj": 6565,
      "Ġsizin": 6566,
      "bears": 6567,
      "Ġgeek": 6568,
      "Ġurbano": 6569,
      "Ġראש": 6570,
      "ždy": 6571,
      "不允": 6572,
      "Ġعرف": 6573,
      "Ġpierres": 6574,
      "ĠQUAD": 6575,
      "不允许": 6576,
      "ĠTournament": 6577,
      "Ġzase": 6578,
      "Ġmultimeter": 6579,
      "Ġvecchia": 6580,
      "ĠFGFR": 6581,
      "Ġmecz": 6582,
      "DataTable": 6583,
      "Ġfervor": 6584,
      "动员": 6585,
      "运动员": 6586,
      "ĠGanz": 6587,
      "velt": 6588,
      "Ġcosts": 6589,
      "WORKDIR": 6590,
      "Ġthawed": 6591,
      "ĠCOSTS": 6592,
      "ĠCrystals": 6593,
      "Ġvostra": 6594,
      "ยก": 6595,
      "Ġdex": 6596,
      "ĠOuts": 6597,
      "PosZ": 6598,
      "Ġosoby": 6599,
      "نيه": 6600,
      "emis": 6601,
      "Ġheng": 6602,
      "ĠLENGTH": 6603,
      "ühle": 6604,
      "อากาศ": 6605,
      "Ġpungent": 6606,
      "ĠAchieving": 6607,
      "Bankruptcy": 6608,
      "VIAF": 6609,
      "Ġdisrupts": 6610,
      "Ġرکھا": 6611,
      "Ġahí": 6612,
      "sed": 6613,
      "comando": 6614,
      "Ġinstância": 6615,
      "Ġbahsed": 6616,
      "Ġcomunidade": 6617,
      "ĠMuham": 6618,
      "Ġlaunched": 6619,
      "kiego": 6620,
      "ĠAuction": 6621,
      "Ġinutil": 6622,
      "Ġoutboard": 6623,
      "ĠFridge": 6624,
      "Ġuniversality": 6625,
      "Ġpretending": 6626,
      "ĠEssence": 6627,
      "Ġrejecting": 6628,
      "Ġimmobili": 6629,
      "Comparator": 6630,
      "xe": 6631,
      "Ġdxe": 6632,
      "oxone": 6633,
      "Ġзага": 6634,
      "Ġstranded": 6635,
      "Ġambivalent": 6636,
      "ĠRussische": 6637,
      "founders": 6638,
      "CALLBACK": 6639,
      "wbr": 6640,
      "áva": 6641,
      "Ġtwisted": 6642,
      "Ġwanna": 6643,
      "ĠITAL": 6644,
      "ĠKyi": 6645,
      "Ġвсіх": 6646,
      "pValue": 6647,
      "ĠLMS": 6648,
      "Ġстатье": 6649,
      "Ġaccompany": 6650,
      "Ġînviat": 6651,
      "Pedidos": 6652,
      "Ġhatt": 6653,
      "Filename": 6654,
      "ĠAgarwal": 6655,
      "suk": 6656,
      "ĠCari": 6657,
      "ĠBabel": 6658,
      "Aluno": 6659,
      "ĠRecognize": 6660,
      "arene": 6661,
      "Ġobesidad": 6662,
      "ĠHormone": 6663,
      "Ġaço": 6664,
      "GetHeight": 6665,
      "ĠPortail": 6666,
      "ijnen": 6667,
      "Invoke": 6668,
      "Ġsla": 6669,
      "Ġmav": 6670,
      "Ġприносит": 6671,
      "щим": 6672,
      "essero": 6673,
      "кои": 6674,
      "CLUDED": 6675,
      "之类": 6676,
      "Ġsober": 6677,
      "Ġmái": 6678,
      "之类的": 6679,
      "ĠMOL": 6680,
      "Ġversi": 6681,
      "Ordinal": 6682,
      "charging": 6683,
      "ĠBridal": 6684,
      "Ġfloribus": 6685,
      "Ġprávě": 6686,
      "ĠHIMQTTRVM": 6687,
      "radial": 6688,
      "AddField": 6689,
      "Ġfilepath": 6690,
      "EPC": 6691,
      "ahlt": 6692,
      "Ġhebt": 6693,
      "ĠCrusade": 6694,
      "ĠCapsule": 6695,
      "انب": 6696,
      "ANDS": 6697,
      "Allocator": 6698,
      "apiKey": 6699,
      "Ġambitious": 6700,
      "quée": 6701,
      "Ġonboard": 6702,
      "ĠFlexibility": 6703,
      "Ġżycia": 6704,
      "ĠBlood": 6705,
      "Ġcourtyard": 6706,
      "kens": 6707,
      "Ġsteeper": 6708,
      "ĠTailwind": 6709,
      "bete": 6710,
      "igment": 6711,
      "ĠJoko": 6712,
      "Ġopl": 6713,
      "uttosto": 6714,
      "相关的": 6715,
      "iagnosed": 6716,
      "tire": 6717,
      "rownames": 6718,
      "Ġfeudal": 6719,
      "รรค": 6720,
      "Ġgörünt": 6721,
      "Ġsobrevivir": 6722,
      "Ġrake": 6723,
      "TRIES": 6724,
      "atrième": 6725,
      "ĠHendrix": 6726,
      "Ġlangchain": 6727,
      "COUNTRIES": 6728,
      "jedno": 6729,
      "envoud": 6730,
      "Ġmourn": 6731,
      "Ġeenvoud": 6732,
      "ĠChast": 6733,
      "Ġdimensional": 6734,
      "ĠHaram": 6735,
      "Ġذوالفقار": 6736,
      "Ġondul": 6737,
      "improvements": 6738,
      "Ġdutiful": 6739,
      "cyl": 6740,
      "huh": 6741,
      "Ġquè": 6742,
      "Ġtratando": 6743,
      "Ġhistograms": 6744,
      "Ġtillsammans": 6745,
      "iski": 6746,
      "ĠRemy": 6747,
      "Ġchand": 6748,
      "achar": 6749,
      "Ġglowing": 6750,
      "ська": 6751,
      "Ġfrmt": 6752,
      "Ġgradients": 6753,
      "ĠDelgado": 6754,
      "ĠInfos": 6755,
      "öglichen": 6756,
      "ıldığı": 6757,
      "Ġermöglichen": 6758,
      "orada": 6759,
      "Ġcomprado": 6760,
      "justify": 6761,
      "Ġadmins": 6762,
      "Ġnanof": 6763,
      "Ġsalvaged": 6764,
      "Ġmarginalized": 6765,
      "shp": 6766,
      "Ġiris": 6767,
      "Ġgyerek": 6768,
      "ĠGeschenk": 6769,
      "Ġrudimentary": 6770,
      "Mediterr": 6771,
      "Ġfebruar": 6772,
      "ynge": 6773,
      "getDay": 6774,
      "Ġdisipl": 6775,
      "Ġescort": 6776,
      "私募基金管理人": 6777,
      "angles": 6778,
      "flamingo": 6779,
      "Ġreis": 6780,
      "ĠAlford": 6781,
      "راک": 6782,
      "OfWeek": 6783,
      "commons": 6784,
      "Ġminimising": 6785,
      "Ġnurture": 6786,
      "ĠDownloading": 6787,
      "Ġgrungy": 6788,
      "Ġгодах": 6789,
      "pmatrix": 6790,
      "այի": 6791,
      "ĠcoiAlarm": 6792,
      "ĠCloud": 6793,
      "ifah": 6794,
      "Ġtwigs": 6795,
      "iracial": 6796,
      "Ġkans": 6797,
      "Ġubiquitin": 6798,
      "veda": 6799,
      "ĠAllo": 6800,
      "Ġitp": 6801,
      "Ġالهواء": 6802,
      "Ġciter": 6803,
      "Ġinspir": 6804,
      "ĠNetz": 6805,
      "чиком": 6806,
      "Ġdévelopp": 6807,
      "пуск": 6808,
      "ifted": 6809,
      "nesday": 6810,
      "çam": 6811,
      "ĠWimbledon": 6812,
      "Ġoverclock": 6813,
      "Ġdisinfect": 6814,
      "ĠDurga": 6815,
      "Ġonze": 6816,
      "Ġunseren": 6817,
      "Ġché": 6818,
      "ETF": 6819,
      "Ġelizabeth": 6820,
      "Ġحال": 6821,
      "ĠPuede": 6822,
      "Ġtrương": 6823,
      "FileURL": 6824,
      "ĠPLUS": 6825,
      "ĠSponsors": 6826,
      "Ġdesayuno": 6827,
      "ĠSaxony": 6828,
      "Ġلأن": 6829,
      "Ġدائ": 6830,
      "ĠMerit": 6831,
      "Ġэнерги": 6832,
      "ĠCloseup": 6833,
      "Ġpleno": 6834,
      "Ġblink": 6835,
      "DEFIN": 6836,
      "ローラー": 6837,
      "кс": 6838,
      "fromDate": 6839,
      "Ġprincipaux": 6840,
      "shader": 6841,
      "MaxWidth": 6842,
      "Ġкоторыми": 6843,
      "Ġмедицинской": 6844,
      "Ġigu": 6845,
      "Ġkari": 6846,
      "ĠPeloton": 6847,
      "ĠPuch": 6848,
      "Ġالمرض": 6849,
      "Ġpotrz": 6850,
      "Ġdials": 6851,
      "shine": 6852,
      "Ġencirc": 6853,
      "Ġcantante": 6854,
      "导致": 6855,
      "ĠselectInput": 6856,
      "Ġexperimental": 6857,
      "Ġsperiment": 6858,
      "acycline": 6859,
      "BetMap": 6860,
      "Ġbiber": 6861,
      "Ġдоме": 6862,
      "Ġbuono": 6863,
      "itteln": 6864,
      "Ġکان": 6865,
      "Ġکدام": 6866,
      "Ġželite": 6867,
      "Ġtrabajo": 6868,
      "عان": 6869,
      "finement": 6870,
      "Ġcache": 6871,
      "Ġvess": 6872,
      "Ġadmin": 6873,
      "BOAT": 6874,
      "Ġleitura": 6875,
      "Ġwersji": 6876,
      "ábor": 6877,
      "Ġexons": 6878,
      "ruari": 6879,
      "Ġyer": 6880,
      "lenie": 6881,
      "itev": 6882,
      "ĠJPA": 6883,
      "Ġopat": 6884,
      "Ġextruder": 6885,
      "ungkinkan": 6886,
      "ĠMANAG": 6887,
      "Ġmeringue": 6888,
      "getchar": 6889,
      "Ġopak": 6890,
      "Thrown": 6891,
      "Ġnhấn": 6892,
      "Ġcollectives": 6893,
      "ποιή": 6894,
      "Ġconquered": 6895,
      "Ġучилище": 6896,
      "Bent": 6897,
      "junk": 6898,
      "ĠPina": 6899,
      "ĠKIT": 6900,
      "ijev": 6901,
      "Ġnostro": 6902,
      "ウォー": 6903,
      "Sach": 6904,
      "Ġሌ": 6905,
      "трон": 6906,
      "ሎች": 6907,
      "サイン": 6908,
      "awara": 6909,
      "ścić": 6910,
      "Ġtwink": 6911,
      "Ġሌሎች": 6912,
      "appar": 6913,
      "Volumes": 6914,
      "нений": 6915,
      "лана": 6916,
      "Ġpoln": 6917,
      "testid": 6918,
      "Ġnominal": 6919,
      "Ġtribun": 6920,
      "Ġसमझ": 6921,
      "Ġکمر": 6922,
      "Ġinfantile": 6923,
      "Ġмебель": 6924,
      "Ġкомпонентов": 6925,
      "Ġsektor": 6926,
      "shakespeare": 6927,
      "Ġarisen": 6928,
      "Hval": 6929,
      "ショート": 6930,
      "Ġconclusion": 6931,
      "ĠChicks": 6932,
      "UMIRE": 6933,
      "standards": 6934,
      "Agu": 6935,
      "Ġoutskirts": 6936,
      "ENSIONS": 6937,
      "ommy": 6938,
      "ĠZar": 6939,
      "newspaper": 6940,
      "Ġvšechny": 6941,
      "与其他": 6942,
      "Ġpyram": 6943,
      "Ġdziew": 6944,
      "тури": 6945,
      "uidos": 6946,
      "Ġcellulosic": 6947,
      "Ġaumentado": 6948,
      "ĠAGRICULTURAL": 6949,
      "Ġfostered": 6950,
      "Ġcharme": 6951,
      "Ġtemb": 6952,
      "ĠRather": 6953,
      "Ġabuse": 6954,
      "ccia": 6955,
      "ĠJeopardy": 6956,
      "Ġtembok": 6957,
      "chek": 6958,
      "Ġculminates": 6959,
      "tobs": 6960,
      "estring": 6961,
      "ajima": 6962,
      "ĠMarriage": 6963,
      "Ġngũ": 6964,
      "DialogFragment": 6965,
      "Ġdobr": 6966,
      "біць": 6967,
      "Glam": 6968,
      "Ġmạch": 6969,
      "Ġbanged": 6970,
      "Ġgabb": 6971,
      "Ġechar": 6972,
      "Ġisole": 6973,
      "Ġradicals": 6974,
      "Ġsatellite": 6975,
      "Ġlowland": 6976,
      "Ġimmersive": 6977,
      "Ġcheerleader": 6978,
      "raisal": 6979,
      "Ru": 6980,
      "oğu": 6981,
      "inaldo": 6982,
      "ErrorKind": 6983,
      "Ġçoğu": 6984,
      "Ġألف": 6985,
      "Ġwhiskey": 6986,
      "ĠBetriebs": 6987,
      "RuL": 6988,
      "柔らか": 6989,
      "Ġchấm": 6990,
      "Ġsuisse": 6991,
      "ranger": 6992,
      "icación": 6993,
      "Ġmén": 6994,
      "ĠInj": 6995,
      "Ġالسابع": 6996,
      "Ġsabem": 6997,
      "ĠScientific": 6998,
      "Ġcrescendo": 6999,
      "redirectTo": 7000,
      "ĠCreat": 7001,
      "Ġatract": 7002,
      "Ġcurly": 7003,
      "ĠEssen": 7004,
      "Ġtuoi": 7005,
      "età": 7006,
      "Ġhoneycomb": 7007,
      "Ġçap": 7008,
      "आईए": 7009,
      "debugging": 7010,
      "ĠSpaniards": 7011,
      "fyp": 7012,
      "Ġbitten": 7013,
      "Ġassail": 7014,
      "Ġradicales": 7015,
      "Ġkhá": 7016,
      "Ġالخط": 7017,
      "Ġbenefici": 7018,
      "Ġہوئی": 7019,
      "рте": 7020,
      "Ġnave": 7021,
      "ικών": 7022,
      "Ġstockholder": 7023,
      "Ġoktober": 7024,
      "iint": 7025,
      "annulation": 7026,
      "ากร": 7027,
      "委員": 7028,
      "Ġhurry": 7029,
      "ĠCache": 7030,
      "Ġchở": 7031,
      "FileUtils": 7032,
      "Ġkażdy": 7033,
      "Ober": 7034,
      "STRUCTION": 7035,
      "Ġdépour": 7036,
      "ĠLys": 7037,
      "нор": 7038,
      "ĠHandel": 7039,
      "Ġstoves": 7040,
      "Ġdeployment": 7041,
      "newName": 7042,
      "rafa": 7043,
      "BackColor": 7044,
      "Remove": 7045,
      "Ġkomponen": 7046,
      "Ġmuscle": 7047,
      "Ġwarring": 7048,
      "Ġгеографи": 7049,
      "Ġsucculent": 7050,
      "chun": 7051,
      "Charl": 7052,
      "Ġстатья": 7053,
      "Ġcapito": 7054,
      "Ġהמת": 7055,
      "セプ": 7056,
      "atah": 7057,
      "clust": 7058,
      "Ġaddressed": 7059,
      "ĠSlow": 7060,
      "Ġнаписано": 7061,
      "Ġфутболдук": 7062,
      "セプト": 7063,
      "ĠButton": 7064,
      "weisen": 7065,
      "Ġenrolled": 7066,
      "Ġdeney": 7067,
      "Ġbaşar": 7068,
      "Ġramus": 7069,
      "Ġdétach": 7070,
      "Ġterritoires": 7071,
      "гӀ": 7072,
      "кугӀ": 7073,
      "Ġervan": 7074,
      "ofan": 7075,
      "Ġalimentaire": 7076,
      "Ġhybridization": 7077,
      "Benzoimidazol": 7078,
      "wner": 7079,
      "Ġchủ": 7080,
      "Ġleaked": 7081,
      "Ġsrand": 7082,
      "indle": 7083,
      "Touches": 7084,
      "Ġllegando": 7085,
      "Ġхороший": 7086,
      "Ġзакры": 7087,
      "Ġcorollary": 7088,
      "Spinner": 7089,
      "Ġsingularity": 7090,
      "Ġcorrupt": 7091,
      "Ġintroduc": 7092,
      "Ġlaminated": 7093,
      "Ġscum": 7094,
      "Ġresection": 7095,
      "Ġmanuel": 7096,
      "ĠDernière": 7097,
      "दम": 7098,
      "Ġpresse": 7099,
      "Optim": 7100,
      "neri": 7101,
      "好地": 7102,
      "更好地": 7103,
      "Ġkicking": 7104,
      "Ġresolute": 7105,
      "CxxInterop": 7106,
      "ĠPert": 7107,
      "тека": 7108,
      "ĠGeorgetown": 7109,
      "Ġenergii": 7110,
      "Ġhectare": 7111,
      "Ġpptd": 7112,
      "ĠHals": 7113,
      "Ġфедера": 7114,
      "tails": 7115,
      "ĠMPEG": 7116,
      "Ġpropagating": 7117,
      "Ġcherish": 7118,
      "Ġkünstler": 7119,
      "axx": 7120,
      "Ġislet": 7121,
      "WebHost": 7122,
      "ffffff": 7123,
      "Ġرسمی": 7124,
      "Ġrounds": 7125,
      "boxy": 7126,
      "ĠDEBUG": 7127,
      "ĠJournalism": 7128,
      "miktar": 7129,
      "Ġdeliri": 7130,
      "Ġembracing": 7131,
      "RIER": 7132,
      "Ġferrament": 7133,
      "selen": 7134,
      "Ġdelirium": 7135,
      "ĠisLoggedIn": 7136,
      "Ġcalcareous": 7137,
      "FETCH": 7138,
      "odin": 7139,
      "Ġtransduction": 7140,
      "caesar": 7141,
      "ĠComune": 7142,
      "Ġnecrotic": 7143,
      "Ġmécanisme": 7144,
      "と感じ": 7145,
      "Ġgutes": 7146,
      "Ġestando": 7147,
      "Ġdawned": 7148,
      "ስከ": 7149,
      "Ġrunde": 7150,
      "Ġእስከ": 7151,
      "MBean": 7152,
      "zah": 7153,
      "ĠgetTotal": 7154,
      "يبة": 7155,
      "ĠPROJECT": 7156,
      "などの": 7157,
      "covid": 7158,
      "Ġoverly": 7159,
      "Ġveliko": 7160,
      "Galer": 7161,
      "Ġکھل": 7162,
      "ĠSkeleton": 7163,
      "Ġdisgraceful": 7164,
      "achievement": 7165,
      "Ġобл": 7166,
      "Ġyapan": 7167,
      "Ġrozm": 7168,
      "Ġcambia": 7169,
      "Ġbeeindruck": 7170,
      "ĠCooley": 7171,
      "ĠGreedy": 7172,
      "ĠSUBSCRIBE": 7173,
      "Ġsloop": 7174,
      "outFile": 7175,
      "Ġjusticiable": 7176,
      "ĠSiem": 7177,
      "Ġrares": 7178,
      "ĠKMnO": 7179,
      "Ġproclaimed": 7180,
      "ntgen": 7181,
      "ĠParas": 7182,
      "ĠVell": 7183,
      "Ġaturan": 7184,
      "Ġgiveaway": 7185,
      "ĠMarius": 7186,
      "Ġباتیں": 7187,
      "caya": 7188,
      "Ġtiring": 7189,
      "Ġbine": 7190,
      "ocide": 7191,
      "ĠLesson": 7192,
      "ĠVip": 7193,
      "corpus": 7194,
      "Articles": 7195,
      "Ġpaddock": 7196,
      "Ġvreau": 7197,
      "NERS": 7198,
      "ĠFEATURES": 7199,
      "alink": 7200,
      "promoting": 7201,
      "ĠCod": 7202,
      "ĠHEM": 7203,
      "ĠHahn": 7204,
      "Ġteren": 7205,
      "Ġصبر": 7206,
      "Ġoksid": 7207,
      "Ġartificially": 7208,
      "izu": 7209,
      "Ġcrease": 7210,
      "Ġderel": 7211,
      "Ġстатьи": 7212,
      "アナ": 7213,
      "Ġbringt": 7214,
      "アナログ": 7215,
      "anima": 7216,
      "ĠExter": 7217,
      "ContextProvider": 7218,
      "Ġseagulls": 7219,
      "Ġsubversive": 7220,
      "ított": 7221,
      "ĠBhagava": 7222,
      "Ġвысокая": 7223,
      "survival": 7224,
      "スタンダード": 7225,
      "inescence": 7226,
      "ĠMystic": 7227,
      "Ġegos": 7228,
      "ĠWALK": 7229,
      "Ġjaunâtre": 7230,
      "Ġمقدس": 7231,
      "UNIVERS": 7232,
      "зиру": 7233,
      "Ġpatented": 7234,
      "ahanglan": 7235,
      "ĠCrab": 7236,
      "estomac": 7237,
      "DataGridView": 7238,
      "Ġdatthabbam": 7239,
      "ĠAsyncStorage": 7240,
      "Ġbiet": 7241,
      "ruž": 7242,
      "Ġእንኳን": 7243,
      "Ġbietet": 7244,
      "يح": 7245,
      "astas": 7246,
      "UserRepository": 7247,
      "Ġaccumulating": 7248,
      "Ġصحيح": 7249,
      "ĠglobalMap": 7250,
      "voje": 7251,
      "Ġcents": 7252,
      "Ġquattro": 7253,
      "biggr": 7254,
      "Ġspiritual": 7255,
      "یکیشن": 7256,
      "Ġዓይነ": 7257,
      "Ġενη": 7258,
      "Ġtämän": 7259,
      "هرة": 7260,
      "ĠTreeNode": 7261,
      "ĠMurat": 7262,
      "Ġfurt": 7263,
      "شنامه": 7264,
      "Ġвозникает": 7265,
      "teste": 7266,
      "Ġabge": 7267,
      "deen": 7268,
      "Ġmonitored": 7269,
      "ĠTattoo": 7270,
      "izr": 7271,
      "Ġpersons": 7272,
      "Ġescreve": 7273,
      "Ġescreveu": 7274,
      "dail": 7275,
      "Ġсчитаю": 7276,
      "vscode": 7277,
      "业的": 7278,
      "Ġmimo": 7279,
      "стрии": 7280,
      "abelian": 7281,
      "ĠSteward": 7282,
      "Ġdeportivos": 7283,
      "Ġприка": 7284,
      "ĠParen": 7285,
      "DFC": 7286,
      "ötet": 7287,
      "constants": 7288,
      "Ġüretim": 7289,
      "Ġdava": 7290,
      "ĠSATA": 7291,
      "ruga": 7292,
      "girls": 7293,
      "AGRIC": 7294,
      "ĠMenuGroup": 7295,
      "ĠGregg": 7296,
      "actionMode": 7297,
      "Ġمقاله": 7298,
      "Ġالكت": 7299,
      "Ġnevez": 7300,
      "snapshot": 7301,
      "Ġunglaublich": 7302,
      "Ġイタリア": 7303,
      "estad": 7304,
      "Ġstara": 7305,
      "Ġгодини": 7306,
      "Ġgarrison": 7307,
      "发生在": 7308,
      "Jog": 7309,
      "Ġcriminal": 7310,
      "Ġentw": 7311,
      "Ġdiferenciales": 7312,
      "ĠBurgos": 7313,
      "ĠBeckham": 7314,
      "ĠIncub": 7315,
      "Signin": 7316,
      "Ġişlem": 7317,
      "Saxon": 7318,
      "Ġunavoidable": 7319,
      "ările": 7320,
      "Ġvanguard": 7321,
      "Ġmagnified": 7322,
      "Ġcampeonato": 7323,
      "Ġcanvases": 7324,
      "JButton": 7325,
      "يكا": 7326,
      "elie": 7327,
      "ĠLhasa": 7328,
      "Ġlocomotor": 7329,
      "Roof": 7330,
      "WarningLevel": 7331,
      "cwnd": 7332,
      "Ġcompuesto": 7333,
      "ĠRecycle": 7334,
      "Ġcadres": 7335,
      "νομα": 7336,
      "tabla": 7337,
      "ĠZustand": 7338,
      "Ġऋ": 7339,
      "षभ": 7340,
      "Ġineligible": 7341,
      "Ġяви": 7342,
      "Ġluxurious": 7343,
      "ĠBetfair": 7344,
      "Ġऋषभ": 7345,
      "GDP": 7346,
      "lone": 7347,
      "Ġdroite": 7348,
      "Ġвоздей": 7349,
      "Ġreliever": 7350,
      "Ġstrcat": 7351,
      "spinlock": 7352,
      "Ġnvp": 7353,
      "Ġnotables": 7354,
      "Ġclimatique": 7355,
      "Ġuntersucht": 7356,
      "Ġthine": 7357,
      "setti": 7358,
      "Ġfermeture": 7359,
      "ballage": 7360,
      "йки": 7361,
      "Ġcontrá": 7362,
      "ĠВене": 7363,
      "Ġquedó": 7364,
      "Ġtribunal": 7365,
      "Ġmondial": 7366,
      "Ġcontrário": 7367,
      "Ġspreader": 7368,
      "ĠSpiegel": 7369,
      "Ġclandest": 7370,
      "Ġсуществуют": 7371,
      "ĠUnisex": 7372,
      "Methods": 7373,
      "Ġadvanced": 7374,
      "okinase": 7375,
      "フラー": 7376,
      "Ġهذه": 7377,
      "Ġrude": 7378,
      "rigid": 7379,
      "ĠHoldings": 7380,
      "Food": 7381,
      "ĠFood": 7382,
      "ĠFOOD": 7383,
      "ovski": 7384,
      "ĠConor": 7385,
      "Ġток": 7386,
      "ĠcoinChange": 7387,
      "ĠFID": 7388,
      "ĠLCCN": 7389,
      "Ġatak": 7390,
      "ĠPlow": 7391,
      "Ġjuventud": 7392,
      "Ġhautes": 7393,
      "Ġrecurrent": 7394,
      "Ġmiesto": 7395,
      "ĠNawaz": 7396,
      "Factories": 7397,
      "ĠNol": 7398,
      "дак": 7399,
      "Ġصنا": 7400,
      "Ġgolongan": 7401,
      "Ġfullback": 7402,
      "Ġdrain": 7403,
      "Ġhảo": 7404,
      "Ġзначит": 7405,
      "graphicx": 7406,
      "Ġархив": 7407,
      "Ġsaliva": 7408,
      "SelectItem": 7409,
      "ĠGalicia": 7410,
      "HistogramDetails": 7411,
      "avalt": 7412,
      "shen": 7413,
      "Ġinfographic": 7414,
      "нент": 7415,
      "Ġnoticeable": 7416,
      "Ġcollapses": 7417,
      "Ġpřid": 7418,
      "ĠSingleton": 7419,
      "ĠΑνακτήθηκε": 7420,
      "Ġархівів": 7421,
      "Ġoligonucleotide": 7422,
      "Medic": 7423,
      "Ġустанови": 7424,
      "Ġposizione": 7425,
      "ĠDakar": 7426,
      "Ġcaminh": 7427,
      "isIn": 7428,
      "Ġstoi": 7429,
      "деся": 7430,
      "Ġвечер": 7431,
      "Ġdécidé": 7432,
      "Ġэкзем": 7433,
      "Ġskupiny": 7434,
      "まれた": 7435,
      "undan": 7436,
      "figsize": 7437,
      "Ġdelir": 7438,
      "Ġposiciones": 7439,
      "ĠNavBar": 7440,
      "Ġпроизводства": 7441,
      "Ġrecreated": 7442,
      "ĠStreet": 7443,
      "Ġkarat": 7444,
      "Restrict": 7445,
      "Ġnapkins": 7446,
      "Auction": 7447,
      "alto": 7448,
      "ähn": 7449,
      "ĠMenuView": 7450,
      "Ġguardar": 7451,
      "ĠBürgermeister": 7452,
      "PhysRev": 7453,
      "ĠIronman": 7454,
      "コットン": 7455,
      "adhan": 7456,
      "lios": 7457,
      "Ġlingue": 7458,
      "Ġpréparer": 7459,
      "Ġاظہار": 7460,
      "PROVID": 7461,
      "httpRequest": 7462,
      "обходимо": 7463,
      "čka": 7464,
      "stm": 7465,
      "ĠYears": 7466,
      "ĠTenggara": 7467,
      "ĠInline": 7468,
      "ĠAlipay": 7469,
      "ĠsetUser": 7470,
      "Ġhappily": 7471,
      "ákat": 7472,
      "ベット": 7473,
      "Ġtibi": 7474,
      "ğaz": 7475,
      "ĠProRes": 7476,
      "Ġэнергети": 7477,
      "Ġпредполагает": 7478,
      "fad": 7479,
      "ĠMMO": 7480,
      "Ġکم": 7481,
      "Ġsteampunk": 7482,
      "Ġovertake": 7483,
      "ĠHobbs": 7484,
      "Ġcurvatures": 7485,
      "Ġlluvias": 7486,
      "Ġlargeur": 7487,
      "TISE": 7488,
      "lighet": 7489,
      "adri": 7490,
      "Stmt": 7491,
      "Ġphổi": 7492,
      "Ġerat": 7493,
      "нное": 7494,
      "Ġwinger": 7495,
      "irem": 7496,
      "Ġcollisions": 7497,
      "Ġpsicol": 7498,
      "ĠCapital": 7499,
      "小朋友": 7500,
      "Ġsey": 7501,
      "Ġbiste": 7502,
      "Ġyav": 7503,
      "Ġmetaphysical": 7504,
      "Ġbounced": 7505,
      "Ġkteří": 7506,
      "itivo": 7507,
      "Ġуде": 7508,
      "autes": 7509,
      "ĠProu": 7510,
      "Ġsalwar": 7511,
      "Ġрубе": 7512,
      "discipline": 7513,
      "Ġforcibly": 7514,
      "adiator": 7515,
      "ĠDelhi": 7516,
      "Ġjezika": 7517,
      "Ġaromatic": 7518,
      "cesis": 7519,
      "Ġваши": 7520,
      "говор": 7521,
      "Ġсервера": 7522,
      "Ġlesen": 7523,
      "Ġplaygrounds": 7524,
      "WILL": 7525,
      "ĠTuscany": 7526,
      "subprocess": 7527,
      "ĠWhere": 7528,
      "Anomaly": 7529,
      "Ġcanes": 7530,
      "Stamped": 7531,
      "Ġbloodstream": 7532,
      "ĠRègles": 7533,
      "Ġвелосипе": 7534,
      "hess": 7535,
      "Ġplong": 7536,
      "Ġsymbolizes": 7537,
      "Ġникак": 7538,
      "Ġcoeficiente": 7539,
      "Ġجهد": 7540,
      "Ġaccomplish": 7541,
      "asys": 7542,
      "Ġcodec": 7543,
      "ĠБеларуси": 7544,
      "plect": 7545,
      "insulin": 7546,
      "Ġhypertext": 7547,
      "ĠKonstantin": 7548,
      "ffler": 7549,
      "ashop": 7550,
      "attaque": 7551,
      "ავი": 7552,
      "ponen": 7553,
      "țit": 7554,
      "ĠFitch": 7555,
      "ĠPutra": 7556,
      "achios": 7557,
      "ĠSne": 7558,
      "Ġavions": 7559,
      "Ġpolyamide": 7560,
      "tomcat": 7561,
      "ĠITEMS": 7562,
      "iapkan": 7563,
      "Ġosh": 7564,
      "Ġvezi": 7565,
      "uparrow": 7566,
      "ĠРеа": 7567,
      "ĠCharm": 7568,
      "Ġثبت": 7569,
      "Ġmmol": 7570,
      "ĠcheckIf": 7571,
      "Ġсогласи": 7572,
      "Ġمجموعة": 7573,
      "Ġpila": 7574,
      "ENTION": 7575,
      "Ġanimated": 7576,
      "crom": 7577,
      "твет": 7578,
      "тисти": 7579,
      "ĠОтвет": 7580,
      "enommen": 7581,
      "ĠXPS": 7582,
      "Ġangenommen": 7583,
      "animated": 7584,
      "Ġبسه": 7585,
      "Ġsepan": 7586,
      "Ġمشابه": 7587,
      "Ġdziecka": 7588,
      "ĠEmpresa": 7589,
      "Ġdogma": 7590,
      "Commande": 7591,
      "ĠUsername": 7592,
      "áciu": 7593,
      "Ġagrícola": 7594,
      "Ġagrícolas": 7595,
      "ĠICON": 7596,
      "prud": 7597,
      "Ġнаказа": 7598,
      "Ġsteer": 7599,
      "Ġescalate": 7600,
      "Ġverwij": 7601,
      "Ġسعد": 7602,
      "ĠsetDefault": 7603,
      "Ġlocomot": 7604,
      "innerText": 7605,
      "коменду": 7606,
      "Ġarticoli": 7607,
      "Ġlocomotives": 7608,
      "ĠFresh": 7609,
      "Textures": 7610,
      "Ġirrevers": 7611,
      "Ġaldığı": 7612,
      "hältnisse": 7613,
      "ทะ": 7614,
      "ĠLeder": 7615,
      "ĠPoké": 7616,
      "Ġwealthiest": 7617,
      "ทะเล": 7618,
      "来越": 7619,
      "越来越": 7620,
      "Ġfamiliares": 7621,
      "Ġmelanin": 7622,
      "Revel": 7623,
      "Ġостро": 7624,
      "Ġheparin": 7625,
      "Eureka": 7626,
      "Ġinvariance": 7627,
      "kDa": 7628,
      "ĠMadden": 7629,
      "プレート": 7630,
      "ării": 7631,
      "ĠHBase": 7632,
      "раздо": 7633,
      "Ġvbox": 7634,
      "ĠWeyl": 7635,
      "Ġexplodes": 7636,
      "Ġphoenix": 7637,
      "composable": 7638,
      "Ġdigelar": 7639,
      "FirstResponder": 7640,
      "ĠSinne": 7641,
      "Ġfreelancer": 7642,
      "nością": 7643,
      "Bey": 7644,
      "inference": 7645,
      "Ġdrast": 7646,
      "otipos": 7647,
      "letic": 7648,
      "Pom": 7649,
      "Ġпринадлежит": 7650,
      "hstack": 7651,
      "alysis": 7652,
      "Ġcompartments": 7653,
      "emit": 7654,
      "Ġexperimentally": 7655,
      "Ġpreguntar": 7656,
      "androidTest": 7657,
      "ĠDJ": 7658,
      "riches": 7659,
      "Ġcanceled": 7660,
      "Ġedificios": 7661,
      "Ġagitation": 7662,
      "hashtag": 7663,
      "taobao": 7664,
      "Ġএইচ": 7665,
      "Ġglande": 7666,
      "ppled": 7667,
      "ექ": 7668,
      "oceras": 7669,
      "Ġadvances": 7670,
      "ĠФургал": 7671,
      "Ġصنع": 7672,
      "ĠMut": 7673,
      "ĠRecher": 7674,
      "ĠCambodian": 7675,
      "ĠIya": 7676,
      "gressive": 7677,
      "ĠCompl": 7678,
      "Ġхудожника": 7679,
      "Wei": 7680,
      "나라": 7681,
      "ĠJunius": 7682,
      "Ġ우리나라": 7683,
      "tanh": 7684,
      "Ġfinan": 7685,
      "ĠMerced": 7686,
      "Ġнепосредственно": 7687,
      "电设备": 7688,
      "Ġσυγκ": 7689,
      "Redis": 7690,
      "HANG": 7691,
      "eload": 7692,
      "getSystemService": 7693,
      "ATORY": 7694,
      "Ġutiles": 7695,
      "Ġśnie": 7696,
      "Ġfederation": 7697,
      "ĠMotorsports": 7698,
      "Ġbiedt": 7699,
      "Fetched": 7700,
      "acjach": 7701,
      "Ġmechanistic": 7702,
      "ĠGameObject": 7703,
      "Ġarcane": 7704,
      "écriture": 7705,
      "Ġpioneering": 7706,
      "Ġencourages": 7707,
      "把自己": 7708,
      "proving": 7709,
      "iquest": 7710,
      "ĠCOMMENTS": 7711,
      "Ġumpire": 7712,
      "Ġpreseason": 7713,
      "Ġpanch": 7714,
      "ĠSARS": 7715,
      "Ġreeling": 7716,
      "Ġartik": 7717,
      "Ġsecession": 7718,
      "Ġتجربه": 7719,
      "Ġhypergeometric": 7720,
      "Ġнаучной": 7721,
      "Ġchisel": 7722,
      "Ġpointers": 7723,
      "Ġtif": 7724,
      "Ġcomplying": 7725,
      "Ġancienne": 7726,
      "Barrel": 7727,
      "Ġréserv": 7728,
      "Ġwcześniej": 7729,
      "spj": 7730,
      "ĠClaw": 7731,
      "Ġενε": 7732,
      "Ġoxyd": 7733,
      "Ġενεργ": 7734,
      "Ġprincipally": 7735,
      "baarheid": 7736,
      "Moody": 7737,
      "Shutdown": 7738,
      "Ġrefused": 7739,
      "Ġsvega": 7740,
      "Ġfields": 7741,
      "Ġsexually": 7742,
      "Ġاپنے": 7743,
      "Cop": 7744,
      "łam": 7745,
      "ĠSchool": 7746,
      "ĠФедерации": 7747,
      "นาย": 7748,
      "Ġدرست": 7749,
      "ĠSardegna": 7750,
      "Fourier": 7751,
      "árl": 7752,
      "レスタ": 7753,
      "auru": 7754,
      "ッドレスタ": 7755,
      "clientHeight": 7756,
      "Ġスタッドレスタ": 7757,
      "Ġスタッドレスタイヤ": 7758,
      "ĠMende": 7759,
      "Ġtentativo": 7760,
      "Kafka": 7761,
      "Ġկ": 7762,
      "Ġhumming": 7763,
      "Ġadministrations": 7764,
      "ĠBratislava": 7765,
      "Ġկար": 7766,
      "thapi": 7767,
      "intent": 7768,
      "maxWidth": 7769,
      "itettura": 7770,
      "Ġусіх": 7771,
      "Ġenjoys": 7772,
      "Ġrene": 7773,
      "Ġzien": 7774,
      "ĠBears": 7775,
      "Ġmoeten": 7776,
      "Ġlibel": 7777,
      "phoneNumber": 7778,
      "Ġhogar": 7779,
      "experiments": 7780,
      "Ġrussia": 7781,
      "Ġyada": 7782,
      "Experiments": 7783,
      "ĠExperiments": 7784,
      "Ġđem": 7785,
      "voerd": 7786,
      "Ġexperiments": 7787,
      "Ġexperimentation": 7788,
      "ĠUnterricht": 7789,
      "Ġişle": 7790,
      "Ġacidosis": 7791,
      "ĠJir": 7792,
      "Ġseñalar": 7793,
      "Reasoner": 7794,
      "ĠHands": 7795,
      "Ġarticles": 7796,
      "Ġπρέπει": 7797,
      "ĠArticles": 7798,
      "gani": 7799,
      "Ġrecepción": 7800,
      "Ġmodelu": 7801,
      "Ġrescind": 7802,
      "ĠXXV": 7803,
      "Ġnoxious": 7804,
      "Ġlage": 7805,
      "Ġlezen": 7806,
      "Phir": 7807,
      "ĠObstet": 7808,
      "ポール": 7809,
      "Ġvaj": 7810,
      "Ġfrontline": 7811,
      "Ġgrafts": 7812,
      "akit": 7813,
      "Ġshop": 7814,
      "Ġколя": 7815,
      "Ġimpetus": 7816,
      "ĠnavController": 7817,
      "Ġwatermark": 7818,
      "Ġaprobado": 7819,
      "产生了": 7820,
      "Ġcầm": 7821,
      "Ġgente": 7822,
      "Ġsponsorship": 7823,
      "Ġخواست": 7824,
      "Ġpotentiel": 7825,
      "Ġspalle": 7826,
      "mygray": 7827,
      "دارة": 7828,
      "ĠTango": 7829,
      "izienz": 7830,
      "Ġupto": 7831,
      "Ġแนะ": 7832,
      "Ġدرآمد": 7833,
      "Ġimpressed": 7834,
      "Ġvrijeme": 7835,
      "hmann": 7836,
      "Ġslab": 7837,
      "ĠMonths": 7838,
      "Ġtén": 7839,
      "Ġтощо": 7840,
      "Ġobstante": 7841,
      "Ġcouleurs": 7842,
      "Expired": 7843,
      "Ġsurgir": 7844,
      "Ġdemostrado": 7845,
      "enged": 7846,
      "ĠStairs": 7847,
      "SPACE": 7848,
      "Ġmechanisms": 7849,
      "Ġнрави": 7850,
      "ĠAufenthalt": 7851,
      "Ġbilgiler": 7852,
      "Ġمحسوس": 7853,
      "Ġpril": 7854,
      "ĠJuin": 7855,
      "Ġscoreless": 7856,
      "ĠBeschreibung": 7857,
      "Ġxanh": 7858,
      "Ġweist": 7859,
      "Ġvoie": 7860,
      "ĠYuki": 7861,
      "ĠGolpe": 7862,
      "ĠNirvana": 7863,
      "Ġquitar": 7864,
      "ácio": 7865,
      "BrNO": 7866,
      "Ġçıkart": 7867,
      "ĠPip": 7868,
      "ĠLIM": 7869,
      "Ġtrenches": 7870,
      "Ġnghiệm": 7871,
      "RenderTarget": 7872,
      "ĠMagnet": 7873,
      "Ġblower": 7874,
      "Ġجوان": 7875,
      "ĠResearcher": 7876,
      "řen": 7877,
      "Ġcrankshaft": 7878,
      "Ġgritty": 7879,
      "amins": 7880,
      "experimental": 7881,
      "ĠOasis": 7882,
      "Ġпор": 7883,
      "Ġcontended": 7884,
      "Ġэксперимента": 7885,
      "laug": 7886,
      "decrement": 7887,
      "Semantic": 7888,
      "trailing": 7889,
      "Ġmunicípios": 7890,
      "Ġuranyl": 7891,
      "ĠUNITED": 7892,
      "DataProvider": 7893,
      "Ġoutfitted": 7894,
      "ләр": 7895,
      "ĠEgyes": 7896,
      "Ġсайте": 7897,
      "Ġдевушка": 7898,
      "ĠNGOs": 7899,
      "Ġпроходят": 7900,
      "ĠidP": 7901,
      "ĠREAL": 7902,
      "Ġtempat": 7903,
      "ĠVeil": 7904,
      "Ġcompra": 7905,
      "verbosity": 7906,
      "そうです": 7907,
      "ĠCryptoJS": 7908,
      "anov": 7909,
      "Ġcrowning": 7910,
      "Ġzusammen": 7911,
      "ĠBlumen": 7912,
      "ĠcurrentColor": 7913,
      "Manipulation": 7914,
      "syllabus": 7915,
      "Ġbooting": 7916,
      "Ġследующим": 7917,
      "Ġbusinessmen": 7918,
      "Ġкапитала": 7919,
      "showing": 7920,
      "Ġگیند": 7921,
      "ĠSDF": 7922,
      "Ġélo": 7923,
      "ッパー": 7924,
      "Ġarac": 7925,
      "ĠMoritz": 7926,
      "ATTLE": 7927,
      "Ка": 7928,
      "JobList": 7929,
      "Ġhabil": 7930,
      "ično": 7931,
      "mitri": 7932,
      "cture": 7933,
      "ĠDmitri": 7934,
      "Ġshared": 7935,
      "ĠTrường": 7936,
      "rakech": 7937,
      "ĠPseudomonas": 7938,
      "enak": 7939,
      "Ġrecorr": 7940,
      "Ġremplacement": 7941,
      "Ġmendek": 7942,
      "Ġsoggi": 7943,
      "Ġramo": 7944,
      "Ġsoggiorno": 7945,
      "定义": 7946,
      "Ġstanie": 7947,
      "Ġhypoxia": 7948,
      "Ġμον": 7949,
      "Ġrattan": 7950,
      "Ġziel": 7951,
      "Ġyetiş": 7952,
      "Ġindestructible": 7953,
      "Ġosoba": 7954,
      "ĠForeman": 7955,
      "Ġaggravate": 7956,
      "alumno": 7957,
      "Ġpli": 7958,
      "Ġmartial": 7959,
      "Ġgobl": 7960,
      "Ġتاج": 7961,
      "Ġفکر": 7962,
      "Ġchiều": 7963,
      "Ġмужчина": 7964,
      "Ġισ": 7965,
      "Ġalcoved": 7966,
      "Ġzewnętrzne": 7967,
      "Ġιστο": 7968,
      "シェル": 7969,
      "ĠdeltaTime": 7970,
      "провод": 7971,
      "ĠAMERICAN": 7972,
      "Pierce": 7973,
      "zeppelin": 7974,
      "operation": 7975,
      "Ġconcat": 7976,
      "Ġvélo": 7977,
      "Tính": 7978,
      "нул": 7979,
      "ELIG": 7980,
      "Ġcrosses": 7981,
      "ĠItalia": 7982,
      "ĠBacteriol": 7983,
      "Ġwody": 7984,
      "ревно": 7985,
      "Ġleite": 7986,
      "SourceName": 7987,
      "zięk": 7988,
      "Ġsebagainya": 7989,
      "ĠMuscle": 7990,
      "Ġmuffler": 7991,
      "kosť": 7992,
      "hiva": 7993,
      "Ġbuc": 7994,
      "apeake": 7995,
      "devi": 7996,
      "Ġقیامت": 7997,
      "Ġtougher": 7998,
      "Ġbuccal": 7999,
      "Ġberubah": 8000,
      "Ġおすすめ": 8001,
      "Ġpion": 8002,
      "experiment": 8003,
      "Ġalamy": 8004,
      "ĠInference": 8005,
      "Experiment": 8006,
      "ĠBadge": 8007,
      "isiaj": 8008,
      "Ġđọc": 8009,
      "Ġhuống": 8010,
      "onsin": 8011,
      "isconsin": 8012,
      "aucoup": 8013,
      "dessä": 8014,
      "Ġbankrupt": 8015,
      "ĠNoble": 8016,
      "Ġpenumpang": 8017,
      "consol": 8018,
      "ĠSandoval": 8019,
      "Ġnostalgic": 8020,
      "сет": 8021,
      "strcmp": 8022,
      "Ġvolvió": 8023,
      "Ġدفع": 8024,
      "Ġsponsorships": 8025,
      "hôte": 8026,
      "Ġupaparikkh": 8027,
      "Ġświad": 8028,
      "Ġwszel": 8029,
      "dosage": 8030,
      "quinolin": 8031,
      "idded": 8032,
      "nameof": 8033,
      "Ġdriftwood": 8034,
      "Ġабстра": 8035,
      "Ġآنلاین": 8036,
      "Ġcanteen": 8037,
      "Ġlame": 8038,
      "Ġkendi": 8039,
      "ahar": 8040,
      "ricamente": 8041,
      "Ġattaque": 8042,
      "ási": 8043,
      "ĠEmir": 8044,
      "Ġpermita": 8045,
      "Ġfavorite": 8046,
      "Ġchega": 8047,
      "temps": 8048,
      "Ġgluc": 8049,
      "LOGO": 8050,
      "Ġcounterbalance": 8051,
      "ĠInfrast": 8052,
      "ĠMyerson": 8053,
      "Ġنماز": 8054,
      "octet": 8055,
      "Ġzuten": 8056,
      "Ġследующем": 8057,
      "Ġпитание": 8058,
      "ĠBree": 8059,
      "aboard": 8060,
      "Ġbedrijven": 8061,
      "Ġhazırlan": 8062,
      "itele": 8063,
      "Ġboron": 8064,
      "Prote": 8065,
      "dilation": 8066,
      "ihkan": 8067,
      "Ġsexu": 8068,
      "Ġdola": 8069,
      "ĠSore": 8070,
      "Ġماہ": 8071,
      "Ġвтором": 8072,
      "Ġbieden": 8073,
      "Ġlezione": 8074,
      "Ġswoje": 8075,
      "ĠAbroad": 8076,
      "Ġzawiera": 8077,
      "featurde": 8078,
      "Ġponytail": 8079,
      "Ġintimid": 8080,
      "Ġprodukcji": 8081,
      "ĠPrisoners": 8082,
      "abila": 8083,
      "クロス": 8084,
      "ĠIEP": 8085,
      "ĠКана": 8086,
      "lore": 8087,
      "Ġnaw": 8088,
      "getVersion": 8089,
      "ndown": 8090,
      "Ġnaive": 8091,
      "levelname": 8092,
      "版本的": 8093,
      "ĠSevent": 8094,
      "Ġnăng": 8095,
      "Ġamplia": 8096,
      "Ġпоявление": 8097,
      "tram": 8098,
      "arraf": 8099,
      "acara": 8100,
      "ĠOso": 8101,
      "Ġpurified": 8102,
      "Ġガラス": 8103,
      "لاك": 8104,
      "Ġjustific": 8105,
      "ĠCyb": 8106,
      "ayak": 8107,
      "Ġiframe": 8108,
      "ĠLiaison": 8109,
      "streets": 8110,
      "用了": 8111,
      "采用了": 8112,
      "Ġmüs": 8113,
      "Ġtrouver": 8114,
      "Ġitali": 8115,
      "Lev": 8116,
      "Ġhii": 8117,
      "ĠDURING": 8118,
      "ĠChico": 8119,
      "ĠExisten": 8120,
      "ycled": 8121,
      "GLuint": 8122,
      "Ġlengths": 8123,
      "zipped": 8124,
      "Ġalá": 8125,
      "Ġгородской": 8126,
      "Inventor": 8127,
      "etak": 8128,
      "ěné": 8129,
      "Произ": 8130,
      "Hashing": 8131,
      "Ġstamina": 8132,
      "Ġsnacks": 8133,
      "cina": 8134,
      "国家": 8135,
      "adto": 8136,
      "Ġerect": 8137,
      "Ġfoldable": 8138,
      "Ġbanjir": 8139,
      "рованы": 8140,
      "authier": 8141,
      "Ġśrod": 8142,
      "rexham": 8143,
      "ĠBaillargeon": 8144,
      "Ġpneumoniae": 8145,
      "Yaml": 8146,
      "इन": 8147,
      "adeep": 8148,
      "Ġbrinda": 8149,
      "इनस": 8150,
      "stvo": 8151,
      "Ġacumen": 8152,
      "ĠWeimar": 8153,
      "Ġdikkat": 8154,
      "ĠLANGUAGE": 8155,
      "ĠDraft": 8156,
      "ismus": 8157,
      "Ġstrument": 8158,
      "Ġsegunda": 8159,
      "Ġmagni": 8160,
      "Ġunleash": 8161,
      "iru": 8162,
      "Ġexerts": 8163,
      "Ġنبود": 8164,
      "Ġدما": 8165,
      "Ġcourbe": 8166,
      "ĠAutobi": 8167,
      "ĠPaddy": 8168,
      "StdHandle": 8169,
      "density": 8170,
      "ĠOba": 8171,
      "Ġproduse": 8172,
      "Ġexhilar": 8173,
      "EXPERIMENTAL": 8174,
      "Ġherringbone": 8175,
      "Ġfiglia": 8176,
      "Ġвоздуха": 8177,
      "다라고": 8178,
      "вай": 8179,
      "Ġolsa": 8180,
      "Ġcharcoal": 8181,
      "Ġexclusivement": 8182,
      "Ġαποκ": 8183,
      "Ġcrystal": 8184,
      "Ġplugs": 8185,
      "Ġponctué": 8186,
      "quay": 8187,
      "ioneer": 8188,
      "Ġавтори": 8189,
      "Ġاجرا": 8190,
      "ĠDNR": 8191,
      "Ġmalloc": 8192,
      "blink": 8193,
      "MSBuildTools": 8194,
      "Endian": 8195,
      "Ġmulte": 8196,
      "ĠRuben": 8197,
      "Standards": 8198,
      "ĠBolsa": 8199,
      "Ġrappresenta": 8200,
      "steps": 8201,
      "Ġalent": 8202,
      "subject": 8203,
      "Ġkompan": 8204,
      "Ġgrizzly": 8205,
      "Ġموتور": 8206,
      "Emple": 8207,
      "tul": 8208,
      "ĠWam": 8209,
      "Ġვ": 8210,
      "Ġcircadian": 8211,
      "вяза": 8212,
      "Ġdaug": 8213,
      "Ġelevated": 8214,
      "ĠmainWindow": 8215,
      "Ġვერ": 8216,
      "categorie": 8217,
      "pik": 8218,
      "äume": 8219,
      "Ġszámos": 8220,
      "жности": 8221,
      "変わり": 8222,
      "Ġpity": 8223,
      "Ġдругим": 8224,
      "Ġpalpitations": 8225,
      "revenue": 8226,
      "ĠoLetterLocation": 8227,
      "INDER": 8228,
      "Ġficam": 8229,
      "ĠSinai": 8230,
      "Ġпроизводство": 8231,
      "ĠMiao": 8232,
      "Ġapocalypse": 8233,
      "Ġrelieved": 8234,
      "Ġمعه": 8235,
      "Ġarchive": 8236,
      "Ġcompless": 8237,
      "picklist": 8238,
      "Ġremarquable": 8239,
      "Ġders": 8240,
      "Ġtmux": 8241,
      "Ġhilo": 8242,
      "Ġwünschen": 8243,
      "Ġdersimizde": 8244,
      "Ġerset": 8245,
      "Ġrequier": 8246,
      "insights": 8247,
      "Ġlouds": 8248,
      "Ġuntersche": 8249,
      "Ġlaterales": 8250,
      "Ġloudspe": 8251,
      "Ġunterscheiden": 8252,
      "Ġnau": 8253,
      "ĠLUT": 8254,
      "ائع": 8255,
      "ĠAlhaji": 8256,
      "Ġдвадцать": 8257,
      "Ġhör": 8258,
      "Ġseals": 8259,
      "ĠDefaults": 8260,
      "Ġкөп": 8261,
      "ولا": 8262,
      "enteuer": 8263,
      "Ġarrondi": 8264,
      "нением": 8265,
      "Ġagricoles": 8266,
      "の説明": 8267,
      "Ġprehr": 8268,
      "Ġmanifesto": 8269,
      "ĠClear": 8270,
      "Ġcoeffs": 8271,
      "Ġповоду": 8272,
      "Ġdrips": 8273,
      "venuti": 8274,
      "ĠTrink": 8275,
      "Ġwirst": 8276,
      "rások": 8277,
      "ĠIncreases": 8278,
      "Ġogranic": 8279,
      "tBleStatus": 8280,
      "Ġentdecken": 8281,
      "Ġbruta": 8282,
      "Ġambulatory": 8283,
      "gefühl": 8284,
      "Ġpotrebno": 8285,
      "yeri": 8286,
      "Ġextracurricular": 8287,
      "ĠsetTasks": 8288,
      "ĠSangh": 8289,
      "ĠBend": 8290,
      "Inher": 8291,
      "Ġstom": 8292,
      "parallax": 8293,
      "ĠSliding": 8294,
      "Ġмехани": 8295,
      "лежа": 8296,
      "Ġdiad": 8297,
      "Ġاخذنا": 8298,
      "Ġlogiciels": 8299,
      "hended": 8300,
      "asını": 8301,
      "Ġtett": 8302,
      "nae": 8303,
      "ĠEnum": 8304,
      "Ġapprehended": 8305,
      "Ġαποτέ": 8306,
      "Ġキャップ": 8307,
      "Ġolika": 8308,
      "Ġmechanically": 8309,
      "Grunge": 8310,
      "aules": 8311,
      "Ġвашу": 8312,
      "Ġépaules": 8313,
      "yyati": 8314,
      "Ġsidelines": 8315,
      "butt": 8316,
      "utani": 8317,
      "Ġgrating": 8318,
      "Ġartigos": 8319,
      "ませんか": 8320,
      "Fi": 8321,
      "Ġmech": 8322,
      "Ġentrop": 8323,
      "Ġorçamento": 8324,
      "Ġfortes": 8325,
      "ĠHumane": 8326,
      "Ġlawyer": 8327,
      "Atoi": 8328,
      "kreis": 8329,
      "Chol": 8330,
      "ĠDamien": 8331,
      "九章": 8332,
      "十九章": 8333,
      "Ġdále": 8334,
      "ograp": 8335,
      "ĠNASDAQ": 8336,
      "Ġthreading": 8337,
      "жидан": 8338,
      "ARRY": 8339,
      "illae": 8340,
      "Ġextremal": 8341,
      "Ġafirmar": 8342,
      "Ġздания": 8343,
      "Ġзала": 8344,
      "ĠХарків": 8345,
      "Hrsg": 8346,
      "rends": 8347,
      "는다": 8348,
      "clause": 8349,
      "лива": 8350,
      "ურად": 8351,
      "Ġkindred": 8352,
      "Ġrubber": 8353,
      "Ġ않는다": 8354,
      "Ġrationalize": 8355,
      "Ġabatement": 8356,
      "Ġobser": 8357,
      "Ġsustainable": 8358,
      "auti": 8359,
      "pointB": 8360,
      "ĠPele": 8361,
      "Ġتسه": 8362,
      "Ġplonge": 8363,
      "TestSuite": 8364,
      "dens": 8365,
      "Ġleçon": 8366,
      "Ġтак": 8367,
      "Ġsepanjang": 8368,
      "Ġmachining": 8369,
      "Ġsakamm": 8370,
      "Ġdécor": 8371,
      "AVC": 8372,
      "TextBoxColumn": 8373,
      "ĠLatvij": 8374,
      "anatomy": 8375,
      "Hydrogen": 8376,
      "dismiss": 8377,
      "etrott": 8378,
      "radio": 8379,
      "ottam": 8380,
      "uxi": 8381,
      "ĠClients": 8382,
      "Accum": 8383,
      "Ġabbastanza": 8384,
      "Ġarsenic": 8385,
      "etrotters": 8386,
      "kite": 8387,
      "setSize": 8388,
      "Ġprosegu": 8389,
      "Ġsidan": 8390,
      "Ġhok": 8391,
      "Ġamulet": 8392,
      "Ġbestow": 8393,
      "Ġbenzyl": 8394,
      "Ġroam": 8395,
      "andelions": 8396,
      "Ġturnovers": 8397,
      "Ġeventual": 8398,
      "ClInclude": 8399,
      "Ġemot": 8400,
      "Ġregistrer": 8401,
      "Ġالثاني": 8402,
      "Ġсклады": 8403,
      "Ġzapewn": 8404,
      "Ġوده": 8405,
      "Ġmunicipalities": 8406,
      "Ġestándares": 8407,
      "Ġcovariates": 8408,
      "ჩევ": 8409,
      "Ġutu": 8410,
      "Ġقاعدة": 8411,
      "Ġsubsidi": 8412,
      "Ġwalkthrough": 8413,
      "Ġjaką": 8414,
      "FuncName": 8415,
      "Ġsống": 8416,
      "ĠCrib": 8417,
      "Ġlaissez": 8418,
      "Ġresign": 8419,
      "Ġumfass": 8420,
      "Ġdictum": 8421,
      "abod": 8422,
      "Ġacho": 8423,
      "ĠPergamon": 8424,
      "Ġroaring": 8425,
      "zeń": 8426,
      "ĠGautam": 8427,
      "Ġstopping": 8428,
      "Ġсопрово": 8429,
      "Ġsniper": 8430,
      "FindAsync": 8431,
      "Ġconstitué": 8432,
      "гада": 8433,
      "Ġterre": 8434,
      "avera": 8435,
      "Ġchadd": 8436,
      "Ġapiece": 8437,
      "cepat": 8438,
      "ĠAutobiography": 8439,
      "DRO": 8440,
      "меч": 8441,
      "Ġelicit": 8442,
      "Ġcheckers": 8443,
      "Ġсервер": 8444,
      "Ġsisi": 8445,
      "Ġautrement": 8446,
      "boh": 8447,
      "Ġeski": 8448,
      "Ġkaryawan": 8449,
      "blkid": 8450,
      "ĠDijon": 8451,
      "Ġпроще": 8452,
      "Ġconfus": 8453,
      "ChildScrollView": 8454,
      "Ġcompassion": 8455,
      "년부터": 8456,
      "Ġaest": 8457,
      "æss": 8458,
      "Ġcilt": 8459,
      "Ġacero": 8460,
      "Ġsaath": 8461,
      "Ġdesple": 8462,
      "Ġcabello": 8463,
      "akura": 8464,
      "setScene": 8465,
      "Ġeroding": 8466,
      "Ġmarrow": 8467,
      "Ġbutts": 8468,
      "Ġоборудования": 8469,
      "ĠSchein": 8470,
      "Ġbaku": 8471,
      "Ġkoup": 8472,
      "Ġshimmer": 8473,
      "Ġenergías": 8474,
      "Ġшколе": 8475,
      "ĠYogi": 8476,
      "Ġdecedent": 8477,
      "Ġмасшта": 8478,
      "lijke": 8479,
      "Fib": 8480,
      "values": 8481,
      "تهم": 8482,
      "Ġovertaking": 8483,
      "Ġdenser": 8484,
      "Ġيستخدم": 8485,
      "ঠন": 8486,
      "Ġzet": 8487,
      "Ġগঠন": 8488,
      "Ġintricacies": 8489,
      "Kids": 8490,
      "地产": 8491,
      "房地产": 8492,
      "Inscription": 8493,
      "srand": 8494,
      "ĠIMAX": 8495,
      "ĠHolton": 8496,
      "Ġchewing": 8497,
      "Ġdieses": 8498,
      "นะนำ": 8499,
      "化合": 8500,
      "ledged": 8501,
      "ланган": 8502,
      "化合物": 8503,
      "NELL": 8504,
      "MessageHandler": 8505,
      "Ġevaporating": 8506,
      "Ġpassivation": 8507,
      "Ġcinque": 8508,
      "École": 8509,
      "šli": 8510,
      "ţin": 8511,
      "ajit": 8512,
      "Ġevol": 8513,
      "Ġokol": 8514,
      "Ġinanimate": 8515,
      "zinger": 8516,
      "ĠBTW": 8517,
      "Ġbaşarılı": 8518,
      "bergement": 8519,
      "Ġsemangat": 8520,
      "ĠArchitecture": 8521,
      "Ġarchitecture": 8522,
      "ĠWaals": 8523,
      "Ġfathom": 8524,
      "CROSS": 8525,
      "Ġstb": 8526,
      "ĠJanu": 8527,
      "Ġunprofessional": 8528,
      "Ġthôn": 8529,
      "Ġالصف": 8530,
      "Ġاعرف": 8531,
      "Ġпроизводстве": 8532,
      "retryWrites": 8533,
      "ĠDSLR": 8534,
      "Ġmush": 8535,
      "ĠMelt": 8536,
      "Ġпроходит": 8537,
      "ulfite": 8538,
      "rotl": 8539,
      "fadeOut": 8540,
      "フレ": 8541,
      "ĠMacaulay": 8542,
      "Ġforwarding": 8543,
      "フレックス": 8544,
      "Ġnuestra": 8545,
      "ĠLasso": 8546,
      "prosperity": 8547,
      "ĠExhaust": 8548,
      "Ġsatunya": 8549,
      "Ġpoužit": 8550,
      "Ġdiscontent": 8551,
      "Rota": 8552,
      "Ġsabor": 8553,
      "Ġdua": 8554,
      "scrape": 8555,
      "ردم": 8556,
      "Ġciencia": 8557,
      "topia": 8558,
      "Ġдвумя": 8559,
      "yukur": 8560,
      "ρία": 8561,
      "Ġconcluded": 8562,
      "flap": 8563,
      "Ġcampi": 8564,
      "Ġcontemplates": 8565,
      "スペック": 8566,
      "Ġدیده": 8567,
      "ĠRusland": 8568,
      "Admiral": 8569,
      "spice": 8570,
      "vertret": 8571,
      "anoramic": 8572,
      "ĠPythagoras": 8573,
      "pending": 8574,
      "Ġregarde": 8575,
      "ĠINVENTION": 8576,
      "Ġсанк": 8577,
      "Ġgabin": 8578,
      "Ġproti": 8579,
      "finden": 8580,
      "OffsetY": 8581,
      "ĠAnspr": 8582,
      "Ġolnud": 8583,
      "Ġcostituito": 8584,
      "ĠTillman": 8585,
      "Ġgabinete": 8586,
      "ogloss": 8587,
      "нике": 8588,
      "ĠQuest": 8589,
      "Ġكند": 8590,
      "Ġcrushing": 8591,
      "ĠFileMode": 8592,
      "ĠChipot": 8593,
      "Ġkristall": 8594,
      "ĠChipotle": 8595,
      "ovala": 8596,
      "Ġzig": 8597,
      "Ġremembered": 8598,
      "Ġülke": 8599,
      "Ġume": 8600,
      "的版本": 8601,
      "ĠBue": 8602,
      "Ġwrist": 8603,
      "Stem": 8604,
      "Ġmenus": 8605,
      "ĠGrunge": 8606,
      "ĠResultSet": 8607,
      "Ġspoonful": 8608,
      "submission": 8609,
      "ĠPOSS": 8610,
      "PubKey": 8611,
      "querySelectorAll": 8612,
      "ziff": 8613,
      "มอบ": 8614,
      "stove": 8615,
      "ĠSms": 8616,
      "ĠPiet": 8617,
      "MinValue": 8618,
      "ĠStreets": 8619,
      "と思われる": 8620,
      "Ġforefront": 8621,
      "Ġندرس": 8622,
      "ĠmediaPlayer": 8623,
      "ädig": 8624,
      "Ġهزار": 8625,
      "Ġsaisons": 8626,
      "Ġdolgo": 8627,
      "Ġritro": 8628,
      "TimeStamp": 8629,
      "Ġfuturo": 8630,
      "Ġcontenir": 8631,
      "Ġsportive": 8632,
      "Ġritrov": 8633,
      "ĠEnvelope": 8634,
      "Ġcrate": 8635,
      "ĠEXIT": 8636,
      "ĠSpecials": 8637,
      "Ġdéliv": 8638,
      "avatt": 8639,
      "ooli": 8640,
      "Ġpresentaron": 8641,
      "ĠTibetan": 8642,
      "Ġmellett": 8643,
      "Ġrerum": 8644,
      "Ġhaystack": 8645,
      "Ġtimpul": 8646,
      "hamming": 8647,
      "Ġgoof": 8648,
      "Ġwiders": 8649,
      "Ġінформа": 8650,
      "BigAutoField": 8651,
      "Ġmeaningless": 8652,
      "ĠWAIT": 8653,
      "assertThat": 8654,
      "ĠJeu": 8655,
      "ĠMission": 8656,
      "getView": 8657,
      "Ġquil": 8658,
      "Ġобов": 8659,
      "örungen": 8660,
      "dimension": 8661,
      "ĠSecond": 8662,
      "ravenous": 8663,
      "exploded": 8664,
      "Ġbicicleta": 8665,
      "Ġproporcionar": 8666,
      "Ġwięks": 8667,
      "ĠMVP": 8668,
      "affine": 8669,
      "ференциа": 8670,
      "Ġrhetorical": 8671,
      "ĠCached": 8672,
      "ĠRfc": 8673,
      "getEmail": 8674,
      "Ġresonate": 8675,
      "Ġپولیس": 8676,
      "Ġrappelle": 8677,
      "Ġfinalizing": 8678,
      "Ġвнутренних": 8679,
      "Ġcef": 8680,
      "Ġprepping": 8681,
      "Offsets": 8682,
      "ĠHabits": 8683,
      "Ġידי": 8684,
      "Ġlanger": 8685,
      "Ġтрен": 8686,
      "forKey": 8687,
      "Alive": 8688,
      "Ġdreadful": 8689,
      "Ġжовтня": 8690,
      "ĠDELHI": 8691,
      "Ġтренер": 8692,
      "forschung": 8693,
      "Ġmila": 8694,
      "selenium": 8695,
      "Ġdoğrudan": 8696,
      "Ġtaki": 8697,
      "Ġleben": 8698,
      "Ġuttered": 8699,
      "ĠArchives": 8700,
      "ĠRussians": 8701,
      "Ġcontenant": 8702,
      "اثیر": 8703,
      "ĠCeg": 8704,
      "Ġتاثیر": 8705,
      "Ġdefray": 8706,
      "conditionals": 8707,
      "ĠWoche": 8708,
      "پان": 8709,
      "Ġusher": 8710,
      "Ġспорта": 8711,
      "Ġconceal": 8712,
      "Ġpastel": 8713,
      "ĠALEXANDER": 8714,
      "ĠTürk": 8715,
      "Ġverão": 8716,
      "ٹرز": 8717,
      "Ġefectu": 8718,
      "طيع": 8719,
      "enstein": 8720,
      "Ġbeginnt": 8721,
      "Ġkullanılır": 8722,
      "LAYOUT": 8723,
      "Ġplaatsen": 8724,
      "Ġcircunferência": 8725,
      "Ġsjäl": 8726,
      "Ġdòng": 8727,
      "Ġdestra": 8728,
      "Ġgeldi": 8729,
      "помним": 8730,
      "ĠPode": 8731,
      "Ġstared": 8732,
      "Ġbenutzt": 8733,
      "Ġampia": 8734,
      "メートル": 8735,
      "izy": 8736,
      "ĠArbeit": 8737,
      "ĠAjax": 8738,
      "Ġсверху": 8739,
      "jra": 8740,
      "Ġdrones": 8741,
      "uyentes": 8742,
      "hae": 8743,
      "Ġnotre": 8744,
      "Ġújra": 8745,
      "ramatta": 8746,
      "awaiter": 8747,
      "Ġovertime": 8748,
      "gifter": 8749,
      "Ġeven": 8750,
      "Ġгода": 8751,
      "Goed": 8752,
      "hij": 8753,
      "ĠSpeck": 8754,
      "áneamente": 8755,
      "oconvex": 8756,
      "Ġsolvents": 8757,
      "Ġredirection": 8758,
      "longer": 8759,
      "Ġaußerhalb": 8760,
      "ĠDaff": 8761,
      "ĠsnakeCubeSize": 8762,
      "एसएल": 8763,
      "Ġwidz": 8764,
      "Ġpripad": 8765,
      "ĠbingoCardArray": 8766,
      "Tunes": 8767,
      "amodel": 8768,
      "ĠBored": 8769,
      "ĠWai": 8770,
      "REW": 8771,
      "GetBytes": 8772,
      "ĠcreateCanvas": 8773,
      "Ġmultiplets": 8774,
      "に関連": 8775,
      "өлү": 8776,
      "Ġdost": 8777,
      "getCqlLeft": 8778,
      "Ġsuficientemente": 8779,
[...]
