{
  "version": "1.0",
  "truncation": null,
  "padding": null,
  "added_tokens": [
    {
      "id": 401,
      "content": "<UNK>",
      "single_word": false,
      "lstrip": false,
      "rstrip": false,
      "normalized": true,
      "special": true
    },
    {
      "id": 402,
      "content": "<｜end▁of▁sentence｜>",
      "single_word": false,
      "lstrip": false,
      "rstrip": false,
      "normalized": true,
      "special": true
    },
    {
      "id": 403,
      "content": "<｜pad｜>",
      "single_word": false,
      "lstrip": false,
      "rstrip": false,
      "normalized": true,
      "special": true
    },
    {
      "id": 404,
      "content": "<｜begin▁of▁sentence｜>",
      "single_word": false,
      "lstrip": false,
      "rstrip": false,
      "normalized": true,
      "special": true
    }
  ],
  "normalizer": {
    "type": "Sequence",
    "normalizers": []
  },
  "pre_tokenizer": {
    "type": "Sequence",
    "pretokenizers": [
      {
        "type": "Split",
        "pattern": {
          "Regex": "[\\r\\n]"
        },
        "behavior": "Isolated",
        "invert": false
      },
      {
        "type": "Split",
        "pattern": {
          "Regex": "\\s?[A-Za-zµÀ-ÖØ-öø-ƺƼ-ƿǄ-ʓʕ-ʯͰ-ͳͶͷͻ-ͽͿΆΈ-ΊΌΎ-ΡΣ-ϵϷ-ҁҊ-ԯԱ-ՖႠ-ჅᎠ-Ᏽᏸ-ᏽᲐ-ᲺᲽ-Ჿᴀ-ᴫᵫ-ᵷᵹ-ᶚḀ-ἕἘ-Ἕἠ-ὅὈ-Ὅὐ-ὗὙὛὝὟ-ώᾀ-ᾴᾶ-ᾼιῂ-ῄῆ-ῌῐ-ΐῖ-Ίῠ-Ῥῲ-ῴῶ-ῼℂℇℊ-ℓℕℙ-ℝℤΩℨK-ℭℯ-ℴℹℼ-ℿⅅ-ⅉⅎↃↄⰀ-ⱻⱾ-ⳤⳫ-ⳮⳲⳳꙀ-ꙭꚀ-ꚛꜢ-ꝯꝱ-ꞇꞋ-ꞎꭰ-ꮿﬀ-ﬆﬓ-ﬗＡ-Ｚａ-ｚ𐐀-𐑏𐒰-𐓓𐓘-𐓻𐲀-𐲲𐳀-𐳲𑢠-𑣟𞤀-𞥃]+"
        },
        "behavior": "Isolated",
        "invert": false
      },
      {
        "type": "Split",
        "pattern": {
          "Regex": "\\s?[!-/:-~！-／：-～‘-‟　-。]+"
        },
        "behavior": "Isolated",
        "invert": false
      },
      {
        "type": "Split",
        "pattern": {
          "Regex": "\\s+$"
        },
        "behavior": "Isolated",
        "invert": false
      },
      {
        "type": "Split",
        "pattern": {
          "Regex": "[一-龥ࠀ-一가-퟿]+"
        },
        "behavior": "Isolated",
        "invert": false
      },
      {
        "type": "Digits",
        "individual_digits": true
      },
      {
        "type": "ByteLevel",
        "add_prefix_space": false,
        "trim_offsets": true,
        "use_regex": false
      }
    ]
  },
  "post_processor": {
    "type": "ByteLevel",
    "add_prefix_space": true,
    "trim_offsets": false,
    "use_regex": true
  },
  "decoder": {
    "type": "ByteLevel",
    "add_prefix_space": true,
    "trim_offsets": true,
    "use_regex": true
  },
  "model": {
    "type": "BPE",
    "dropout": null,
    "unk_token": "<UNK>",
    "continuing_subword_prefix": null,
    "end_of_word_suffix": null,
    "fuse_unk": false,
    "byte_fallback": false,
    "ignore_merges": false,
    "bMax_frequency": true,
    "max_frequency": 254107538,
    "vocab": {
      "er": 0,
      "in": 1,
      "en": 2,
      "on": 3,
      "an": 4,
      "es": 5,
      "at": 6,
      "ar": 7,
      "al": 8,
      "or": 9,
      "ed": 10,
      "st": 11,
      "it": 12,
      "ic": 13,
      "re": 14,
      "Ġc": 15,
      "Ġp": 16,
      "Ġs": 17,
      "le": 18,
      "ing": 19,
      "ro": 20,
      "et": 21,
      "is": 22,
      "el": 23,
      "ent": 24,
      "ion": 25,
      "ra": 26,
      "Ġd": 27,
      "ch": 28,
      "as": 29,
      "un": 30,
      "am": 31,
      "il": 32,
      "Ġm": 33,
      "Ġt": 34,
      "ol": 35,
      "ad": 36,
      "ĠS": 37,
      "ur": 38,
      "om": 39,
      "ut": 40,
      "ĠC": 41,
      "ac": 42,
      "Ġb": 43,
      "id": 44,
      "us": 45,
      "em": 46,
      "os": 47,
      "im": 48,
      "ul": 49,
      "ĠM": 50,
      "Ġf": 51,
      "ig": 52,
      "ct": 53,
      "ĠP": 54,
      "ĠA": 55,
      "ĠB": 56,
      "ab": 57,
      "ag": 58,
      "ot": 59,
      "ri": 60,
      "Ġg": 61,
      "um": 62,
      "ap": 63,
      "Ġh": 64,
      "iv": 65,
      "ers": 66,
      "od": 67,
      "Ġv": 68,
      "ir": 69,
      "qu": 70,
      "ation": 71,
      "Ġn": 72,
      "ĠD": 73,
      "est": 74,
      "ĠT": 75,
      "Ġl": 76,
      "ĠR": 77,
      "oc": 78,
      "Ġin": 79,
      "Ġre": 80,
      "ie": 81,
      "op": 82,
      "ex": 83,
      "ce": 84,
      "Ġk": 85,
      "ak": 86,
      "ant": 87,
      "ĠG": 88,
      "ist": 89,
      "and": 90,
      "ĠH": 91,
      "ال": 92,
      "ĠE": 93,
      "ess": 94,
      "ec": 95,
      "ow": 96,
      "ter": 97,
      "ay": 98,
      "ĠF": 99,
      "og": 100,
      "ĠL": 101,
      "ly": 102,
      "ia": 103,
      "ate": 104,
      "iz": 105,
      "ст": 106,
      "Ġr": 107,
      "av": 108,
      "if": 109,
      "end": 110,
      "ov": 111,
      "Ġw": 112,
      "ip": 113,
      "ĠN": 114,
      "Ġcon": 115,
      "up": 116,
      "Ġп": 117,
      "ub": 118,
      "ang": 119,
      "ĠK": 120,
      "th": 121,
      "eg": 122,
      "In": 123,
      "ен": 124,
      "ud": 125,
      "ib": 126,
      "ik": 127,
      "ра": 128,
      "ĠW": 129,
      "Ġال": 130,
      "te": 131,
      "ob": 132,
      "ect": 133,
      "ine": 134,
      "ff": 135,
      "pl": 136,
      "ah": 137,
      "Ġa": 138,
      "Ġst": 139,
      "ов": 140,
      "ert": 141,
      "art": 142,
      "ug": 143,
      "ep": 144,
      "ens": 145,
      "ell": 146,
      "ĠV": 147,
      "ph": 148,
      "ast": 149,
      "ard": 150,
      "ok": 151,
      "io": 152,
      "ill": 153,
      "ass": 154,
      "ont": 155,
      "ev": 156,
      "ort": 157,
      "uc": 158,
      "und": 159,
      "Ġpro": 160,
      "ies": 161,
      "ht": 162,
      "pt": 163,
      "ment": 164,
      "ity": 165,
      "ial": 166,
      "all": 167,
      "Ġj": 168,
      "но": 169,
      "на": 170,
      "ian": 171,
      "Ġch": 172,
      "ef": 173,
      "eb": 174,
      "Ġс": 175,
      "ne": 176,
      "able": 177,
      "ath": 178,
      "ер": 179,
      "ĠO": 180,
      "ĠI": 181,
      "ind": 182,
      "St": 183,
      "ive": 184,
      "ĠJ": 185,
      "omp": 186,
      "ung": 187,
      "ро": 188,
      "ran": 189,
      "age": 190,
      "se": 191,
      "ord": 192,
      "ко": 193,
      "int": 194,
      "pe": 195,
      "Ġex": 196,
      "cl": 197,
      "he": 198,
      "res": 199,
      "ng": 200,
      "our": 201,
      "Ġم": 202,
      "ust": 203,
      "Ġun": 204,
      "get": 205,
      "Ġe": 206,
      "ost": 207,
      "ult": 208,
      "orm": 209,
      "ure": 210,
      "ek": 211,
      "ric": 212,
      "yl": 213,
      "enc": 214,
      "ка": 215,
      "erm": 216,
      "out": 217,
      "ни": 218,
      "ire": 219,
      "ри": 220,
      "ER": 221,
      "ated": 222,
      "Ġв": 223,
      "ue": 224,
      "ach": 225,
      "ack": 226,
      "Ġо": 227,
      "ll": 228,
      "ier": 229,
      "ان": 230,
      "az": 231,
      "ey": 232,
      "Ġz": 233,
      "ĠU": 234,
      "ors": 235,
      "ре": 236,
      "ain": 237,
      "ли": 238,
      "ou": 239,
      "Ġsp": 240,
      "ile": 241,
      "ew": 242,
      "att": 243,
      "ous": 244,
      "ла": 245,
      "ry": 246,
      "ions": 247,
      "sp": 248,
      "ond": 249,
      "aw": 250,
      "ox": 251,
      "ons": 252,
      "ON": 253,
      "act": 254,
      "uk": 255,
      "per": 256,
      "ich": 257,
      "aj": 258,
      "erv": 259,
      "Ġdis": 260,
      "ет": 261,
      "ann": 262,
      "ار": 263,
      "rit": 264,
      "ele": 265,
      "ical": 266,
      "nd": 267,
      "Ġب": 268,
      "ci": 269,
      "Ġpr": 270,
      "ĠCh": 271,
      "ern": 272,
      "ext": 273,
      "ish": 274,
      "Ġпо": 275,
      "ru": 276,
      "ign": 277,
      "ick": 278,
      "eng": 279,
      "sh": 280,
      "ym": 281,
      "ль": 282,
      "Ġth": 283,
      "ock": 284,
      "unt": 285,
      "au": 286,
      "are": 287,
      "lo": 288,
      "Ġad": 289,
      "ss": 290,
      "ит": 291,
      "ton": 292,
      "Ġا": 293,
      "omm": 294,
      "ight": 295,
      "rad": 296,
      "да": 297,
      "ata": 298,
      "ary": 299,
      "Ġو": 300,
      "rop": 301,
      "ame": 302,
      "го": 303,
      "yn": 304,
      "Ġap": 305,
      "то": 306,
      "ere": 307,
      "Ġim": 308,
      "ва": 309,
      "IN": 310,
      "iss": 311,
      "ient": 312,
      "Ġal": 313,
      "pr": 314,
      "ber": 315,
      "ĠIn": 316,
      "ón": 317,
      "ong": 318,
      "ft": 319,
      "Ġqu": 320,
      "EN": 321,
      "Ġle": 322,
      "ore": 323,
      "sc": 324,
      "Ġac": 325,
      "set": 326,
      "ram": 327,
      "ide": 328,
      "tt": 329,
      "за": 330,
      "iel": 331,
      "ement": 332,
      "ence": 333,
      "ge": 334,
      "ij": 335,
      "Ġм": 336,
      "Ġд": 337,
      "sk": 338,
      "que": 339,
      "не": 340,
      "ны": 341,
      "ya": 342,
      "anc": 343,
      "ES": 344,
      "iew": 345,
      "ject": 346,
      "ark": 347,
      "ти": 348,
      "eh": 349,
      "ĠSt": 350,
      "ez": 351,
      "Ġsh": 352,
      "OR": 353,
      "to": 354,
      "rom": 355,
      "та": 356,
      "co": 357,
      "ax": 358,
      "ins": 359,
      "ite": 360,
      "ode": 361,
      "les": 362,
      "ail": 363,
      "AR": 364,
      "ations": 365,
      "AN": 366,
      "ys": 367,
      "Ġar": 368,
      "ле": 369,
      "pp": 370,
      "Ġت": 371,
      "ator": 372,
      "oll": 373,
      "ash": 374,
      "ari": 375,
      "ver": 376,
      "Ġpl": 377,
      "Ġsc": 378,
      "AT": 379,
      "ron": 380,
      "ice": 381,
      "ale": 382,
      "ло": 383,
      "ance": 384,
      "na": 385,
      "old": 386,
      "oy": 387,
      "row": 388,
      "Ch": 389,
      "Ġб": 390,
      "Ġpre": 391,
      "her": 392,
      "emb": 393,
      "ени": 394,
      "ring": 395,
      "Ġy": 396,
      "те": 397,
      "Ġres": 398,
      "AL": 399,
      "ize": 400,
      "<UNK>": 401
    },
    "old_vocab": {
      "!": 0,
      "\"": 1,
      "#": 2,
      "$": 3,
      "%": 4,
      "&": 5,
      "'": 6,
      "(": 7,
      ")": 8,
      "*": 9,
      "+": 10,
      ",": 11,
      "-": 12,
      ".": 13,
      "/": 14,
      "0": 15,
      "1": 16,
      "2": 17,
      "3": 18,
      "4": 19,
      "5": 20,
      "6": 21,
      "7": 22,
      "8": 23,
      "9": 24,
      ":": 25,
      ";": 26,
      "<": 27,
      "=": 28,
      ">": 29,
      "?": 30,
      "@": 31,
      "A": 32,
      "B": 33,
      "C": 34,
      "D": 35,
      "E": 36,
      "F": 37,
      "G": 38,
      "H": 39,
      "I": 40,
      "J": 41,
      "K": 42,
      "L": 43,
      "M": 44,
      "N": 45,
      "O": 46,
      "P": 47,
      "Q": 48,
      "R": 49,
      "S": 50,
      "T": 51,
      "U": 52,
      "V": 53,
      "W": 54,
      "X": 55,
      "Y": 56,
      "Z": 57,
      "[": 58,
      "\\": 59,
      "]": 60,
      "^": 61,
      "_": 62,
      "`": 63,
      "a": 64,
      "b": 65,
      "c": 66,
      "d": 67,
      "e": 68,
      "f": 69,
      "g": 70,
      "h": 71,
      "i": 72,
      "j": 73,
      "k": 74,
      "l": 75,
      "m": 76,
      "n": 77,
      "o": 78,
      "p": 79,
      "q": 80,
      "r": 81,
      "s": 82,
      "t": 83,
      "u": 84,
      "v": 85,
      "w": 86,
      "x": 87,
      "y": 88,
      "z": 89,
      "{": 90,
      "|": 91,
      "}": 92,
      "~": 93,
      "¡": 94,
      "¢": 95,
      "£": 96,
      "¤": 97,
      "¥": 98,
      "¦": 99,
      "§": 100,
      "¨": 101,
      "©": 102,
      "ª": 103,
      "«": 104,
      "¬": 105,
      "®": 106,
      "¯": 107,
      "°": 108,
      "±": 109,
      "²": 110,
      "³": 111,
      "´": 112,
      "µ": 113,
      "¶": 114,
      "·": 115,
      "¸": 116,
      "¹": 117,
      "º": 118,
      "»": 119,
      "¼": 120,
      "½": 121,
      "¾": 122,
      "¿": 123,
      "À": 124,
      "Á": 125,
      "Â": 126,
      "Ã": 127,
      "Ä": 128,
      "Å": 129,
      "Æ": 130,
      "Ç": 131,
      "È": 132,
      "É": 133,
      "Ê": 134,
      "Ë": 135,
      "Ì": 136,
      "Í": 137,
      "Î": 138,
      "Ï": 139,
      "Ð": 140,
      "Ñ": 141,
      "Ò": 142,
      "Ó": 143,
      "Ô": 144,
      "Õ": 145,
      "Ö": 146,
      "×": 147,
      "Ø": 148,
      "Ù": 149,
      "Ú": 150,
      "Û": 151,
      "Ü": 152,
      "Ý": 153,
      "Þ": 154,
      "ß": 155,
      "à": 156,
      "á": 157,
      "â": 158,
      "ã": 159,
      "ä": 160,
      "å": 161,
      "æ": 162,
      "ç": 163,
      "è": 164,
      "é": 165,
      "ê": 166,
      "ë": 167,
      "ì": 168,
      "í": 169,
      "î": 170,
      "ï": 171,
      "ð": 172,
      "ñ": 173,
      "ò": 174,
      "ó": 175,
      "ô": 176,
      "õ": 177,
      "ö": 178,
      "÷": 179,
      "ø": 180,
      "ù": 181,
      "ú": 182,
      "û": 183,
      "ü": 184,
      "ý": 185,
      "þ": 186,
      "ÿ": 187,
      "Ā": 188,
      "ā": 189,
      "Ă": 190,
      "ă": 191,
      "Ą": 192,
      "ą": 193,
      "Ć": 194,
      "ć": 195,
      "Ĉ": 196,
      "ĉ": 197,
      "Ċ": 198,
      "ċ": 199,
      "Č": 200,
      "č": 201,
      "Ď": 202,
      "ď": 203,
      "Đ": 204,
      "đ": 205,
      "Ē": 206,
      "ē": 207,
      "Ĕ": 208,
      "ĕ": 209,
      "Ė": 210,
      "ė": 211,
      "Ę": 212,
      "ę": 213,
      "Ě": 214,
      "ě": 215,
      "Ĝ": 216,
      "ĝ": 217,
      "Ğ": 218,
      "ğ": 219,
      "Ġ": 220,
      "ġ": 221,
      "Ģ": 222,
      "ģ": 223,
      "Ĥ": 224,
      "ĥ": 225,
      "Ħ": 226,
      "ħ": 227,
      "Ĩ": 228,
      "ĩ": 229,
      "Ī": 230,
      "ī": 231,
      "Ĭ": 232,
      "ĭ": 233,
      "Į": 234,
      "į": 235,
      "İ": 236,
      "ı": 237,
      "Ĳ": 238,
      "ĳ": 239,
      "Ĵ": 240,
      "ĵ": 241,
      "Ķ": 242,
      "ķ": 243,
      "ĸ": 244,
      "Ĺ": 245,
      "ĺ": 246,
      "Ļ": 247,
      "ļ": 248,
      "Ľ": 249,
      "ľ": 250,
      "Ŀ": 251,
      "ŀ": 252,
      "Ł": 253,
      "ł": 254,
      "Ń": 255,
      "ń": 256,
      "ņ": 257,
      "ň": 258,
      "ō": 259,
      "ő": 260,
      "œ": 261,
      "ř": 262,
      "Ś": 263,
      "ś": 264,
      "Ş": 265,
      "ş": 266,
      "Š": 267,
      "š": 268,
      "ţ": 269,
      "ť": 270,
      "ũ": 271,
      "ū": 272,
      "ŭ": 273,
      "ů": 274,
      "ű": 275,
      "ų": 276,
      "ź": 277,
      "ż": 278,
      "ž": 279,
      "ſ": 280,
      "ơ": 281,
      "Ư": 282,
      "ư": 283,
      "ǎ": 284,
      "ǒ": 285,
      "ș": 286,
      "ț": 287,
      "ə": 288,
      "Α": 289,
      "Γ": 290,
      "Δ": 291,
      "Ε": 292,
      "Κ": 293,
      "Μ": 294,
      "Π": 295,
      "Σ": 296,
      "ά": 297,
      "έ": 298,
      "ή": 299,
      "ί": 300,
      "α": 301,
      "β": 302,
      "γ": 303,
      "δ": 304,
      "ε": 305,
      "ζ": 306,
      "η": 307,
      "θ": 308,
      "ι": 309,
      "κ": 310,
      "λ": 311,
      "μ": 312,
      "ν": 313,
      "ξ": 314,
      "ο": 315,
      "π": 316,
      "ρ": 317,
      "ς": 318,
      "σ": 319,
      "τ": 320,
      "υ": 321,
      "φ": 322,
      "χ": 323,
      "ψ": 324,
      "ω": 325,
      "ϊ": 326,
      "ό": 327,
      "ύ": 328,
      "ώ": 329,
      "Є": 330,
      "І": 331,
      "А": 332,
      "Б": 333,
      "В": 334,
      "Г": 335,
      "Д": 336,
      "Е": 337,
      "Ж": 338,
      "З": 339,
      "И": 340,
      "К": 341,
      "Л": 342,
      "М": 343,
      "Н": 344,
      "О": 345,
      "П": 346,
      "Р": 347,
      "С": 348,
      "Т": 349,
      "У": 350,
      "Ф": 351,
      "Х": 352,
      "Ц": 353,
      "Ч": 354,
      "Ш": 355,
      "Ь": 356,
      "Э": 357,
      "Ю": 358,
      "Я": 359,
      "а": 360,
      "б": 361,
      "в": 362,
      "г": 363,
      "д": 364,
      "е": 365,
      "ж": 366,
      "з": 367,
      "и": 368,
      "й": 369,
      "к": 370,
      "л": 371,
      "м": 372,
      "н": 373,
      "о": 374,
      "п": 375,
      "р": 376,
      "с": 377,
      "т": 378,
      "у": 379,
      "ф": 380,
      "х": 381,
      "ц": 382,
      "ч": 383,
      "ш": 384,
      "щ": 385,
      "ъ": 386,
      "ы": 387,
      "ь": 388,
      "э": 389,
      "ю": 390,
      "я": 391,
      "ё": 392,
      "ђ": 393,
      "є": 394,
      "і": 395,
      "ї": 396,
      "ј": 397,
      "љ": 398,
      "њ": 399,
      "ћ": 400,
      "ў": 401,
      "ғ": 402,
      "җ": 403,
      "қ": 404,
      "ң": 405,
      "ү": 406,
      "ҳ": 407,
      "һ": 408,
      "Ӏ": 409,
      "ә": 410,
      "ө": 411,
      "ա": 412,
      "գ": 413,
      "դ": 414,
      "ե": 415,
      "զ": 416,
      "է": 417,
      "ը": 418,
      "թ": 419,
      "ի": 420,
      "լ": 421,
      "ծ": 422,
      "կ": 423,
      "հ": 424,
      "մ": 425,
      "յ": 426,
      "ն": 427,
      "ո": 428,
      "չ": 429,
      "պ": 430,
      "ջ": 431,
      "ռ": 432,
      "ս": 433,
      "վ": 434,
      "տ": 435,
      "ր": 436,
      "ց": 437,
      "ւ": 438,
      "ք": 439,
      "א": 440,
      "ב": 441,
      "ג": 442,
      "ד": 443,
      "ה": 444,
      "ו": 445,
      "ז": 446,
      "ח": 447,
      "ט": 448,
      "י": 449,
      "ך": 450,
      "כ": 451,
      "ל": 452,
      "ם": 453,
      "מ": 454,
      "ן": 455,
      "נ": 456,
      "ס": 457,
      "ע": 458,
      "פ": 459,
      "צ": 460,
      "ק": 461,
      "ר": 462,
      "ש": 463,
      "ת": 464,
      "ء": 465,
      "آ": 466,
      "أ": 467,
      "ؤ": 468,
      "إ": 469,
      "ئ": 470,
      "ا": 471,
      "ب": 472,
      "ة": 473,
      "ت": 474,
      "ث": 475,
      "ج": 476,
      "ح": 477,
      "خ": 478,
      "د": 479,
      "ذ": 480,
      "ر": 481,
      "ز": 482,
      "س": 483,
      "ش": 484,
      "ص": 485,
      "ض": 486,
      "ط": 487,
      "ظ": 488,
      "ع": 489,
      "غ": 490,
      "ـ": 491,
      "ف": 492,
      "ق": 493,
      "ك": 494,
      "ل": 495,
      "م": 496,
      "ن": 497,
      "ه": 498,
      "و": 499,
      "ى": 500,
      "ي": 501,
      "ٹ": 502,
      "ټ": 503,
      "پ": 504,
      "ځ": 505,
      "څ": 506,
      "چ": 507,
      "ڈ": 508,
      "ډ": 509,
      "ڑ": 510,
      "ړ": 511,
      "ږ": 512,
      "ژ": 513,
      "ک": 514,
      "ڪ": 515,
      "ګ": 516,
      "ڭ": 517,
      "گ": 518,
      "ں": 519,
      "ڻ": 520,
      "ھ": 521,
      "ۀ": 522,
      "ہ": 523,
      "ی": 524,
      "ۍ": 525,
      "ێ": 526,
      "ې": 527,
      "ے": 528,
      "ە": 529,
      "अ": 530,
      "आ": 531,
      "इ": 532,
      "ई": 533,
      "उ": 534,
      "ऊ": 535,
      "ऋ": 536,
      "ए": 537,
      "ऑ": 538,
      "ओ": 539,
      "औ": 540,
      "क": 541,
      "ख": 542,
      "ग": 543,
      "घ": 544,
      "च": 545,
      "ज": 546,
      "झ": 547,
      "ट": 548,
      "ठ": 549,
      "ड": 550,
      "ढ": 551,
      "ण": 552,
      "त": 553,
      "थ": 554,
      "द": 555,
      "ध": 556,
      "न": 557,
      "प": 558,
      "फ": 559,
      "ब": 560,
      "भ": 561,
      "म": 562,
      "य": 563,
      "र": 564,
      "ल": 565,
      "ळ": 566,
      "व": 567,
      "श": 568,
      "ष": 569,
      "स": 570,
      "ह": 571,
      "ज़": 572,
      "ड़": 573,
      "অ": 574,
      "আ": 575,
      "ই": 576,
      "উ": 577,
      "এ": 578,
      "ও": 579,
      "ঔ": 580,
      "ক": 581,
      "খ": 582,
      "গ": 583,
      "ঘ": 584,
      "চ": 585,
      "ছ": 586,
      "জ": 587,
      "ট": 588,
      "ঠ": 589,
      "ণ": 590,
      "ত": 591,
      "থ": 592,
      "দ": 593,
      "ধ": 594,
      "ন": 595,
      "প": 596,
      "ফ": 597,
      "ব": 598,
      "ভ": 599,
      "ম": 600,
      "য": 601,
      "র": 602,
      "ল": 603,
      "শ": 604,
      "ষ": 605,
      "স": 606,
      "হ": 607,
      "ৎ": 608,
      "ড়": 609,
      "য়": 610,
      "ਆ": 611,
      "ਕ": 612,
      "ਣ": 613,
      "ਨ": 614,
      "ਪ": 615,
      "ਰ": 616,
      "અ": 617,
      "આ": 618,
      "ઉ": 619,
      "ક": 620,
      "ખ": 621,
      "ગ": 622,
      "જ": 623,
      "ણ": 624,
      "ત": 625,
      "દ": 626,
      "ન": 627,
      "પ": 628,
      "ફ": 629,
      "ભ": 630,
      "મ": 631,
      "ય": 632,
      "ર": 633,
      "લ": 634,
      "ળ": 635,
      "વ": 636,
      "સ": 637,
      "அ": 638,
      "ஆ": 639,
      "இ": 640,
      "உ": 641,
      "க": 642,
      "ச": 643,
      "ட": 644,
      "ண": 645,
      "த": 646,
      "ந": 647,
      "ன": 648,
      "ப": 649,
      "ம": 650,
      "ய": 651,
      "ர": 652,
      "ற": 653,
      "ல": 654,
      "ழ": 655,
      "வ": 656,
      "ఆ": 657,
      "ఇ": 658,
      "క": 659,
      "ఘ": 660,
      "చ": 661,
      "ట": 662,
      "డ": 663,
      "ణ": 664,
      "త": 665,
      "న": 666,
      "య": 667,
      "ర": 668,
      "ల": 669,
      "వ": 670,
      "ಅ": 671,
      "ಇ": 672,
      "ಎ": 673,
      "ಒ": 674,
      "ಔ": 675,
      "ಕ": 676,
      "ಗ": 677,
      "ಜ": 678,
      "ಡ": 679,
      "ಣ": 680,
      "ತ": 681,
      "ದ": 682,
      "ಧ": 683,
      "ನ": 684,
      "ಬ": 685,
      "ಮ": 686,
      "ಯ": 687,
      "ರ": 688,
      "ಲ": 689,
      "ಳ": 690,
      "ವ": 691,
      "ಷ": 692,
      "ಸ": 693,
      "ಹ": 694,
      "അ": 695,
      "ആ": 696,
      "ഉ": 697,
      "ക": 698,
      "ഘ": 699,
      "ട": 700,
      "ണ": 701,
      "ത": 702,
      "ന": 703,
      "പ": 704,
      "ഭ": 705,
      "മ": 706,
      "യ": 707,
      "ര": 708,
      "റ": 709,
      "ഴ": 710,
      "വ": 711,
      "ശ": 712,
      "ഷ": 713,
      "സ": 714,
      "ൻ": 715,
      "ർ": 716,
      "ൽ": 717,
      "අ": 718,
      "ඔ": 719,
      "ක": 720,
      "ඟ": 721,
      "ට": 722,
      "ණ": 723,
      "ත": 724,
      "න": 725,
      "ප": 726,
      "බ": 727,
      "ම": 728,
      "ර": 729,
      "ස": 730,
      "ก": 731,
      "ข": 732,
      "ค": 733,
      "ง": 734,
      "จ": 735,
      "ฉ": 736,
      "ช": 737,
      "ซ": 738,
      "ญ": 739,
      "ฐ": 740,
      "ณ": 741,
      "ด": 742,
      "ต": 743,
      "ถ": 744,
      "ท": 745,
      "ธ": 746,
      "น": 747,
      "บ": 748,
      "ป": 749,
      "ผ": 750,
      "พ": 751,
      "ฟ": 752,
      "ภ": 753,
      "ม": 754,
      "ย": 755,
      "ร": 756,
      "ล": 757,
      "ว": 758,
      "ศ": 759,
      "ษ": 760,
      "ส": 761,
      "ห": 762,
      "อ": 763,
      "ะ": 764,
      "า": 765,
      "ำ": 766,
      "เ": 767,
      "แ": 768,
      "โ": 769,
      "ใ": 770,
      "ไ": 771,
      "ๆ": 772,
      "ກ": 773,
      "ຂ": 774,
      "ຄ": 775,
      "ງ": 776,
      "ຈ": 777,
      "ຍ": 778,
      "ດ": 779,
      "ຕ": 780,
      "ຖ": 781,
      "ທ": 782,
      "ນ": 783,
      "ບ": 784,
      "ປ": 785,
      "ຜ": 786,
      "ພ": 787,
      "ມ": 788,
      "ລ": 789,
      "ວ": 790,
      "ສ": 791,
      "ຫ": 792,
      "ອ": 793,
      "ຮ": 794,
      "ະ": 795,
      "າ": 796,
      "ເ": 797,
      "ແ": 798,
      "ໂ": 799,
      "ໜ": 800,
      "ა": 801,
      "ბ": 802,
      "გ": 803,
      "დ": 804,
      "ე": 805,
      "ვ": 806,
      "ზ": 807,
      "თ": 808,
      "ი": 809,
      "კ": 810,
      "ლ": 811,
      "მ": 812,
      "ნ": 813,
      "ო": 814,
      "პ": 815,
      "რ": 816,
      "ს": 817,
      "ტ": 818,
      "უ": 819,
      "ფ": 820,
      "ქ": 821,
      "ღ": 822,
      "ყ": 823,
      "შ": 824,
      "ჩ": 825,
      "ც": 826,
      "ძ": 827,
      "წ": 828,
      "ჭ": 829,
      "ხ": 830,
      "ჯ": 831,
      "ሁ": 832,
      "ሂ": 833,
      "ሃ": 834,
      "ህ": 835,
      "ሆ": 836,
      "ለ": 837,
      "ሉ": 838,
      "ላ": 839,
      "ሌ": 840,
      "ል": 841,
      "ሎ": 842,
      "መ": 843,
      "ሚ": 844,
      "ማ": 845,
      "ም": 846,
      "ረ": 847,
      "ሪ": 848,
      "ራ": 849,
      "ር": 850,
      "ሮ": 851,
      "ሰ": 852,
      "ሱ": 853,
      "ሳ": 854,
      "ሴ": 855,
      "ስ": 856,
      "ሽ": 857,
      "ቀ": 858,
      "ቃ": 859,
      "ቅ": 860,
      "በ": 861,
      "ባ": 862,
      "ብ": 863,
      "ተ": 864,
      "ታ": 865,
      "ት": 866,
      "ቶ": 867,
      "ቸ": 868,
      "ች": 869,
      "ኋ": 870,
      "ነ": 871,
      "ኒ": 872,
      "ና": 873,
      "ኔ": 874,
      "ን": 875,
      "ኘ": 876,
      "ኛ": 877,
      "ኝ": 878,
      "አ": 879,
      "እ": 880,
      "ከ": 881,
      "ካ": 882,
      "ክ": 883,
      "ኳ": 884,
      "ወ": 885,
      "ው": 886,
      "ዎ": 887,
      "ዐ": 888,
      "ዓ": 889,
      "ዙ": 890,
      "ዚ": 891,
      "የ": 892,
      "ዩ": 893,
      "ያ": 894,
      "ይ": 895,
      "ደ": 896,
      "ዱ": 897,
      "ዲ": 898,
      "ዳ": 899,
      "ዴ": 900,
      "ድ": 901,
      "ጀ": 902,
      "ጃ": 903,
      "ገ": 904,
      "ጊ": 905,
      "ጋ": 906,
      "ግ": 907,
      "ጠ": 908,
      "ጣ": 909,
      "ጥ": 910,
      "ጨ": 911,
      "ፈ": 912,
      "ፊ": 913,
      "ፋ": 914,
      "ፍ": 915,
      "ṇ": 916,
      "ạ": 917,
      "Ả": 918,
      "ả": 919,
      "ấ": 920,
      "ầ": 921,
      "ẩ": 922,
      "ẫ": 923,
      "ậ": 924,
      "ắ": 925,
      "ằ": 926,
      "ẳ": 927,
      "ẵ": 928,
      "ặ": 929,
      "ẹ": 930,
      "ẻ": 931,
      "ế": 932,
      "ề": 933,
      "ể": 934,
      "ễ": 935,
      "ệ": 936,
      "ỉ": 937,
      "ị": 938,
      "ọ": 939,
      "ỏ": 940,
      "ố": 941,
      "ồ": 942,
      "ổ": 943,
      "ỗ": 944,
      "ộ": 945,
      "ớ": 946,
      "ờ": 947,
      "ở": 948,
      "ỡ": 949,
      "ợ": 950,
      "ụ": 951,
      "ủ": 952,
      "ứ": 953,
      "ừ": 954,
      "ử": 955,
      "ữ": 956,
      "ự": 957,
      "ỳ": 958,
      "ỹ": 959,
      "ὴ": 960,
      "ὶ": 961,
      "ὸ": 962,
      "ῦ": 963,
      "ῶ": 964,
      "々": 965,
      "あ": 966,
      "い": 967,
      "う": 968,
      "え": 969,
      "お": 970,
      "か": 971,
      "が": 972,
      "き": 973,
      "ぎ": 974,
      "く": 975,
      "ぐ": 976,
      "け": 977,
      "げ": 978,
      "こ": 979,
      "ご": 980,
      "さ": 981,
      "ざ": 982,
      "し": 983,
      "じ": 984,
      "す": 985,
      "ず": 986,
      "せ": 987,
      "そ": 988,
      "ぞ": 989,
      "た": 990,
      "だ": 991,
      "ち": 992,
      "っ": 993,
      "つ": 994,
      "づ": 995,
      "て": 996,
      "で": 997,
      "と": 998,
      "ど": 999,
      "な": 1000,
      "に": 1001,
      "ぬ": 1002,
      "ね": 1003,
      "の": 1004,
      "は": 1005,
      "ば": 1006,
      "ぱ": 1007,
      "ひ": 1008,
      "び": 1009,
      "ぴ": 1010,
      "ぶ": 1011,
      "ぷ": 1012,
      "べ": 1013,
      "ほ": 1014,
      "ぽ": 1015,
      "ま": 1016,
      "み": 1017,
      "む": 1018,
      "め": 1019,
      "も": 1020,
      "ゃ": 1021,
      "や": 1022,
      "ゆ": 1023,
      "ょ": 1024,
      "よ": 1025,
      "ら": 1026,
      "り": 1027,
      "る": 1028,
      "れ": 1029,
      "ろ": 1030,
      "わ": 1031,
      "を": 1032,
      "ん": 1033,
      "ァ": 1034,
      "ア": 1035,
      "ィ": 1036,
      "イ": 1037,
      "ゥ": 1038,
      "ウ": 1039,
      "ェ": 1040,
      "エ": 1041,
      "ォ": 1042,
      "オ": 1043,
      "カ": 1044,
      "ガ": 1045,
      "キ": 1046,
      "ギ": 1047,
      "ク": 1048,
      "グ": 1049,
      "ケ": 1050,
      "ゲ": 1051,
      "コ": 1052,
      "ゴ": 1053,
      "サ": 1054,
      "ザ": 1055,
      "シ": 1056,
      "ジ": 1057,
      "ス": 1058,
      "ズ": 1059,
      "セ": 1060,
      "ゼ": 1061,
      "ソ": 1062,
      "ゾ": 1063,
      "タ": 1064,
      "ダ": 1065,
      "チ": 1066,
      "ヂ": 1067,
      "ッ": 1068,
      "ツ": 1069,
      "テ": 1070,
      "デ": 1071,
      "ト": 1072,
      "ド": 1073,
      "ナ": 1074,
      "ニ": 1075,
      "ネ": 1076,
      "ノ": 1077,
      "ハ": 1078,
      "バ": 1079,
      "パ": 1080,
      "ヒ": 1081,
      "ビ": 1082,
      "ピ": 1083,
      "フ": 1084,
      "ブ": 1085,
      "プ": 1086,
      "ヘ": 1087,
      "ベ": 1088,
      "ペ": 1089,
      "ホ": 1090,
      "ボ": 1091,
      "ポ": 1092,
      "マ": 1093,
      "ミ": 1094,
      "ム": 1095,
      "メ": 1096,
      "モ": 1097,
      "ャ": 1098,
      "ヤ": 1099,
      "ュ": 1100,
      "ユ": 1101,
      "ョ": 1102,
      "ヨ": 1103,
      "ラ": 1104,
      "リ": 1105,
      "ル": 1106,
      "レ": 1107,
      "ロ": 1108,
      "ワ": 1109,
      "ン": 1110,
      "ヴ": 1111,
      "ー": 1112,
      "ㅋ": 1113,
      "一": 1114,
      "丁": 1115,
      "七": 1116,
      "万": 1117,
      "丈": 1118,
      "三": 1119,
      "上": 1120,
      "下": 1121,
      "不": 1122,
      "与": 1123,
      "专": 1124,
      "世": 1125,
      "业": 1126,
      "东": 1127,
      "两": 1128,
      "严": 1129,
      "並": 1130,
      "个": 1131,
      "中": 1132,
      "丰": 1133,
      "串": 1134,
      "为": 1135,
      "主": 1136,
      "丽": 1137,
      "么": 1138,
      "义": 1139,
      "之": 1140,
      "乐": 1141,
      "九": 1142,
      "也": 1143,
      "习": 1144,
      "书": 1145,
      "了": 1146,
      "争": 1147,
      "事": 1148,
      "二": 1149,
      "于": 1150,
      "云": 1151,
      "互": 1152,
      "五": 1153,
      "亚": 1154,
      "些": 1155,
      "交": 1156,
      "产": 1157,
      "京": 1158,
      "亮": 1159,
      "人": 1160,
      "亿": 1161,
      "什": 1162,
      "仅": 1163,
      "今": 1164,
      "介": 1165,
      "仕": 1166,
      "他": 1167,
      "付": 1168,
      "代": 1169,
      "令": 1170,
      "以": 1171,
      "们": 1172,
      "件": 1173,
      "价": 1174,
      "任": 1175,
      "份": 1176,
      "企": 1177,
      "伍": 1178,
      "众": 1179,
      "优": 1180,
      "伙": 1181,
      "会": 1182,
      "伝": 1183,
      "传": 1184,
      "伯": 1185,
      "伴": 1186,
      "似": 1187,
      "但": 1188,
      "位": 1189,
      "住": 1190,
      "体": 1191,
      "何": 1192,
      "作": 1193,
      "你": 1194,
      "佳": 1195,
      "使": 1196,
      "來": 1197,
      "例": 1198,
      "供": 1199,
      "便": 1200,
      "係": 1201,
      "俄": 1202,
      "保": 1203,
      "信": 1204,
      "俱": 1205,
      "個": 1206,
      "們": 1207,
      "候": 1208,
      "値": 1209,
      "值": 1210,
      "做": 1211,
      "停": 1212,
      "健": 1213,
      "備": 1214,
      "催": 1215,
      "像": 1216,
      "優": 1217,
      "儿": 1218,
      "允": 1219,
      "元": 1220,
      "充": 1221,
      "先": 1222,
      "克": 1223,
      "児": 1224,
      "党": 1225,
      "入": 1226,
      "全": 1227,
      "八": 1228,
      "公": 1229,
      "六": 1230,
      "共": 1231,
      "关": 1232,
      "兴": 1233,
      "其": 1234,
      "具": 1235,
      "典": 1236,
      "内": 1237,
      "円": 1238,
      "再": 1239,
      "写": 1240,
      "冲": 1241,
      "决": 1242,
      "况": 1243,
      "准": 1244,
      "凝": 1245,
      "出": 1246,
      "函": 1247,
      "分": 1248,
      "切": 1249,
      "列": 1250,
      "则": 1251,
      "创": 1252,
      "初": 1253,
      "別": 1254,
      "利": 1255,
      "别": 1256,
      "到": 1257,
      "制": 1258,
      "券": 1259,
      "前": 1260,
      "剧": 1261,
      "剩": 1262,
      "副": 1263,
      "劇": 1264,
      "力": 1265,
      "办": 1266,
      "功": 1267,
      "加": 1268,
      "务": 1269,
      "动": 1270,
      "助": 1271,
      "効": 1272,
      "動": 1273,
      "務": 1274,
      "募": 1275,
      "包": 1276,
      "化": 1277,
      "北": 1278,
      "区": 1279,
      "十": 1280,
      "午": 1281,
      "半": 1282,
      "华": 1283,
      "协": 1284,
      "单": 1285,
      "南": 1286,
      "単": 1287,
      "博": 1288,
      "卡": 1289,
      "却": 1290,
      "历": 1291,
      "原": 1292,
      "厳": 1293,
      "去": 1294,
      "叁": 1295,
      "参": 1296,
      "及": 1297,
      "友": 1298,
      "収": 1299,
      "发": 1300,
      "取": 1301,
      "受": 1302,
      "变": 1303,
      "口": 1304,
      "古": 1305,
      "句": 1306,
      "另": 1307,
      "只": 1308,
      "可": 1309,
      "台": 1310,
      "史": 1311,
      "右": 1312,
      "号": 1313,
      "司": 1314,
      "各": 1315,
      "合": 1316,
      "同": 1317,
      "名": 1318,
      "后": 1319,
      "向": 1320,
      "否": 1321,
      "含": 1322,
      "听": 1323,
      "告": 1324,
      "员": 1325,
      "周": 1326,
      "味": 1327,
      "呼": 1328,
      "命": 1329,
      "和": 1330,
      "品": 1331,
      "哈": 1332,
      "响": 1333,
      "員": 1334,
      "哥": 1335,
      "哪": 1336,
      "唯": 1337,
      "商": 1338,
      "問": 1339,
      "喜": 1340,
      "営": 1341,
      "器": 1342,
      "四": 1343,
      "回": 1344,
      "因": 1345,
      "园": 1346,
      "囲": 1347,
      "図": 1348,
      "围": 1349,
      "国": 1350,
      "图": 1351,
      "圈": 1352,
      "園": 1353,
      "土": 1354,
      "在": 1355,
      "地": 1356,
      "圳": 1357,
      "场": 1358,
      "块": 1359,
      "坡": 1360,
      "型": 1361,
      "城": 1362,
      "域": 1363,
      "基": 1364,
      "埼": 1365,
      "報": 1366,
      "場": 1367,
      "塔": 1368,
      "境": 1369,
      "增": 1370,
      "墨": 1371,
      "士": 1372,
      "声": 1373,
      "売": 1374,
      "壹": 1375,
      "处": 1376,
      "备": 1377,
      "変": 1378,
      "复": 1379,
      "外": 1380,
      "多": 1381,
      "够": 1382,
      "大": 1383,
      "天": 1384,
      "太": 1385,
      "夫": 1386,
      "失": 1387,
      "头": 1388,
      "夹": 1389,
      "奈": 1390,
      "女": 1391,
      "好": 1392,
      "如": 1393,
      "始": 1394,
      "委": 1395,
      "娱": 1396,
      "嬉": 1397,
      "子": 1398,
      "字": 1399,
      "存": 1400,
      "学": 1401,
      "孩": 1402,
      "學": 1403,
      "它": 1404,
      "安": 1405,
      "完": 1406,
      "定": 1407,
      "宝": 1408,
      "实": 1409,
      "実": 1410,
      "客": 1411,
      "室": 1412,
      "宮": 1413,
      "家": 1414,
      "容": 1415,
      "寄": 1416,
      "富": 1417,
      "實": 1418,
      "寧": 1419,
      "对": 1420,
      "导": 1421,
      "対": 1422,
      "専": 1423,
      "将": 1424,
      "小": 1425,
      "少": 1426,
      "尔": 1427,
      "尤": 1428,
      "就": 1429,
      "尼": 1430,
      "尽": 1431,
      "尿": 1432,
      "局": 1433,
      "层": 1434,
      "届": 1435,
      "屋": 1436,
      "展": 1437,
      "属": 1438,
      "層": 1439,
      "島": 1440,
      "川": 1441,
      "工": 1442,
      "巧": 1443,
      "巨": 1444,
      "差": 1445,
      "己": 1446,
      "已": 1447,
      "巴": 1448,
      "币": 1449,
      "市": 1450,
      "布": 1451,
      "师": 1452,
      "希": 1453,
      "带": 1454,
      "帳": 1455,
      "常": 1456,
      "幅": 1457,
      "平": 1458,
      "年": 1459,
      "并": 1460,
      "幼": 1461,
      "广": 1462,
      "庁": 1463,
      "広": 1464,
      "序": 1465,
      "库": 1466,
      "应": 1467,
      "底": 1468,
      "店": 1469,
      "府": 1470,
      "度": 1471,
      "康": 1472,
      "建": 1473,
      "开": 1474,
      "式": 1475,
      "引": 1476,
      "强": 1477,
      "当": 1478,
      "录": 1479,
      "形": 1480,
      "影": 1481,
      "役": 1482,
      "待": 1483,
      "很": 1484,
      "律": 1485,
      "後": 1486,
      "従": 1487,
      "得": 1488,
      "微": 1489,
      "徴": 1490,
      "心": 1491,
      "必": 1492,
      "忍": 1493,
      "志": 1494,
      "忙": 1495,
      "応": 1496,
      "念": 1497,
      "态": 1498,
      "怎": 1499,
      "思": 1500,
      "性": 1501,
      "总": 1502,
      "息": 1503,
      "悉": 1504,
      "您": 1505,
      "情": 1506,
      "想": 1507,
      "意": 1508,
      "愛": 1509,
      "感": 1510,
      "愿": 1511,
      "態": 1512,
      "戏": 1513,
      "成": 1514,
      "我": 1515,
      "或": 1516,
      "戲": 1517,
      "户": 1518,
      "房": 1519,
      "所": 1520,
      "手": 1521,
      "才": 1522,
      "打": 1523,
      "払": 1524,
      "找": 1525,
      "承": 1526,
      "技": 1527,
      "把": 1528,
      "投": 1529,
      "択": 1530,
      "护": 1531,
      "担": 1532,
      "拉": 1533,
      "招": 1534,
      "拟": 1535,
      "拡": 1536,
      "择": 1537,
      "括": 1538,
      "拿": 1539,
      "持": 1540,
      "指": 1541,
      "振": 1542,
      "捌": 1543,
      "换": 1544,
      "据": 1545,
      "排": 1546,
      "採": 1547,
      "接": 1548,
      "控": 1549,
      "推": 1550,
      "提": 1551,
      "搜": 1552,
      "摄": 1553,
      "撒": 1554,
      "操": 1555,
      "擎": 1556,
      "支": 1557,
      "改": 1558,
      "政": 1559,
      "故": 1560,
      "效": 1561,
      "教": 1562,
      "散": 1563,
      "数": 1564,
      "整": 1565,
      "敵": 1566,
      "數": 1567,
      "文": 1568,
      "料": 1569,
      "断": 1570,
      "斯": 1571,
      "新": 1572,
      "方": 1573,
      "施": 1574,
      "无": 1575,
      "日": 1576,
      "时": 1577,
      "明": 1578,
      "易": 1579,
      "是": 1580,
      "显": 1581,
      "時": 1582,
      "普": 1583,
      "晴": 1584,
      "智": 1585,
      "暖": 1586,
      "暮": 1587,
      "曲": 1588,
      "更": 1589,
      "書": 1590,
      "最": 1591,
      "會": 1592,
      "月": 1593,
      "有": 1594,
      "朋": 1595,
      "服": 1596,
      "朗": 1597,
      "望": 1598,
      "期": 1599,
      "未": 1600,
      "本": 1601,
      "术": 1602,
      "机": 1603,
      "杂": 1604,
      "材": 1605,
      "束": 1606,
      "条": 1607,
      "来": 1608,
      "杯": 1609,
      "東": 1610,
      "构": 1611,
      "果": 1612,
      "柒": 1613,
      "染": 1614,
      "柔": 1615,
      "标": 1616,
      "校": 1617,
      "株": 1618,
      "样": 1619,
      "核": 1620,
      "格": 1621,
      "案": 1622,
      "档": 1623,
      "梅": 1624,
      "森": 1625,
      "業": 1626,
      "極": 1627,
      "楽": 1628,
      "概": 1629,
      "榜": 1630,
      "様": 1631,
      "模": 1632,
      "樣": 1633,
      "権": 1634,
      "機": 1635,
      "次": 1636,
      "欢": 1637,
      "欲": 1638,
      "款": 1639,
      "正": 1640,
      "此": 1641,
      "步": 1642,
      "殊": 1643,
      "段": 1644,
      "每": 1645,
      "比": 1646,
      "毕": 1647,
      "民": 1648,
      "気": 1649,
      "氧": 1650,
      "求": 1651,
      "污": 1652,
      "決": 1653,
      "沒": 1654,
      "没": 1655,
      "河": 1656,
      "治": 1657,
      "況": 1658,
      "法": 1659,
      "波": 1660,
      "注": 1661,
      "洋": 1662,
      "活": 1663,
      "流": 1664,
      "浏": 1665,
      "海": 1666,
      "消": 1667,
      "涉": 1668,
      "深": 1669,
      "混": 1670,
      "添": 1671,
      "游": 1672,
      "源": 1673,
      "满": 1674,
      "滤": 1675,
      "漂": 1676,
      "潛": 1677,
      "澳": 1678,
      "炉": 1679,
      "点": 1680,
      "為": 1681,
      "無": 1682,
      "然": 1683,
      "照": 1684,
      "熟": 1685,
      "爱": 1686,
      "片": 1687,
      "版": 1688,
      "牌": 1689,
      "牙": 1690,
      "物": 1691,
      "特": 1692,
      "状": 1693,
      "独": 1694,
      "献": 1695,
      "獲": 1696,
      "率": 1697,
      "玉": 1698,
      "玖": 1699,
      "环": 1700,
      "现": 1701,
      "班": 1702,
      "現": 1703,
      "球": 1704,
      "理": 1705,
      "甚": 1706,
      "生": 1707,
      "用": 1708,
      "由": 1709,
      "申": 1710,
      "电": 1711,
      "男": 1712,
      "画": 1713,
      "界": 1714,
      "異": 1715,
      "疫": 1716,
      "病": 1717,
      "発": 1718,
      "登": 1719,
      "白": 1720,
      "百": 1721,
      "的": 1722,
      "皆": 1723,
      "监": 1724,
      "目": 1725,
      "直": 1726,
      "相": 1727,
      "省": 1728,
      "看": 1729,
      "県": 1730,
      "真": 1731,
      "眼": 1732,
      "着": 1733,
      "督": 1734,
      "知": 1735,
      "石": 1736,
      "码": 1737,
      "研": 1738,
      "础": 1739,
      "确": 1740,
      "確": 1741,
      "示": 1742,
      "社": 1743,
      "神": 1744,
      "离": 1745,
      "秀": 1746,
      "私": 1747,
      "种": 1748,
      "科": 1749,
      "称": 1750,
      "程": 1751,
      "稚": 1752,
      "種": 1753,
      "稳": 1754,
      "積": 1755,
      "究": 1756,
      "空": 1757,
      "立": 1758,
      "竞": 1759,
      "章": 1760,
      "端": 1761,
      "笔": 1762,
      "符": 1763,
      "第": 1764,
      "等": 1765,
      "筑": 1766,
      "简": 1767,
      "算": 1768,
      "管": 1769,
      "篇": 1770,
      "簡": 1771,
      "簽": 1772,
      "米": 1773,
      "类": 1774,
      "精": 1775,
      "糖": 1776,
      "系": 1777,
      "素": 1778,
      "索": 1779,
      "紫": 1780,
      "細": 1781,
      "紹": 1782,
      "終": 1783,
      "組": 1784,
      "経": 1785,
      "結": 1786,
      "絡": 1787,
      "給": 1788,
      "絶": 1789,
      "続": 1790,
      "綺": 1791,
      "緒": 1792,
      "線": 1793,
      "締": 1794,
      "繁": 1795,
      "繋": 1796,
      "繰": 1797,
      "级": 1798,
      "线": 1799,
      "组": 1800,
      "织": 1801,
      "绍": 1802,
      "经": 1803,
      "结": 1804,
      "给": 1805,
      "络": 1806,
      "统": 1807,
      "继": 1808,
      "续": 1809,
      "维": 1810,
      "缓": 1811,
      "编": 1812,
      "网": 1813,
      "罗": 1814,
      "置": 1815,
      "美": 1816,
      "考": 1817,
      "者": 1818,
      "而": 1819,
      "耶": 1820,
      "联": 1821,
      "聞": 1822,
      "肆": 1823,
      "股": 1824,
      "肯": 1825,
      "育": 1826,
      "能": 1827,
      "腕": 1828,
      "自": 1829,
      "至": 1830,
      "致": 1831,
      "航": 1832,
      "般": 1833,
      "良": 1834,
      "色": 1835,
      "艺": 1836,
      "节": 1837,
      "英": 1838,
      "范": 1839,
      "获": 1840,
      "萄": 1841,
      "营": 1842,
      "落": 1843,
      "著": 1844,
      "葡": 1845,
      "董": 1846,
      "虑": 1847,
      "虚": 1848,
      "蛋": 1849,
      "行": 1850,
      "術": 1851,
      "衣": 1852,
      "表": 1853,
      "被": 1854,
      "裙": 1855,
      "裡": 1856,
      "製": 1857,
      "複": 1858,
      "西": 1859,
      "要": 1860,
      "見": 1861,
      "規": 1862,
      "視": 1863,
      "覚": 1864,
      "覧": 1865,
      "覺": 1866,
      "见": 1867,
      "观": 1868,
      "规": 1869,
      "视": 1870,
      "览": 1871,
      "觉": 1872,
      "角": 1873,
      "解": 1874,
      "言": 1875,
      "計": 1876,
      "記": 1877,
      "設": 1878,
      "許": 1879,
      "詳": 1880,
      "認": 1881,
      "誕": 1882,
      "語": 1883,
      "說": 1884,
      "説": 1885,
      "読": 1886,
      "調": 1887,
      "講": 1888,
      "謝": 1889,
      "證": 1890,
      "議": 1891,
      "讓": 1892,
      "计": 1893,
      "认": 1894,
      "让": 1895,
      "记": 1896,
      "许": 1897,
      "论": 1898,
      "设": 1899,
      "访": 1900,
      "证": 1901,
      "识": 1902,
      "诉": 1903,
      "词": 1904,
      "译": 1905,
      "话": 1906,
      "该": 1907,
      "误": 1908,
      "说": 1909,
      "请": 1910,
      "读": 1911,
      "谓": 1912,
      "豊": 1913,
      "象": 1914,
      "財": 1915,
      "販": 1916,
      "買": 1917,
      "費": 1918,
      "質": 1919,
      "購": 1920,
      "贈": 1921,
      "负": 1922,
      "责": 1923,
      "质": 1924,
      "购": 1925,
      "费": 1926,
      "资": 1927,
      "赤": 1928,
      "起": 1929,
      "超": 1930,
      "越": 1931,
      "趣": 1932,
      "足": 1933,
      "跟": 1934,
      "路": 1935,
      "身": 1936,
      "車": 1937,
      "転": 1938,
      "軽": 1939,
      "較": 1940,
      "輸": 1941,
      "车": 1942,
      "转": 1943,
      "软": 1944,
      "轻": 1945,
      "较": 1946,
      "辑": 1947,
      "输": 1948,
      "辨": 1949,
      "込": 1950,
      "达": 1951,
      "过": 1952,
      "迎": 1953,
      "运": 1954,
      "近": 1955,
      "返": 1956,
      "还": 1957,
      "这": 1958,
      "进": 1959,
      "连": 1960,
      "迪": 1961,
      "追": 1962,
      "送": 1963,
      "适": 1964,
      "选": 1965,
      "逊": 1966,
      "這": 1967,
      "通": 1968,
      "速": 1969,
      "造": 1970,
      "連": 1971,
      "遇": 1972,
      "遊": 1973,
      "過": 1974,
      "道": 1975,
      "違": 1976,
      "適": 1977,
      "選": 1978,
      "還": 1979,
      "那": 1980,
      "邮": 1981,
      "部": 1982,
      "都": 1983,
      "配": 1984,
      "酒": 1985,
      "采": 1986,
      "里": 1987,
      "重": 1988,
      "量": 1989,
      "金": 1990,
      "録": 1991,
      "链": 1992,
      "销": 1993,
      "错": 1994,
      "键": 1995,
      "長": 1996,
      "长": 1997,
      "門": 1998,
      "開": 1999,
      "間": 2000,
      "関": 2001,
      "閲": 2002,
      "關": 2003,
      "门": 2004,
      "问": 2005,
      "间": 2006,
      "阅": 2007,
      "防": 2008,
      "阿": 2009,
      "附": 2010,
      "际": 2011,
      "限": 2012,
      "院": 2013,
      "除": 2014,
      "隐": 2015,
      "際": 2016,
      "雅": 2017,
      "集": 2018,
      "難": 2019,
      "雰": 2020,
      "零": 2021,
      "電": 2022,
      "需": 2023,
      "青": 2024,
      "非": 2025,
      "面": 2026,
      "音": 2027,
      "響": 2028,
      "頂": 2029,
      "項": 2030,
      "頭": 2031,
      "題": 2032,
      "願": 2033,
      "類": 2034,
      "页": 2035,
      "项": 2036,
      "须": 2037,
      "领": 2038,
      "题": 2039,
      "额": 2040,
      "食": 2041,
      "飲": 2042,
      "館": 2043,
      "馆": 2044,
      "駅": 2045,
      "駐": 2046,
      "马": 2047,
      "验": 2048,
      "高": 2049,
      "鹿": 2050,
      "麗": 2051,
      "麼": 2052,
      "黑": 2053,
      "가": 2054,
      "각": 2055,
      "간": 2056,
      "감": 2057,
      "갑": 2058,
      "같": 2059,
      "개": 2060,
      "갤": 2061,
      "거": 2062,
      "건": 2063,
      "겁": 2064,
      "것": 2065,
      "게": 2066,
      "겠": 2067,
      "결": 2068,
      "경": 2069,
      "계": 2070,
      "고": 2071,
      "곱": 2072,
      "공": 2073,
      "과": 2074,
      "관": 2075,
      "광": 2076,
      "굉": 2077,
      "교": 2078,
      "구": 2079,
      "국": 2080,
      "그": 2081,
      "글": 2082,
      "금": 2083,
      "기": 2084,
      "길": 2085,
      "까": 2086,
      "나": 2087,
      "난": 2088,
      "내": 2089,
      "너": 2090,
      "네": 2091,
      "넷": 2092,
      "년": 2093,
      "녕": 2094,
      "노": 2095,
      "는": 2096,
      "늘": 2097,
      "능": 2098,
      "니": 2099,
      "님": 2100,
      "다": 2101,
      "단": 2102,
      "답": 2103,
      "당": 2104,
      "대": 2105,
      "더": 2106,
      "데": 2107,
      "도": 2108,
      "동": 2109,
      "되": 2110,
      "된": 2111,
      "됩": 2112,
      "드": 2113,
      "든": 2114,
      "들": 2115,
      "등": 2116,
      "디": 2117,
      "따": 2118,
      "때": 2119,
      "떻": 2120,
      "라": 2121,
      "람": 2122,
      "랍": 2123,
      "래": 2124,
      "랜": 2125,
      "램": 2126,
      "랫": 2127,
      "러": 2128,
      "럭": 2129,
      "런": 2130,
      "럼": 2131,
      "렇": 2132,
      "레": 2133,
      "려": 2134,
      "련": 2135,
      "령": 2136,
      "로": 2137,
      "록": 2138,
      "롤": 2139,
      "르": 2140,
      "른": 2141,
      "를": 2142,
      "름": 2143,
      "리": 2144,
      "릭": 2145,
      "린": 2146,
      "립": 2147,
      "마": 2148,
      "막": 2149,
      "만": 2150,
      "말": 2151,
      "머": 2152,
      "메": 2153,
      "며": 2154,
      "면": 2155,
      "명": 2156,
      "모": 2157,
      "무": 2158,
      "문": 2159,
      "뭐": 2160,
      "미": 2161,
      "민": 2162,
      "바": 2163,
      "반": 2164,
      "발": 2165,
      "밝": 2166,
      "방": 2167,
      "버": 2168,
      "벌": 2169,
      "법": 2170,
      "베": 2171,
      "벤": 2172,
      "변": 2173,
      "별": 2174,
      "보": 2175,
      "본": 2176,
      "볼": 2177,
      "봅": 2178,
      "부": 2179,
      "북": 2180,
      "분": 2181,
      "불": 2182,
      "브": 2183,
      "블": 2184,
      "비": 2185,
      "빠": 2186,
      "사": 2187,
      "산": 2188,
      "살": 2189,
      "삼": 2190,
      "삽": 2191,
      "상": 2192,
      "새": 2193,
      "생": 2194,
      "서": 2195,
      "선": 2196,
      "설": 2197,
      "세": 2198,
      "션": 2199,
      "소": 2200,
      "수": 2201,
      "순": 2202,
      "스": 2203,
      "습": 2204,
      "슷": 2205,
      "시": 2206,
      "식": 2207,
      "신": 2208,
      "실": 2209,
      "심": 2210,
      "십": 2211,
      "써": 2212,
      "씀": 2213,
      "아": 2214,
      "안": 2215,
      "않": 2216,
      "알": 2217,
      "암": 2218,
      "았": 2219,
      "앞": 2220,
      "야": 2221,
      "양": 2222,
      "얘": 2223,
      "어": 2224,
      "언": 2225,
      "얼": 2226,
      "업": 2227,
      "없": 2228,
      "었": 2229,
      "에": 2230,
      "여": 2231,
      "역": 2232,
      "열": 2233,
      "였": 2234,
      "영": 2235,
      "예": 2236,
      "오": 2237,
      "온": 2238,
      "와": 2239,
      "완": 2240,
      "요": 2241,
      "용": 2242,
      "우": 2243,
      "운": 2244,
      "울": 2245,
      "움": 2246,
      "워": 2247,
      "원": 2248,
      "위": 2249,
      "유": 2250,
      "으": 2251,
      "은": 2252,
      "을": 2253,
      "음": 2254,
      "의": 2255,
      "이": 2256,
      "인": 2257,
      "일": 2258,
      "입": 2259,
      "있": 2260,
      "자": 2261,
      "작": 2262,
      "잖": 2263,
      "장": 2264,
      "재": 2265,
      "적": 2266,
      "전": 2267,
      "점": 2268,
      "정": 2269,
      "제": 2270,
      "젝": 2271,
      "조": 2272,
      "존": 2273,
      "좋": 2274,
      "죠": 2275,
      "주": 2276,
      "준": 2277,
      "줍": 2278,
      "중": 2279,
      "즈": 2280,
      "지": 2281,
      "진": 2282,
      "쪽": 2283,
      "차": 2284,
      "찬": 2285,
      "처": 2286,
      "체": 2287,
      "최": 2288,
      "츠": 2289,
      "카": 2290,
      "캐": 2291,
      "컨": 2292,
      "컴": 2293,
      "코": 2294,
      "콘": 2295,
      "크": 2296,
      "키": 2297,
      "타": 2298,
      "탄": 2299,
      "태": 2300,
      "터": 2301,
      "털": 2302,
      "테": 2303,
      "텐": 2304,
      "템": 2305,
      "토": 2306,
      "통": 2307,
      "튜": 2308,
      "트": 2309,
      "특": 2310,
      "파": 2311,
      "페": 2312,
      "펴": 2313,
      "포": 2314,
      "폼": 2315,
      "퓨": 2316,
      "프": 2317,
      "플": 2318,
      "필": 2319,
      "하": 2320,
      "학": 2321,
      "한": 2322,
      "할": 2323,
      "함": 2324,
      "합": 2325,
      "해": 2326,
      "했": 2327,
      "향": 2328,
      "혔": 2329,
      "형": 2330,
      "홈": 2331,
      "확": 2332,
      "회": 2333,
      "히": 2334,
      "Ａ": 2335,
      "Ｅ": 2336,
      "Ｎ": 2337,
      "Ｐ": 2338,
      "er": 2339,
      "in": 2340,
      "en": 2341,
      "on": 2342,
      "an": 2343,
      "es": 2344,
      "at": 2345,
      "ar": 2346,
      "al": 2347,
      "or": 2348,
      "ed": 2349,
      "st": 2350,
      "it": 2351,
      "ic": 2352,
      "re": 2353,
      "Ġc": 2354,
      "Ġp": 2355,
      "Ġs": 2356,
      "le": 2357,
      "ing": 2358,
      "ro": 2359,
      "et": 2360,
      "is": 2361,
      "el": 2362,
      "ent": 2363,
      "ion": 2364,
      "ra": 2365,
      "Ġd": 2366,
      "ch": 2367,
      "as": 2368,
      "un": 2369,
      "am": 2370,
      "il": 2371,
      "Ġm": 2372,
      "Ġt": 2373,
      "ol": 2374,
      "ad": 2375,
      "ĠS": 2376,
      "ur": 2377,
      "om": 2378,
      "ut": 2379,
      "ĠC": 2380,
      "ac": 2381,
      "Ġb": 2382,
      "id": 2383,
      "us": 2384,
      "em": 2385,
      "os": 2386,
      "im": 2387,
      "ul": 2388,
      "ĠM": 2389,
      "Ġf": 2390,
      "ig": 2391,
      "ct": 2392,
      "ĠP": 2393,
      "ĠA": 2394,
      "ĠB": 2395,
      "ab": 2396,
      "ag": 2397,
      "ot": 2398,
      "ri": 2399,
      "Ġg": 2400,
      "um": 2401,
      "ap": 2402,
      "Ġh": 2403,
      "iv": 2404,
      "ers": 2405,
      "od": 2406,
      "Ġv": 2407,
      "ir": 2408,
      "qu": 2409,
      "ation": 2410,
      "Ġn": 2411,
      "ĠD": 2412,
      "est": 2413,
      "ĠT": 2414,
      "Ġl": 2415,
      "ĠR": 2416,
      "oc": 2417,
      "Ġin": 2418,
      "Ġre": 2419,
      "ie": 2420,
      "op": 2421,
      "ex": 2422,
      "ce": 2423,
      "Ġk": 2424,
      "ak": 2425,
      "ant": 2426,
      "ĠG": 2427,
      "ist": 2428,
      "and": 2429,
      "ĠH": 2430,
      "ال": 2431,
      "ĠE": 2432,
      "ess": 2433,
      "ec": 2434,
      "ow": 2435,
      "ter": 2436,
      "ay": 2437,
      "ĠF": 2438,
      "og": 2439,
      "ĠL": 2440,
      "ly": 2441,
      "ia": 2442,
      "ate": 2443,
      "iz": 2444,
      "ст": 2445,
      "Ġr": 2446,
      "av": 2447,
      "if": 2448,
      "end": 2449,
      "ov": 2450,
      "Ġw": 2451,
      "ip": 2452,
      "ĠN": 2453,
      "Ġcon": 2454,
      "up": 2455,
      "Ġп": 2456,
      "ub": 2457,
      "ang": 2458,
      "ĠK": 2459,
      "th": 2460,
      "eg": 2461,
      "In": 2462,
      "ен": 2463,
      "ud": 2464,
      "ib": 2465,
      "ik": 2466,
      "ра": 2467,
      "ĠW": 2468,
      "Ġال": 2469,
      "te": 2470,
      "ob": 2471,
      "ect": 2472,
      "ine": 2473,
      "ff": 2474,
      "pl": 2475,
      "ah": 2476,
      "Ġa": 2477,
      "Ġst": 2478,
      "ов": 2479,
      "ert": 2480,
      "art": 2481,
      "ug": 2482,
      "ep": 2483,
      "ens": 2484,
      "ell": 2485,
      "ĠV": 2486,
      "ph": 2487,
      "ast": 2488,
      "ard": 2489,
      "ok": 2490,
      "io": 2491,
      "ill": 2492,
      "ass": 2493,
      "ont": 2494,
      "ev": 2495,
      "ort": 2496,
      "uc": 2497,
      "und": 2498,
      "Ġpro": 2499,
      "ies": 2500,
      "ht": 2501,
      "pt": 2502,
      "ment": 2503,
      "ity": 2504,
      "ial": 2505,
      "all": 2506,
      "Ġj": 2507,
      "но": 2508,
      "на": 2509,
      "ian": 2510,
      "Ġch": 2511,
      "ef": 2512,
      "eb": 2513,
      "Ġс": 2514,
      "ne": 2515,
      "able": 2516,
      "ath": 2517,
      "ер": 2518,
      "ĠO": 2519,
      "ĠI": 2520,
      "ind": 2521,
      "St": 2522,
      "ive": 2523,
      "ĠJ": 2524,
      "omp": 2525,
      "ung": 2526,
      "ро": 2527,
      "ran": 2528,
      "age": 2529,
      "se": 2530,
      "ord": 2531,
      "ко": 2532,
      "int": 2533,
      "pe": 2534,
      "Ġex": 2535,
      "cl": 2536,
      "he": 2537,
      "res": 2538,
      "ng": 2539,
      "our": 2540,
      "Ġم": 2541,
      "ust": 2542,
      "Ġun": 2543,
      "get": 2544,
      "Ġe": 2545,
      "ost": 2546,
      "ult": 2547,
      "orm": 2548,
      "ure": 2549,
      "ek": 2550,
      "ric": 2551,
      "yl": 2552,
      "enc": 2553,
      "ка": 2554,
      "erm": 2555,
      "out": 2556,
      "ни": 2557,
      "ire": 2558,
      "ри": 2559,
      "ER": 2560,
      "ated": 2561,
      "Ġв": 2562,
      "ue": 2563,
      "ach": 2564,
      "ack": 2565,
      "Ġо": 2566,
      "ll": 2567,
      "ier": 2568,
      "ان": 2569,
      "az": 2570,
      "ey": 2571,
      "Ġz": 2572,
      "ĠU": 2573,
      "ors": 2574,
      "ре": 2575,
      "ain": 2576,
      "ли": 2577,
      "ou": 2578,
      "Ġsp": 2579,
      "ile": 2580,
      "ew": 2581,
      "att": 2582,
      "ous": 2583,
      "ла": 2584,
      "ry": 2585,
      "ions": 2586,
      "sp": 2587,
      "ond": 2588,
      "aw": 2589,
      "ox": 2590,
      "ons": 2591,
      "ON": 2592,
      "act": 2593,
      "uk": 2594,
      "per": 2595,
      "ich": 2596,
      "aj": 2597,
      "erv": 2598,
      "Ġdis": 2599,
      "ет": 2600,
      "ann": 2601,
      "ار": 2602,
      "rit": 2603,
      "ele": 2604,
      "ical": 2605,
      "nd": 2606,
      "Ġب": 2607,
      "ci": 2608,
      "Ġpr": 2609,
      "ĠCh": 2610,
      "ern": 2611,
      "ext": 2612,
      "ish": 2613,
      "Ġпо": 2614,
      "ru": 2615,
      "ign": 2616,
      "ick": 2617,
      "eng": 2618,
      "sh": 2619,
      "ym": 2620,
      "ль": 2621,
      "Ġth": 2622,
      "ock": 2623,
      "unt": 2624,
      "au": 2625,
      "are": 2626,
      "lo": 2627,
      "Ġad": 2628,
      "ss": 2629,
      "ит": 2630,
      "ton": 2631,
      "Ġا": 2632,
      "omm": 2633,
      "ight": 2634,
      "rad": 2635,
      "да": 2636,
      "ata": 2637,
      "ary": 2638,
      "Ġو": 2639,
      "rop": 2640,
      "ame": 2641,
      "го": 2642,
      "yn": 2643,
      "Ġap": 2644,
      "то": 2645,
      "ere": 2646,
      "Ġim": 2647,
      "ва": 2648,
      "IN": 2649,
      "iss": 2650,
      "ient": 2651,
      "Ġal": 2652,
      "pr": 2653,
      "ber": 2654,
      "ĠIn": 2655,
      "ón": 2656,
      "ong": 2657,
      "ft": 2658,
      "Ġqu": 2659,
      "EN": 2660,
      "Ġle": 2661,
      "ore": 2662,
      "sc": 2663,
      "Ġac": 2664,
      "set": 2665,
      "ram": 2666,
      "ide": 2667,
      "tt": 2668,
      "за": 2669,
      "iel": 2670,
      "ement": 2671,
      "ence": 2672,
      "ge": 2673,
      "ij": 2674,
      "Ġм": 2675,
      "Ġд": 2676,
      "sk": 2677,
      "que": 2678,
      "не": 2679,
      "ны": 2680,
      "ya": 2681,
      "anc": 2682,
      "ES": 2683,
      "iew": 2684,
      "ject": 2685,
      "ark": 2686,
      "ти": 2687,
      "eh": 2688,
      "ĠSt": 2689,
      "ez": 2690,
      "Ġsh": 2691,
      "OR": 2692,
      "to": 2693,
      "rom": 2694,
      "та": 2695,
      "co": 2696,
      "ax": 2697,
      "ins": 2698,
      "ite": 2699,
      "ode": 2700,
      "les": 2701,
      "ail": 2702,
      "AR": 2703,
      "ations": 2704,
      "AN": 2705,
      "ys": 2706,
      "Ġar": 2707,
      "ле": 2708,
      "pp": 2709,
      "Ġت": 2710,
      "ator": 2711,
      "oll": 2712,
      "ash": 2713,
      "ari": 2714,
      "ver": 2715,
      "Ġpl": 2716,
      "Ġsc": 2717,
      "AT": 2718,
      "ron": 2719,
      "ice": 2720,
      "ale": 2721,
      "ло": 2722,
      "ance": 2723,
      "na": 2724,
      "old": 2725,
      "oy": 2726,
      "row": 2727,
      "Ch": 2728,
      "Ġб": 2729,
      "Ġpre": 2730,
      "her": 2731,
      "emb": 2732,
      "ени": 2733,
      "ring": 2734,
      "Ġy": 2735,
      "те": 2736,
      "Ġres": 2737,
      "AL": 2738,
      "ize": 2739,
      "<UNK>": 2740
    },
    "merges": [
      "e r",
      "i n",
      "e n",
      "o n",
      "a n",
      "e s",
      "a t",
      "a r",
      "a l",
      "o r",
      "e d",
      "s t",
      "i t",
      "i c",
      "r e",
      "Ġ c",
      "Ġ p",
      "Ġ s",
      "l e",
      "in g",
      "r o",
      "e t",
      "i s",
      "e l",
      "en t",
      "i on",
      "r a",
      "Ġ d",
      "c h",
      "a s",
      "u n",
      "a m",
      "i l",
      "Ġ m",
      "Ġ t",
      "o l",
      "a d",
      "Ġ S",
      "u r",
      "o m",
      "u t",
      "Ġ C",
      "a c",
      "Ġ b",
      "i d",
      "u s",
      "e m",
      "o s",
      "i m",
      "u l",
      "Ġ M",
      "Ġ f",
      "i g",
      "c t",
      "Ġ P",
      "Ġ A",
      "Ġ B",
      "a b",
      "a g",
      "o t",
      "r i",
      "Ġ g",
      "u m",
      "a p",
      "Ġ h",
      "i v",
      "er s",
      "o d",
      "Ġ v",
      "i r",
      "q u",
      "at ion",
      "Ġ n",
      "Ġ D",
      "es t",
      "Ġ T",
      "Ġ l",
      "Ġ R",
      "o c",
      "Ġ in",
      "Ġ re",
      "i e",
      "o p",
      "e x",
      "c e",
      "Ġ k",
      "a k",
      "an t",
      "Ġ G",
      "i st",
      "an d",
      "Ġ H",
      "ا ل",
      "Ġ E",
      "es s",
      "e c",
      "o w",
      "t er",
      "a y",
      "Ġ F",
      "o g",
      "Ġ L",
      "l y",
      "i a",
      "at e",
      "i z",
      "с т",
      "Ġ r",
      "a v",
      "i f",
      "en d",
      "o v",
      "Ġ w",
      "i p",
      "Ġ N",
      "Ġc on",
      "u p",
      "Ġ п",
      "u b",
      "an g",
      "Ġ K",
      "t h",
      "e g",
      "I n",
      "е н",
      "u d",
      "i b",
      "i k",
      "р а",
      "Ġ W",
      "Ġ ال",
      "t e",
      "o b",
      "e ct",
      "in e",
      "f f",
      "p l",
      "a h",
      "Ġ a",
      "Ġ st",
      "о в",
      "er t",
      "ar t",
      "u g",
      "e p",
      "en s",
      "el l",
      "Ġ V",
      "p h",
      "a st",
      "ar d",
      "o k",
      "i o",
      "il l",
      "as s",
      "on t",
      "e v",
      "or t",
      "u c",
      "un d",
      "Ġp ro",
      "i es",
      "h t",
      "p t",
      "m ent",
      "it y",
      "i al",
      "al l",
      "Ġ j",
      "н о",
      "н а",
      "i an",
      "Ġc h",
      "e f",
      "e b",
      "Ġ с",
      "n e",
      "ab le",
      "at h",
      "е р",
      "Ġ O",
      "Ġ I",
      "in d",
      "S t",
      "iv e",
      "Ġ J",
      "om p",
      "un g",
      "р о",
      "r an",
      "ag e",
      "s e",
      "or d",
      "к о",
      "in t",
      "p e",
      "Ġ ex",
      "c l",
      "h e",
      "r es",
      "n g",
      "o ur",
      "Ġ م",
      "u st",
      "Ġ un",
      "g et",
      "Ġ e",
      "o st",
      "ul t",
      "or m",
      "u re",
      "e k",
      "r ic",
      "y l",
      "en c",
      "к а",
      "er m",
      "o ut",
      "н и",
      "i re",
      "р и",
      "E R",
      "at ed",
      "Ġ в",
      "u e",
      "a ch",
      "ac k",
      "Ġ о",
      "l l",
      "i er",
      "ا ن",
      "a z",
      "e y",
      "Ġ z",
      "Ġ U",
      "or s",
      "р е",
      "a in",
      "л и",
      "o u",
      "Ġs p",
      "i le",
      "e w",
      "at t",
      "o us",
      "л а",
      "r y",
      "ion s",
      "s p",
      "on d",
      "a w",
      "o x",
      "on s",
      "O N",
      "ac t",
      "u k",
      "p er",
      "ic h",
      "a j",
      "er v",
      "Ġd is",
      "е т",
      "an n",
      "ا ر",
      "r it",
      "e le",
      "ic al",
      "n d",
      "Ġ ب",
      "c i",
      "Ġp r",
      "ĠC h",
      "er n",
      "ex t",
      "is h",
      "Ġп о",
      "r u",
      "ig n",
      "ic k",
      "en g",
      "s h",
      "y m",
      "л ь",
      "Ġt h",
      "oc k",
      "un t",
      "a u",
      "ar e",
      "l o",
      "Ġ ad",
      "s s",
      "и т",
      "t on",
      "Ġ ا",
      "om m",
      "ig ht",
      "ra d",
      "д а",
      "at a",
      "ar y",
      "Ġ و",
      "ro p",
      "am e",
      "г о",
      "y n",
      "Ġ ap",
      "т о",
      "er e",
      "Ġ im",
      "в а",
      "I N",
      "is s",
      "i ent",
      "Ġ al",
      "p r",
      "b er",
      "Ġ In",
      "ó n",
      "on g",
      "f t",
      "Ġ qu",
      "E N",
      "Ġ le",
      "or e",
      "s c",
      "Ġ ac",
      "s et",
      "ra m",
      "id e",
      "t t",
      "з а",
      "i el",
      "em ent",
      "en ce",
      "g e",
      "i j",
      "Ġ м",
      "Ġ д",
      "s k",
      "qu e",
      "н е",
      "н ы",
      "y a",
      "an c",
      "E S",
      "ie w",
      "j ect",
      "ar k",
      "т и",
      "e h",
      "ĠS t",
      "e z",
      "Ġs h",
      "O R",
      "t o",
      "ro m",
      "т а",
      "c o",
      "a x",
      "in s",
      "it e",
      "od e",
      "l es",
      "a il",
      "A R",
      "ation s",
      "A N",
      "y s",
      "Ġ ar",
      "л е",
      "p p",
      "Ġ ت",
      "at or",
      "ol l",
      "as h",
      "ar i",
      "v er",
      "Ġp l",
      "Ġs c",
      "A T",
      "r on",
      "ic e",
      "al e",
      "л о",
      "an ce",
      "n a",
      "ol d",
      "o y",
      "ro w",
      "C h",
      "Ġ б",
      "Ġp re",
      "h er",
      "em b",
      "ен и",
      "r ing",
      "Ġ y",
      "т е",
      "Ġr es",
      "A L",
      "iz e"
    ],
    "counts": "[[32,22773],[40,8323],[64,46795],[72,12586],[2342,23680],[2343,44639],[2345,63726],[2351,36249],[2361,50674],[2368,22954],[2384,24324],[2394,19394],[2429,15804],[2448,6050],[2455,20253],[2477,18971],[2520,8535],[2525,14425],[2537,8042],[2540,21593],[2548,7057],[2555,36046],[2556,10896],[2592,9737],[2598,32205],[2603,9937],[2616,11324],[2618,12352],[2633,26054],[2640,15421],[2670,61638],[2685,20297],[2686,59516],[2693,66820],[2694,19215],[2702,28144],[2705,25277],[2712,11441],[2713,5718],[2718,14082],[2725,12902],[2727,15310],[2731,10302]]"
  }
}