{
  "version": "1.0",
  "truncation": null,
  "padding": null,
  "added_tokens": [
    {
      "id": 4670,
      "content": "<UNK>",
      "single_word": false,
      "lstrip": false,
      "rstrip": false,
      "normalized": true,
      "special": true
    },
    {
      "id": 4671,
      "content": "<｜end▁of▁sentence｜>",
      "single_word": false,
      "lstrip": false,
      "rstrip": false,
      "normalized": true,
      "special": true
    },
    {
      "id": 4672,
      "content": "<｜pad｜>",
      "single_word": false,
      "lstrip": false,
      "rstrip": false,
      "normalized": true,
      "special": true
    },
    {
      "id": 4673,
      "content": "<｜begin▁of▁sentence｜>",
      "single_word": false,
      "lstrip": false,
      "rstrip": false,
      "normalized": true,
      "special": true
    }
  ],
  "normalizer": {
    "type": "Sequence",
    "normalizers": []
  },
  "pre_tokenizer": {
    "type": "Sequence",
    "pretokenizers": [
      {
        "type": "Split",
        "pattern": {
          "Regex": "[\\r\\n]"
        },
        "behavior": "Isolated",
        "invert": false
      },
      {
        "type": "Split",
        "pattern": {
          "Regex": "\\s?[A-Za-zµÀ-ÖØ-öø-ƺƼ-ƿǄ-ʓʕ-ʯͰ-ͳͶͷͻ-ͽͿΆΈ-ΊΌΎ-ΡΣ-ϵϷ-ҁҊ-ԯԱ-ՖႠ-ჅᎠ-Ᏽᏸ-ᏽᲐ-ᲺᲽ-Ჿᴀ-ᴫᵫ-ᵷᵹ-ᶚḀ-ἕἘ-Ἕἠ-ὅὈ-Ὅὐ-ὗὙὛὝὟ-ώᾀ-ᾴᾶ-ᾼιῂ-ῄῆ-ῌῐ-ΐῖ-Ίῠ-Ῥῲ-ῴῶ-ῼℂℇℊ-ℓℕℙ-ℝℤΩℨK-ℭℯ-ℴℹℼ-ℿⅅ-ⅉⅎↃↄⰀ-ⱻⱾ-ⳤⳫ-ⳮⳲⳳꙀ-ꙭꚀ-ꚛꜢ-ꝯꝱ-ꞇꞋ-ꞎꭰ-ꮿﬀ-ﬆﬓ-ﬗＡ-Ｚａ-ｚ𐐀-𐑏𐒰-𐓓𐓘-𐓻𐲀-𐲲𐳀-𐳲𑢠-𑣟𞤀-𞥃]+"
        },
        "behavior": "Isolated",
        "invert": false
      },
      {
        "type": "Split",
        "pattern": {
          "Regex": "\\s?[!-/:-~！-／：-～‘-‟　-。]+"
        },
        "behavior": "Isolated",
        "invert": false
      },
      {
        "type": "Split",
        "pattern": {
          "Regex": "\\s+$"
        },
        "behavior": "Isolated",
        "invert": false
      },
      {
        "type": "Split",
        "pattern": {
          "Regex": "[一-龥ࠀ-一가-퟿]+"
        },
        "behavior": "Isolated",
        "invert": false
      },
      {
        "type": "Digits",
        "individual_digits": true
      },
      {
        "type": "ByteLevel",
        "add_prefix_space": false,
        "trim_offsets": true,
        "use_regex": false
      }
    ]
  },
  "post_processor": {
    "type": "ByteLevel",
    "add_prefix_space": true,
    "trim_offsets": false,
    "use_regex": true
  },
  "decoder": {
    "type": "ByteLevel",
    "add_prefix_space": true,
    "trim_offsets": true,
    "use_regex": true
  },
  "model": {
    "type": "BPE",
    "dropout": null,
    "unk_token": "<UNK>",
    "continuing_subword_prefix": null,
    "end_of_word_suffix": null,
    "fuse_unk": false,
    "byte_fallback": false,
    "ignore_merges": false,
    "bMax_frequency": true,
    "max_frequency": 254107538,
    "vocab": {
      "Ġмі": 0,
      "Ġuz": 1,
      "Legend": 2,
      "куп": 3,
      "pur": 4,
      "واب": 5,
      "Ġкомп": 6,
      "ematic": 7,
      "Ġlé": 8,
      "ussion": 9,
      "elen": 10,
      "iety": 11,
      "evelop": 12,
      "anorama": 13,
      "Ġbirth": 14,
      "evan": 15,
      "ĠIss": 16,
      "рое": 17,
      "opo": 18,
      "akra": 19,
      "存档": 20,
      "Mont": 21,
      "irling": 22,
      "lyPlugin": 23,
      "Ġbhikkh": 24,
      "Ġtrial": 25,
      "ريك": 26,
      "Ġwat": 27,
      "ол": 28,
      "StarObject": 29,
      "Ġprzy": 30,
      "ουν": 31,
      "ору": 32,
      "Ġderiv": 33,
      "jes": 34,
      "Ġmuc": 35,
      "Sk": 36,
      "Ġstre": 37,
      "annten": 38,
      "Ġnasc": 39,
      "Bon": 40,
      "STRA": 41,
      "sonic": 42,
      "bc": 43,
      "ĠMit": 44,
      "earn": 45,
      "unks": 46,
      "best": 47,
      "cludes": 48,
      "Ġconclus": 49,
      "ksam": 50,
      "érieurs": 51,
      "rishna": 52,
      "უფ": 53,
      "Ġenvel": 54,
      "ĠHur": 55,
      "rictions": 56,
      "ruv": 57,
      "ymn": 58,
      "それ": 59,
      "enga": 60,
      "otonic": 61,
      "Ġsept": 62,
      "шего": 63,
      "Ġмето": 64,
      "voir": 65,
      "itated": 66,
      "oyer": 67,
      "iffs": 68,
      "ueto": 69,
      "Po": 70,
      "seg": 71,
      "Jpeg": 72,
      "raî": 73,
      "ổi": 74,
      "ixel": 75,
      "ocomp": 76,
      "Ġاول": 77,
      "Ġheart": 78,
      "Ġkullan": 79,
      "Len": 80,
      "ليزية": 81,
      "VD": 82,
      "ችን": 83,
      "مین": 84,
      "ecido": 85,
      "grade": 86,
      "arto": 87,
      "gli": 88,
      "Fixed": 89,
      "azaki": 90,
      "ĠLaksh": 91,
      "кономи": 92,
      "Ġجائ": 93,
      "ABLE": 94,
      "uve": 95,
      "Ġperd": 96,
      "ĠEns": 97,
      "īng": 98,
      "agraph": 99,
      "ปล": 100,
      "وینت": 101,
      "ĠVert": 102,
      "ío": 103,
      "UICont": 104,
      "illColor": 105,
      "ĠJos": 106,
      "Ġappe": 107,
      "uchen": 108,
      "льзова": 109,
      "irical": 110,
      "weatherm": 111,
      "duction": 112,
      "roit": 113,
      "ící": 114,
      "ętr": 115,
      "ológ": 116,
      "Err": 117,
      "watch": 118,
      "Ġиг": 119,
      "GridView": 120,
      "eston": 121,
      "Ġanc": 122,
      "Ġkr": 123,
      "Ġspars": 124,
      "الف": 125,
      "Ġفی": 126,
      "slides": 127,
      "ĠCSI": 128,
      "Ġarriv": 129,
      "لوم": 130,
      "ارج": 131,
      "Ġpoly": 132,
      "ĠBhagav": 133,
      "ĠFa": 134,
      "дра": 135,
      "cov": 136,
      "was": 137,
      "Ġharmon": 138,
      "Muc": 139,
      "Connect": 140,
      "anci": 141,
      "lens": 142,
      "プリ": 143,
      "ért": 144,
      "трим": 145,
      "ourg": 146,
      "elastic": 147,
      "Stamp": 148,
      "llr": 149,
      "áf": 150,
      "grid": 151,
      "oplast": 152,
      "Ġquestion": 153,
      "Ġdüş": 154,
      "ös": 155,
      "Ġпроцен": 156,
      "level": 157,
      "édia": 158,
      "ĠMedia": 159,
      "tool": 160,
      "irken": 161,
      "eway": 162,
      "Rev": 163,
      "elh": 164,
      "camp": 165,
      "Ġannot": 166,
      "corr": 167,
      "MVC": 168,
      "イス": 169,
      "дол": 170,
      "Ġπρο": 171,
      "oby": 172,
      "ιο": 173,
      "ĠMich": 174,
      "Overlay": 175,
      "Ġgang": 176,
      "pec": 177,
      "Ġव": 178,
      "хра": 179,
      "ullen": 180,
      "peng": 181,
      "reeting": 182,
      "しゃ": 183,
      "dür": 184,
      "localVar": 185,
      "Ro": 186,
      "Ġמ": 187,
      "ĠSurv": 188,
      "ĠRa": 189,
      "oura": 190,
      "ĠShap": 191,
      "run": 192,
      "ĠConstant": 193,
      "Ġinfring": 194,
      "meno": 195,
      "rews": 196,
      "amental": 197,
      "ĠER": 198,
      "serial": 199,
      "Ġblock": 200,
      "Ġالتر": 201,
      "rels": 202,
      "aji": 203,
      "eneg": 204,
      "ercicio": 205,
      "Ġcheer": 206,
      "Ġevent": 207,
      "gb": 208,
      "Ġmah": 209,
      "enumer": 210,
      "льня": 211,
      "нович": 212,
      "Ġoccur": 213,
      "zec": 214,
      "Ġ시": 215,
      "ĠCla": 216,
      "ĠPick": 217,
      "location": 218,
      "cross": 219,
      "adar": 220,
      "ством": 221,
      "Ġrevers": 222,
      "ĠConsult": 223,
      "Ġwsp": 224,
      "Light": 225,
      "istro": 226,
      "струк": 227,
      "Img": 228,
      "BitCount": 229,
      "uttam": 230,
      "zuk": 231,
      "assay": 232,
      "ória": 233,
      "bench": 234,
      "Ġcub": 235,
      "Ġcanal": 236,
      "Ġscrat": 237,
      "Ġbén": 238,
      "LM": 239,
      "rador": 240,
      "iffe": 241,
      "Ġsympt": 242,
      "итель": 243,
      "izations": 244,
      "Ġarrond": 245,
      "ラー": 246,
      "rafts": 247,
      "Ġнаш": 248,
      "rence": 249,
      "Ġheb": 250,
      "cler": 251,
      "Ġباش": 252,
      "ĠHick": 253,
      "Ġproph": 254,
      "adiene": 255,
      "Ġdisfr": 256,
      "Ġинформа": 257,
      "Ġhere": 258,
      "Ġdeterior": 259,
      "ĠBian": 260,
      "Ġunim": 261,
      "ắng": 262,
      "ĠLour": 263,
      "edRight": 264,
      "iary": 265,
      "രണ": 266,
      "ulose": 267,
      "Orig": 268,
      "веден": 269,
      "Ġпроти": 270,
      "Ġпояв": 271,
      "ạch": 272,
      "bors": 273,
      "urable": 274,
      "めて": 275,
      "esho": 276,
      "iii": 277,
      "ảnh": 278,
      "Ġib": 279,
      "बर": 280,
      "ielt": 281,
      "ças": 282,
      "Ġfing": 283,
      "estation": 284,
      "etur": 285,
      "SET": 286,
      "otics": 287,
      "staw": 288,
      "lier": 289,
      "На": 290,
      "ritz": 291,
      "uvre": 292,
      "hod": 293,
      "Ġcob": 294,
      "Ġadvert": 295,
      "Bsky": 296,
      "Ġই": 297,
      "ĠSpe": 298,
      "esome": 299,
      "úst": 300,
      "qui": 301,
      "ilibrium": 302,
      "posure": 303,
      "Ġdissip": 304,
      "idy": 305,
      "セット": 306,
      "odic": 307,
      "deck": 308,
      "ulative": 309,
      "нию": 310,
      "Ġdok": 311,
      "orov": 312,
      "ћин": 313,
      "rants": 314,
      "ούν": 315,
      "Ġéqu": 316,
      "Repository": 317,
      "ەر": 318,
      "ifty": 319,
      "ificar": 320,
      "claimed": 321,
      "anst": 322,
      "Ġbak": 323,
      "сут": 324,
      "iect": 325,
      "Ġcram": 326,
      "ĠCIR": 327,
      "ernate": 328,
      "DialogOpen": 329,
      "ĠIR": 330,
      "Ġდ": 331,
      "ĠHist": 332,
      "Arr": 333,
      "oure": 334,
      "ophorus": 335,
      "Ġофи": 336,
      "Ġepid": 337,
      "ked": 338,
      "niej": 339,
      "ĠCommand": 340,
      "VENT": 341,
      "onuclear": 342,
      "reto": 343,
      "blue": 344,
      "anity": 345,
      "Ġtren": 346,
      "نام": 347,
      "amment": 348,
      "ĠVenez": 349,
      "azer": 350,
      "Ġprotagon": 351,
      "Ġgob": 352,
      "Ġacknowled": 353,
      "ĠAP": 354,
      "RN": 355,
      "Ġспособ": 356,
      "Ġenjoy": 357,
      "Ġrevis": 358,
      "Ġmend": 359,
      "iots": 360,
      "Ġgarn": 361,
      "Ġdici": 362,
      "मल": 363,
      "UCK": 364,
      "APE": 365,
      "Ġrup": 366,
      "status": 367,
      "onation": 368,
      "QAry": 369,
      "Ġbru": 370,
      "еха": 371,
      "ửa": 372,
      "муще": 373,
      "emu": 374,
      "umption": 375,
      "лья": 376,
      "OUG": 377,
      "oxide": 378,
      "に入": 379,
      "Ġadministrat": 380,
      "issa": 381,
      "くな": 382,
      "attle": 383,
      "ikel": 384,
      "utum": 385,
      "abhi": 386,
      "Elo": 387,
      "Ġust": 388,
      "Ġhad": 389,
      "URNIZ": 390,
      "ommerce": 391,
      "atient": 392,
      "ანი": 393,
      "Ġdedic": 394,
      "osity": 395,
      "UAL": 396,
      "ezi": 397,
      "Ġтру": 398,
      "Ġarbit": 399,
      "Dig": 400,
      "ees": 401,
      "Ġdomin": 402,
      "Ġад": 403,
      "Ġسر": 404,
      "ونی": 405,
      "Ġроссий": 406,
      "ĠFert": 407,
      "cluding": 408,
      "ተኛ": 409,
      "opedia": 410,
      "arece": 411,
      "チャ": 412,
      "ĠEvent": 413,
      "ędz": 414,
      "Ġmå": 415,
      "STM": 416,
      "гура": 417,
      "Own": 418,
      "Ġzem": 419,
      "Ġgem": 420,
      "Ġolig": 421,
      "ushes": 422,
      "جم": 423,
      "方程": 424,
      "方程式": 425,
      "menu": 426,
      "מצ": 427,
      "ĠTri": 428,
      "racking": 429,
      "VCTarget": 430,
      "Ġadjourn": 431,
      "anis": 432,
      "ĠAlb": 433,
      "ارت": 434,
      "vc": 435,
      "Ġsurf": 436,
      "Ġاق": 437,
      "eree": 438,
      "Ġconstru": 439,
      "lit": 440,
      "ığı": 441,
      "iah": 442,
      "uder": 443,
      "WallArray": 444,
      "мент": 445,
      "上げ": 446,
      "Book": 447,
      "odu": 448,
      "LogRow": 449,
      "Ġназва": 450,
      "ĠIg": 451,
      "upply": 452,
      "ivalent": 453,
      "вля": 454,
      "Prz": 455,
      "Ġferr": 456,
      "Ġtér": 457,
      "ereo": 458,
      "prov": 459,
      "enes": 460,
      "Ġnerv": 461,
      "ვნ": 462,
      "OMB": 463,
      "zone": 464,
      "фек": 465,
      "ĠBra": 466,
      "了一": 467,
      "uzzle": 468,
      "тья": 469,
      "çek": 470,
      "iven": 471,
      "ählen": 472,
      "reo": 473,
      "istle": 474,
      "RET": 475,
      "Ġverd": 476,
      "Ġconten": 477,
      "Ġabb": 478,
      "Ġsaw": 479,
      "abi": 480,
      "Stop": 481,
      "Ġallow": 482,
      "lades": 483,
      "ayette": 484,
      "eleration": 485,
      "annt": 486,
      "salary": 487,
      "imensional": 488,
      "үкт": 489,
      "ĠWolver": 490,
      "Collision": 491,
      "Ġtempor": 492,
      "ativity": 493,
      "rition": 494,
      "Ġdismiss": 495,
      "Mutex": 496,
      "Sheet": 497,
      "ayashi": 498,
      "ĠJoa": 499,
      "ذه": 500,
      "ĠService": 501,
      "Clr": 502,
      "omencl": 503,
      "мпа": 504,
      "Ġdent": 505,
      "chten": 506,
      "uat": 507,
      "quare": 508,
      "Ġcitt": 509,
      "ĠChar": 510,
      "iquer": 511,
      "ymb": 512,
      "integr": 513,
      "лий": 514,
      "arters": 515,
      "Ġtail": 516,
      "ĠFac": 517,
      "ueDate": 518,
      "prent": 519,
      "Ġórg": 520,
      "ĠBernad": 521,
      "γρα": 522,
      "Ġgeli": 523,
      "akin": 524,
      "Ġсвяза": 525,
      "burs": 526,
      "ston": 527,
      "lems": 528,
      "LookAnd": 529,
      "Ġprotr": 530,
      "model": 531,
      "ologies": 532,
      "tcp": 533,
      "Ġoffic": 534,
      "ulence": 535,
      "MM": 536,
      "jekt": 537,
      "anato": 538,
      "Bytes": 539,
      "profit": 540,
      "管理": 541,
      "Ġvál": 542,
      "InitStruct": 543,
      "Ġnin": 544,
      "ixin": 545,
      "iom": 546,
      "Ġдержа": 547,
      "Ġconsolid": 548,
      "Ġвне": 549,
      "arcel": 550,
      "StateToProps": 551,
      "Ġstud": 552,
      "ầu": 553,
      "ibling": 554,
      "ilization": 555,
      "enders": 556,
      "Ġwalk": 557,
      "ateau": 558,
      "народ": 559,
      "ración": 560,
      "Ġrép": 561,
      "rafted": 562,
      "Ġgef": 563,
      "legal": 564,
      "ceptron": 565,
      "xes": 566,
      "asadd": 567,
      "Ġincre": 568,
      "acio": 569,
      "Ġbiz": 570,
      "Plus": 571,
      "rados": 572,
      "Binding": 573,
      "IMQTTR": 574,
      "Div": 575,
      "insert": 576,
      "عود": 577,
      "value": 578,
      "Forg": 579,
      "cat": 580,
      "law": 581,
      "Ġالاج": 582,
      "imethyl": 583,
      "Ġсред": 584,
      "ĠPrab": 585,
      "حدة": 586,
      "edent": 587,
      "lc": 588,
      "rices": 589,
      "clair": 590,
      "bir": 591,
      "Ġnavig": 592,
      "amilton": 593,
      "ĠBrav": 594,
      "ustainable": 595,
      "Ġdolor": 596,
      "WT": 597,
      "Ġпробле": 598,
      "sworth": 599,
      "ọc": 600,
      "PUT": 601,
      "efully": 602,
      "skip": 603,
      "estor": 604,
      "アル": 605,
      "Ġngh": 606,
      "Ġstrateg": 607,
      "Ġperg": 608,
      "abile": 609,
      "ieszka": 610,
      "Ġför": 611,
      "Ġوت": 612,
      "urious": 613,
      "itam": 614,
      "White": 615,
      "Face": 616,
      "Ġcorp": 617,
      "Ġress": 618,
      "ĠScul": 619,
      "ĠFro": 620,
      "íg": 621,
      "Ġpinch": 622,
      "Ġпроизвод": 623,
      "ollen": 624,
      "Week": 625,
      "LOR": 626,
      "ĠLand": 627,
      "reta": 628,
      "ĠCross": 629,
      "icamente": 630,
      "Ġпомо": 631,
      "achment": 632,
      "inated": 633,
      "antage": 634,
      "ndi": 635,
      "OST": 636,
      "Eth": 637,
      "ĠLoy": 638,
      "Ġexpress": 639,
      "Ġkho": 640,
      "Ġگرف": 641,
      "Ġbox": 642,
      "rient": 643,
      "Ġoh": 644,
      "Ġconvex": 645,
      "Ġصہی": 646,
      "iens": 647,
      "Configure": 648,
      "missions": 649,
      "agers": 650,
      "eton": 651,
      "ulse": 652,
      "Ġsurpass": 653,
      "instrList": 654,
      "Ġнасе": 655,
      "FieldContext": 656,
      "ště": 657,
      "ĠArm": 658,
      "aknya": 659,
      "stüt": 660,
      "טורק": 661,
      "yna": 662,
      "Den": 663,
      "ốc": 664,
      "шы": 665,
      "ucumber": 666,
      "ках": 667,
      "確認": 668,
      "ENG": 669,
      "kannya": 670,
      "Ġrodz": 671,
      "érat": 672,
      "Ġsweet": 673,
      "adic": 674,
      "ationary": 675,
      "Ġmind": 676,
      "ERIC": 677,
      "ĠGol": 678,
      "Ġscript": 679,
      "awah": 680,
      "تری": 681,
      "Ġглав": 682,
      "ĠBron": 683,
      "Ġouts": 684,
      "باش": 685,
      "ată": 686,
      "Ġпопу": 687,
      "Ġdestin": 688,
      "Ġerfol": 689,
      "ampions": 690,
      "skii": 691,
      "라고": 692,
      "uć": 693,
      "mediate": 694,
      "Ġdesarroll": 695,
      "rvats": 696,
      "ĠTechn": 697,
      "Ġzab": 698,
      "Ġsect": 699,
      "Ble": 700,
      "IBR": 701,
      "BleStatus": 702,
      "Ġआइ": 703,
      "CUR": 704,
      "Ġত": 705,
      "ĠAdv": 706,
      "bean": 707,
      "Ġtrem": 708,
      "ální": 709,
      "スマ": 710,
      "ĠReinh": 711,
      "Ġoffset": 712,
      "hub": 713,
      "Ġپاور": 714,
      "Ġevac": 715,
      "ĠLat": 716,
      "Kill": 717,
      "сторі": 718,
      "ĠOx": 719,
      "interpret": 720,
      "ulla": 721,
      "esson": 722,
      "exte": 723,
      "Ġdoğ": 724,
      "ractive": 725,
      "追加": 726,
      "тий": 727,
      "Fcm": 728,
      "Ġтя": 729,
      "ärt": 730,
      "loading": 731,
      "ycop": 732,
      "Ġلی": 733,
      "Ġcloud": 734,
      "бва": 735,
      "ijke": 736,
      "ĠSrin": 737,
      "VS": 738,
      "ĠEsc": 739,
      "投标": 740,
      "Ġprefer": 741,
      "assing": 742,
      "کر": 743,
      "ProductsStore": 744,
      "Ġойно": 745,
      "asmine": 746,
      "ĠSun": 747,
      "ln": 748,
      "aż": 749,
      "ĠMechan": 750,
      "Ġмно": 751,
      "ĠSout": 752,
      "ულ": 753,
      "ĠleftWheel": 754,
      "ĠEhn": 755,
      "ĠEhnerg": 756,
      "юд": 757,
      "yste": 758,
      "ahrung": 759,
      "ĠExt": 760,
      "Ġprofes": 761,
      "Met": 762,
      "ogie": 763,
      "vrd": 764,
      "Ġследу": 765,
      "Ġпринад": 766,
      "Ġdestac": 767,
      "BlockUsed": 768,
      "Ġhandc": 769,
      "ercase": 770,
      "Ġcri": 771,
      "TM": 772,
      "ILY": 773,
      "plicit": 774,
      "ĠWel": 775,
      "ITE": 776,
      "تبار": 777,
      "calright": 778,
      "orant": 779,
      "ENCY": 780,
      "wnie": 781,
      "ilic": 782,
      "inals": 783,
      "onavirus": 784,
      "Ġcircul": 785,
      "तल": 786,
      "तलब": 787,
      "âtres": 788,
      "Ġtes": 789,
      "andt": 790,
      "Prog": 791,
      "ლო": 792,
      "ოლო": 793,
      "Ġcontr": 794,
      "ikums": 795,
      "ĠFamil": 796,
      "ître": 797,
      "imas": 798,
      "Ġpill": 799,
      "Ġcade": 800,
      "uplicate": 801,
      "metry": 802,
      "onti": 803,
      "Ġfrequ": 804,
      "rater": 805,
      "Iam": 806,
      "igkeit": 807,
      "Ġalter": 808,
      "Ġお": 809,
      "зь": 810,
      "ĠOsc": 811,
      "ակ": 812,
      "innie": 813,
      "EqualTo": 814,
      "ynucleaires": 815,
      "Asp": 816,
      "atum": 817,
      "وبر": 818,
      "CHREIB": 819,
      "Danh": 820,
      "ĠCab": 821,
      "angka": 822,
      "ublished": 823,
      "accarat": 824,
      "Ġbif": 825,
      "rowad": 826,
      "ARIA": 827,
      "idunt": 828,
      "Ġacred": 829,
      "Ġveloc": 830,
      "rf": 831,
      "eeper": 832,
      "ucked": 833,
      "tez": 834,
      "Univers": 835,
      "Ġknock": 836,
      "人民": 837,
      "важа": 838,
      "ług": 839,
      "smooth": 840,
      "hof": 841,
      "recated": 842,
      "uang": 843,
      "Ġمعامل": 844,
      "scri": 845,
      "Axis": 846,
      "ĠHome": 847,
      "ısı": 848,
      "usión": 849,
      "ccn": 850,
      "TakeVideo": 851,
      "وض": 852,
      "ASDW": 853,
      "mey": 854,
      "Ġenv": 855,
      "ods": 856,
      "Ġсту": 857,
      "ĠGuant": 858,
      "reli": 859,
      "elius": 860,
      "Ġstatus": 861,
      "Ġfasc": 862,
      "یب": 863,
      "Ġprav": 864,
      "uncan": 865,
      "amples": 866,
      "first": 867,
      "フト": 868,
      "Ġpoj": 869,
      "Ġrepl": 870,
      "abbat": 871,
      "pared": 872,
      "Ġmist": 873,
      "umoto": 874,
      "icode": 875,
      "اول": 876,
      "ukary": 877,
      "Ġgun": 878,
      "jer": 879,
      "iyet": 880,
      "Ġконкур": 881,
      "Ġرج": 882,
      "Ġبنا": 883,
      "СТ": 884,
      "ột": 885,
      "irty": 886,
      "Ġmoż": 887,
      "arantad": 888,
      "hens": 889,
      "Ġcrit": 890,
      "processing": 891,
      "сько": 892,
      "Ġpanc": 893,
      "áne": 894,
      "arson": 895,
      "ouc": 896,
      "Ġbis": 897,
      "ishment": 898,
      "dn": 899,
      "ừng": 900,
      "Ġpemb": 901,
      "loor": 902,
      "Ġafect": 903,
      "world": 904,
      "CharCode": 905,
      "ście": 906,
      "عة": 907,
      "Ġcomfort": 908,
      "Glob": 909,
      "days": 910,
      "aisy": 911,
      "Ġrail": 912,
      "方法": 913,
      "Ġön": 914,
      "Ġclar": 915,
      "кто": 916,
      "гия": 917,
      "yne": 918,
      "acryl": 919,
      "рев": 920,
      "files": 921,
      "Ġspong": 922,
      "Ġfet": 923,
      "harm": 924,
      "çal": 925,
      "вати": 926,
      "Ġicon": 927,
      "UCLE": 928,
      "Mahon": 929,
      "liche": 930,
      "ĠChing": 931,
      "Ġfemin": 932,
      "Ġkön": 933,
      "adian": 934,
      "Ġבא": 935,
      "Ġantis": 936,
      "ĠBent": 937,
      "Ġха": 938,
      "osphere": 939,
      "Ġю": 940,
      "Use": 941,
      "лот": 942,
      "Ġvag": 943,
      "chev": 944,
      "Ġdiarr": 945,
      "enario": 946,
      "ĠNad": 947,
      "يز": 948,
      "ạt": 949,
      "Ġsix": 950,
      "uity": 951,
      "Ġсма": 952,
      "ĠTunis": 953,
      "ahir": 954,
      "ursive": 955,
      "ório": 956,
      "power": 957,
      "وروب": 958,
      "ĠBog": 959,
      "idine": 960,
      "ĠArab": 961,
      "ohyd": 962,
      "Ġray": 963,
      "ĠDew": 964,
      "Ġsö": 965,
      "Ġextra": 966,
      "far": 967,
      "ĠGiul": 968,
      "atomic": 969,
      "ĠAppro": 970,
      "Ġእንዲ": 971,
      "Ġsick": 972,
      "wyn": 973,
      "Ġdream": 974,
      "рите": 975,
      "GPIO": 976,
      "πε": 977,
      "Ġبد": 978,
      "сло": 979,
      "Ġbos": 980,
      "ynthesis": 981,
      "hut": 982,
      "Imp": 983,
      "ournament": 984,
      "ược": 985,
      "asons": 986,
      "注意": 987,
      "itty": 988,
      "nom": 989,
      "methods": 990,
      "łu": 991,
      "هه": 992,
      "Ġdéf": 993,
      "ĠKeny": 994,
      "Ġთ": 995,
      "Ġнепри": 996,
      "odym": 997,
      "Kit": 998,
      "рии": 999,
      "ĠActive": 1000,
      "ulk": 1001,
      "Ġestim": 1002,
      "PLO": 1003,
      "AO": 1004,
      "ributors": 1005,
      "avorite": 1006,
      "Session": 1007,
      "Ġשל": 1008,
      "Ġcaut": 1009,
      "oley": 1010,
      "Ġorient": 1011,
      "ographs": 1012,
      "зывает": 1013,
      "Translate": 1014,
      "лка": 1015,
      "Ġhypers": 1016,
      "Ġkaż": 1017,
      "recation": 1018,
      "iggins": 1019,
      "ئي": 1020,
      "paths": 1021,
      "ورت": 1022,
      "ĠCrow": 1023,
      "ĠIncre": 1024,
      "arly": 1025,
      "Ġpack": 1026,
      "administ": 1027,
      "ĠScient": 1028,
      "Agent": 1029,
      "high": 1030,
      "izers": 1031,
      "icill": 1032,
      "utup": 1033,
      "Ġпоня": 1034,
      "证券投资基金业协会": 1035,
      "ĠtrialComponents": 1036,
      "Ġباند": 1037,
      "iate": 1038,
      "Ġtravers": 1039,
      "ansing": 1040,
      "ách": 1041,
      "ĠCad": 1042,
      "amon": 1043,
      "ĠFrank": 1044,
      "θη": 1045,
      "nsk": 1046,
      "irme": 1047,
      "igma": 1048,
      "መሪያ": 1049,
      "Foldout": 1050,
      "Ġين": 1051,
      "Ġينت": 1052,
      "ĠLi": 1053,
      "henyl": 1054,
      "arakat": 1055,
      "сем": 1056,
      "life": 1057,
      "plantation": 1058,
      "anie": 1059,
      "Ġnarc": 1060,
      "ennen": 1061,
      "ColorLegend": 1062,
      "Syn": 1063,
      "ifiz": 1064,
      "Ġhypert": 1065,
      "ული": 1066,
      "alized": 1067,
      "culo": 1068,
      "ĠSol": 1069,
      "лад": 1070,
      "Ġnig": 1071,
      "Fragment": 1072,
      "Report": 1073,
      "Ġchron": 1074,
      "mount": 1075,
      "inv": 1076,
      "auen": 1077,
      "Ġworld": 1078,
      "وجود": 1079,
      "ĠPs": 1080,
      "chlor": 1081,
      "Ġfranch": 1082,
      "orns": 1083,
      "aused": 1084,
      "Ġnegoti": 1085,
      "Ġvij": 1086,
      "drag": 1087,
      "otheli": 1088,
      "ENCES": 1089,
      "txt": 1090,
      "nod": 1091,
      "ĠAuf": 1092,
      "ipeline": 1093,
      "Ziel": 1094,
      "Ġpoder": 1095,
      "ále": 1096,
      "ĠБо": 1097,
      "rato": 1098,
      "ooter": 1099,
      "Ġmerg": 1100,
      "тому": 1101,
      "ằng": 1102,
      "Ġሁ": 1103,
      "ĠProgram": 1104,
      "flat": 1105,
      "buy": 1106,
      "الم": 1107,
      "ivi": 1108,
      "ulner": 1109,
      "Ġসফ": 1110,
      "infeld": 1111,
      "hed": 1112,
      "stitute": 1113,
      "VEL": 1114,
      "vad": 1115,
      "куль": 1116,
      "Ġdimin": 1117,
      "Ġgon": 1118,
      "نڈ": 1119,
      "widget": 1120,
      "ĠJud": 1121,
      "olson": 1122,
      "Ġmatt": 1123,
      "什么": 1124,
      "Ġanest": 1125,
      "irer": 1126,
      "Ġsuperf": 1127,
      "Ġdiam": 1128,
      "Ġintro": 1129,
      "Ġbitter": 1130,
      "Ġпримен": 1131,
      "Ġperk": 1132,
      "Ġtari": 1133,
      "Ġbudd": 1134,
      "Filter": 1135,
      "amat": 1136,
      "agli": 1137,
      "Ġmedic": 1138,
      "onya": 1139,
      "ĠШ": 1140,
      "其他": 1141,
      "Ġsais": 1142,
      "صوص": 1143,
      "ipi": 1144,
      "Ġech": 1145,
      "ĠLiv": 1146,
      "PreferenceKey": 1147,
      "vency": 1148,
      "racting": 1149,
      "eat": 1150,
      "หาร": 1151,
      "ibt": 1152,
      "ieto": 1153,
      "INFE": 1154,
      "Ġimped": 1155,
      "Ġnar": 1156,
      "Rt": 1157,
      "xRt": 1158,
      "Ġprohib": 1159,
      "Ġabstract": 1160,
      "Ġcompart": 1161,
      "える": 1162,
      "arante": 1163,
      "ĠSor": 1164,
      "leep": 1165,
      "Complete": 1166,
      "iolet": 1167,
      "Ġbelie": 1168,
      "чук": 1169,
      "Ġcil": 1170,
      "MDE": 1171,
      "hend": 1172,
      "Ġlip": 1173,
      "لیف": 1174,
      "elin": 1175,
      "aline": 1176,
      "녕하": 1177,
      "ither": 1178,
      "arith": 1179,
      "ĠBy": 1180,
      "imiter": 1181,
      "ĠRUTARE": 1182,
      "ĠTurn": 1183,
      "okie": 1184,
      "traction": 1185,
      "ULL": 1186,
      "Ġmaint": 1187,
      "ulkan": 1188,
      "oblast": 1189,
      "aln": 1190,
      "けた": 1191,
      "isson": 1192,
      "Ġridicul": 1193,
      "gramModel": 1194,
      "cis": 1195,
      "Ġdece": 1196,
      "Ġcann": 1197,
      "pred": 1198,
      "Ġइ": 1199,
      "ronics": 1200,
      "avage": 1201,
      "aturen": 1202,
      "aksanakan": 1203,
      "umbers": 1204,
      "NE": 1205,
      "ệu": 1206,
      "ĠBenn": 1207,
      "ColumnKind": 1208,
      "thorace": 1209,
      "Ġcand": 1210,
      "orge": 1211,
      "Ġgame": 1212,
      "Ġtoc": 1213,
      "Ġforce": 1214,
      "onymous": 1215,
      "riendly": 1216,
      "ĠBarth": 1217,
      "PEG": 1218,
      "div": 1219,
      "Ġpic": 1220,
      "Styles": 1221,
      "Ġreli": 1222,
      "apeutic": 1223,
      "ĠDow": 1224,
      "comb": 1225,
      "Operand": 1226,
      "mium": 1227,
      "LOT": 1228,
      "Ġprzed": 1229,
      "ちゃん": 1230,
      "フィス": 1231,
      "inners": 1232,
      "Prototype": 1233,
      "ордина": 1234,
      "atür": 1235,
      "here": 1236,
      "らか": 1237,
      "ĠAnal": 1238,
      "cu": 1239,
      "itiis": 1240,
      "omini": 1241,
      "spective": 1242,
      "Ġhay": 1243,
      "onel": 1244,
      "plane": 1245,
      "ĠAnn": 1246,
      "reed": 1247,
      "Ġsul": 1248,
      "Ġproceed": 1249,
      "Ġdav": 1250,
      "ისტრ": 1251,
      "Ġвла": 1252,
      "Ġviti": 1253,
      "Ġaction": 1254,
      "Ġdegrad": 1255,
      "PG": 1256,
      "icule": 1257,
      "ouri": 1258,
      "Ġраспо": 1259,
      "Ġcommand": 1260,
      "HK": 1261,
      "Ġartist": 1262,
      "cloud": 1263,
      "Ġcut": 1264,
      "ĠVent": 1265,
      "Jordan": 1266,
      "ĠВаси": 1267,
      "IEL": 1268,
      "Missense": 1269,
      "Ġша": 1270,
      "ジャ": 1271,
      "amy": 1272,
      "éb": 1273,
      "jah": 1274,
      "Ġcorpor": 1275,
      "ĠCec": 1276,
      "ansion": 1277,
      "unay": 1278,
      "ĠSchwar": 1279,
      "qs": 1280,
      "ulet": 1281,
      "ĠAngel": 1282,
      "oka": 1283,
      "Ġосу": 1284,
      "Ġconvert": 1285,
      "طلاع": 1286,
      "Ġтеркәлү": 1287,
      "onductor": 1288,
      "Ġwer": 1289,
      "Ser": 1290,
      "Ġphysi": 1291,
      "atial": 1292,
      "OGRAM": 1293,
      "Ġхудо": 1294,
      "ĠPrim": 1295,
      "arda": 1296,
      "Bundle": 1297,
      "adakan": 1298,
      "Ġsf": 1299,
      "ĠBrook": 1300,
      "eil": 1301,
      "Hide": 1302,
      "agland": 1303,
      "лез": 1304,
      "Ġprevent": 1305,
      "WithOwner": 1306,
      "այ": 1307,
      "Ġمحاض": 1308,
      "änder": 1309,
      "ernen": 1310,
      "agged": 1311,
      "ität": 1312,
      "artered": 1313,
      "pes": 1314,
      "ĠEnglewood": 1315,
      "ún": 1316,
      "Changes": 1317,
      "pert": 1318,
      "ĠOver": 1319,
      "otrex": 1320,
      "iliated": 1321,
      "لد": 1322,
      "Ġstro": 1323,
      "Ġgebru": 1324,
      "ĠReturn": 1325,
      "rony": 1326,
      "тен": 1327,
      "мите": 1328,
      "SelectList": 1329,
      "Ġعب": 1330,
      "asz": 1331,
      "DAY": 1332,
      "regation": 1333,
      "ферен": 1334,
      "icting": 1335,
      "ISS": 1336,
      "ĠCF": 1337,
      "EMA": 1338,
      "entz": 1339,
      "ixes": 1340,
      "Ġشہ": 1341,
      "olocation": 1342,
      "UVW": 1343,
      "iji": 1344,
      "Ġcomprom": 1345,
      "الط": 1346,
      "ĠCarl": 1347,
      "Ġguid": 1348,
      "ección": 1349,
      "eper": 1350,
      "ĠMB": 1351,
      "angzhou": 1352,
      "HTree": 1353,
      "default": 1354,
      "زار": 1355,
      "imize": 1356,
      "door": 1357,
      "dess": 1358,
      "chemical": 1359,
      "oczes": 1360,
      "ㅋㅋㅋㅋ": 1361,
      "θε": 1362,
      "zet": 1363,
      "atthakath": 1364,
      "ĠSK": 1365,
      "ificial": 1366,
      "Ġrenew": 1367,
      "ლები": 1368,
      "ictureBox": 1369,
      "alamualaikum": 1370,
      "ấn": 1371,
      "ĠSebasti": 1372,
      "hog": 1373,
      "εται": 1374,
      "street": 1375,
      "ĠJO": 1376,
      "uffed": 1377,
      "resar": 1378,
      "Ġmay": 1379,
      "ッキ": 1380,
      "Ġsque": 1381,
      "kada": 1382,
      "Ġconstitut": 1383,
      "agle": 1384,
      "pit": 1385,
      "Ġorg": 1386,
      "Ġmoder": 1387,
      "Ġprofession": 1388,
      "Abs": 1389,
      "Ġsequest": 1390,
      "agic": 1391,
      "ĠArmen": 1392,
      "emoc": 1393,
      "StudentNo": 1394,
      "ხვე": 1395,
      "ხვევ": 1396,
      "reme": 1397,
      "mip": 1398,
      "Ġdise": 1399,
      "ittee": 1400,
      "Ġappar": 1401,
      "9>": 1402,
      "Schem": 1403,
      "target": 1404,
      "Ġintellig": 1405,
      "ĠИва": 1406,
      "Ġkülönb": 1407,
      "Ġцер": 1408,
      "ября": 1409,
      "тим": 1410,
      "idente": 1411,
      "jas": 1412,
      "oxicity": 1413,
      "ributions": 1414,
      "leps": 1415,
      "Ġequip": 1416,
      "UIA": 1417,
      "ریق": 1418,
      "ycles": 1419,
      "Ġlact": 1420,
      "Ġefect": 1421,
      "Ġunbel": 1422,
      "ulton": 1423,
      "Plist": 1424,
      "ართველ": 1425,
      "Ġkeb": 1426,
      "alta": 1427,
      "UniqueID": 1428,
      "Ġdescript": 1429,
      "ưng": 1430,
      "ĠDynam": 1431,
      "Ġللن": 1432,
      "ĠSC": 1433,
      "USTER": 1434,
      "printf": 1435,
      "ær": 1436,
      "store": 1437,
      "Ġdecomp": 1438,
      "lli": 1439,
      "omyc": 1440,
      "ĠKais": 1441,
      "anol": 1442,
      "kü": 1443,
      "ruction": 1444,
      "zel": 1445,
      "epage": 1446,
      "ujo": 1447,
      "Dam": 1448,
      "Bride": 1449,
      "Ġυ": 1450,
      "τέ": 1451,
      "APP": 1452,
      "Ġfréqu": 1453,
      "ĠLith": 1454,
      "重要": 1455,
      "Ġwrit": 1456,
      "iani": 1457,
      "pu": 1458,
      "ĠWhe": 1459,
      "rix": 1460,
      "ureka": 1461,
      "ลาด": 1462,
      "Ġrecomend": 1463,
      "нан": 1464,
      "OLY": 1465,
      "Ġfall": 1466,
      "Ġبیم": 1467,
      "ixer": 1468,
      "ăt": 1469,
      "Paf": 1470,
      "Ġdrift": 1471,
      "eses": 1472,
      "OWN": 1473,
      "Assign": 1474,
      "Ġزین": 1475,
      "neider": 1476,
      "مپ": 1477,
      "カート": 1478,
      "rieg": 1479,
      "AspNet": 1480,
      "Ġrock": 1481,
      "ĠDraw": 1482,
      "ĠThess": 1483,
      "Ġмаши": 1484,
      "urger": 1485,
      "FAULT": 1486,
      "amination": 1487,
      "loom": 1488,
      "вли": 1489,
      "delay": 1490,
      "Ġcoerc": 1491,
      "Ġaudi": 1492,
      "ուն": 1493,
      "Ġcanalicul": 1494,
      "Ġguz": 1495,
      "onto": 1496,
      "のです": 1497,
      "दर": 1498,
      "vex": 1499,
      "Balance": 1500,
      "ukkan": 1501,
      "aldi": 1502,
      "دید": 1503,
      "itaire": 1504,
      "ScrollView": 1505,
      "deb": 1506,
      "uttons": 1507,
      "Ġсторо": 1508,
      "attu": 1509,
      "center": 1510,
      "project": 1511,
      "Ġsort": 1512,
      "ifa": 1513,
      "WORD": 1514,
      "hält": 1515,
      "ulan": 1516,
      "ؤن": 1517,
      "اؤن": 1518,
      "Ġmanufact": 1519,
      "mut": 1520,
      "Ġreck": 1521,
      "atthavid": 1522,
      "SRPS": 1523,
      "оте": 1524,
      "beh": 1525,
      "card": 1526,
      "rano": 1527,
      "reak": 1528,
      "راح": 1529,
      "ollah": 1530,
      "EnCPP": 1531,
      "Ald": 1532,
      "ogging": 1533,
      "wp": 1534,
      "Ġشی": 1535,
      "osecond": 1536,
      "ออก": 1537,
      "ĠRw": 1538,
      "ativas": 1539,
      "title": 1540,
      "oprop": 1541,
      "Ġmouth": 1542,
      "ynomial": 1543,
      "ез": 1544,
      "Ġdoc": 1545,
      "énés": 1546,
      "braith": 1547,
      "ედერ": 1548,
      "ってお": 1549,
      "getMetering": 1550,
      "spection": 1551,
      "hrer": 1552,
      "earer": 1553,
      "тера": 1554,
      "astom": 1555,
      "Ġanaly": 1556,
      "ĠClass": 1557,
      "ĠTreas": 1558,
      "Ġيتع": 1559,
      "Ġtib": 1560,
      "Ġkiş": 1561,
      "Ġوړ": 1562,
      "yme": 1563,
      "powied": 1564,
      "volve": 1565,
      "Ġbank": 1566,
      "borhood": 1567,
      "ếu": 1568,
      "enched": 1569,
      "orial": 1570,
      "Ġcultiv": 1571,
      "طيكم": 1572,
      "たい": 1573,
      "MakeRect": 1574,
      "zat": 1575,
      "evere": 1576,
      "リュー": 1577,
      "istant": 1578,
      "hind": 1579,
      "attice": 1580,
      "elegate": 1581,
      "ĠMN": 1582,
      "itives": 1583,
      "ĠMSC": 1584,
      "AtIndex": 1585,
      "Ġbef": 1586,
      "າມ": 1587,
      "Ġcouns": 1588,
      "ActionBar": 1589,
      "Assignment": 1590,
      "onomy": 1591,
      "inally": 1592,
      "mers": 1593,
      "Ġéch": 1594,
      "leted": 1595,
      "Ġtan": 1596,
      "ĠStand": 1597,
      "thed": 1598,
      "Ġoutper": 1599,
      "ĠPK": 1600,
      "ĠOn": 1601,
      "Ġmai": 1602,
      "Ġуйна": 1603,
      "apes": 1604,
      "rivalTime": 1605,
      "ĠPut": 1606,
      "alic": 1607,
      "Ġvoy": 1608,
      "rowned": 1609,
      "enticated": 1610,
      "Ġadequ": 1611,
      "Ġустанов": 1612,
      "Ġڅ": 1613,
      "ĠBisby": 1614,
      "will": 1615,
      "Ġeas": 1616,
      "Ġdegener": 1617,
      "Ġlongitud": 1618,
      "ĠRoan": 1619,
      "اذ": 1620,
      "icians": 1621,
      "Ġالمست": 1622,
      "ture": 1623,
      "Ġالوا": 1624,
      "низ": 1625,
      "Ġnight": 1626,
      "Ġконц": 1627,
      "program": 1628,
      "Hot": 1629,
      "Ġይ": 1630,
      "nan": 1631,
      "ĠLad": 1632,
      "Ġі": 1633,
      "годня": 1634,
      "Ġспра": 1635,
      "Ġhid": 1636,
      "Ġдей": 1637,
      "Ġbefore": 1638,
      "ueill": 1639,
      "unid": 1640,
      "éli": 1641,
      "Children": 1642,
      "ĠclearContext": 1643,
      "ступа": 1644,
      "Ġтемпера": 1645,
      "ĠLeib": 1646,
      "Ġverm": 1647,
      "Ġprototyp": 1648,
      "Ġnoir": 1649,
      "riving": 1650,
      "elson": 1651,
      "Ġpuls": 1652,
      "pan": 1653,
      "orch": 1654,
      "Ġextern": 1655,
      "ERIAL": 1656,
      "grim": 1657,
      "const": 1658,
      "<0x6": 1659,
      "abus": 1660,
      "correct": 1661,
      "Ġexped": 1662,
      "ografia": 1663,
      "ĠCele": 1664,
      "Ġالشي": 1665,
      "Ġcaf": 1666,
      "ĠMand": 1667,
      "Ġmater": 1668,
      "iscal": 1669,
      "ĠFund": 1670,
      "пла": 1671,
      "Ġtam": 1672,
      "Ġucz": 1673,
      "nerg": 1674,
      "Ġpus": 1675,
      "っぱ": 1676,
      "ographical": 1677,
      "ĠcontentLength": 1678,
      "Ġкере": 1679,
      "atang": 1680,
      "Ġinj": 1681,
      "zechos": 1682,
      "atterns": 1683,
      "hta": 1684,
      "ĠCalcul": 1685,
      "กระ": 1686,
      "Ġkoj": 1687,
      "owl": 1688,
      "Ġdenomin": 1689,
      "BUGFS": 1690,
      "yder": 1691,
      "ilateral": 1692,
      "Ġvá": 1693,
      "rais": 1694,
      "oader": 1695,
      "Ġhered": 1696,
      "ozer": 1697,
      "iax": 1698,
      "Ġscaff": 1699,
      "Ġrav": 1700,
      "สน": 1701,
      "DetailUI": 1702,
      "Ġpih": 1703,
      "知らせ": 1704,
      "Emoji": 1705,
      "qr": 1706,
      "łos": 1707,
      "Ġdispens": 1708,
      "önt": 1709,
      "рту": 1710,
      "取り": 1711,
      "teur": 1712,
      "ĠGTS": 1713,
      "osil": 1714,
      "iton": 1715,
      "lak": 1716,
      "ĠUCC": 1717,
      "chein": 1718,
      "Ġsto": 1719,
      "овано": 1720,
      "ĠGly": 1721,
      "Ġfunk": 1722,
      "Dummy": 1723,
      "hex": 1724,
      "ĠВи": 1725,
      "PTMR": 1726,
      "ctions": 1727,
      "ĠPav": 1728,
      "ertos": 1729,
      "Ġequiv": 1730,
      "racts": 1731,
      "High": 1732,
      "untos": 1733,
      "XML": 1734,
      "mnop": 1735,
      "znál": 1736,
      "ademia": 1737,
      "ETH": 1738,
      "ادي": 1739,
      "خير": 1740,
      "inam": 1741,
      "ibals": 1742,
      "Ġау": 1743,
      "Ġcant": 1744,
      "Ġproxim": 1745,
      "Ġburn": 1746,
      "Ġtestimon": 1747,
      "ĠPriv": 1748,
      "ithub": 1749,
      "Ġentre": 1750,
      "Brack": 1751,
      "recogn": 1752,
      "wati": 1753,
      "Ġό": 1754,
      "rescent": 1755,
      "Ġincons": 1756,
      "poons": 1757,
      "Ġrob": 1758,
      "Framework": 1759,
      "ĠFo": 1760,
      "LException": 1761,
      "ĠMill": 1762,
      "alda": 1763,
      "قتص": 1764,
      "Ġlight": 1765,
      "Weather": 1766,
      "umbled": 1767,
      "stav": 1768,
      "RouteChange": 1769,
      "следова": 1770,
      "HIGHLIGHT": 1771,
      "loro": 1772,
      "iscus": 1773,
      "CharArray": 1774,
      "ĠSmart": 1775,
      "arton": 1776,
      "uesto": 1777,
      "χει": 1778,
      "Ġreturn": 1779,
      "ewód": 1780,
      "east": 1781,
      "small": 1782,
      "ĠСер": 1783,
      "ĠCAA": 1784,
      "wm": 1785,
      "ĠEuc": 1786,
      "Ġvost": 1787,
      "uales": 1788,
      "рактери": 1789,
      "мон": 1790,
      "ĠMemb": 1791,
      "veless": 1792,
      "Ġल": 1793,
      "Ġtod": 1794,
      "ĠEurope": 1795,
      "zię": 1796,
      "Ġferrug": 1797,
      "ουργ": 1798,
      "ĠGog": 1799,
      "ĠBew": 1800,
      "entially": 1801,
      "ployment": 1802,
      "Ġvib": 1803,
      "äter": 1804,
      "usal": 1805,
      "ocene": 1806,
      "GBT": 1807,
      "chließlich": 1808,
      "Ġnhi": 1809,
      "roids": 1810,
      "arum": 1811,
      "Ġsusc": 1812,
      "orto": 1813,
      "Penis": 1814,
      "UnderTest": 1815,
      "Ġmoh": 1816,
      "ĠArg": 1817,
      "ложи": 1818,
      "ĠCommod": 1819,
      "これ": 1820,
      "meg": 1821,
      "inoma": 1822,
      "gerufen": 1823,
      "ensen": 1824,
      "agles": 1825,
      "Ġобеспе": 1826,
      "ĠAK": 1827,
      "addKill": 1828,
      "ĠБа": 1829,
      "idata": 1830,
      "Ġהמ": 1831,
      "Ġmasc": 1832,
      "Ġny": 1833,
      "Ġrefresh": 1834,
      "lash": 1835,
      "ByteArray": 1836,
      "ILLER": 1837,
      "HI": 1838,
      "maz": 1839,
      "SError": 1840,
      "Ġterc": 1841,
      "advant": 1842,
      "unst": 1843,
      "ĠProv": 1844,
      "ĠLamp": 1845,
      "Ġacryl": 1846,
      "wid": 1847,
      "кре": 1848,
      "auch": 1849,
      "algam": 1850,
      "Ġмуж": 1851,
      "Ġestable": 1852,
      "ＮＡ": 1853,
      "Ġpain": 1854,
      "Ġори": 1855,
      "Have": 1856,
      "ائد": 1857,
      "Ġrejuven": 1858,
      "Ġpartur": 1859,
      "Ġvedit": 1860,
      "ĠNode": 1861,
      "osen": 1862,
      "CHAN": 1863,
      "に関する": 1864,
      "знача": 1865,
      "Ġdan": 1866,
      "asso": 1867,
      "ĠProduct": 1868,
      "VICIO": 1869,
      "ĠKin": 1870,
      "laş": 1871,
      "Ġerled": 1872,
      "elum": 1873,
      "deg": 1874,
      "товы": 1875,
      "okol": 1876,
      "uum": 1877,
      "rogen": 1878,
      "arting": 1879,
      "ugia": 1880,
      "Ġforec": 1881,
      "XR": 1882,
      "Ġleng": 1883,
      "otropic": 1884,
      "inher": 1885,
      "ιά": 1886,
      "ĠPieter": 1887,
      "COc": 1888,
      "otor": 1889,
      "OrderFlight": 1890,
      "amanam": 1891,
      "lais": 1892,
      "Ġzircon": 1893,
      "пы": 1894,
      "olerance": 1895,
      "бет": 1896,
      "plaat": 1897,
      "Ġфунк": 1898,
      "вом": 1899,
      "Ġtrib": 1900,
      "otting": 1901,
      "poetry": 1902,
      "bero": 1903,
      "BeforeText": 1904,
      "itative": 1905,
      "through": 1906,
      "Et": 1907,
      "ombe": 1908,
      "usky": 1909,
      "ĠCos": 1910,
      "ồn": 1911,
      "ETT": 1912,
      "asia": 1913,
      "Ġfrag": 1914,
      "Ġlâng": 1915,
      "itoneal": 1916,
      "osaic": 1917,
      "ĠWelles": 1918,
      "Ġنح": 1919,
      "ĠWild": 1920,
      "ières": 1921,
      "ову": 1922,
      "Ġinvers": 1923,
      "aned": 1924,
      "haps": 1925,
      "Ġシ": 1926,
      "Ġameric": 1927,
      "ĠPry": 1928,
      "пло": 1929,
      "StarSXml": 1930,
      "obacz": 1931,
      "ował": 1932,
      "Ġkoń": 1933,
      "ambo": 1934,
      "Ġamen": 1935,
      "ĠSum": 1936,
      "acak": 1937,
      "Ġfier": 1938,
      "Vol": 1939,
      "itioner": 1940,
      "ĠQuadrup": 1941,
      "ĠSarat": 1942,
      "Ġaccommod": 1943,
      "ĠArchiv": 1944,
      "jos": 1945,
      "iero": 1946,
      "ivas": 1947,
      "ricted": 1948,
      "ĠcurrentGame": 1949,
      "туу": 1950,
      "elah": 1951,
      "ifix": 1952,
      "Ġagreg": 1953,
      "ĠPaul": 1954,
      "слови": 1955,
      "POSIT": 1956,
      "acz": 1957,
      "ĠConc": 1958,
      "تاج": 1959,
      "orsk": 1960,
      "Calls": 1961,
      "Ġcrow": 1962,
      "Ġcoff": 1963,
      "自己": 1964,
      "ailles": 1965,
      "ĠRest": 1966,
      "Ġdov": 1967,
      "ĠPrit": 1968,
      "inture": 1969,
      "Ġsubject": 1970,
      "aphyl": 1971,
      "Ġconsum": 1972,
      "agas": 1973,
      "applic": 1974,
      "acular": 1975,
      "Ġparc": 1976,
      "Ġتعال": 1977,
      "Ġdhat": 1978,
      "Ġkas": 1979,
      "pure": 1980,
      "unker": 1981,
      "essa": 1982,
      "sPath": 1983,
      "ản": 1984,
      "ĠCumm": 1985,
      "Ġэнер": 1986,
      "ĠREG": 1987,
      "ĠPast": 1988,
      "aconda": 1989,
      "ĠVik": 1990,
      "ấy": 1991,
      "ĠAF": 1992,
      "ĠMagn": 1993,
      "sein": 1994,
      "araj": 1995,
      "Ġnep": 1996,
      "ocycl": 1997,
      "inx": 1998,
      "inery": 1999,
      "engk": 2000,
      "Ġconvol": 2001,
      "preter": 2002,
      "FileInput": 2003,
      "Ġruf": 2004,
      "actos": 2005,
      "betrieb": 2006,
      "resse": 2007,
      "aped": 2008,
      "Ġlumin": 2009,
      "DET": 2010,
      "FRING": 2011,
      "Ġراجسټ": 2012,
      "Ġआर": 2013,
      "Ġdiscrimin": 2014,
      "Ġdivis": 2015,
      "ießen": 2016,
      "ronaut": 2017,
      "Ġinm": 2018,
      "ĠRich": 2019,
      "Ġcomunic": 2020,
      "endre": 2021,
      "edown": 2022,
      "Ġпозво": 2023,
      "nez": 2024,
      "ydrogen": 2025,
      "Ġdow": 2026,
      "Next": 2027,
      "FIN": 2028,
      "amoto": 2029,
      "Ġfarm": 2030,
      "イド": 2031,
      "rooms": 2032,
      "Ġbert": 2033,
      "uleiro": 2034,
      "Ġvég": 2035,
      "umno": 2036,
      "renergic": 2037,
      "ảo": 2038,
      "Ġоста": 2039,
      "ICATIONS": 2040,
      "oltz": 2041,
      "Ġstrat": 2042,
      "ĠHart": 2043,
      "Ġcomed": 2044,
      "Loading": 2045,
      "VIS": 2046,
      "email": 2047,
      "ĠCOL": 2048,
      "Ġclos": 2049,
      "ancel": 2050,
      "nię": 2051,
      "Ġآم": 2052,
      "ês": 2053,
      "OGR": 2054,
      "Lens": 2055,
      "rollers": 2056,
      "Ġمقابل": 2057,
      "जन": 2058,
      "epp": 2059,
      "Ġhind": 2060,
      "etts": 2061,
      "asher": 2062,
      "inephrine": 2063,
      "Ġприня": 2064,
      "reve": 2065,
      "ricing": 2066,
      "porting": 2067,
      "баты": 2068,
      "Ġنک": 2069,
      "Ġgeç": 2070,
      "Ġاله": 2071,
      "ĠBST": 2072,
      "angun": 2073,
      "Ġmetaph": 2074,
      "Ġpued": 2075,
      "prod": 2076,
      "iesa": 2077,
      "Ġment": 2078,
      "Ġtake": 2079,
      "Ġarrog": 2080,
      "الن": 2081,
      "ĠClar": 2082,
      "Dest": 2083,
      "اعر": 2084,
      "umpa": 2085,
      "Ġráp": 2086,
      "رداری": 2087,
      "Ġcongen": 2088,
      "ttps": 2089,
      "quisition": 2090,
      "ースト": 2091,
      "apshot": 2092,
      "ĠDeb": 2093,
      "сите": 2094,
      "Ġخل": 2095,
      "ouls": 2096,
      "лосо": 2097,
      "Ġcyl": 2098,
      "Ġner": 2099,
      "Ġarbe": 2100,
      "MBT": 2101,
      "Ġкомпа": 2102,
      "ĠMcCorm": 2103,
      "ĠÁng": 2104,
      "Ġhors": 2105,
      "склю": 2106,
      "ĠРа": 2107,
      "Ġsaj": 2108,
      "ASES": 2109,
      "править": 2110,
      "Ġjez": 2111,
      "Ġpushed": 2112,
      "edded": 2113,
      "Ġپہ": 2114,
      "udad": 2115,
      "olia": 2116,
      "elope": 2117,
      "uille": 2118,
      "Angle": 2119,
      "ând": 2120,
      "idn": 2121,
      "ĠPST": 2122,
      "Ġлюб": 2123,
      "odnik": 2124,
      "imar": 2125,
      "ahul": 2126,
      "Checked": 2127,
      "Ġdeform": 2128,
      "Ġпредстав": 2129,
      "Black": 2130,
      "Ġبیٹ": 2131,
      "ников": 2132,
      "PhotoButton": 2133,
      "ĠBah": 2134,
      "uctive": 2135,
      "tb": 2136,
      "Ġreset": 2137,
      "Ġphil": 2138,
      "erden": 2139,
      "ohner": 2140,
      "انيه": 2141,
      "udia": 2142,
      "Ġfuer": 2143,
      "ĠMIM": 2144,
      "ĠBelle": 2145,
      "طن": 2146,
      "ublicKey": 2147,
      "condition": 2148,
      "ête": 2149,
      "Ġterb": 2150,
      "total": 2151,
      "Ġinstall": 2152,
      "aluronic": 2153,
      "اونلو": 2154,
      "INGS": 2155,
      "Ġtour": 2156,
      "chand": 2157,
      "ито": 2158,
      "PlatformImage": 2159,
      "roir": 2160,
      "Ġکو": 2161,
      "theb": 2162,
      "Ġcompre": 2163,
      "ĠKaz": 2164,
      "联网": 2165,
      "actone": 2166,
      "ĠBrowser": 2167,
      "ĠMes": 2168,
      "auge": 2169,
      "Ġзанима": 2170,
      "SignedIn": 2171,
      "oliko": 2172,
      "Ġdescon": 2173,
      "ĠGent": 2174,
      "Ġін": 2175,
      "enco": 2176,
      "hh": 2177,
      "media": 2178,
      "ều": 2179,
      "untamento": 2180,
      "Ġjog": 2181,
      "Ġbehav": 2182,
      "itat": 2183,
      "ourag": 2184,
      "ĠBrun": 2185,
      "Ġauf": 2186,
      "ĠBeng": 2187,
      "ộng": 2188,
      "ريبي": 2189,
      "IDES": 2190,
      "steen": 2191,
      "gax": 2192,
      "پوینت": 2193,
      "IVERS": 2194,
      "ToJavaResult": 2195,
      "сли": 2196,
      "zas": 2197,
      "пас": 2198,
      "label": 2199,
      "jiwarl": 2200,
      "Ġclient": 2201,
      "Ġcooper": 2202,
      "erné": 2203,
      "ĠWarwick": 2204,
      "bounding": 2205,
      "outi": 2206,
      "Ġqīng": 2207,
      "हन": 2208,
      "Ġreflex": 2209,
      "Ġmuse": 2210,
      "Ġfunction": 2211,
      "Ġappart": 2212,
      "Ġдомаћин": 2213,
      "suit": 2214,
      "walt": 2215,
      "MNOP": 2216,
      "ittal": 2217,
      "cio": 2218,
      "ĠBuk": 2219,
      "Ġпротиво": 2220,
      "yak": 2221,
      "ográf": 2222,
      "itched": 2223,
      "öhn": 2224,
      "ĠPost": 2225,
      "ویز": 2226,
      "Ġnozz": 2227,
      "Pointer": 2228,
      "Templates": 2229,
      "collect": 2230,
      "ĠHoff": 2231,
      "apet": 2232,
      "ĠSTR": 2233,
      "Ġdebug": 2234,
      "ĠTeng": 2235,
      "assy": 2236,
      "Hours": 2237,
      "пада": 2238,
      "Ġcovered": 2239,
      "nown": 2240,
      "ĠSen": 2241,
      "fie": 2242,
      "arrer": 2243,
      "Ġсемь": 2244,
      "phere": 2245,
      "ĠBismarck": 2246,
      "ĠJava": 2247,
      "ogly": 2248,
      "nemid": 2249,
      "IH": 2250,
      "ologically": 2251,
      "ĠBus": 2252,
      "KindOf": 2253,
      "oras": 2254,
      "Ġescol": 2255,
      "sil": 2256,
      "rael": 2257,
      "fono": 2258,
      "ideos": 2259,
      "Ġдво": 2260,
      "reu": 2261,
      "khar": 2262,
      "ĠControl": 2263,
      "wiad": 2264,
      "ĠSas": 2265,
      "Ġbuoy": 2266,
      "をご": 2267,
      "щение": 2268,
      "anter": 2269,
      "Ġiso": 2270,
      "Ġutilizz": 2271,
      "lation": 2272,
      "ĠOld": 2273,
      "ildi": 2274,
      "opf": 2275,
      "ĠNST": 2276,
      "ssä": 2277,
      "педи": 2278,
      "symp": 2279,
      "symplectic": 2280,
      "scale": 2281,
      "Confirm": 2282,
      "ĠNakam": 2283,
      "equiv": 2284,
      "ĠSyn": 2285,
      "Ġиспользу": 2286,
      "Ġმა": 2287,
      "afen": 2288,
      "efer": 2289,
      "ungi": 2290,
      "asca": 2291,
      "Ġrequ": 2292,
      "separ": 2293,
      "Ġrepar": 2294,
      "Mapper": 2295,
      "Datab": 2296,
      "Ġlegisl": 2297,
      "гно": 2298,
      "Ġarrest": 2299,
      "counting": 2300,
      "ĠMack": 2301,
      "PW": 2302,
      "Mad": 2303,
      "Ġtry": 2304,
      "ĠDan": 2305,
      "Ġlanc": 2306,
      "Ġconseg": 2307,
      "ĠVeron": 2308,
      "wik": 2309,
      "ynch": 2310,
      "antom": 2311,
      "Ġfacil": 2312,
      "IINFE": 2313,
      "ĠSIINFE": 2314,
      "estly": 2315,
      "Ġскла": 2316,
      "manship": 2317,
      "йдз": 2318,
      "abol": 2319,
      "Ġyapt": 2320,
      "úng": 2321,
      "情報": 2322,
      "Ġgle": 2323,
      "ايبي": 2324,
      "stmt": 2325,
      "oque": 2326,
      "rape": 2327,
      "egar": 2328,
      "ptr": 2329,
      "wert": 2330,
      "Ġstruct": 2331,
      "Ġязы": 2332,
      "Ġquery": 2333,
      "Tint": 2334,
      "Ġinhab": 2335,
      "ĠUnwrapRef": 2336,
      "illation": 2337,
      "igi": 2338,
      "ərb": 2339,
      "bewer": 2340,
      "cules": 2341,
      "Ġحوال": 2342,
      "ĠBot": 2343,
      "Ġэкономи": 2344,
      "шения": 2345,
      "ĠSO": 2346,
      "рина": 2347,
      "Ġthrow": 2348,
      "Ġtrac": 2349,
      "rze": 2350,
      "emberg": 2351,
      "POR": 2352,
      "ĠMahm": 2353,
      "Ġverg": 2354,
      "Ġrevolution": 2355,
      "етров": 2356,
      "raag": 2357,
      "Ġhyster": 2358,
      "Ġправ": 2359,
      "Ġلین": 2360,
      "Ġcomponent": 2361,
      "utzer": 2362,
      "irls": 2363,
      "ogonal": 2364,
      "itals": 2365,
      "Upload": 2366,
      "cción": 2367,
      "ĠCard": 2368,
      "ulls": 2369,
      "BadRequest": 2370,
      "Ġجوړ": 2371,
      "eban": 2372,
      "Ġinterviews": 2373,
      "Toggle": 2374,
      "ąd": 2375,
      "Ġpraw": 2376,
      "ĠFRAN": 2377,
      "Ġculmin": 2378,
      "ĠSpart": 2379,
      "MDA": 2380,
      "iales": 2381,
      "Mal": 2382,
      "必要": 2383,
      "eus": 2384,
      "Ġjanu": 2385,
      "ιν": 2386,
      "ipur": 2387,
      "Ġprint": 2388,
      "Ġapproxim": 2389,
      "nv": 2390,
      "nest": 2391,
      "TypeCode": 2392,
      "Ġfif": 2393,
      "Ġpomoc": 2394,
      "ржа": 2395,
      "ĠNai": 2396,
      "Ġgrac": 2397,
      "oust": 2398,
      "else": 2399,
      "Ġdw": 2400,
      "ĠLUM": 2401,
      "Ġenjo": 2402,
      "Ġunst": 2403,
      "ĠBarb": 2404,
      "ネル": 2405,
      "Clip": 2406,
      "upyter": 2407,
      "Ġdefinit": 2408,
      "Ġреги": 2409,
      "NonUser": 2410,
      "ləş": 2411,
      "جار": 2412,
      "стя": 2413,
      "лись": 2414,
      "navigation": 2415,
      "Ġapart": 2416,
      "Spawn": 2417,
      "жет": 2418,
      "oung": 2419,
      "merksam": 2420,
      "Ġგამ": 2421,
      "mington": 2422,
      "ableConcept": 2423,
      "Ġиде": 2424,
      "Ġbast": 2425,
      "ranian": 2426,
      "मर": 2427,
      "ualmente": 2428,
      "MainNav": 2429,
      "inoa": 2430,
      "attered": 2431,
      "lbl": 2432,
      "reso": 2433,
      "Ġiç": 2434,
      "Ġfreel": 2435,
      "ĠViv": 2436,
      "Ġmobil": 2437,
      "Ġexter": 2438,
      "дей": 2439,
      "Ġالإ": 2440,
      "ática": 2441,
      "ló": 2442,
      "ONG": 2443,
      "Ġadsorb": 2444,
      "aughlin": 2445,
      "HAO": 2446,
      "Ġmandib": 2447,
      "estone": 2448,
      "cknowledg": 2449,
      "plicate": 2450,
      "ırm": 2451,
      "Ġdischarg": 2452,
      "ĠProd": 2453,
      "vonne": 2454,
      "ĠCort": 2455,
      "suff": 2456,
      "Ġfal": 2457,
      "żs": 2458,
      "strate": 2459,
      "cimento": 2460,
      "ôtel": 2461,
      "σιμο": 2462,
      "ĠNorm": 2463,
      "Ġcruc": 2464,
      "enean": 2465,
      "sort": 2466,
      "Ġbhav": 2467,
      "Ġгруп": 2468,
      "MAN": 2469,
      "rayer": 2470,
      "normal": 2471,
      "endant": 2472,
      "orous": 2473,
      "ĠCCI": 2474,
      "created": 2475,
      "rystal": 2476,
      "äte": 2477,
      "Ġsebag": 2478,
      "ĠChrom": 2479,
      "appropri": 2480,
      "ĠPhil": 2481,
      "Speed": 2482,
      "éph": 2483,
      "Ġtep": 2484,
      "Ġsarc": 2485,
      "lge": 2486,
      "emed": 2487,
      "ĠSo": 2488,
      "SPORT": 2489,
      "Rating": 2490,
      "OTE": 2491,
      "neg": 2492,
      "เภ": 2493,
      "ストン": 2494,
      "ньо": 2495,
      "Ui": 2496,
      "nich": 2497,
      "unft": 2498,
      "すす": 2499,
      "すすめ": 2500,
      "ĠMicha": 2501,
      "ygon": 2502,
      "Ġaspir": 2503,
      "ĠQTL": 2504,
      "iang": 2505,
      "ĠEL": 2506,
      "ちら": 2507,
      "ździer": 2508,
      "Ġtil": 2509,
      "Ġstyl": 2510,
      "ellido": 2511,
      "Mult": 2512,
      "Ġlys": 2513,
      "ĠTimber": 2514,
      "Ġsez": 2515,
      "ĠRow": 2516,
      "Ġπε": 2517,
      "noop": 2518,
      "дый": 2519,
      "Ġtélé": 2520,
      "Ġzam": 2521,
      "ĠGuil": 2522,
      "itts": 2523,
      "retched": 2524,
      "BD": 2525,
      "riev": 2526,
      "eback": 2527,
      "uin": 2528,
      "Ġannounc": 2529,
      "шь": 2530,
      "Ġkw": 2531,
      "IntValue": 2532,
      "agging": 2533,
      "Colour": 2534,
      "aney": 2535,
      "Ġobten": 2536,
      "fas": 2537,
      "ĠSPS": 2538,
      "Ġжур": 2539,
      "Desc": 2540,
      "Ġکھیل": 2541,
      "үнд": 2542,
      "шти": 2543,
      "issors": 2544,
      "dek": 2545,
      "ição": 2546,
      "Ġting": 2547,
      "tochrome": 2548,
      "ughton": 2549,
      "ceptive": 2550,
      "дума": 2551,
      "Ġწ": 2552,
      "Ġcharacter": 2553,
      "icit": 2554,
      "Ġsom": 2555,
      "ادت": 2556,
      "Collection": 2557,
      "Ġprer": 2558,
      "ستر": 2559,
      "DidLoad": 2560,
      "Ġnirvach": 2561,
      "ĠНико": 2562,
      "Ġabiert": 2563,
      "Ġreligios": 2564,
      "Ġintel": 2565,
      "wiąz": 2566,
      "Ġpione": 2567,
      "fal": 2568,
      "ecutor": 2569,
      "Ġvacc": 2570,
      "rophages": 2571,
      "acchar": 2572,
      "ühren": 2573,
      "ếng": 2574,
      "ocytes": 2575,
      "Ġmuch": 2576,
      "Ġcompact": 2577,
      "Ġرس": 2578,
      "enties": 2579,
      "ónica": 2580,
      "ipun": 2581,
      "Ġαπο": 2582,
      "don": 2583,
      "ajo": 2584,
      "рын": 2585,
      "nehm": 2586,
      "anaan": 2587,
      "nač": 2588,
      "Ġdisturb": 2589,
      "ĠPot": 2590,
      "ĠSuff": 2591,
      "Ġstrong": 2592,
      "length": 2593,
      "پلز": 2594,
      "Ġlaunch": 2595,
      "Nil": 2596,
      "Ġname": 2597,
      "urang": 2598,
      "squarePos": 2599,
      "ĠVillar": 2600,
      "ĠBat": 2601,
      "atted": 2602,
      "ĠGott": 2603,
      "rece": 2604,
      "laine": 2605,
      "RECT": 2606,
      "ĠRetri": 2607,
      "urai": 2608,
      "OfDeath": 2609,
      "ĠOFFIC": 2610,
      "loaded": 2611,
      "রম": 2612,
      "ihu": 2613,
      "Ġenvi": 2614,
      "ướng": 2615,
      "рита": 2616,
      "ális": 2617,
      "ĠLiving": 2618,
      "RawContext": 2619,
      "ĠCollect": 2620,
      "Ġinternal": 2621,
      "läss": 2622,
      "fel": 2623,
      "rex": 2624,
      "erging": 2625,
      "Lock": 2626,
      "tei": 2627,
      "AGES": 2628,
      "lyl": 2629,
      "ersen": 2630,
      "aque": 2631,
      "信息": 2632,
      "ület": 2633,
      "ĠАлек": 2634,
      "Ġpied": 2635,
      "Ġthere": 2636,
      "ême": 2637,
      "Ġfract": 2638,
      "oru": 2639,
      "گر": 2640,
      "ίας": 2641,
      "roffen": 2642,
      "Ġextrém": 2643,
      "Ġข": 2644,
      "الع": 2645,
      "Ġadhes": 2646,
      "Ġwavef": 2647,
      "Ġcath": 2648,
      "ramento": 2649,
      "Ġenlight": 2650,
      "блі": 2651,
      "coverage": 2652,
      "riteria": 2653,
      "ILayout": 2654,
      "გენ": 2655,
      "eteor": 2656,
      "Ġcup": 2657,
      "amped": 2658,
      "Ġтран": 2659,
      "Flare": 2660,
      "nash": 2661,
      "Stock": 2662,
      "ĠBrent": 2663,
      "イール": 2664,
      "Ġপর": 2665,
      "iggle": 2666,
      "olate": 2667,
      "hern": 2668,
      "myItem": 2669,
      "ĠMex": 2670,
      "Ġسک": 2671,
      "Ġmanoe": 2672,
      "ěst": 2673,
      "ження": 2674,
      "gev": 2675,
      "taş": 2676,
      "ĠElevated": 2677,
      "DN": 2678,
      "ープ": 2679,
      "педії": 2680,
      "mous": 2681,
      "Ġaden": 2682,
      "aphore": 2683,
      "Lab": 2684,
      "itsch": 2685,
      "ritann": 2686,
      "rowning": 2687,
      "tail": 2688,
      "ukannya": 2689,
      "atian": 2690,
      "Ġreprés": 2691,
      "ención": 2692,
      "uson": 2693,
      "ãi": 2694,
      "Ġconced": 2695,
      "Ġdissemin": 2696,
      "Cleared": 2697,
      "Ġчем": 2698,
      "orms": 2699,
      "Ġener": 2700,
      "Ġкат": 2701,
      "Requ": 2702,
      "Depart": 2703,
      "Ġjew": 2704,
      "Iss": 2705,
      "uşt": 2706,
      "Ġобрат": 2707,
      "iken": 2708,
      "rtol": 2709,
      "yair": 2710,
      "ĠAj": 2711,
      "ĠÜ": 2712,
      "احت": 2713,
      "ástico": 2714,
      "eys": 2715,
      "と思います": 2716,
      "Translatef": 2717,
      "ایی": 2718,
      "ocate": 2719,
      "ocarp": 2720,
      "Ġjak": 2721,
      "otional": 2722,
      "lings": 2723,
      "Ġباز": 2724,
      "ждает": 2725,
      "ائل": 2726,
      "esor": 2727,
      "ĠRadi": 2728,
      "чат": 2729,
      "iry": 2730,
      "Capt": 2731,
      "rella": 2732,
      "counts": 2733,
      "ĠDord": 2734,
      "LINE": 2735,
      "JpegLen": 2736,
      "raphics": 2737,
      "osomes": 2738,
      "ording": 2739,
      "Ġdecid": 2740,
      "гие": 2741,
      "ults": 2742,
      "may": 2743,
      "Ġпроце": 2744,
      "ĠClem": 2745,
      "wolves": 2746,
      "flage": 2747,
      "witz": 2748,
      "ĠВлади": 2749,
      "ĠMiss": 2750,
      "Ġvir": 2751,
      "eckt": 2752,
      "Ġsteckt": 2753,
      "服务": 2754,
      "場面": 2755,
      "場面積": 2756,
      "Ġصفح": 2757,
      "Ġdead": 2758,
      "стные": 2759,
      "ierarch": 2760,
      "ĠBurn": 2761,
      "трі": 2762,
      "доро": 2763,
      "出来": 2764,
      "овой": 2765,
      "ルダー": 2766,
      "Manus": 2767,
      "Ġaur": 2768,
      "ĠHan": 2769,
      "Ġпоказа": 2770,
      "unique": 2771,
      "Ġاخت": 2772,
      "Ġtrunc": 2773,
      "Ġcel": 2774,
      "LECT": 2775,
      "ogener": 2776,
      "Ġcome": 2777,
      "იმ": 2778,
      "Ġextrav": 2779,
      "rale": 2780,
      "agher": 2781,
      "Family": 2782,
      "thread": 2783,
      "DBG": 2784,
      "ainak": 2785,
      "führ": 2786,
      "loria": 2787,
      "UserProg": 2788,
      "ippers": 2789,
      "mentation": 2790,
      "انے": 2791,
      "гази": 2792,
      "locked": 2793,
      "ãos": 2794,
      "Ġკ": 2795,
      "Ġgrö": 2796,
      "essional": 2797,
      "ithin": 2798,
      "ulsive": 2799,
      "ĠSqu": 2800,
      "itching": 2801,
      "Ġdap": 2802,
      "rums": 2803,
      "andro": 2804,
      "multi": 2805,
      "cled": 2806,
      "TextField": 2807,
      "Ġdissoci": 2808,
      "Ġایس": 2809,
      "ĠAbs": 2810,
      "Ġтек": 2811,
      "Ġconstitu": 2812,
      "denum": 2813,
      "っています": 2814,
      "Ġläng": 2815,
      "porter": 2816,
      "Ġinfiltr": 2817,
      "SCEcorr": 2818,
      "ĠJoaqu": 2819,
      "ленность": 2820,
      "uru": 2821,
      "izen": 2822,
      "onders": 2823,
      "Price": 2824,
      "ĠBoh": 2825,
      "STIT": 2826,
      "ĠRCL": 2827,
      "ĠJack": 2828,
      "وصل": 2829,
      "straints": 2830,
      "Ġevalu": 2831,
      "okh": 2832,
      "Results": 2833,
      "teil": 2834,
      "achable": 2835,
      "érist": 2836,
      "দর": 2837,
      "usions": 2838,
      "ineux": 2839,
      "Close": 2840,
      "ecimento": 2841,
      "tp": 2842,
      "Ġfactor": 2843,
      "redit": 2844,
      "ципа": 2845,
      "Ġинтер": 2846,
      "Ġcoal": 2847,
      "hões": 2848,
      "ĠGloucestershire": 2849,
      "ạnh": 2850,
      "ussen": 2851,
      "いない": 2852,
      "ffic": 2853,
      "OSP": 2854,
      "Ġindul": 2855,
      "ĠDen": 2856,
      "Ġtrouv": 2857,
      "ập": 2858,
      "Ġza": 2859,
      "Ġharsh": 2860,
      "CTOGRAM": 2861,
      "Ġкре": 2862,
      "OMBRE": 2863,
      "alon": 2864,
      "romatic": 2865,
      "xyz": 2866,
      "Ġinici": 2867,
      "Ġrut": 2868,
      "estown": 2869,
      "onato": 2870,
      "Ġimmobil": 2871,
      "Engine": 2872,
      "Plot": 2873,
      "Ġexponent": 2874,
      "DanhMuc": 2875,
      "него": 2876,
      "ĠEff": 2877,
      "üns": 2878,
      "Ġcondem": 2879,
      "需要": 2880,
      "utti": 2881,
      "otch": 2882,
      "Ġweld": 2883,
      "Ġstaw": 2884,
      "tl": 2885,
      "пад": 2886,
      "Ġcuy": 2887,
      "Ġwen": 2888,
      "egos": 2889,
      "гий": 2890,
      "aturation": 2891,
      "ĠthisTrial": 2892,
      "Static": 2893,
      "Ġcompris": 2894,
      "Pojo": 2895,
      "imod": 2896,
      "permal": 2897,
      "Tuple": 2898,
      "Ġtrit": 2899,
      "Ġzap": 2900,
      "Ġsoci": 2901,
      "eties": 2902,
      "Sil": 2903,
      "Ġdies": 2904,
      "Ġsik": 2905,
      "Ġويك": 2906,
      "ĠVo": 2907,
      "Emb": 2908,
      "cemia": 2909,
      "ĠMcKe": 2910,
      "Pool": 2911,
      "athing": 2912,
      "Ġизмен": 2913,
      "Ġkat": 2914,
      "ieten": 2915,
      "wast": 2916,
      "ocused": 2917,
      "iseconds": 2918,
      "ße": 2919,
      "getNumber": 2920,
      "ッグ": 2921,
      "μαν": 2922,
      "ongi": 2923,
      "Ġdesapar": 2924,
      "ogan": 2925,
      "adding": 2926,
      "Ġშემთ": 2927,
      "rés": 2928,
      "Ġcuad": 2929,
      "кта": 2930,
      "IsNull": 2931,
      "Ġgesch": 2932,
      "ugins": 2933,
      "ろしく": 2934,
      "ensure": 2935,
      "ardon": 2936,
      "ĠRece": 2937,
      "декс": 2938,
      "ĠIBC": 2939,
      "onds": 2940,
      "ĠHot": 2941,
      "ecting": 2942,
      "ĠGuild": 2943,
      "aturas": 2944,
      "Ġabund": 2945,
      "ributes": 2946,
      "Xpaths": 2947,
      "ĠBellev": 2948,
      "Ġlét": 2949,
      "ĠAlban": 2950,
      "trunc": 2951,
      "orical": 2952,
      "ystic": 2953,
      "azed": 2954,
      "として": 2955,
      "Ġbran": 2956,
      "Ġapopt": 2957,
      "udson": 2958,
      "ריה": 2959,
      "şik": 2960,
      "Ġعلا": 2961,
      "ohVP": 2962,
      "ĠBeled": 2963,
      "Ġperce": 2964,
      "ビュー": 2965,
      "iterr": 2966,
      "REE": 2967,
      "hought": 2968,
      "Ġдра": 2969,
      "Ġemanc": 2970,
      "asty": 2971,
      "тбол": 2972,
      "UK": 2973,
      "izado": 2974,
      "icket": 2975,
      "agation": 2976,
      "Ġbeschäft": 2977,
      "Ġlep": 2978,
      "Ġfair": 2979,
      "orners": 2980,
      "Ġопреде": 2981,
      "imbabwe": 2982,
      "Ġä": 2983,
      "Ġcapital": 2984,
      "Ġbulund": 2985,
      "strap": 2986,
      "Ġgrab": 2987,
      "აში": 2988,
      "Ġinvol": 2989,
      "Antae": 2990,
      "ĠHin": 2991,
      "tig": 2992,
      "сма": 2993,
      "繰り返": 2994,
      "ilet": 2995,
      "FET": 2996,
      "Ġمست": 2997,
      "Ġdemoc": 2998,
      "ĠSek": 2999,
      "itya": 3000,
      "Ġves": 3001,
      "ער": 3002,
      "ucing": 3003,
      "ForKey": 3004,
      "hyth": 3005,
      "Ġréal": 3006,
      "смотре": 3007,
      "Ġშეი": 3008,
      "nych": 3009,
      "ĠBit": 3010,
      "ĠЕвро": 3011,
      "reflection": 3012,
      "ĠUSA": 3013,
      "到了": 3014,
      "וחות": 3015,
      "ĠOt": 3016,
      "ént": 3017,
      "ilee": 3018,
      "eken": 3019,
      "Ġgele": 3020,
      "AH": 3021,
      "amming": 3022,
      "alah": 3023,
      "ealous": 3024,
      "esthetics": 3025,
      "では": 3026,
      "Ġcoordin": 3027,
      "افظ": 3028,
      "undred": 3029,
      "トップ": 3030,
      "External": 3031,
      "Ġnibb": 3032,
      "اري": 3033,
      "Ġrouge": 3034,
      "ĠBez": 3035,
      "Ġunve": 3036,
      "ARI": 3037,
      "Ġrehe": 3038,
      "ampil": 3039,
      "ottle": 3040,
      "ciones": 3041,
      "webtoken": 3042,
      "ному": 3043,
      "PERT": 3044,
      "ucer": 3045,
      "ールド": 3046,
      "Ġacadem": 3047,
      "Ġban": 3048,
      "Ġсказа": 3049,
      "ĠJordan": 3050,
      "Ġкли": 3051,
      "utdown": 3052,
      "alted": 3053,
      "toin": 3054,
      "Submit": 3055,
      "жден": 3056,
      "atorial": 3057,
      "ĠNam": 3058,
      "uddle": 3059,
      "SY": 3060,
      "Ġsovere": 3061,
      "ĠWarrington": 3062,
      "structions": 3063,
      "лення": 3064,
      "Ġbudget": 3065,
      "Ġiccad": 3066,
      "ĠPerc": 3067,
      "uces": 3068,
      "ложен": 3069,
      "ĠEgy": 3070,
      "anlı": 3071,
      "Ġspeech": 3072,
      "wna": 3073,
      "ющих": 3074,
      "unque": 3075,
      "Ġناخ": 3076,
      "lasz": 3077,
      "ixe": 3078,
      "지만": 3079,
      "Ġпар": 3080,
      "Ġoverrid": 3081,
      "respons": 3082,
      "ioButton": 3083,
      "пере": 3084,
      "Ġdipl": 3085,
      "erville": 3086,
      "ĠHom": 3087,
      "arang": 3088,
      "ĠJust": 3089,
      "ziel": 3090,
      "Ġуправ": 3091,
      "itarian": 3092,
      "uously": 3093,
      "ARCHAR": 3094,
      "zub": 3095,
      "ĠFra": 3096,
      "Win": 3097,
      "empel": 3098,
      "ailability": 3099,
      "Ġrender": 3100,
      "Boolean": 3101,
      "PushButton": 3102,
      "Norm": 3103,
      "Ġaver": 3104,
      "Rais": 3105,
      "ieden": 3106,
      "ĠCamp": 3107,
      "والفق": 3108,
      "اوز": 3109,
      "ĠPey": 3110,
      "Ġeluc": 3111,
      "Ratio": 3112,
      "rosse": 3113,
      "STRU": 3114,
      "ნიშ": 3115,
      "LEX": 3116,
      "Ġتص": 3117,
      "に追加": 3118,
      "obbies": 3119,
      "Ġszy": 3120,
      "ylene": 3121,
      "引き": 3122,
      "Ġcristian": 3123,
      "othy": 3124,
      "Ġélev": 3125,
      "atenin": 3126,
      "гна": 3127,
      "Ġjav": 3128,
      "ichte": 3129,
      "unu": 3130,
      "EventArgs": 3131,
      "Ġcompens": 3132,
      "ahui": 3133,
      "working": 3134,
      "ĠEurop": 3135,
      "ération": 3136,
      "ĠGame": 3137,
      "Ġhuman": 3138,
      "iyo": 3139,
      "cepción": 3140,
      "ĠMass": 3141,
      "ĠHorn": 3142,
      "Tex": 3143,
      "found": 3144,
      "rought": 3145,
      "خوا": 3146,
      "SF": 3147,
      "Ġí": 3148,
      "ihan": 3149,
      "ovatel": 3150,
      "mant": 3151,
      "Ġinterfer": 3152,
      "AndView": 3153,
      "теля": 3154,
      "Ġвнут": 3155,
      "īn": 3156,
      "ĠKauf": 3157,
      "Ġjīn": 3158,
      "ĠJes": 3159,
      "部分": 3160,
      "łącz": 3161,
      "Ġтеле": 3162,
      "tot": 3163,
      "angler": 3164,
      "kte": 3165,
      "ienen": 3166,
      "ĠPred": 3167,
      "ambra": 3168,
      "urat": 3169,
      "Ġللط": 3170,
      "ĠGorman": 3171,
      "Ġpolar": 3172,
      "EF": 3173,
      "slidesPer": 3174,
      "chan": 3175,
      "Ġket": 3176,
      "Emitter": 3177,
      "ĠEph": 3178,
      "Ġkeep": 3179,
      "erda": 3180,
      "нку": 3181,
      "uren": 3182,
      "Ġdal": 3183,
      "Ġchant": 3184,
      "Ġસ": 3185,
      "Ġaggrav": 3186,
      "autiful": 3187,
      "ifers": 3188,
      "مة": 3189,
      "رحله": 3190,
      "Ġsphinct": 3191,
      "ържа": 3192,
      "enar": 3193,
      "лити": 3194,
      "Ġdol": 3195,
      "ecksum": 3196,
      "Ġdwar": 3197,
      "tty": 3198,
      "rashed": 3199,
      "fly": 3200,
      "Ġtamb": 3201,
      "ksi": 3202,
      "metic": 3203,
      "amefont": 3204,
      "судар": 3205,
      "ĠLSP": 3206,
      "ereum": 3207,
      "они": 3208,
      "Bro": 3209,
      "alities": 3210,
      "LAGAB": 3211,
      "Linked": 3212,
      "کری": 3213,
      "emory": 3214,
      "amol": 3215,
      "Ġpref": 3216,
      "urname": 3217,
      "gue": 3218,
      "Ġté": 3219,
      "Ġ나": 3220,
      "Ġнеобходи": 3221,
      "essen": 3222,
      "uffle": 3223,
      "Ġlum": 3224,
      "Ġfirst": 3225,
      "Ġcereb": 3226,
      "igation": 3227,
      "ضرت": 3228,
      "Ġсчита": 3229,
      "bus": 3230,
      "ätten": 3231,
      "скетбол": 3232,
      "Ġنق": 3233,
      "ategories": 3234,
      "pub": 3235,
      "plaatst": 3236,
      "كس": 3237,
      "istra": 3238,
      "ricular": 3239,
      "Ġالمص": 3240,
      "ramer": 3241,
      "става": 3242,
      "ĠGeb": 3243,
      "ños": 3244,
      "aña": 3245,
      "event": 3246,
      "names": 3247,
      "CG": 3248,
      "Ġrenc": 3249,
      "abes": 3250,
      "ropical": 3251,
      "ĠOrig": 3252,
      "дера": 3253,
      "azard": 3254,
      "ĠHyd": 3255,
      "Admin": 3256,
      "Ġolduğ": 3257,
      "DOM": 3258,
      "ayvach": 3259,
      "Ġavoid": 3260,
      "ayvachi": 3261,
      "Bracketing": 3262,
      "ĠVieira": 3263,
      "Ġlub": 3264,
      "Ġprécéd": 3265,
      "ĠMukesh": 3266,
      "zig": 3267,
      "engers": 3268,
      "imientos": 3269,
      "urna": 3270,
      "idan": 3271,
      "sru": 3272,
      "uelle": 3273,
      "Ġต": 3274,
      "ĠJama": 3275,
      "bpm": 3276,
      "ĠПро": 3277,
      "igration": 3278,
      "Ġneed": 3279,
      "andering": 3280,
      "Ġadopt": 3281,
      "っと": 3282,
      "Ġсай": 3283,
      "Sholes": 3284,
      "ifolds": 3285,
      "request": 3286,
      "Ġvä": 3287,
      "ĠPant": 3288,
      "ĠMald": 3289,
      "Ġproporc": 3290,
      "SMutable": 3291,
      "uga": 3292,
      "ĠEdmond": 3293,
      "ĠFE": 3294,
      "łów": 3295,
      "ounty": 3296,
      "Flow": 3297,
      "Ġpatern": 3298,
      "phans": 3299,
      "پيديا": 3300,
      "Ġپڑ": 3301,
      "Ġdre": 3302,
      "ogi": 3303,
      "ĠRand": 3304,
      "Bas": 3305,
      "corper": 3306,
      "мне": 3307,
      "CEPT": 3308,
      "ocode": 3309,
      "XT": 3310,
      "κρι": 3311,
      "zk": 3312,
      "לית": 3313,
      "کار": 3314,
      "oupe": 3315,
      "ittees": 3316,
      "Ġendomet": 3317,
      "yser": 3318,
      "Ġwait": 3319,
      "layout": 3320,
      "Ġsql": 3321,
      "ảng": 3322,
      "Ġсуще": 3323,
      "Ġчи": 3324,
      "omba": 3325,
      "нить": 3326,
      "Resume": 3327,
      "Ġsanit": 3328,
      "Ġclo": 3329,
      "Ġlaugh": 3330,
      "Ġindepend": 3331,
      "ungeon": 3332,
      "enzoim": 3333,
      "сед": 3334,
      "leet": 3335,
      "umina": 3336,
      "ларды": 3337,
      "pected": 3338,
      "install": 3339,
      "Ġშეს": 3340,
      "מצע": 3341,
      "nst": 3342,
      "ranes": 3343,
      "Mac": 3344,
      "Ġerst": 3345,
      "Ġons": 3346,
      "ĠHoover": 3347,
      "Ġmaterial": 3348,
      "ení": 3349,
      "شف": 3350,
      "Ġreass": 3351,
      "етер": 3352,
      "ăn": 3353,
      "ohen": 3354,
      "reck": 3355,
      "Ġyear": 3356,
      "ệt": 3357,
      "Ġamper": 3358,
      "abri": 3359,
      "Ġevit": 3360,
      "ĠStafford": 3361,
      "Ġzh": 3362,
      "coords": 3363,
      "plyr": 3364,
      "alke": 3365,
      "uneh": 3366,
      "ApiPath": 3367,
      "PluginResult": 3368,
      "nog": 3369,
      "ifice": 3370,
      "iore": 3371,
      "aixo": 3372,
      "ĠDalib": 3373,
      "Ġعز": 3374,
      "owości": 3375,
      "ĠBever": 3376,
      "ídu": 3377,
      "arct": 3378,
      "Need": 3379,
      "Ġdiscern": 3380,
      "ecution": 3381,
      "content": 3382,
      "Ġtranscend": 3383,
      "icy": 3384,
      "omyosin": 3385,
      "разу": 3386,
      "ggbb": 3387,
      "altar": 3388,
      "ObjectID": 3389,
      "vod": 3390,
      "лико": 3391,
      "HTML": 3392,
      "ĠMCI": 3393,
      "tom": 3394,
      "Ġсозда": 3395,
      "Datas": 3396,
      "aruhi": 3397,
      "Ġyojet": 3398,
      "Ġфиль": 3399,
      "Ġfram": 3400,
      "ĠObserv": 3401,
      "activity": 3402,
      "avier": 3403,
      "Panorama": 3404,
      "ĠCarm": 3405,
      "Ġapolog": 3406,
      "avad": 3407,
      "Ġхоро": 3408,
      "ETHOD": 3409,
      "ĠTerm": 3410,
      "тити": 3411,
      "ĠLOC": 3412,
      "imming": 3413,
      "パクト": 3414,
      "mog": 3415,
      "ennials": 3416,
      "гда": 3417,
      "Compl": 3418,
      "oric": 3419,
      "ĠPhot": 3420,
      "Ġkomm": 3421,
      "ifen": 3422,
      "ĠArrayRef": 3423,
      "ĠSpringsteen": 3424,
      "built": 3425,
      "ĠGard": 3426,
      "Ġfunct": 3427,
      "يان": 3428,
      "सर": 3429,
      "できる": 3430,
      "enciales": 3431,
      "ッピ": 3432,
      "egi": 3433,
      "unca": 3434,
      "uidor": 3435,
      "Ġрай": 3436,
      "çük": 3437,
      "glyph": 3438,
      "ĠBolog": 3439,
      "refer": 3440,
      "ples": 3441,
      "matic": 3442,
      "boost": 3443,
      "Ġimplement": 3444,
      "isten": 3445,
      "Ġparthen": 3446,
      "вый": 3447,
      "گان": 3448,
      "zić": 3449,
      "owie": 3450,
      "rière": 3451,
      "endale": 3452,
      "ĠCit": 3453,
      "Ġinfra": 3454,
      "ĠJam": 3455,
      "andalone": 3456,
      "ĠRail": 3457,
      "acé": 3458,
      "ĠimageHeight": 3459,
      "ĠBagh": 3460,
      "BED": 3461,
      "ields": 3462,
      "heed": 3463,
      "ĠГер": 3464,
      "には": 3465,
      "AutoScale": 3466,
      "ública": 3467,
      "мени": 3468,
      "Ġvš": 3469,
      "Ġodnos": 3470,
      "umat": 3471,
      "wn": 3472,
      "ĠPil": 3473,
      "Ġpous": 3474,
      "ienda": 3475,
      "Clazz": 3476,
      "elligence": 3477,
      "Ġzák": 3478,
      "BlockFit": 3479,
      "Ġ보": 3480,
      "Ġдет": 3481,
      "hash": 3482,
      "Ġkra": 3483,
      "ktor": 3484,
      "ĠMagdal": 3485,
      "ountain": 3486,
      "itic": 3487,
      "Ġgénér": 3488,
      "menes": 3489,
      "ências": 3490,
      "Ġsuppl": 3491,
      "uitar": 3492,
      "Ġjorn": 3493,
      "getAs": 3494,
      "BUND": 3495,
      "eonium": 3496,
      "ĠPCI": 3497,
      "доб": 3498,
      "Ġimpl": 3499,
      "itecture": 3500,
      "воз": 3501,
      "ĠMitt": 3502,
      "starc": 3503,
      "ĠHertfordshire": 3504,
      "Ġmir": 3505,
      "лась": 3506,
      "кови": 3507,
      "ôm": 3508,
      "loyd": 3509,
      "Ġπα": 3510,
      "opu": 3511,
      "inson": 3512,
      "Ġendow": 3513,
      "ulty": 3514,
      "imil": 3515,
      "phalodes": 3516,
      "pedo": 3517,
      "Ġباندې": 3518,
      "Ġunm": 3519,
      "Ġتام": 3520,
      "شنا": 3521,
      "руп": 3522,
      "Ġberk": 3523,
      "érique": 3524,
      "upper": 3525,
      "كات": 3526,
      "xcs": 3527,
      "Idx": 3528,
      "udit": 3529,
      "Ġauss": 3530,
      "éal": 3531,
      "მწიფ": 3532,
      "Ġfel": 3533,
      "ispens": 3534,
      "Ġsie": 3535,
      "number": 3536,
      "ấm": 3537,
      "ждения": 3538,
      "Ġtranscript": 3539,
      "ardino": 3540,
      "Ġzw": 3541,
      "Ġአይ": 3542,
      "ĠGuz": 3543,
      "んな": 3544,
      "icale": 3545,
      "Bind": 3546,
      "hammad": 3547,
      "roz": 3548,
      "ooker": 3549,
      "Ġbear": 3550,
      "ordo": 3551,
      "olla": 3552,
      "GIS": 3553,
      "bers": 3554,
      "ietic": 3555,
      "kor": 3556,
      "Ġپو": 3557,
      "Ġverw": 3558,
      "ilem": 3559,
      "ڈین": 3560,
      "reetings": 3561,
      "いく": 3562,
      "Ġcamin": 3563,
      "ĠScript": 3564,
      "eltat": 3565,
      "Ġوالغ": 3566,
      "loid": 3567,
      "ptic": 3568,
      "UBL": 3569,
      "チュ": 3570,
      "avre": 3571,
      "Ġcytos": 3572,
      "Ġsympath": 3573,
      "ylvania": 3574,
      "leta": 3575,
      "ціа": 3576,
      "CENT": 3577,
      "opter": 3578,
      "bourne": 3579,
      "aryng": 3580,
      "세요": 3581,
      "Ġdot": 3582,
      "abeth": 3583,
      "ustering": 3584,
      "हरण": 3585,
      "ერთ": 3586,
      "WORK": 3587,
      "ifl": 3588,
      "eville": 3589,
      "ococcus": 3590,
      "bach": 3591,
      "њем": 3592,
      "DidChange": 3593,
      "KeyState": 3594,
      "Ġimput": 3595,
      "Ġуни": 3596,
      "ジェ": 3597,
      "Ġла": 3598,
      "FileSync": 3599,
      "father": 3600,
      "Ġhotsp": 3601,
      "works": 3602,
      "Ġالاس": 3603,
      "Ġsuj": 3604,
      "boot": 3605,
      "รม": 3606,
      "IFORN": 3607,
      "Ġнеско": 3608,
      "Ġбожо": 3609,
      "ĠУкра": 3610,
      "ractable": 3611,
      "countery": 3612,
      "зино": 3613,
      "гим": 3614,
      "ровать": 3615,
      "Ġdirig": 3616,
      "ISO": 3617,
      "ĠIndex": 3618,
      "Ġhealth": 3619,
      "otechn": 3620,
      "щее": 3621,
      "Ġrecher": 3622,
      "raine": 3623,
      "וי": 3624,
      "aisi": 3625,
      "document": 3626,
      "fast": 3627,
      "DER": 3628,
      "ĠRUDDER": 3629,
      "يت": 3630,
      "closure": 3631,
      "renew": 3632,
      "Ġdevast": 3633,
      "CLUSTER": 3634,
      "Ġارب": 3635,
      "athers": 3636,
      "ccc": 3637,
      "cych": 3638,
      "Weak": 3639,
      "ateurs": 3640,
      "cliffe": 3641,
      "chard": 3642,
      "rete": 3643,
      "Ġmann": 3644,
      "ган": 3645,
      "スク": 3646,
      "NOWLED": 3647,
      "antiated": 3648,
      "ърква": 3649,
      "ريق": 3650,
      "レンジ": 3651,
      "ApiCalls": 3652,
      "uada": 3653,
      "Ġترد": 3654,
      "AZ": 3655,
      "KIA": 3656,
      "ĠFlex": 3657,
      "доволь": 3658,
      "Ġprog": 3659,
      "ĠGewer": 3660,
      "fried": 3661,
      "Ġض": 3662,
      "ĠMerk": 3663,
      "لاث": 3664,
      "ній": 3665,
      "ĠICC": 3666,
      "sper": 3667,
      "itol": 3668,
      "Ġmanglid": 3669,
      "Ġभ": 3670,
      "enal": 3671,
      "âteau": 3672,
      "бі": 3673,
      "Ġbus": 3674,
      "achers": 3675,
      "ĠБе": 3676,
      "Ġoverwhel": 3677,
      "Ġaktiv": 3678,
      "boBox": 3679,
      "емые": 3680,
      "gence": 3681,
      "ĠVerein": 3682,
      "ара": 3683,
      "usias": 3684,
      "нием": 3685,
      "egir": 3686,
      "ĠMey": 3687,
      "Ġöğ": 3688,
      "Ġprostagland": 3689,
      "omerang": 3690,
      "زد": 3691,
      "hos": 3692,
      "aturated": 3693,
      "дут": 3694,
      "ĠHack": 3695,
      "CallBack": 3696,
      "odox": 3697,
      "Ġpublish": 3698,
      "Ġpopular": 3699,
      "riendo": 3700,
      "ĠMuse": 3701,
      "чки": 3702,
      "endum": 3703,
      "Ġhet": 3704,
      "offs": 3705,
      "ابت": 3706,
      "Layer": 3707,
      "エスト": 3708,
      "ĠBorder": 3709,
      "Ġmitt": 3710,
      "Compar": 3711,
      "jaer": 3712,
      "NSInteger": 3713,
      "Ġberg": 3714,
      "Ign": 3715,
      "Ġঅব": 3716,
      "Ġquel": 3717,
      "aced": 3718,
      "getString": 3719,
      "apot": 3720,
      "Ġexcav": 3721,
      "esin": 3722,
      "ounce": 3723,
      "kus": 3724,
      "uale": 3725,
      "فی": 3726,
      "Ġzus": 3727,
      "ylon": 3728,
      "env": 3729,
      "Ġpam": 3730,
      "icin": 3731,
      "Ġхристи": 3732,
      "ifference": 3733,
      "Ġepile": 3734,
      "Ġdisappe": 3735,
      "Outlet": 3736,
      "ĠLorentz": 3737,
      "apollo": 3738,
      "film": 3739,
      "make": 3740,
      "DEFG": 3741,
      "wah": 3742,
      "ELEASE": 3743,
      "odik": 3744,
      "λευ": 3745,
      "Chat": 3746,
      "ĠPog": 3747,
      "lal": 3748,
      "reno": 3749,
      "ighton": 3750,
      "Ġオ": 3751,
      "percent": 3752,
      "ĠКон": 3753,
      "Ġdukk": 3754,
      "Ġappend": 3755,
      "Ġпричи": 3756,
      "ĠShib": 3757,
      "raulic": 3758,
      "Ġуспе": 3759,
      "дила": 3760,
      "вра": 3761,
      "ifferenti": 3762,
      "lesia": 3763,
      "трите": 3764,
      "ubu": 3765,
      "entuk": 3766,
      "fromRGB": 3767,
      "мерикан": 3768,
      "etzt": 3769,
      "Ġtru": 3770,
      "どう": 3771,
      "iduci": 3772,
      "reira": 3773,
      "Ġdeliver": 3774,
      "Ġاف": 3775,
      "ĠChin": 3776,
      "Ġй": 3777,
      "норий": 3778,
      "Actions": 3779,
      "rout": 3780,
      "Ġпрово": 3781,
      "виде": 3782,
      "cdn": 3783,
      "SrvGroupIndex": 3784,
      "ĠHam": 3785,
      "antwort": 3786,
      "ĠUly": 3787,
      "Ġzar": 3788,
      "chrom": 3789,
      "ĠMak": 3790,
      "ordial": 3791,
      "ĠFeld": 3792,
      "Ġgee": 3793,
      "Ġответ": 3794,
      "ĠappId": 3795,
      "ripcion": 3796,
      "Ġوړاند": 3797,
      "exerc": 3798,
      "Ġintraven": 3799,
      "ナソニック": 3800,
      "ĠSeg": 3801,
      "Ġكوس": 3802,
      "Ġincent": 3803,
      "рого": 3804,
      "InBuffer": 3805,
      "ourke": 3806,
      "cini": 3807,
      "uner": 3808,
      "vore": 3809,
      "MenuItem": 3810,
      "rowth": 3811,
      "awatts": 3812,
      "going": 3813,
      "quito": 3814,
      "Ġpress": 3815,
      "tooth": 3816,
      "KAK": 3817,
      "agos": 3818,
      "ĠZwe": 3819,
      "Ġнен": 3820,
      "ogaster": 3821,
      "ĠAx": 3822,
      "unkte": 3823,
      "oulder": 3824,
      "esseur": 3825,
      "titor": 3826,
      "шей": 3827,
      "Contents": 3828,
      "Ġpotreb": 3829,
      "чёт": 3830,
      "idem": 3831,
      "Ġبہ": 3832,
      "ObjectUnderTest": 3833,
      "onies": 3834,
      "Ġgast": 3835,
      "ĠBeau": 3836,
      "ĠOm": 3837,
      "aad": 3838,
      "split": 3839,
      "ĠSing": 3840,
      "Ġborder": 3841,
      "ĠФурга": 3842,
      "ĠBao": 3843,
      "Expr": 3844,
      "rophic": 3845,
      "born": 3846,
      "jte": 3847,
      "Ġopio": 3848,
      "Ġlock": 3849,
      "Ġjul": 3850,
      "ĠTCS": 3851,
      "ibat": 3852,
      "veg": 3853,
      "ього": 3854,
      "لاف": 3855,
      "uming": 3856,
      "circ": 3857,
      "Ġлюбо": 3858,
      "Ġfamili": 3859,
      "ĠCCS": 3860,
      "ajaran": 3861,
      "ĠMatsumoto": 3862,
      "owns": 3863,
      "Ġvõ": 3864,
      "šn": 3865,
      "にか": 3866,
      "стных": 3867,
      "imentary": 3868,
      "NumConst": 3869,
      "USE": 3870,
      "Npm": 3871,
      "atique": 3872,
      "انہ": 3873,
      "лено": 3874,
      "ricao": 3875,
      "astava": 3876,
      "чили": 3877,
      "Ġkonk": 3878,
      "Ġповер": 3879,
      "ionante": 3880,
      "apie": 3881,
      "кса": 3882,
      "enberg": 3883,
      "Ġerk": 3884,
      "Ġkend": 3885,
      "Ġresearch": 3886,
      "жения": 3887,
      "ekk": 3888,
      "сында": 3889,
      "ursa": 3890,
      "ĠManufact": 3891,
      "ivel": 3892,
      "erting": 3893,
      "LayoutPanel": 3894,
      "Ġpersp": 3895,
      "Ġcompress": 3896,
      "میر": 3897,
      "IMQTTRVM": 3898,
      "queeze": 3899,
      "cpu": 3900,
      "ĠHein": 3901,
      "Ġஅ": 3902,
      "Schema": 3903,
      "Autor": 3904,
      "ĠLiter": 3905,
      "ortis": 3906,
      "observ": 3907,
      "annie": 3908,
      "ĠmorphOutput": 3909,
      "шко": 3910,
      "urtle": 3911,
      "ĠeTo": 3912,
      "Ġflo": 3913,
      "گذ": 3914,
      "続き": 3915,
      "ხელ": 3916,
      "YNAM": 3917,
      "eball": 3918,
      "iembre": 3919,
      "Ġsupers": 3920,
      "яза": 3921,
      "wach": 3922,
      "kele": 3923,
      "Foreground": 3924,
      "ĠDoh": 3925,
      "slateg": 3926,
      "ĠQt": 3927,
      "Ġblat": 3928,
      "зге": 3929,
      "imedia": 3930,
      "ugar": 3931,
      "ĠPeng": 3932,
      "ĠJohn": 3933,
      "asamb": 3934,
      "ĠPier": 3935,
      "ellikle": 3936,
      "inion": 3937,
      "iad": 3938,
      "Ġfot": 3939,
      "odge": 3940,
      "olle": 3941,
      "jgl": 3942,
      "TargetPath": 3943,
      "cro": 3944,
      "arov": 3945,
      "elize": 3946,
      "Ġسم": 3947,
      "iénd": 3948,
      "çalves": 3949,
      "Ġбону": 3950,
      "asures": 3951,
      "Ġhect": 3952,
      "Ġinad": 3953,
      "itekt": 3954,
      "inition": 3955,
      "yata": 3956,
      "Ġсот": 3957,
      "すること": 3958,
      "ojis": 3959,
      "टक": 3960,
      "ĠSU": 3961,
      "Ġفلسط": 3962,
      "bon": 3963,
      "echanical": 3964,
      "Ġpadam": 3965,
      "Ġprompt": 3966,
      "Ġvestib": 3967,
      "ĠParr": 3968,
      "isTrackCore": 3969,
      "Ġnab": 3970,
      "tons": 3971,
      "Ġмен": 3972,
      "usst": 3973,
      "ObjectDefer": 3974,
      "ĠBlanch": 3975,
      "fur": 3976,
      "Ġunter": 3977,
      "Ġmuit": 3978,
      "ekBar": 3979,
      "RESH": 3980,
      "imentos": 3981,
      "CIAL": 3982,
      "uers": 3983,
      "ης": 3984,
      "present": 3985,
      "ĠBuffered": 3986,
      "Ġhome": 3987,
      "ĠPegas": 3988,
      "ĠPegasus": 3989,
      "edges": 3990,
      "edged": 3991,
      "Ġenumer": 3992,
      "isOn": 3993,
      "JKL": 3994,
      "Ġсовремен": 3995,
      "Raster": 3996,
      "ígen": 3997,
      "ĠCly": 3998,
      "PARAM": 3999,
      "onych": 4000,
      "ĠPak": 4001,
      "ERAL": 4002,
      "OLOG": 4003,
      "ставляет": 4004,
      "ĠGew": 4005,
      "ĠInvis": 4006,
      "ĠFate": 4007,
      "ĠTFA": 4008,
      "axy": 4009,
      "ffentlich": 4010,
      "Ġከ": 4011,
      "IsOpen": 4012,
      "Ġexfol": 4013,
      "туры": 4014,
      "Invest": 4015,
      "ára": 4016,
      "Ġparticul": 4017,
      "Ġnatur": 4018,
      "ĠJe": 4019,
      "ĠOBJECT": 4020,
      "wealth": 4021,
      "Ġlesqu": 4022,
      "alos": 4023,
      "ĠHSBC": 4024,
      "дой": 4025,
      "CHN": 4026,
      "nO": 4027,
      "UUID": 4028,
      "ĠKow": 4029,
      "iest": 4030,
      "Ġnatural": 4031,
      "oreet": 4032,
      "берриз": 4033,
      "ylli": 4034,
      "yllium": 4035,
      "تیب": 4036,
      "ktCap": 4037,
      "adata": 4038,
      "Ġangios": 4039,
      "Pad": 4040,
      "aille": 4041,
      "ĠKel": 4042,
      "ĠZusammen": 4043,
      "Ġпрограм": 4044,
      "ją": 4045,
      "ĠAction": 4046,
      "Ġantigu": 4047,
      "Ġteng": 4048,
      "AGN": 4049,
      "Ġchol": 4050,
      "Ġconqu": 4051,
      "Ġconfront": 4052,
      "Ġprolifer": 4053,
      "рак": 4054,
      "ες": 4055,
      "itcher": 4056,
      "wikk": 4057,
      "یین": 4058,
      "ĠRoh": 4059,
      "ategorie": 4060,
      "Ġexhib": 4061,
      "Ġ스": 4062,
      "urred": 4063,
      "TreeNavigator": 4064,
      "Ġدان": 4065,
      "Ġerror": 4066,
      "Ġconcurs": 4067,
      "ongrass": 4068,
      "ább": 4069,
      "ĠMannheim": 4070,
      "ubro": 4071,
      "Ġbon": 4072,
      "Ġنش": 4073,
      "Ġчемпи": 4074,
      "LET": 4075,
      "ERVER": 4076,
      "oxyd": 4077,
      "пуска": 4078,
      "Ġense": 4079,
      "Ġर": 4080,
      "qal": 4081,
      "astery": 4082,
      "engl": 4083,
      "ĠKid": 4084,
      "infl": 4085,
      "Ġréf": 4086,
      "Ġsprink": 4087,
      "Ġмилли": 4088,
      "repe": 4089,
      "ensión": 4090,
      "CardArray": 4091,
      "vette": 4092,
      "eurs": 4093,
      "ransport": 4094,
      "regulated": 4095,
      "rinks": 4096,
      "lant": 4097,
      "Ġгород": 4098,
      "yun": 4099,
      "ፍተኛ": 4100,
      "dDays": 4101,
      "Ġprerog": 4102,
      "แน": 4103,
      "bsp": 4104,
      "ExpNow": 4105,
      "ĠWies": 4106,
      "ĠTAC": 4107,
      "Ġbrun": 4108,
      "Ġnature": 4109,
      "ĠnChar": 4110,
      "eing": 4111,
      "utorial": 4112,
      "meler": 4113,
      "anager": 4114,
      "اظ": 4115,
      "ĠVerm": 4116,
      "Ġbackground": 4117,
      "azine": 4118,
      "eletal": 4119,
      "Ġbhe": 4120,
      "Ġignore": 4121,
      "чо": 4122,
      "fred": 4123,
      "ljuč": 4124,
      "ueil": 4125,
      "Ġinstit": 4126,
      "Ġinsp": 4127,
      "ĠSimón": 4128,
      "Ġreform": 4129,
      "してみ": 4130,
      "EOUS": 4131,
      "Ġпрош": 4132,
      "фесси": 4133,
      "которы": 4134,
      "ategy": 4135,
      "ectl": 4136,
      "örd": 4137,
      "Ġпрепа": 4138,
      "Ġкраё": 4139,
      "setKeep": 4140,
      "Ġeuropé": 4141,
      "ĠMcCle": 4142,
      "Ġhang": 4143,
      "จาก": 4144,
      "ayers": 4145,
      "estry": 4146,
      "Ġvz": 4147,
      "Ġrevert": 4148,
      "omeg": 4149,
      "getMain": 4150,
      "ĠCharg": 4151,
      "omenclature": 4152,
      "arag": 4153,
      "rivial": 4154,
      "urers": 4155,
      "orthy": 4156,
      "感じ": 4157,
      "arus": 4158,
      "zechoslovak": 4159,
      "ittest": 4160,
      "BACK": 4161,
      "itanic": 4162,
      "Ġdos": 4163,
      "جليزية": 4164,
      "abu": 4165,
      "hensive": 4166,
      "lege": 4167,
      "BER": 4168,
      "Ġبات": 4169,
      "новен": 4170,
      "ρού": 4171,
      "ologic": 4172,
      "ATIVE": 4173,
      "APH": 4174,
      "Ġoutc": 4175,
      "uco": 4176,
      "Ġمذ": 4177,
      "циона": 4178,
      "ንያ": 4179,
      "ክንያ": 4180,
      "Ġምክንያ": 4181,
      "UNK": 4182,
      "avkh": 4183,
      "Visibility": 4184,
      "chu": 4185,
      "othermic": 4186,
      "uded": 4187,
      "hon": 4188,
      "Ġsperm": 4189,
      "держи": 4190,
      "HPO": 4191,
      "ضيف": 4192,
      "ĠBay": 4193,
      "Ġtelevis": 4194,
      "ĠАрхи": 4195,
      "Ġgez": 4196,
      "olecular": 4197,
      "edTest": 4198,
      "Caps": 4199,
      "rays": 4200,
      "ул": 4201,
      "IGNED": 4202,
      "ĠCu": 4203,
      "UNC": 4204,
      "hampton": 4205,
      "ributing": 4206,
      "ĠElekt": 4207,
      "ệnh": 4208,
      "ĠBrug": 4209,
      "Ġsog": 4210,
      "kai": 4211,
      "wing": 4212,
      "remo": 4213,
      "Ġsupern": 4214,
      "Suppress": 4215,
      "ეგ": 4216,
      "sq": 4217,
      "énagement": 4218,
      "Walk": 4219,
      "yfik": 4220,
      "oying": 4221,
      "Bounds": 4222,
      "inci": 4223,
      "が出て": 4224,
      "луч": 4225,
      "Ġszcz": 4226,
      "Rule": 4227,
      "aill": 4228,
      "attup": 4229,
      "imit": 4230,
      "Ġnayo": 4231,
      "schild": 4232,
      "usters": 4233,
      "ulis": 4234,
      "inca": 4235,
      "Projects": 4236,
      "ĠFileResource": 4237,
      "ĠEno": 4238,
      "Ġpouž": 4239,
      "เภท": 4240,
      "Ġdifficult": 4241,
      "сить": 4242,
      "になる": 4243,
      "ĠЮ": 4244,
      "Ġrétr": 4245,
      "aldehyde": 4246,
      "Ġmilli": 4247,
      "PlusEvents": 4248,
      "enko": 4249,
      "itzen": 4250,
      "Ġдоку": 4251,
      "Ġvast": 4252,
      "Contact": 4253,
      "Ġالخم": 4254,
      "klad": 4255,
      "ledge": 4256,
      "lined": 4257,
      "renner": 4258,
      "ruck": 4259,
      "estim": 4260,
      "Ġپیس": 4261,
      "ĠBrom": 4262,
      "idis": 4263,
      "ationale": 4264,
      "Ġrelief": 4265,
      "Ġсп": 4266,
      "ruption": 4267,
      "ابقه": 4268,
      "Ġpours": 4269,
      "Decoration": 4270,
      "Pa": 4271,
      "MAP": 4272,
      "olated": 4273,
      "htra": 4274,
      "IAN": 4275,
      "AMES": 4276,
      "lefthar": 4277,
      "oin": 4278,
      "renzia": 4279,
      "ĠMartín": 4280,
      "يلو": 4281,
      "Ġكيلو": 4282,
      "Ġground": 4283,
      "Ġpreview": 4284,
      "Ġnurs": 4285,
      "opia": 4286,
      "ڈیا": 4287,
      "iyon": 4288,
      "osion": 4289,
      "carbox": 4290,
      "гих": 4291,
      "ensi": 4292,
      "Ġdecor": 4293,
      "stitutional": 4294,
      "Ġ있다": 4295,
      "parent": 4296,
      "Ġmemper": 4297,
      "Decoder": 4298,
      "nelle": 4299,
      "ickets": 4300,
      "LOTRE": 4301,
      "niOkno": 4302,
      "iked": 4303,
      "ĠАк": 4304,
      "صد": 4305,
      "เท": 4306,
      "Ġосуществ": 4307,
      "oldown": 4308,
      "Со": 4309,
      "ĠTulane": 4310,
      "ROM": 4311,
      "Ġshell": 4312,
      "orini": 4313,
      "ĠGuadal": 4314,
      "рес": 4315,
      "halten": 4316,
      "Ġbust": 4317,
      "een": 4318,
      "chnen": 4319,
      "ombres": 4320,
      "Ġaflat": 4321,
      "CHREIBUNG": 4322,
      "ĠKeen": 4323,
      "response": 4324,
      "uè": 4325,
      "Ġprecinct": 4326,
      "Customer": 4327,
      "dater": 4328,
      "ორი": 4329,
      "kaar": 4330,
      "ĠValent": 4331,
      "ILITY": 4332,
      "Ġans": 4333,
      "ogenetic": 4334,
      "ERR": 4335,
      "Ġnoss": 4336,
      "utional": 4337,
      "tır": 4338,
      "MSFont": 4339,
      "GEBURTS": 4340,
      "нем": 4341,
      "Red": 4342,
      "Ġcend": 4343,
      "év": 4344,
      "үм": 4345,
      "Ġмүм": 4346,
      "GD": 4347,
      "waitFor": 4348,
      "Ġincorpor": 4349,
      "Ġpabb": 4350,
      "ĠFigma": 4351,
      "Ġvog": 4352,
      "Ġdépass": 4353,
      "дні": 4354,
      "ultural": 4355,
      "एल": 4356,
      "yma": 4357,
      "Ġразгово": 4358,
      "KeyCode": 4359,
      "efinite": 4360,
      "Timer": 4361,
      "ciences": 4362,
      "Ġmultif": 4363,
      "lexeme": 4364,
      "INST": 4365,
      "liquid": 4366,
      "Ġnewsp": 4367,
      "ĠSchl": 4368,
      "ĠBarang": 4369,
      "serrat": 4370,
      "ĠElevatedButton": 4371,
      "ليم": 4372,
      "ネット": 4373,
      "spe": 4374,
      "istency": 4375,
      "ĠAppropri": 4376,
      "Ġbeer": 4377,
      "вые": 4378,
      "Ġი": 4379,
      "ĠBlueprint": 4380,
      "metro": 4381,
      "ĠPTI": 4382,
      "Ġhepin": 4383,
      "ایا": 4384,
      "ĠBergamo": 4385,
      "ĠTrou": 4386,
      "wak": 4387,
      "psilon": 4388,
      "бова": 4389,
      "akukannya": 4390,
      "Ġinext": 4391,
      "ocial": 4392,
      "Ġсол": 4393,
      "Expl": 4394,
      "ĠConfeder": 4395,
      "Ġgep": 4396,
      "ansen": 4397,
      "Sant": 4398,
      "ClearedBy": 4399,
      "Ġسلسل": 4400,
      "вания": 4401,
      "arent": 4402,
      "aliana": 4403,
      "ĠStre": 4404,
      "Ġули": 4405,
      "CharAt": 4406,
      "رائی": 4407,
      "Ġзаклю": 4408,
      "Ġstrength": 4409,
      "Ġfunz": 4410,
      "reiber": 4411,
      "esian": 4412,
      "NewUrlParser": 4413,
      "δο": 4414,
      "ười": 4415,
      "Ġinnov": 4416,
      "orio": 4417,
      "gdock": 4418,
      "Ġhö": 4419,
      "execute": 4420,
      "لق": 4421,
      "datas": 4422,
      "yed": 4423,
      "heid": 4424,
      "essel": 4425,
      "inar": 4426,
      "Ġcock": 4427,
      "ĠCRM": 4428,
      "fra": 4429,
      "ĠnameWithOwner": 4430,
      "awai": 4431,
      "appa": 4432,
      "FW": 4433,
      "autom": 4434,
      "Ġpubli": 4435,
      "হইল": 4436,
      "asked": 4437,
      "gom": 4438,
      "Primary": 4439,
      "obili": 4440,
      "วาม": 4441,
      "iyesi": 4442,
      "pathTemplates": 4443,
      "Ġausp": 4444,
      "zte": 4445,
      "TW": 4446,
      "ภา": 4447,
      "ielen": 4448,
      "tere": 4449,
      "ĠScha": 4450,
      "ĠHak": 4451,
      "サー": 4452,
      "Ġdoctr": 4453,
      "iennent": 4454,
      "IServer": 4455,
      "ĠHub": 4456,
      "ĠSmack": 4457,
      "ーカー": 4458,
      "ების": 4459,
      "Ġdiffér": 4460,
      "itelist": 4461,
      "Ġnurt": 4462,
      "ĠDSA": 4463,
      "emma": 4464,
      "Cod": 4465,
      "Scripts": 4466,
      "ظر": 4467,
      "Ġmö": 4468,
      "Ġnet": 4469,
      "ĠAqu": 4470,
      "uracy": 4471,
      "ĠPoll": 4472,
      "ĠEmin": 4473,
      "ĠSchr": 4474,
      "rya": 4475,
      "Ġaggress": 4476,
      "нный": 4477,
      "Ġsco": 4478,
      "Ġrenov": 4479,
      "Ġστι": 4480,
      "temuan": 4481,
      "LR": 4482,
      "ấp": 4483,
      "ĠShah": 4484,
      "oodle": 4485,
      "ĠZimm": 4486,
      "Loader": 4487,
      "Ġdific": 4488,
      "uncture": 4489,
      "тели": 4490,
      "ził": 4491,
      "نګ": 4492,
      "தய": 4493,
      "Ġsegu": 4494,
      "Ġالمثل": 4495,
      "Ġczł": 4496,
      "ĠGaz": 4497,
      "semos": 4498,
      "Ġjson": 4499,
      "aculture": 4500,
      "суз": 4501,
      "umed": 4502,
      "ĠFCI": 4503,
      "ricorn": 4504,
      "areer": 4505,
      "éct": 4506,
      "kup": 4507,
      "Ġrelacion": 4508,
      "sters": 4509,
      "IndexOf": 4510,
      "common": 4511,
      "ĠComb": 4512,
      "alkan": 4513,
      "zip": 4514,
      "assin": 4515,
      "Ġstig": 4516,
      "DummyView": 4517,
      "ĠEast": 4518,
      "apsing": 4519,
      "isti": 4520,
      "itä": 4521,
      "Ġaure": 4522,
      "tech": 4523,
      "Prof": 4524,
      "Ġstan": 4525,
      "autor": 4526,
      "ĠSouth": 4527,
      "amenti": 4528,
      "ĠInv": 4529,
      "background": 4530,
      "ĠUml": 4531,
      "ighed": 4532,
      "ifting": 4533,
      "Ġfamiliar": 4534,
      "AYLOR": 4535,
      "otia": 4536,
      "ỉnh": 4537,
      "laus": 4538,
      "قوم": 4539,
      "ĠKec": 4540,
      "oggler": 4541,
      "ĠStar": 4542,
      "FFER": 4543,
      "Ġreason": 4544,
      "íos": 4545,
      "ĠHad": 4546,
      "bpmOb": 4547,
      "Cross": 4548,
      "issue": 4549,
      "ellan": 4550,
      "Ġses": 4551,
      "Ġgalvan": 4552,
      "ジット": 4553,
      "без": 4554,
      "indon": 4555,
      "Ġneutr": 4556,
      "ichia": 4557,
      "اويه": 4558,
      "Ġpobl": 4559,
      "ĠAkt": 4560,
      "ĠInform": 4561,
      "يلة": 4562,
      "órm": 4563,
      "стер": 4564,
      "Ġpunch": 4565,
      "ĠLum": 4566,
      "Ġкатего": 4567,
      "سن": 4568,
      "ĠBarclays": 4569,
      "Ġcoveredmethods": 4570,
      "Ġplo": 4571,
      "atore": 4572,
      "entral": 4573,
      "inued": 4574,
      "scriber": 4575,
      "ocolate": 4576,
      "pio": 4577,
      "Ġpan": 4578,
      "Ġfeed": 4579,
      "Ġナ": 4580,
      "Ġwind": 4581,
      "addies": 4582,
      "ĠGreens": 4583,
      "aal": 4584,
      "Ġperj": 4585,
      "Designer": 4586,
      "ĠFAL": 4587,
      "Ġpreg": 4588,
      "Ġaccomp": 4589,
      "Ġmüş": 4590,
      "irement": 4591,
      "Ġpersonn": 4592,
      "Ġlud": 4593,
      "unny": 4594,
      "acting": 4595,
      "كلم": 4596,
      "hender": 4597,
      "Ġдиа": 4598,
      "Ġkick": 4599,
      "сила": 4600,
      "RAD": 4601,
      "riends": 4602,
      "Ġcalend": 4603,
      "epy": 4604,
      "Ġрезульта": 4605,
      "gang": 4606,
      "obium": 4607,
      "IDE": 4608,
      "ummies": 4609,
      "inent": 4610,
      "ĠChir": 4611,
      "ンツ": 4612,
      "Ġauß": 4613,
      "Ġcrypt": 4614,
      "Ġупо": 4615,
      "Ġlance": 4616,
      "ĠTolst": 4617,
      "Ġbifur": 4618,
      "osch": 4619,
      "ĠFGF": 4620,
      "esters": 4621,
      "вать": 4622,
      "issenschaft": 4623,
      "ĠObit": 4624,
      "aufen": 4625,
      "ĠinputBox": 4626,
      "Ġedil": 4627,
      "xcsch": 4628,
      "ĠPy": 4629,
      "getCql": 4630,
      "Ġfibr": 4631,
      "Ġпоряд": 4632,
      "ventional": 4633,
      "reenshot": 4634,
      "Ġconvinc": 4635,
      "ĠMcCl": 4636,
      "íng": 4637,
      "Ġétr": 4638,
      "uario": 4639,
      "versation": 4640,
      "Ġsoph": 4641,
      "ĠDonc": 4642,
      "Ġஇ": 4643,
      "ĠAlger": 4644,
      "Ġआईएफ": 4645,
      "Ġсоответ": 4646,
      "umpy": 4647,
      "writing": 4648,
      "zne": 4649,
      "ĠBelg": 4650,
      "ριν": 4651,
      "URNIZOR": 4652,
      "ĠPDPN": 4653,
      "Ġlec": 4654,
      "thought": 4655,
      "ходить": 4656,
      "AndroidResource": 4657,
      "lst": 4658,
      "ermark": 4659,
      "Ġconsidér": 4660,
      "iamo": 4661,
      "Ġسام": 4662,
      "くり": 4663,
      "thers": 4664,
      "hary": 4665,
      "tag": 4666,
      "elve": 4667,
      "RatingDiff": 4668,
      "Ġfais": 4669,
      "<UNK>": 4670
    },
    "old_vocab": {
      "!": 0,
      "\"": 1,
      "#": 2,
      "$": 3,
      "%": 4,
      "&": 5,
      "'": 6,
      "(": 7,
      ")": 8,
      "*": 9,
      "+": 10,
      ",": 11,
      "-": 12,
      ".": 13,
      "/": 14,
      "0": 15,
      "1": 16,
      "2": 17,
      "3": 18,
      "4": 19,
      "5": 20,
      "6": 21,
      "7": 22,
      "8": 23,
      "9": 24,
      ":": 25,
      ";": 26,
      "<": 27,
      "=": 28,
      ">": 29,
      "?": 30,
      "@": 31,
      "A": 32,
      "B": 33,
      "C": 34,
      "D": 35,
      "E": 36,
      "F": 37,
      "G": 38,
      "H": 39,
      "I": 40,
      "J": 41,
      "K": 42,
      "L": 43,
      "M": 44,
      "N": 45,
      "O": 46,
      "P": 47,
      "Q": 48,
      "R": 49,
      "S": 50,
      "T": 51,
      "U": 52,
      "V": 53,
      "W": 54,
      "X": 55,
      "Y": 56,
      "Z": 57,
      "[": 58,
      "\\": 59,
      "]": 60,
      "^": 61,
      "_": 62,
      "`": 63,
      "a": 64,
      "b": 65,
      "c": 66,
      "d": 67,
      "e": 68,
      "f": 69,
      "g": 70,
      "h": 71,
      "i": 72,
      "j": 73,
      "k": 74,
      "l": 75,
      "m": 76,
      "n": 77,
      "o": 78,
      "p": 79,
      "q": 80,
      "r": 81,
      "s": 82,
      "t": 83,
      "u": 84,
      "v": 85,
      "w": 86,
      "x": 87,
      "y": 88,
      "z": 89,
      "{": 90,
      "|": 91,
      "}": 92,
      "~": 93,
      "¡": 94,
      "¢": 95,
      "£": 96,
      "¤": 97,
      "¥": 98,
      "¦": 99,
      "§": 100,
      "¨": 101,
      "©": 102,
      "ª": 103,
      "«": 104,
      "¬": 105,
      "®": 106,
      "¯": 107,
      "°": 108,
      "±": 109,
      "²": 110,
      "³": 111,
      "´": 112,
      "µ": 113,
      "¶": 114,
      "·": 115,
      "¸": 116,
      "¹": 117,
      "º": 118,
      "»": 119,
      "¼": 120,
      "½": 121,
      "¾": 122,
      "¿": 123,
      "À": 124,
      "Á": 125,
      "Â": 126,
      "Ã": 127,
      "Ä": 128,
      "Å": 129,
      "Æ": 130,
      "Ç": 131,
      "È": 132,
      "É": 133,
      "Ê": 134,
      "Ë": 135,
      "Ì": 136,
      "Í": 137,
      "Î": 138,
      "Ï": 139,
      "Ð": 140,
      "Ñ": 141,
      "Ò": 142,
      "Ó": 143,
      "Ô": 144,
      "Õ": 145,
      "Ö": 146,
      "×": 147,
      "Ø": 148,
      "Ù": 149,
      "Ú": 150,
      "Û": 151,
      "Ü": 152,
      "Ý": 153,
      "Þ": 154,
      "ß": 155,
      "à": 156,
      "á": 157,
      "â": 158,
      "ã": 159,
      "ä": 160,
      "å": 161,
      "æ": 162,
      "ç": 163,
      "è": 164,
      "é": 165,
      "ê": 166,
      "ë": 167,
      "ì": 168,
      "í": 169,
      "î": 170,
      "ï": 171,
      "ð": 172,
      "ñ": 173,
      "ò": 174,
      "ó": 175,
      "ô": 176,
      "õ": 177,
      "ö": 178,
      "÷": 179,
      "ø": 180,
      "ù": 181,
      "ú": 182,
      "û": 183,
      "ü": 184,
      "ý": 185,
      "þ": 186,
      "ÿ": 187,
      "Ā": 188,
      "ā": 189,
      "Ă": 190,
      "ă": 191,
      "Ą": 192,
      "ą": 193,
      "Ć": 194,
      "ć": 195,
      "Ĉ": 196,
      "ĉ": 197,
      "Ċ": 198,
      "ċ": 199,
      "Č": 200,
      "č": 201,
      "Ď": 202,
      "ď": 203,
      "Đ": 204,
      "đ": 205,
      "Ē": 206,
      "ē": 207,
      "Ĕ": 208,
      "ĕ": 209,
      "Ė": 210,
      "ė": 211,
      "Ę": 212,
      "ę": 213,
      "Ě": 214,
      "ě": 215,
      "Ĝ": 216,
      "ĝ": 217,
      "Ğ": 218,
      "ğ": 219,
      "Ġ": 220,
      "ġ": 221,
      "Ģ": 222,
      "ģ": 223,
      "Ĥ": 224,
      "ĥ": 225,
      "Ħ": 226,
      "ħ": 227,
      "Ĩ": 228,
      "ĩ": 229,
      "Ī": 230,
      "ī": 231,
      "Ĭ": 232,
      "ĭ": 233,
      "Į": 234,
      "į": 235,
      "İ": 236,
      "ı": 237,
      "Ĳ": 238,
      "ĳ": 239,
      "Ĵ": 240,
      "ĵ": 241,
      "Ķ": 242,
      "ķ": 243,
      "ĸ": 244,
      "Ĺ": 245,
      "ĺ": 246,
      "Ļ": 247,
      "ļ": 248,
      "Ľ": 249,
      "ľ": 250,
      "Ŀ": 251,
      "ŀ": 252,
      "Ł": 253,
      "ł": 254,
      "Ń": 255,
      "ń": 256,
      "ņ": 257,
      "ň": 258,
      "ō": 259,
      "ő": 260,
      "œ": 261,
      "ř": 262,
      "Ś": 263,
      "ś": 264,
      "Ş": 265,
      "ş": 266,
      "Š": 267,
      "š": 268,
      "ţ": 269,
      "ť": 270,
      "ũ": 271,
      "ū": 272,
      "ŭ": 273,
      "ů": 274,
      "ű": 275,
      "ų": 276,
      "ź": 277,
      "ż": 278,
      "ž": 279,
      "ſ": 280,
      "ơ": 281,
      "Ư": 282,
      "ư": 283,
      "ǎ": 284,
      "ǒ": 285,
      "ș": 286,
      "ț": 287,
      "ə": 288,
      "Α": 289,
      "Γ": 290,
      "Δ": 291,
      "Ε": 292,
      "Κ": 293,
      "Μ": 294,
      "Π": 295,
      "Σ": 296,
      "ά": 297,
      "έ": 298,
      "ή": 299,
      "ί": 300,
      "α": 301,
      "β": 302,
      "γ": 303,
      "δ": 304,
      "ε": 305,
      "ζ": 306,
      "η": 307,
      "θ": 308,
      "ι": 309,
      "κ": 310,
      "λ": 311,
      "μ": 312,
      "ν": 313,
      "ξ": 314,
      "ο": 315,
      "π": 316,
      "ρ": 317,
      "ς": 318,
      "σ": 319,
      "τ": 320,
      "υ": 321,
      "φ": 322,
      "χ": 323,
      "ψ": 324,
      "ω": 325,
      "ϊ": 326,
      "ό": 327,
      "ύ": 328,
      "ώ": 329,
      "Є": 330,
      "І": 331,
      "А": 332,
      "Б": 333,
      "В": 334,
      "Г": 335,
      "Д": 336,
      "Е": 337,
      "Ж": 338,
      "З": 339,
      "И": 340,
      "К": 341,
      "Л": 342,
      "М": 343,
      "Н": 344,
      "О": 345,
      "П": 346,
      "Р": 347,
      "С": 348,
      "Т": 349,
      "У": 350,
      "Ф": 351,
      "Х": 352,
      "Ц": 353,
      "Ч": 354,
      "Ш": 355,
      "Ь": 356,
      "Э": 357,
      "Ю": 358,
      "Я": 359,
      "а": 360,
      "б": 361,
      "в": 362,
      "г": 363,
      "д": 364,
      "е": 365,
      "ж": 366,
      "з": 367,
      "и": 368,
      "й": 369,
      "к": 370,
      "л": 371,
      "м": 372,
      "н": 373,
      "о": 374,
      "п": 375,
      "р": 376,
      "с": 377,
      "т": 378,
      "у": 379,
      "ф": 380,
      "х": 381,
      "ц": 382,
      "ч": 383,
      "ш": 384,
      "щ": 385,
      "ъ": 386,
      "ы": 387,
      "ь": 388,
      "э": 389,
      "ю": 390,
      "я": 391,
      "ё": 392,
      "ђ": 393,
      "є": 394,
      "і": 395,
      "ї": 396,
      "ј": 397,
      "љ": 398,
      "њ": 399,
      "ћ": 400,
      "ў": 401,
      "ғ": 402,
      "җ": 403,
      "қ": 404,
      "ң": 405,
      "ү": 406,
      "ҳ": 407,
      "һ": 408,
      "Ӏ": 409,
      "ә": 410,
      "ө": 411,
      "ա": 412,
      "գ": 413,
      "դ": 414,
      "ե": 415,
      "զ": 416,
      "է": 417,
      "ը": 418,
      "թ": 419,
      "ի": 420,
      "լ": 421,
      "ծ": 422,
      "կ": 423,
      "հ": 424,
      "մ": 425,
      "յ": 426,
      "ն": 427,
      "ո": 428,
      "չ": 429,
      "պ": 430,
      "ջ": 431,
      "ռ": 432,
      "ս": 433,
      "վ": 434,
      "տ": 435,
      "ր": 436,
      "ց": 437,
      "ւ": 438,
      "ք": 439,
      "א": 440,
      "ב": 441,
      "ג": 442,
      "ד": 443,
      "ה": 444,
      "ו": 445,
      "ז": 446,
      "ח": 447,
      "ט": 448,
      "י": 449,
      "ך": 450,
      "כ": 451,
      "ל": 452,
      "ם": 453,
      "מ": 454,
      "ן": 455,
      "נ": 456,
      "ס": 457,
      "ע": 458,
      "פ": 459,
      "צ": 460,
      "ק": 461,
      "ר": 462,
      "ש": 463,
      "ת": 464,
      "ء": 465,
      "آ": 466,
      "أ": 467,
      "ؤ": 468,
      "إ": 469,
      "ئ": 470,
      "ا": 471,
      "ب": 472,
      "ة": 473,
      "ت": 474,
      "ث": 475,
      "ج": 476,
      "ح": 477,
      "خ": 478,
      "د": 479,
      "ذ": 480,
      "ر": 481,
      "ز": 482,
      "س": 483,
      "ش": 484,
      "ص": 485,
      "ض": 486,
      "ط": 487,
      "ظ": 488,
      "ع": 489,
      "غ": 490,
      "ـ": 491,
      "ف": 492,
      "ق": 493,
      "ك": 494,
      "ل": 495,
      "م": 496,
      "ن": 497,
      "ه": 498,
      "و": 499,
      "ى": 500,
      "ي": 501,
      "ٹ": 502,
      "ټ": 503,
      "پ": 504,
      "ځ": 505,
      "څ": 506,
      "چ": 507,
      "ڈ": 508,
      "ډ": 509,
      "ڑ": 510,
      "ړ": 511,
      "ږ": 512,
      "ژ": 513,
      "ک": 514,
      "ڪ": 515,
      "ګ": 516,
      "ڭ": 517,
      "گ": 518,
      "ں": 519,
      "ڻ": 520,
      "ھ": 521,
      "ۀ": 522,
      "ہ": 523,
      "ی": 524,
      "ۍ": 525,
      "ێ": 526,
      "ې": 527,
      "ے": 528,
      "ە": 529,
      "अ": 530,
      "आ": 531,
      "इ": 532,
      "ई": 533,
      "उ": 534,
      "ऊ": 535,
      "ऋ": 536,
      "ए": 537,
      "ऑ": 538,
      "ओ": 539,
      "औ": 540,
      "क": 541,
      "ख": 542,
      "ग": 543,
      "घ": 544,
      "च": 545,
      "ज": 546,
      "झ": 547,
      "ट": 548,
      "ठ": 549,
      "ड": 550,
      "ढ": 551,
      "ण": 552,
      "त": 553,
      "थ": 554,
      "द": 555,
      "ध": 556,
      "न": 557,
      "प": 558,
      "फ": 559,
      "ब": 560,
      "भ": 561,
      "म": 562,
      "य": 563,
      "र": 564,
      "ल": 565,
      "ळ": 566,
      "व": 567,
      "श": 568,
      "ष": 569,
      "स": 570,
      "ह": 571,
      "ज़": 572,
      "ड़": 573,
      "অ": 574,
      "আ": 575,
      "ই": 576,
      "উ": 577,
      "এ": 578,
      "ও": 579,
      "ঔ": 580,
      "ক": 581,
      "খ": 582,
      "গ": 583,
      "ঘ": 584,
      "চ": 585,
      "ছ": 586,
      "জ": 587,
      "ট": 588,
      "ঠ": 589,
      "ণ": 590,
      "ত": 591,
      "থ": 592,
      "দ": 593,
      "ধ": 594,
      "ন": 595,
      "প": 596,
      "ফ": 597,
      "ব": 598,
      "ভ": 599,
      "ম": 600,
      "য": 601,
      "র": 602,
      "ল": 603,
      "শ": 604,
      "ষ": 605,
      "স": 606,
      "হ": 607,
      "ৎ": 608,
      "ড়": 609,
      "য়": 610,
      "ਆ": 611,
      "ਕ": 612,
      "ਣ": 613,
      "ਨ": 614,
      "ਪ": 615,
      "ਰ": 616,
      "અ": 617,
      "આ": 618,
      "ઉ": 619,
      "ક": 620,
      "ખ": 621,
      "ગ": 622,
      "જ": 623,
      "ણ": 624,
      "ત": 625,
      "દ": 626,
      "ન": 627,
      "પ": 628,
      "ફ": 629,
      "ભ": 630,
      "મ": 631,
      "ય": 632,
      "ર": 633,
      "લ": 634,
      "ળ": 635,
      "વ": 636,
      "સ": 637,
      "அ": 638,
      "ஆ": 639,
      "இ": 640,
      "உ": 641,
      "க": 642,
      "ச": 643,
      "ட": 644,
      "ண": 645,
      "த": 646,
      "ந": 647,
      "ன": 648,
      "ப": 649,
      "ம": 650,
      "ய": 651,
      "ர": 652,
      "ற": 653,
      "ல": 654,
      "ழ": 655,
      "வ": 656,
      "ఆ": 657,
      "ఇ": 658,
      "క": 659,
      "ఘ": 660,
      "చ": 661,
      "ట": 662,
      "డ": 663,
      "ణ": 664,
      "త": 665,
      "న": 666,
      "య": 667,
      "ర": 668,
      "ల": 669,
      "వ": 670,
      "ಅ": 671,
      "ಇ": 672,
      "ಎ": 673,
      "ಒ": 674,
      "ಔ": 675,
      "ಕ": 676,
      "ಗ": 677,
      "ಜ": 678,
      "ಡ": 679,
      "ಣ": 680,
      "ತ": 681,
      "ದ": 682,
      "ಧ": 683,
      "ನ": 684,
      "ಬ": 685,
      "ಮ": 686,
      "ಯ": 687,
      "ರ": 688,
      "ಲ": 689,
      "ಳ": 690,
      "ವ": 691,
      "ಷ": 692,
      "ಸ": 693,
      "ಹ": 694,
      "അ": 695,
      "ആ": 696,
      "ഉ": 697,
      "ക": 698,
      "ഘ": 699,
      "ട": 700,
      "ണ": 701,
      "ത": 702,
      "ന": 703,
      "പ": 704,
      "ഭ": 705,
      "മ": 706,
      "യ": 707,
      "ര": 708,
      "റ": 709,
      "ഴ": 710,
      "വ": 711,
      "ശ": 712,
      "ഷ": 713,
      "സ": 714,
      "ൻ": 715,
      "ർ": 716,
      "ൽ": 717,
      "අ": 718,
      "ඔ": 719,
      "ක": 720,
      "ඟ": 721,
      "ට": 722,
      "ණ": 723,
      "ත": 724,
      "න": 725,
      "ප": 726,
      "බ": 727,
      "ම": 728,
      "ර": 729,
      "ස": 730,
      "ก": 731,
      "ข": 732,
      "ค": 733,
      "ง": 734,
      "จ": 735,
      "ฉ": 736,
      "ช": 737,
      "ซ": 738,
      "ญ": 739,
      "ฐ": 740,
      "ณ": 741,
      "ด": 742,
      "ต": 743,
      "ถ": 744,
      "ท": 745,
      "ธ": 746,
      "น": 747,
      "บ": 748,
      "ป": 749,
      "ผ": 750,
      "พ": 751,
      "ฟ": 752,
      "ภ": 753,
      "ม": 754,
      "ย": 755,
      "ร": 756,
      "ล": 757,
      "ว": 758,
      "ศ": 759,
      "ษ": 760,
      "ส": 761,
      "ห": 762,
      "อ": 763,
      "ะ": 764,
      "า": 765,
      "ำ": 766,
      "เ": 767,
      "แ": 768,
      "โ": 769,
      "ใ": 770,
      "ไ": 771,
      "ๆ": 772,
      "ກ": 773,
      "ຂ": 774,
      "ຄ": 775,
      "ງ": 776,
      "ຈ": 777,
      "ຍ": 778,
      "ດ": 779,
      "ຕ": 780,
      "ຖ": 781,
      "ທ": 782,
      "ນ": 783,
      "ບ": 784,
      "ປ": 785,
      "ຜ": 786,
      "ພ": 787,
      "ມ": 788,
      "ລ": 789,
      "ວ": 790,
      "ສ": 791,
      "ຫ": 792,
      "ອ": 793,
      "ຮ": 794,
      "ະ": 795,
      "າ": 796,
      "ເ": 797,
      "ແ": 798,
      "ໂ": 799,
      "ໜ": 800,
      "ა": 801,
      "ბ": 802,
      "გ": 803,
      "დ": 804,
      "ე": 805,
      "ვ": 806,
      "ზ": 807,
      "თ": 808,
      "ი": 809,
      "კ": 810,
      "ლ": 811,
      "მ": 812,
      "ნ": 813,
      "ო": 814,
      "პ": 815,
      "რ": 816,
      "ს": 817,
      "ტ": 818,
      "უ": 819,
      "ფ": 820,
      "ქ": 821,
      "ღ": 822,
      "ყ": 823,
      "შ": 824,
      "ჩ": 825,
      "ც": 826,
      "ძ": 827,
      "წ": 828,
      "ჭ": 829,
      "ხ": 830,
      "ჯ": 831,
      "ሁ": 832,
      "ሂ": 833,
      "ሃ": 834,
      "ህ": 835,
      "ሆ": 836,
      "ለ": 837,
      "ሉ": 838,
      "ላ": 839,
      "ሌ": 840,
      "ል": 841,
      "ሎ": 842,
      "መ": 843,
      "ሚ": 844,
      "ማ": 845,
      "ም": 846,
      "ረ": 847,
      "ሪ": 848,
      "ራ": 849,
      "ር": 850,
      "ሮ": 851,
      "ሰ": 852,
      "ሱ": 853,
      "ሳ": 854,
      "ሴ": 855,
      "ስ": 856,
      "ሽ": 857,
      "ቀ": 858,
      "ቃ": 859,
      "ቅ": 860,
      "በ": 861,
      "ባ": 862,
      "ብ": 863,
      "ተ": 864,
      "ታ": 865,
      "ት": 866,
      "ቶ": 867,
      "ቸ": 868,
      "ች": 869,
      "ኋ": 870,
      "ነ": 871,
      "ኒ": 872,
      "ና": 873,
      "ኔ": 874,
      "ን": 875,
      "ኘ": 876,
      "ኛ": 877,
      "ኝ": 878,
      "አ": 879,
      "እ": 880,
      "ከ": 881,
      "ካ": 882,
      "ክ": 883,
      "ኳ": 884,
      "ወ": 885,
      "ው": 886,
      "ዎ": 887,
      "ዐ": 888,
      "ዓ": 889,
      "ዙ": 890,
      "ዚ": 891,
      "የ": 892,
      "ዩ": 893,
      "ያ": 894,
      "ይ": 895,
      "ደ": 896,
      "ዱ": 897,
      "ዲ": 898,
      "ዳ": 899,
      "ዴ": 900,
      "ድ": 901,
      "ጀ": 902,
      "ጃ": 903,
      "ገ": 904,
      "ጊ": 905,
      "ጋ": 906,
      "ግ": 907,
      "ጠ": 908,
      "ጣ": 909,
      "ጥ": 910,
      "ጨ": 911,
      "ፈ": 912,
      "ፊ": 913,
      "ፋ": 914,
      "ፍ": 915,
      "ṇ": 916,
      "ạ": 917,
      "Ả": 918,
      "ả": 919,
      "ấ": 920,
      "ầ": 921,
      "ẩ": 922,
      "ẫ": 923,
      "ậ": 924,
      "ắ": 925,
      "ằ": 926,
      "ẳ": 927,
      "ẵ": 928,
      "ặ": 929,
      "ẹ": 930,
      "ẻ": 931,
      "ế": 932,
      "ề": 933,
      "ể": 934,
      "ễ": 935,
      "ệ": 936,
      "ỉ": 937,
      "ị": 938,
      "ọ": 939,
      "ỏ": 940,
      "ố": 941,
      "ồ": 942,
      "ổ": 943,
      "ỗ": 944,
      "ộ": 945,
      "ớ": 946,
      "ờ": 947,
      "ở": 948,
      "ỡ": 949,
      "ợ": 950,
      "ụ": 951,
      "ủ": 952,
      "ứ": 953,
      "ừ": 954,
      "ử": 955,
      "ữ": 956,
      "ự": 957,
      "ỳ": 958,
      "ỹ": 959,
      "ὴ": 960,
      "ὶ": 961,
      "ὸ": 962,
      "ῦ": 963,
      "ῶ": 964,
      "々": 965,
      "あ": 966,
      "い": 967,
      "う": 968,
      "え": 969,
      "お": 970,
      "か": 971,
      "が": 972,
      "き": 973,
      "ぎ": 974,
      "く": 975,
      "ぐ": 976,
      "け": 977,
      "げ": 978,
      "こ": 979,
      "ご": 980,
      "さ": 981,
      "ざ": 982,
      "し": 983,
      "じ": 984,
      "す": 985,
      "ず": 986,
      "せ": 987,
      "そ": 988,
      "ぞ": 989,
      "た": 990,
      "だ": 991,
      "ち": 992,
      "っ": 993,
      "つ": 994,
      "づ": 995,
      "て": 996,
      "で": 997,
      "と": 998,
      "ど": 999,
      "な": 1000,
      "に": 1001,
      "ぬ": 1002,
      "ね": 1003,
      "の": 1004,
      "は": 1005,
      "ば": 1006,
      "ぱ": 1007,
      "ひ": 1008,
      "び": 1009,
      "ぴ": 1010,
      "ぶ": 1011,
      "ぷ": 1012,
      "べ": 1013,
      "ほ": 1014,
      "ぽ": 1015,
      "ま": 1016,
      "み": 1017,
      "む": 1018,
      "め": 1019,
      "も": 1020,
      "ゃ": 1021,
      "や": 1022,
      "ゆ": 1023,
      "ょ": 1024,
      "よ": 1025,
      "ら": 1026,
      "り": 1027,
      "る": 1028,
      "れ": 1029,
      "ろ": 1030,
      "わ": 1031,
      "を": 1032,
      "ん": 1033,
      "ァ": 1034,
      "ア": 1035,
      "ィ": 1036,
      "イ": 1037,
      "ゥ": 1038,
      "ウ": 1039,
      "ェ": 1040,
      "エ": 1041,
      "ォ": 1042,
      "オ": 1043,
      "カ": 1044,
      "ガ": 1045,
      "キ": 1046,
      "ギ": 1047,
      "ク": 1048,
      "グ": 1049,
      "ケ": 1050,
      "ゲ": 1051,
      "コ": 1052,
      "ゴ": 1053,
      "サ": 1054,
      "ザ": 1055,
      "シ": 1056,
      "ジ": 1057,
      "ス": 1058,
      "ズ": 1059,
      "セ": 1060,
      "ゼ": 1061,
      "ソ": 1062,
      "ゾ": 1063,
      "タ": 1064,
      "ダ": 1065,
      "チ": 1066,
      "ヂ": 1067,
      "ッ": 1068,
      "ツ": 1069,
      "テ": 1070,
      "デ": 1071,
      "ト": 1072,
      "ド": 1073,
      "ナ": 1074,
      "ニ": 1075,
      "ネ": 1076,
      "ノ": 1077,
      "ハ": 1078,
      "バ": 1079,
      "パ": 1080,
      "ヒ": 1081,
      "ビ": 1082,
      "ピ": 1083,
      "フ": 1084,
      "ブ": 1085,
      "プ": 1086,
      "ヘ": 1087,
      "ベ": 1088,
      "ペ": 1089,
      "ホ": 1090,
      "ボ": 1091,
      "ポ": 1092,
      "マ": 1093,
      "ミ": 1094,
      "ム": 1095,
      "メ": 1096,
      "モ": 1097,
      "ャ": 1098,
      "ヤ": 1099,
      "ュ": 1100,
      "ユ": 1101,
      "ョ": 1102,
      "ヨ": 1103,
      "ラ": 1104,
      "リ": 1105,
      "ル": 1106,
      "レ": 1107,
      "ロ": 1108,
      "ワ": 1109,
      "ン": 1110,
      "ヴ": 1111,
      "ー": 1112,
      "ㅋ": 1113,
      "一": 1114,
      "丁": 1115,
      "七": 1116,
      "万": 1117,
      "丈": 1118,
      "三": 1119,
      "上": 1120,
      "下": 1121,
      "不": 1122,
      "与": 1123,
      "专": 1124,
      "世": 1125,
      "业": 1126,
      "东": 1127,
      "两": 1128,
      "严": 1129,
      "並": 1130,
      "个": 1131,
      "中": 1132,
      "丰": 1133,
      "串": 1134,
      "为": 1135,
      "主": 1136,
      "丽": 1137,
      "么": 1138,
      "义": 1139,
      "之": 1140,
      "乐": 1141,
      "九": 1142,
      "也": 1143,
      "习": 1144,
      "书": 1145,
      "了": 1146,
      "争": 1147,
      "事": 1148,
      "二": 1149,
      "于": 1150,
      "云": 1151,
      "互": 1152,
      "五": 1153,
      "亚": 1154,
      "些": 1155,
      "交": 1156,
      "产": 1157,
      "京": 1158,
      "亮": 1159,
      "人": 1160,
      "亿": 1161,
      "什": 1162,
      "仅": 1163,
      "今": 1164,
      "介": 1165,
      "仕": 1166,
      "他": 1167,
      "付": 1168,
      "代": 1169,
      "令": 1170,
      "以": 1171,
      "们": 1172,
      "件": 1173,
      "价": 1174,
      "任": 1175,
      "份": 1176,
      "企": 1177,
      "伍": 1178,
      "众": 1179,
      "优": 1180,
      "伙": 1181,
      "会": 1182,
      "伝": 1183,
      "传": 1184,
      "伯": 1185,
      "伴": 1186,
      "似": 1187,
      "但": 1188,
      "位": 1189,
      "住": 1190,
      "体": 1191,
      "何": 1192,
      "作": 1193,
      "你": 1194,
      "佳": 1195,
      "使": 1196,
      "來": 1197,
      "例": 1198,
      "供": 1199,
      "便": 1200,
      "係": 1201,
      "俄": 1202,
      "保": 1203,
      "信": 1204,
      "俱": 1205,
      "個": 1206,
      "們": 1207,
      "候": 1208,
      "値": 1209,
      "值": 1210,
      "做": 1211,
      "停": 1212,
      "健": 1213,
      "備": 1214,
      "催": 1215,
      "像": 1216,
      "優": 1217,
      "儿": 1218,
      "允": 1219,
      "元": 1220,
      "充": 1221,
      "先": 1222,
      "克": 1223,
      "児": 1224,
      "党": 1225,
      "入": 1226,
      "全": 1227,
      "八": 1228,
      "公": 1229,
      "六": 1230,
      "共": 1231,
      "关": 1232,
      "兴": 1233,
      "其": 1234,
      "具": 1235,
      "典": 1236,
      "内": 1237,
      "円": 1238,
      "再": 1239,
      "写": 1240,
      "冲": 1241,
      "决": 1242,
      "况": 1243,
      "准": 1244,
      "凝": 1245,
      "出": 1246,
      "函": 1247,
      "分": 1248,
      "切": 1249,
      "列": 1250,
      "则": 1251,
      "创": 1252,
      "初": 1253,
      "別": 1254,
      "利": 1255,
      "别": 1256,
      "到": 1257,
      "制": 1258,
      "券": 1259,
      "前": 1260,
      "剧": 1261,
      "剩": 1262,
      "副": 1263,
      "劇": 1264,
      "力": 1265,
      "办": 1266,
      "功": 1267,
      "加": 1268,
      "务": 1269,
      "动": 1270,
      "助": 1271,
      "効": 1272,
      "動": 1273,
      "務": 1274,
      "募": 1275,
      "包": 1276,
      "化": 1277,
      "北": 1278,
      "区": 1279,
      "十": 1280,
      "午": 1281,
      "半": 1282,
      "华": 1283,
      "协": 1284,
      "单": 1285,
      "南": 1286,
      "単": 1287,
      "博": 1288,
      "卡": 1289,
      "却": 1290,
      "历": 1291,
      "原": 1292,
      "厳": 1293,
      "去": 1294,
      "叁": 1295,
      "参": 1296,
      "及": 1297,
      "友": 1298,
      "収": 1299,
      "发": 1300,
      "取": 1301,
      "受": 1302,
      "变": 1303,
      "口": 1304,
      "古": 1305,
      "句": 1306,
      "另": 1307,
      "只": 1308,
      "可": 1309,
      "台": 1310,
      "史": 1311,
      "右": 1312,
      "号": 1313,
      "司": 1314,
      "各": 1315,
      "合": 1316,
      "同": 1317,
      "名": 1318,
      "后": 1319,
      "向": 1320,
      "否": 1321,
      "含": 1322,
      "听": 1323,
      "告": 1324,
      "员": 1325,
      "周": 1326,
      "味": 1327,
      "呼": 1328,
      "命": 1329,
      "和": 1330,
      "品": 1331,
      "哈": 1332,
      "响": 1333,
      "員": 1334,
      "哥": 1335,
      "哪": 1336,
      "唯": 1337,
      "商": 1338,
      "問": 1339,
      "喜": 1340,
      "営": 1341,
      "器": 1342,
      "四": 1343,
      "回": 1344,
      "因": 1345,
      "园": 1346,
      "囲": 1347,
      "図": 1348,
      "围": 1349,
      "国": 1350,
      "图": 1351,
      "圈": 1352,
      "園": 1353,
      "土": 1354,
      "在": 1355,
      "地": 1356,
      "圳": 1357,
      "场": 1358,
      "块": 1359,
      "坡": 1360,
      "型": 1361,
      "城": 1362,
      "域": 1363,
      "基": 1364,
      "埼": 1365,
      "報": 1366,
      "場": 1367,
      "塔": 1368,
      "境": 1369,
      "增": 1370,
      "墨": 1371,
      "士": 1372,
      "声": 1373,
      "売": 1374,
      "壹": 1375,
      "处": 1376,
      "备": 1377,
      "変": 1378,
      "复": 1379,
      "外": 1380,
      "多": 1381,
      "够": 1382,
      "大": 1383,
      "天": 1384,
      "太": 1385,
      "夫": 1386,
      "失": 1387,
      "头": 1388,
      "夹": 1389,
      "奈": 1390,
      "女": 1391,
      "好": 1392,
      "如": 1393,
      "始": 1394,
      "委": 1395,
      "娱": 1396,
      "嬉": 1397,
      "子": 1398,
      "字": 1399,
      "存": 1400,
      "学": 1401,
      "孩": 1402,
      "學": 1403,
      "它": 1404,
      "安": 1405,
      "完": 1406,
      "定": 1407,
      "宝": 1408,
      "实": 1409,
      "実": 1410,
      "客": 1411,
      "室": 1412,
      "宮": 1413,
      "家": 1414,
      "容": 1415,
      "寄": 1416,
      "富": 1417,
      "實": 1418,
      "寧": 1419,
      "对": 1420,
      "导": 1421,
      "対": 1422,
      "専": 1423,
      "将": 1424,
      "小": 1425,
      "少": 1426,
      "尔": 1427,
      "尤": 1428,
      "就": 1429,
      "尼": 1430,
      "尽": 1431,
      "尿": 1432,
      "局": 1433,
      "层": 1434,
      "届": 1435,
      "屋": 1436,
      "展": 1437,
      "属": 1438,
      "層": 1439,
      "島": 1440,
      "川": 1441,
      "工": 1442,
      "巧": 1443,
      "巨": 1444,
      "差": 1445,
      "己": 1446,
      "已": 1447,
      "巴": 1448,
      "币": 1449,
      "市": 1450,
      "布": 1451,
      "师": 1452,
      "希": 1453,
      "带": 1454,
      "帳": 1455,
      "常": 1456,
      "幅": 1457,
      "平": 1458,
      "年": 1459,
      "并": 1460,
      "幼": 1461,
      "广": 1462,
      "庁": 1463,
      "広": 1464,
      "序": 1465,
      "库": 1466,
      "应": 1467,
      "底": 1468,
      "店": 1469,
      "府": 1470,
      "度": 1471,
      "康": 1472,
      "建": 1473,
      "开": 1474,
      "式": 1475,
      "引": 1476,
      "强": 1477,
      "当": 1478,
      "录": 1479,
      "形": 1480,
      "影": 1481,
      "役": 1482,
      "待": 1483,
      "很": 1484,
      "律": 1485,
      "後": 1486,
      "従": 1487,
      "得": 1488,
      "微": 1489,
      "徴": 1490,
      "心": 1491,
      "必": 1492,
      "忍": 1493,
      "志": 1494,
      "忙": 1495,
      "応": 1496,
      "念": 1497,
      "态": 1498,
      "怎": 1499,
      "思": 1500,
      "性": 1501,
      "总": 1502,
      "息": 1503,
      "悉": 1504,
      "您": 1505,
      "情": 1506,
      "想": 1507,
      "意": 1508,
      "愛": 1509,
      "感": 1510,
      "愿": 1511,
      "態": 1512,
      "戏": 1513,
      "成": 1514,
      "我": 1515,
      "或": 1516,
      "戲": 1517,
      "户": 1518,
      "房": 1519,
      "所": 1520,
      "手": 1521,
      "才": 1522,
      "打": 1523,
      "払": 1524,
      "找": 1525,
      "承": 1526,
      "技": 1527,
      "把": 1528,
      "投": 1529,
      "択": 1530,
      "护": 1531,
      "担": 1532,
      "拉": 1533,
      "招": 1534,
      "拟": 1535,
      "拡": 1536,
      "择": 1537,
      "括": 1538,
      "拿": 1539,
      "持": 1540,
      "指": 1541,
      "振": 1542,
      "捌": 1543,
      "换": 1544,
      "据": 1545,
      "排": 1546,
      "採": 1547,
      "接": 1548,
      "控": 1549,
      "推": 1550,
      "提": 1551,
      "搜": 1552,
      "摄": 1553,
      "撒": 1554,
      "操": 1555,
      "擎": 1556,
      "支": 1557,
      "改": 1558,
      "政": 1559,
      "故": 1560,
      "效": 1561,
      "教": 1562,
      "散": 1563,
      "数": 1564,
      "整": 1565,
      "敵": 1566,
      "數": 1567,
      "文": 1568,
      "料": 1569,
      "断": 1570,
      "斯": 1571,
      "新": 1572,
      "方": 1573,
      "施": 1574,
      "无": 1575,
      "日": 1576,
      "时": 1577,
      "明": 1578,
      "易": 1579,
      "是": 1580,
      "显": 1581,
      "時": 1582,
      "普": 1583,
      "晴": 1584,
      "智": 1585,
      "暖": 1586,
      "暮": 1587,
      "曲": 1588,
      "更": 1589,
      "書": 1590,
      "最": 1591,
      "會": 1592,
      "月": 1593,
      "有": 1594,
      "朋": 1595,
      "服": 1596,
      "朗": 1597,
      "望": 1598,
      "期": 1599,
      "未": 1600,
      "本": 1601,
      "术": 1602,
      "机": 1603,
      "杂": 1604,
      "材": 1605,
      "束": 1606,
      "条": 1607,
      "来": 1608,
      "杯": 1609,
      "東": 1610,
      "构": 1611,
      "果": 1612,
      "柒": 1613,
      "染": 1614,
      "柔": 1615,
      "标": 1616,
      "校": 1617,
      "株": 1618,
      "样": 1619,
      "核": 1620,
      "格": 1621,
      "案": 1622,
      "档": 1623,
      "梅": 1624,
      "森": 1625,
      "業": 1626,
      "極": 1627,
      "楽": 1628,
      "概": 1629,
      "榜": 1630,
      "様": 1631,
      "模": 1632,
      "樣": 1633,
      "権": 1634,
      "機": 1635,
      "次": 1636,
      "欢": 1637,
      "欲": 1638,
      "款": 1639,
      "正": 1640,
      "此": 1641,
      "步": 1642,
      "殊": 1643,
      "段": 1644,
      "每": 1645,
      "比": 1646,
      "毕": 1647,
      "民": 1648,
      "気": 1649,
      "氧": 1650,
      "求": 1651,
      "污": 1652,
      "決": 1653,
      "沒": 1654,
      "没": 1655,
      "河": 1656,
      "治": 1657,
      "況": 1658,
      "法": 1659,
      "波": 1660,
      "注": 1661,
      "洋": 1662,
      "活": 1663,
      "流": 1664,
      "浏": 1665,
      "海": 1666,
      "消": 1667,
      "涉": 1668,
      "深": 1669,
      "混": 1670,
      "添": 1671,
      "游": 1672,
      "源": 1673,
      "满": 1674,
      "滤": 1675,
      "漂": 1676,
      "潛": 1677,
      "澳": 1678,
      "炉": 1679,
      "点": 1680,
      "為": 1681,
      "無": 1682,
      "然": 1683,
      "照": 1684,
      "熟": 1685,
      "爱": 1686,
      "片": 1687,
      "版": 1688,
      "牌": 1689,
      "牙": 1690,
      "物": 1691,
      "特": 1692,
      "状": 1693,
      "独": 1694,
      "献": 1695,
      "獲": 1696,
      "率": 1697,
      "玉": 1698,
      "玖": 1699,
      "环": 1700,
      "现": 1701,
      "班": 1702,
      "現": 1703,
      "球": 1704,
      "理": 1705,
      "甚": 1706,
      "生": 1707,
      "用": 1708,
      "由": 1709,
      "申": 1710,
      "电": 1711,
      "男": 1712,
      "画": 1713,
      "界": 1714,
      "異": 1715,
      "疫": 1716,
      "病": 1717,
      "発": 1718,
      "登": 1719,
      "白": 1720,
      "百": 1721,
      "的": 1722,
      "皆": 1723,
      "监": 1724,
      "目": 1725,
      "直": 1726,
      "相": 1727,
      "省": 1728,
      "看": 1729,
      "県": 1730,
      "真": 1731,
      "眼": 1732,
      "着": 1733,
      "督": 1734,
      "知": 1735,
      "石": 1736,
      "码": 1737,
      "研": 1738,
      "础": 1739,
      "确": 1740,
      "確": 1741,
      "示": 1742,
      "社": 1743,
      "神": 1744,
      "离": 1745,
      "秀": 1746,
      "私": 1747,
      "种": 1748,
      "科": 1749,
      "称": 1750,
      "程": 1751,
      "稚": 1752,
      "種": 1753,
      "稳": 1754,
      "積": 1755,
      "究": 1756,
      "空": 1757,
      "立": 1758,
      "竞": 1759,
      "章": 1760,
      "端": 1761,
      "笔": 1762,
      "符": 1763,
      "第": 1764,
      "等": 1765,
      "筑": 1766,
      "简": 1767,
      "算": 1768,
      "管": 1769,
      "篇": 1770,
      "簡": 1771,
      "簽": 1772,
      "米": 1773,
      "类": 1774,
      "精": 1775,
      "糖": 1776,
      "系": 1777,
      "素": 1778,
      "索": 1779,
      "紫": 1780,
      "細": 1781,
      "紹": 1782,
      "終": 1783,
      "組": 1784,
      "経": 1785,
      "結": 1786,
      "絡": 1787,
      "給": 1788,
      "絶": 1789,
      "続": 1790,
      "綺": 1791,
      "緒": 1792,
      "線": 1793,
      "締": 1794,
      "繁": 1795,
      "繋": 1796,
      "繰": 1797,
      "级": 1798,
      "线": 1799,
      "组": 1800,
      "织": 1801,
      "绍": 1802,
      "经": 1803,
      "结": 1804,
      "给": 1805,
      "络": 1806,
      "统": 1807,
      "继": 1808,
      "续": 1809,
      "维": 1810,
      "缓": 1811,
      "编": 1812,
      "网": 1813,
      "罗": 1814,
      "置": 1815,
      "美": 1816,
      "考": 1817,
      "者": 1818,
      "而": 1819,
      "耶": 1820,
      "联": 1821,
      "聞": 1822,
      "肆": 1823,
      "股": 1824,
      "肯": 1825,
      "育": 1826,
      "能": 1827,
      "腕": 1828,
      "自": 1829,
      "至": 1830,
      "致": 1831,
      "航": 1832,
      "般": 1833,
      "良": 1834,
      "色": 1835,
      "艺": 1836,
      "节": 1837,
      "英": 1838,
      "范": 1839,
      "获": 1840,
      "萄": 1841,
      "营": 1842,
      "落": 1843,
      "著": 1844,
      "葡": 1845,
      "董": 1846,
      "虑": 1847,
      "虚": 1848,
      "蛋": 1849,
      "行": 1850,
      "術": 1851,
      "衣": 1852,
      "表": 1853,
      "被": 1854,
      "裙": 1855,
      "裡": 1856,
      "製": 1857,
      "複": 1858,
      "西": 1859,
      "要": 1860,
      "見": 1861,
      "規": 1862,
      "視": 1863,
      "覚": 1864,
      "覧": 1865,
      "覺": 1866,
      "见": 1867,
      "观": 1868,
      "规": 1869,
      "视": 1870,
      "览": 1871,
      "觉": 1872,
      "角": 1873,
      "解": 1874,
      "言": 1875,
      "計": 1876,
      "記": 1877,
      "設": 1878,
      "許": 1879,
      "詳": 1880,
      "認": 1881,
      "誕": 1882,
      "語": 1883,
      "說": 1884,
      "説": 1885,
      "読": 1886,
      "調": 1887,
      "講": 1888,
      "謝": 1889,
      "證": 1890,
      "議": 1891,
      "讓": 1892,
      "计": 1893,
      "认": 1894,
      "让": 1895,
      "记": 1896,
      "许": 1897,
      "论": 1898,
      "设": 1899,
      "访": 1900,
      "证": 1901,
      "识": 1902,
      "诉": 1903,
      "词": 1904,
      "译": 1905,
      "话": 1906,
      "该": 1907,
      "误": 1908,
      "说": 1909,
      "请": 1910,
      "读": 1911,
      "谓": 1912,
      "豊": 1913,
      "象": 1914,
      "財": 1915,
      "販": 1916,
      "買": 1917,
      "費": 1918,
      "質": 1919,
      "購": 1920,
      "贈": 1921,
      "负": 1922,
      "责": 1923,
      "质": 1924,
      "购": 1925,
      "费": 1926,
      "资": 1927,
      "赤": 1928,
      "起": 1929,
      "超": 1930,
      "越": 1931,
      "趣": 1932,
      "足": 1933,
      "跟": 1934,
      "路": 1935,
      "身": 1936,
      "車": 1937,
      "転": 1938,
      "軽": 1939,
      "較": 1940,
      "輸": 1941,
      "车": 1942,
      "转": 1943,
      "软": 1944,
      "轻": 1945,
      "较": 1946,
      "辑": 1947,
      "输": 1948,
      "辨": 1949,
      "込": 1950,
      "达": 1951,
      "过": 1952,
      "迎": 1953,
      "运": 1954,
      "近": 1955,
      "返": 1956,
      "还": 1957,
      "这": 1958,
      "进": 1959,
      "连": 1960,
      "迪": 1961,
      "追": 1962,
      "送": 1963,
      "适": 1964,
      "选": 1965,
      "逊": 1966,
      "這": 1967,
      "通": 1968,
      "速": 1969,
      "造": 1970,
      "連": 1971,
      "遇": 1972,
      "遊": 1973,
      "過": 1974,
      "道": 1975,
      "違": 1976,
      "適": 1977,
      "選": 1978,
      "還": 1979,
      "那": 1980,
      "邮": 1981,
      "部": 1982,
      "都": 1983,
      "配": 1984,
      "酒": 1985,
      "采": 1986,
      "里": 1987,
      "重": 1988,
      "量": 1989,
      "金": 1990,
      "録": 1991,
      "链": 1992,
      "销": 1993,
      "错": 1994,
      "键": 1995,
      "長": 1996,
      "长": 1997,
      "門": 1998,
      "開": 1999,
      "間": 2000,
      "関": 2001,
      "閲": 2002,
      "關": 2003,
      "门": 2004,
      "问": 2005,
      "间": 2006,
      "阅": 2007,
      "防": 2008,
      "阿": 2009,
      "附": 2010,
      "际": 2011,
      "限": 2012,
      "院": 2013,
      "除": 2014,
      "隐": 2015,
      "際": 2016,
      "雅": 2017,
      "集": 2018,
      "難": 2019,
      "雰": 2020,
      "零": 2021,
      "電": 2022,
      "需": 2023,
      "青": 2024,
      "非": 2025,
      "面": 2026,
      "音": 2027,
      "響": 2028,
      "頂": 2029,
      "項": 2030,
      "頭": 2031,
      "題": 2032,
      "願": 2033,
      "類": 2034,
      "页": 2035,
      "项": 2036,
      "须": 2037,
      "领": 2038,
      "题": 2039,
      "额": 2040,
      "食": 2041,
      "飲": 2042,
      "館": 2043,
      "馆": 2044,
      "駅": 2045,
      "駐": 2046,
      "马": 2047,
      "验": 2048,
      "高": 2049,
      "鹿": 2050,
      "麗": 2051,
      "麼": 2052,
      "黑": 2053,
      "가": 2054,
      "각": 2055,
      "간": 2056,
      "감": 2057,
      "갑": 2058,
      "같": 2059,
      "개": 2060,
      "갤": 2061,
      "거": 2062,
      "건": 2063,
      "겁": 2064,
      "것": 2065,
      "게": 2066,
      "겠": 2067,
      "결": 2068,
      "경": 2069,
      "계": 2070,
      "고": 2071,
      "곱": 2072,
      "공": 2073,
      "과": 2074,
      "관": 2075,
      "광": 2076,
      "굉": 2077,
      "교": 2078,
      "구": 2079,
      "국": 2080,
      "그": 2081,
      "글": 2082,
      "금": 2083,
      "기": 2084,
      "길": 2085,
      "까": 2086,
      "나": 2087,
      "난": 2088,
      "내": 2089,
      "너": 2090,
      "네": 2091,
      "넷": 2092,
      "년": 2093,
      "녕": 2094,
      "노": 2095,
      "는": 2096,
      "늘": 2097,
      "능": 2098,
      "니": 2099,
      "님": 2100,
      "다": 2101,
      "단": 2102,
      "답": 2103,
      "당": 2104,
      "대": 2105,
      "더": 2106,
      "데": 2107,
      "도": 2108,
      "동": 2109,
      "되": 2110,
      "된": 2111,
      "됩": 2112,
      "드": 2113,
      "든": 2114,
      "들": 2115,
      "등": 2116,
      "디": 2117,
      "따": 2118,
      "때": 2119,
      "떻": 2120,
      "라": 2121,
      "람": 2122,
      "랍": 2123,
      "래": 2124,
      "랜": 2125,
      "램": 2126,
      "랫": 2127,
      "러": 2128,
      "럭": 2129,
      "런": 2130,
      "럼": 2131,
      "렇": 2132,
      "레": 2133,
      "려": 2134,
      "련": 2135,
      "령": 2136,
      "로": 2137,
      "록": 2138,
      "롤": 2139,
      "르": 2140,
      "른": 2141,
      "를": 2142,
      "름": 2143,
      "리": 2144,
      "릭": 2145,
      "린": 2146,
      "립": 2147,
      "마": 2148,
      "막": 2149,
      "만": 2150,
      "말": 2151,
      "머": 2152,
      "메": 2153,
      "며": 2154,
      "면": 2155,
      "명": 2156,
      "모": 2157,
      "무": 2158,
      "문": 2159,
      "뭐": 2160,
      "미": 2161,
      "민": 2162,
      "바": 2163,
      "반": 2164,
      "발": 2165,
      "밝": 2166,
      "방": 2167,
      "버": 2168,
      "벌": 2169,
      "법": 2170,
      "베": 2171,
      "벤": 2172,
      "변": 2173,
      "별": 2174,
      "보": 2175,
      "본": 2176,
      "볼": 2177,
      "봅": 2178,
      "부": 2179,
      "북": 2180,
      "분": 2181,
      "불": 2182,
      "브": 2183,
      "블": 2184,
      "비": 2185,
      "빠": 2186,
      "사": 2187,
      "산": 2188,
      "살": 2189,
      "삼": 2190,
      "삽": 2191,
      "상": 2192,
      "새": 2193,
      "생": 2194,
      "서": 2195,
      "선": 2196,
      "설": 2197,
      "세": 2198,
      "션": 2199,
      "소": 2200,
      "수": 2201,
      "순": 2202,
      "스": 2203,
      "습": 2204,
      "슷": 2205,
      "시": 2206,
      "식": 2207,
      "신": 2208,
      "실": 2209,
      "심": 2210,
      "십": 2211,
      "써": 2212,
      "씀": 2213,
      "아": 2214,
      "안": 2215,
      "않": 2216,
      "알": 2217,
      "암": 2218,
      "았": 2219,
      "앞": 2220,
      "야": 2221,
      "양": 2222,
      "얘": 2223,
      "어": 2224,
      "언": 2225,
      "얼": 2226,
      "업": 2227,
      "없": 2228,
      "었": 2229,
      "에": 2230,
      "여": 2231,
      "역": 2232,
      "열": 2233,
      "였": 2234,
      "영": 2235,
      "예": 2236,
      "오": 2237,
      "온": 2238,
      "와": 2239,
      "완": 2240,
      "요": 2241,
      "용": 2242,
      "우": 2243,
      "운": 2244,
      "울": 2245,
      "움": 2246,
      "워": 2247,
      "원": 2248,
      "위": 2249,
      "유": 2250,
      "으": 2251,
      "은": 2252,
      "을": 2253,
      "음": 2254,
      "의": 2255,
      "이": 2256,
      "인": 2257,
      "일": 2258,
      "입": 2259,
      "있": 2260,
      "자": 2261,
      "작": 2262,
      "잖": 2263,
      "장": 2264,
      "재": 2265,
      "적": 2266,
      "전": 2267,
      "점": 2268,
      "정": 2269,
      "제": 2270,
      "젝": 2271,
      "조": 2272,
      "존": 2273,
      "좋": 2274,
      "죠": 2275,
      "주": 2276,
      "준": 2277,
      "줍": 2278,
      "중": 2279,
      "즈": 2280,
      "지": 2281,
      "진": 2282,
      "쪽": 2283,
      "차": 2284,
      "찬": 2285,
      "처": 2286,
      "체": 2287,
      "최": 2288,
      "츠": 2289,
      "카": 2290,
      "캐": 2291,
      "컨": 2292,
      "컴": 2293,
      "코": 2294,
      "콘": 2295,
      "크": 2296,
      "키": 2297,
      "타": 2298,
      "탄": 2299,
      "태": 2300,
      "터": 2301,
      "털": 2302,
      "테": 2303,
      "텐": 2304,
      "템": 2305,
      "토": 2306,
      "통": 2307,
      "튜": 2308,
      "트": 2309,
      "특": 2310,
      "파": 2311,
      "페": 2312,
      "펴": 2313,
      "포": 2314,
      "폼": 2315,
      "퓨": 2316,
      "프": 2317,
      "플": 2318,
      "필": 2319,
      "하": 2320,
      "학": 2321,
      "한": 2322,
      "할": 2323,
      "함": 2324,
      "합": 2325,
      "해": 2326,
      "했": 2327,
      "향": 2328,
      "혔": 2329,
      "형": 2330,
      "홈": 2331,
      "확": 2332,
      "회": 2333,
      "히": 2334,
      "Ａ": 2335,
      "Ｅ": 2336,
      "Ｎ": 2337,
      "Ｐ": 2338,
      "er": 2339,
      "in": 2340,
      "en": 2341,
      "on": 2342,
      "an": 2343,
      "es": 2344,
      "at": 2345,
      "ar": 2346,
      "al": 2347,
      "or": 2348,
      "ed": 2349,
      "st": 2350,
      "it": 2351,
      "ic": 2352,
      "re": 2353,
      "Ġc": 2354,
      "Ġp": 2355,
      "Ġs": 2356,
      "le": 2357,
      "ing": 2358,
      "ro": 2359,
      "et": 2360,
      "is": 2361,
      "el": 2362,
      "ent": 2363,
      "ion": 2364,
      "ra": 2365,
      "Ġd": 2366,
      "ch": 2367,
      "as": 2368,
      "un": 2369,
      "am": 2370,
      "il": 2371,
      "Ġm": 2372,
      "Ġt": 2373,
      "ol": 2374,
      "ad": 2375,
      "ĠS": 2376,
      "ur": 2377,
      "om": 2378,
      "ut": 2379,
      "ĠC": 2380,
      "ac": 2381,
      "Ġb": 2382,
      "id": 2383,
      "us": 2384,
      "em": 2385,
      "os": 2386,
      "im": 2387,
      "ul": 2388,
      "ĠM": 2389,
      "Ġf": 2390,
      "ig": 2391,
      "ct": 2392,
      "ĠP": 2393,
      "ĠA": 2394,
      "ĠB": 2395,
      "ab": 2396,
      "ag": 2397,
      "ot": 2398,
      "ri": 2399,
      "Ġg": 2400,
      "um": 2401,
      "ap": 2402,
      "Ġh": 2403,
      "iv": 2404,
      "ers": 2405,
      "od": 2406,
      "Ġv": 2407,
      "ir": 2408,
      "qu": 2409,
      "ation": 2410,
      "Ġn": 2411,
      "ĠD": 2412,
      "est": 2413,
      "ĠT": 2414,
      "Ġl": 2415,
      "ĠR": 2416,
      "oc": 2417,
      "Ġin": 2418,
      "Ġre": 2419,
      "ie": 2420,
      "op": 2421,
      "ex": 2422,
      "ce": 2423,
      "Ġk": 2424,
      "ak": 2425,
      "ant": 2426,
      "ĠG": 2427,
      "ist": 2428,
      "and": 2429,
      "ĠH": 2430,
      "ال": 2431,
      "ĠE": 2432,
      "ess": 2433,
      "ec": 2434,
      "ow": 2435,
      "ter": 2436,
      "ay": 2437,
      "ĠF": 2438,
      "og": 2439,
      "ĠL": 2440,
      "ly": 2441,
      "ia": 2442,
      "ate": 2443,
      "iz": 2444,
      "ст": 2445,
      "Ġr": 2446,
      "av": 2447,
      "if": 2448,
      "end": 2449,
      "ov": 2450,
      "Ġw": 2451,
      "ip": 2452,
      "ĠN": 2453,
      "Ġcon": 2454,
      "up": 2455,
      "Ġп": 2456,
      "ub": 2457,
      "ang": 2458,
      "ĠK": 2459,
      "th": 2460,
      "eg": 2461,
      "In": 2462,
      "ен": 2463,
      "ud": 2464,
      "ib": 2465,
      "ik": 2466,
      "ра": 2467,
      "ĠW": 2468,
      "Ġال": 2469,
      "te": 2470,
      "ob": 2471,
      "ect": 2472,
      "ine": 2473,
      "ff": 2474,
      "pl": 2475,
      "ah": 2476,
      "Ġa": 2477,
      "Ġst": 2478,
      "ов": 2479,
      "ert": 2480,
      "art": 2481,
      "ug": 2482,
      "ep": 2483,
      "ens": 2484,
      "ell": 2485,
      "ĠV": 2486,
      "ph": 2487,
      "ast": 2488,
      "ard": 2489,
      "ok": 2490,
      "io": 2491,
      "ill": 2492,
      "ass": 2493,
      "ont": 2494,
      "ev": 2495,
      "ort": 2496,
      "uc": 2497,
      "und": 2498,
      "Ġpro": 2499,
      "ies": 2500,
      "ht": 2501,
      "pt": 2502,
      "ment": 2503,
      "ity": 2504,
      "ial": 2505,
      "all": 2506,
      "Ġj": 2507,
      "но": 2508,
      "на": 2509,
      "ian": 2510,
      "Ġch": 2511,
      "ef": 2512,
      "eb": 2513,
      "Ġс": 2514,
      "ne": 2515,
      "able": 2516,
      "ath": 2517,
      "ер": 2518,
      "ĠO": 2519,
      "ĠI": 2520,
      "ind": 2521,
      "St": 2522,
      "ive": 2523,
      "ĠJ": 2524,
      "omp": 2525,
      "ung": 2526,
      "ро": 2527,
      "ran": 2528,
      "age": 2529,
      "se": 2530,
      "ord": 2531,
      "ко": 2532,
      "int": 2533,
      "pe": 2534,
      "Ġex": 2535,
      "cl": 2536,
      "he": 2537,
      "res": 2538,
      "ng": 2539,
      "our": 2540,
      "Ġم": 2541,
      "ust": 2542,
      "Ġun": 2543,
      "get": 2544,
      "Ġe": 2545,
      "ost": 2546,
      "ult": 2547,
      "orm": 2548,
      "ure": 2549,
      "ek": 2550,
      "ric": 2551,
      "yl": 2552,
      "enc": 2553,
      "ка": 2554,
      "erm": 2555,
      "out": 2556,
      "ни": 2557,
      "ire": 2558,
      "ри": 2559,
      "ER": 2560,
      "ated": 2561,
      "Ġв": 2562,
      "ue": 2563,
      "ach": 2564,
      "ack": 2565,
      "Ġо": 2566,
      "ll": 2567,
      "ier": 2568,
      "ان": 2569,
      "az": 2570,
      "ey": 2571,
      "Ġz": 2572,
      "ĠU": 2573,
      "ors": 2574,
      "ре": 2575,
      "ain": 2576,
      "ли": 2577,
      "ou": 2578,
      "Ġsp": 2579,
      "ile": 2580,
      "ew": 2581,
      "att": 2582,
      "ous": 2583,
      "ла": 2584,
      "ry": 2585,
      "ions": 2586,
      "sp": 2587,
      "ond": 2588,
      "aw": 2589,
      "ox": 2590,
      "ons": 2591,
      "ON": 2592,
      "act": 2593,
      "uk": 2594,
      "per": 2595,
      "ich": 2596,
      "aj": 2597,
      "erv": 2598,
      "Ġdis": 2599,
      "ет": 2600,
      "ann": 2601,
      "ار": 2602,
      "rit": 2603,
      "ele": 2604,
      "ical": 2605,
      "nd": 2606,
      "Ġب": 2607,
      "ci": 2608,
      "Ġpr": 2609,
      "ĠCh": 2610,
      "ern": 2611,
      "ext": 2612,
      "ish": 2613,
      "Ġпо": 2614,
      "ru": 2615,
      "ign": 2616,
      "ick": 2617,
      "eng": 2618,
      "sh": 2619,
      "ym": 2620,
      "ль": 2621,
      "Ġth": 2622,
      "ock": 2623,
      "unt": 2624,
      "au": 2625,
      "are": 2626,
      "lo": 2627,
      "Ġad": 2628,
      "ss": 2629,
      "ит": 2630,
      "ton": 2631,
      "Ġا": 2632,
      "omm": 2633,
      "ight": 2634,
      "rad": 2635,
      "да": 2636,
      "ata": 2637,
      "ary": 2638,
      "Ġو": 2639,
      "rop": 2640,
      "ame": 2641,
      "го": 2642,
      "yn": 2643,
      "Ġap": 2644,
      "то": 2645,
      "ere": 2646,
      "Ġim": 2647,
      "ва": 2648,
      "IN": 2649,
      "iss": 2650,
      "ient": 2651,
      "Ġal": 2652,
      "pr": 2653,
      "ber": 2654,
      "ĠIn": 2655,
      "ón": 2656,
      "ong": 2657,
      "ft": 2658,
      "Ġqu": 2659,
      "EN": 2660,
      "Ġle": 2661,
      "ore": 2662,
      "sc": 2663,
      "Ġac": 2664,
      "set": 2665,
      "ram": 2666,
      "ide": 2667,
      "tt": 2668,
      "за": 2669,
      "iel": 2670,
      "ement": 2671,
      "ence": 2672,
      "ge": 2673,
      "ij": 2674,
      "Ġм": 2675,
      "Ġд": 2676,
      "sk": 2677,
      "que": 2678,
      "не": 2679,
      "ны": 2680,
      "ya": 2681,
      "anc": 2682,
      "ES": 2683,
      "iew": 2684,
      "ject": 2685,
      "ark": 2686,
      "ти": 2687,
      "eh": 2688,
      "ĠSt": 2689,
      "ez": 2690,
      "Ġsh": 2691,
      "OR": 2692,
      "to": 2693,
      "rom": 2694,
      "та": 2695,
      "co": 2696,
      "ax": 2697,
      "ins": 2698,
      "ite": 2699,
      "ode": 2700,
      "les": 2701,
      "ail": 2702,
      "AR": 2703,
      "ations": 2704,
      "AN": 2705,
      "ys": 2706,
      "Ġar": 2707,
      "ле": 2708,
      "pp": 2709,
      "Ġت": 2710,
      "ator": 2711,
      "oll": 2712,
      "ash": 2713,
      "ari": 2714,
      "ver": 2715,
      "Ġpl": 2716,
      "Ġsc": 2717,
      "AT": 2718,
      "ron": 2719,
      "ice": 2720,
      "ale": 2721,
      "ло": 2722,
      "ance": 2723,
      "na": 2724,
      "old": 2725,
      "oy": 2726,
      "row": 2727,
      "Ch": 2728,
      "Ġб": 2729,
      "Ġpre": 2730,
      "her": 2731,
      "emb": 2732,
      "ени": 2733,
      "ring": 2734,
      "Ġy": 2735,
      "те": 2736,
      "Ġres": 2737,
      "AL": 2738,
      "ize": 2739,
      "IC": 2740,
      "itt": 2741,
      "ction": 2742,
      "ett": 2743,
      "ST": 2744,
      "li": 2745,
      "ai": 2746,
      "own": 2747,
      "amp": 2748,
      "ime": 2749,
      "ane": 2750,
      "ica": 2751,
      "IT": 2752,
      "fer": 2753,
      "Ġcomp": 2754,
      "ype": 2755,
      "let": 2756,
      "one": 2757,
      "ado": 2758,
      "ings": 2759,
      "Ġan": 2760,
      "ild": 2761,
      "rib": 2762,
      "we": 2763,
      "во": 2764,
      "Ġrec": 2765,
      "Ġل": 2766,
      "ма": 2767,
      "erc": 2768,
      "ink": 2769,
      "ات": 2770,
      "ise": 2771,
      "oh": 2772,
      "ual": 2773,
      "Ġس": 2774,
      "Ġcl": 2775,
      "Ġу": 2776,
      "ĠSh": 2777,
      "ки": 2778,
      "Ġcont": 2779,
      "Ġen": 2780,
      "pro": 2781,
      "LE": 2782,
      "rac": 2783,
      "ien": 2784,
      "ull": 2785,
      "rat": 2786,
      "esc": 2787,
      "Ġab": 2788,
      "Ġro": 2789,
      "fl": 2790,
      "ith": 2791,
      "man": 2792,
      "arg": 2793,
      "form": 2794,
      "ix": 2795,
      "ho": 2796,
      "add": 2797,
      "ми": 2798,
      "ase": 2799,
      "UR": 2800,
      "red": 2801,
      "ve": 2802,
      "ans": 2803,
      "Ar": 2804,
      "bo": 2805,
      "ру": 2806,
      "ana": 2807,
      "eth": 2808,
      "ars": 2809,
      "over": 2810,
      "Ġsub": 2811,
      "ina": 2812,
      "Ġco": 2813,
      "ren": 2814,
      "ace": 2815,
      "rans": 2816,
      "Ġко": 2817,
      "ام": 2818,
      "erg": 2819,
      "és": 2820,
      "ict": 2821,
      "ĠZ": 2822,
      "put": 2823,
      "amb": 2824,
      "air": 2825,
      "nt": 2826,
      "ely": 2827,
      "urs": 2828,
      "Cont": 2829,
      "ди": 2830,
      "ID": 2831,
      "ied": 2832,
      "Ġph": 2833,
      "Cl": 2834,
      "To": 2835,
      "Ġи": 2836,
      "ati": 2837,
      "ión": 2838,
      "ma": 2839,
      "ress": 2840,
      "ть": 2841,
      "CT": 2842,
      "als": 2843,
      "olog": 2844,
      "ics": 2845,
      "по": 2846,
      "Ġن": 2847,
      "ĠY": 2848,
      "af": 2849,
      "yd": 2850,
      "ова": 2851,
      "Ġo": 2852,
      "ks": 2853,
      "ament": 2854,
      "Ġpar": 2855,
      "Ġper": 2856,
      "ста": 2857,
      "du": 2858,
      "cept": 2859,
      "che": 2860,
      "Ex": 2861,
      "ler": 2862,
      "oj": 2863,
      "IS": 2864,
      "ating": 2865,
      "Ġob": 2866,
      "ور": 2867,
      "Ġна": 2868,
      "pos": 2869,
      "Ġinter": 2870,
      "Ġза": 2871,
      "led": 2872,
      "ield": 2873,
      "Pro": 2874,
      "uff": 2875,
      "ade": 2876,
      "orn": 2877,
      "ĠAr": 2878,
      "con": 2879,
      "ear": 2880,
      "ray": 2881,
      "ون": 2882,
      "Ġد": 2883,
      "ura": 2884,
      "ism": 2885,
      "esp": 2886,
      "ret": 2887,
      "ĠMc": 2888,
      "ene": 2889,
      "ole": 2890,
      "Ġک": 2891,
      "ition": 2892,
      "Ġcom": 2893,
      "мо": 2894,
      "son": 2895,
      "app": 2896,
      "ся": 2897,
      "ead": 2898,
      "Con": 2899,
      "ча": 2900,
      "tr": 2901,
      "ze": 2902,
      "rav": 2903,
      "View": 2904,
      "ates": 2905,
      "gen": 2906,
      "ific": 2907,
      "ĠQ": 2908,
      "atch": 2909,
      "Val": 2910,
      "Ġtr": 2911,
      "lect": 2912,
      "га": 2913,
      "ory": 2914,
      "ium": 2915,
      "ão": 2916,
      "yp": 2917,
      "RE": 2918,
      "arm": 2919,
      "ater": 2920,
      "ada": 2921,
      "ION": 2922,
      "ood": 2923,
      "ین": 2924,
      "Ġé": 2925,
      "ци": 2926,
      "no": 2927,
      "ato": 2928,
      "Ġк": 2929,
      "ular": 2930,
      "ka": 2931,
      "Ġind": 2932,
      "Ġint": 2933,
      "Ġra": 2934,
      "Ġam": 2935,
      "iy": 2936,
      "Ob": 2937,
      "Id": 2938,
      "port": 2939,
      "ем": 2940,
      "си": 2941,
      "ér": 2942,
      "Ġالم": 2943,
      "oz": 2944,
      "ви": 2945,
      "Ġbl": 2946,
      "Ġer": 2947,
      "eter": 2948,
      "Ġfl": 2949,
      "cc": 2950,
      "uj": 2951,
      "Type": 2952,
      "AM": 2953,
      "aut": 2954,
      "Ġа": 2955,
      "inc": 2956,
      "oth": 2957,
      "ner": 2958,
      "tem": 2959,
      "ĠAl": 2960,
      "ke": 2961,
      "uf": 2962,
      "Ġem": 2963,
      "ня": 2964,
      "де": 2965,
      "equ": 2966,
      "yt": 2967,
      "List": 2968,
      "vent": 2969,
      "ech": 2970,
      "its": 2971,
      "lement": 2972,
      "ser": 2973,
      "raph": 2974,
      "Ġent": 2975,
      "Ġر": 2976,
      "Name": 2977,
      "riv": 2978,
      "la": 2979,
      "ih": 2980,
      "ĠSch": 2981,
      "ush": 2982,
      "ست": 2983,
      "ara": 2984,
      "ets": 2985,
      "alt": 2986,
      "yst": 2987,
      "me": 2988,
      "uss": 2989,
      "Ġop": 2990,
      "be": 2991,
      "kan": 2992,
      "ott": 2993,
      "Ġра": 2994,
      "CH": 2995,
      "SE": 2996,
      "ract": 2997,
      "اب": 2998,
      "rid": 2999,
      "Ġج": 3000,
      "ee": 3001,
      "хо": 3002,
      "olor": 3003,
      "ized": 3004,
      "bl": 3005,
      "land": 3006,
      "ni": 3007,
      "ery": 3008,
      "Ġsl": 3009,
      "اد": 3010,
      "Ġف": 3011,
      "Ġcons": 3012,
      "uy": 3013,
      "els": 3014,
      "ork": 3015,
      "sch": 3016,
      "Object": 3017,
      "reg": 3018,
      "ror": 3019,
      "kt": 3020,
      "Ġпро": 3021,
      "Ġest": 3022,
      "án": 3023,
      "min": 3024,
      "ros": 3025,
      "Comp": 3026,
      "ha": 3027,
      "ais": 3028,
      "Ġant": 3029,
      "ents": 3030,
      "ول": 3031,
      "Ġع": 3032,
      "par": 3033,
      "ional": 3034,
      "ED": 3035,
      "Ġdec": 3036,
      "ля": 3037,
      "roll": 3038,
      "Ġas": 3039,
      "ound": 3040,
      "of": 3041,
      "об": 3042,
      "ux": 3043,
      "Ġver": 3044,
      "ank": 3045,
      "rent": 3046,
      "Ġsup": 3047,
      "ps": 3048,
      "za": 3049,
      "ley": 3050,
      "raw": 3051,
      "Ġdes": 3052,
      "oss": 3053,
      "ugh": 3054,
      "ious": 3055,
      "ats": 3056,
      "ini": 3057,
      "ĠPro": 3058,
      "gl": 3059,
      "org": 3060,
      "po": 3061,
      "ری": 3062,
      "ered": 3063,
      "Im": 3064,
      "UT": 3065,
      "Value": 3066,
      "Ġinc": 3067,
      "Data": 3068,
      "enn": 3069,
      "ility": 3070,
      "ENT": 3071,
      "isc": 3072,
      "de": 3073,
      "نا": 3074,
      "ener": 3075,
      "ку": 3076,
      "ruct": 3077,
      "ute": 3078,
      "ts": 3079,
      "umb": 3080,
      "ham": 3081,
      "сти": 3082,
      "ible": 3083,
      "uch": 3084,
      "IL": 3085,
      "iti": 3086,
      "urn": 3087,
      "Ġacc": 3088,
      "Ġپ": 3089,
      "unc": 3090,
      "iter": 3091,
      "ĠTh": 3092,
      "val": 3093,
      "AS": 3094,
      "rim": 3095,
      "CC": 3096,
      "ger": 3097,
      "ico": 3098,
      "сто": 3099,
      "ĠCon": 3100,
      "чи": 3101,
      "ative": 3102,
      "oph": 3103,
      "ét": 3104,
      "igh": 3105,
      "Sc": 3106,
      "ake": 3107,
      "Ġне": 3108,
      "utton": 3109,
      "OM": 3110,
      "uz": 3111,
      "Ġка": 3112,
      "omb": 3113,
      "Ġcar": 3114,
      "ose": 3115,
      "uck": 3116,
      "ме": 3117,
      "Path": 3118,
      "Ġtra": 3119,
      "Text": 3120,
      "Item": 3121,
      "UN": 3122,
      "бо": 3123,
      "ĠAn": 3124,
      "use": 3125,
      "eck": 3126,
      "ры": 3127,
      "Ġag": 3128,
      "ĠEx": 3129,
      "ript": 3130,
      "ств": 3131,
      "och": 3132,
      "ures": 3133,
      "uit": 3134,
      "rt": 3135,
      "до": 3136,
      "mer": 3137,
      "ione": 3138,
      "arn": 3139,
      "iff": 3140,
      "Ġaut": 3141,
      "Res": 3142,
      "Ġde": 3143,
      "ĠSp": 3144,
      "men": 3145,
      "لا": 3146,
      "Ġخ": 3147,
      "AD": 3148,
      "uv": 3149,
      "را": 3150,
      "inn": 3151,
      "ling": 3152,
      "ios": 3153,
      "ores": 3154,
      "ait": 3155,
      "ines": 3156,
      "ities": 3157,
      "ald": 3158,
      "lic": 3159,
      "RO": 3160,
      "Ġund": 3161,
      "Ġпри": 3162,
      "ну": 3163,
      "па": 3164,
      "нов": 3165,
      "Ġimp": 3166,
      "Key": 3167,
      "ção": 3168,
      "ally": 3169,
      "ama": 3170,
      "ĠAd": 3171,
      "ena": 3172,
      "жа": 3173,
      "Par": 3174,
      "Ġsk": 3175,
      "fo": 3176,
      "мен": 3177,
      "ET": 3178,
      "Ġcor": 3179,
      "era": 3180,
      "cul": 3181,
      "ере": 3182,
      "AC": 3183,
      "cess": 3184,
      "agn": 3185,
      "cz": 3186,
      "ين": 3187,
      "Ġat": 3188,
      "ación": 3189,
      "lar": 3190,
      "ful": 3191,
      "vers": 3192,
      "stit": 3193,
      "utt": 3194,
      "ani": 3195,
      "ome": 3196,
      "Ġter": 3197,
      "Ġdé": 3198,
      "че": 3199,
      "Ġis": 3200,
      "Ġse": 3201,
      "Ġret": 3202,
      "ount": 3203,
      "roup": 3204,
      "ants": 3205,
      "Ġtrans": 3206,
      "je": 3207,
      "ino": 3208,
      "Ġel": 3209,
      "ck": 3210,
      "leg": 3211,
      "sl": 3212,
      "Ġт": 3213,
      "Ġdef": 3214,
      "ays": 3215,
      "ris": 3216,
      "AP": 3217,
      "Ġgl": 3218,
      "ائ": 3219,
      "ili": 3220,
      "Ġpol": 3221,
      "Ġش": 3222,
      "ĠBl": 3223,
      "Er": 3224,
      "iment": 3225,
      "emp": 3226,
      "ras": 3227,
      "Ġman": 3228,
      "str": 3229,
      "Pl": 3230,
      "EL": 3231,
      "ization": 3232,
      "ld": 3233,
      "én": 3234,
      "Ġmen": 3235,
      "ве": 3236,
      "ook": 3237,
      "Sh": 3238,
      "iqu": 3239,
      "ness": 3240,
      "ido": 3241,
      "Ġз": 3242,
      "rag": 3243,
      "ten": 3244,
      "vis": 3245,
      "ask": 3246,
      "nc": 3247,
      "Ġne": 3248,
      "OL": 3249,
      "urg": 3250,
      "rist": 3251,
      "Ġget": 3252,
      "Ġф": 3253,
      "aff": 3254,
      "plic": 3255,
      "Ġass": 3256,
      "Ġdi": 3257,
      "File": 3258,
      "AG": 3259,
      "Button": 3260,
      "лу": 3261,
      "apt": 3262,
      "ĠRe": 3263,
      "IM": 3264,
      "ja": 3265,
      "idd": 3266,
      "ave": 3267,
      "arb": 3268,
      "са": 3269,
      "Ġreg": 3270,
      "Of": 3271,
      "umber": 3272,
      "Ġоб": 3273,
      "ora": 3274,
      "line": 3275,
      "oo": 3276,
      "ala": 3277,
      "Ġev": 3278,
      "uh": 3279,
      "Ind": 3280,
      "Ad": 3281,
      "ду": 3282,
      "Ġcomm": 3283,
      "erd": 3284,
      "fe": 3285,
      "atic": 3286,
      "ın": 3287,
      "ering": 3288,
      "fig": 3289,
      "inal": 3290,
      "Ġré": 3291,
      "Ġpers": 3292,
      "ipp": 3293,
      "Serv": 3294,
      "vi": 3295,
      "pre": 3296,
      "ĠSc": 3297,
      "eme": 3298,
      "Size": 3299,
      "mo": 3300,
      "edi": 3301,
      "ши": 3302,
      "ить": 3303,
      "ych": 3304,
      "Ġcre": 3305,
      "ically": 3306,
      "Ġout": 3307,
      "Mod": 3308,
      "idad": 3309,
      "Ġре": 3310,
      "Ġcur": 3311,
      "Ġav": 3312,
      "ения": 3313,
      "ots": 3314,
      "ativ": 3315,
      "ги": 3316,
      "Ġوال": 3317,
      "ven": 3318,
      "ump": 3319,
      "lich": 3320,
      "less": 3321,
      "Ġдо": 3322,
      "lt": 3323,
      "Error": 3324,
      "ING": 3325,
      "ano": 3326,
      "IG": 3327,
      "пе": 3328,
      "iet": 3329,
      "Ġref": 3330,
      "пи": 3331,
      "Ġset": 3332,
      "ager": 3333,
      "atur": 3334,
      "String": 3335,
      "ateg": 3336,
      "Ġcol": 3337,
      "yle": 3338,
      "ます": 3339,
      "ово": 3340,
      "Sp": 3341,
      "Ġح": 3342,
      "EM": 3343,
      "лю": 3344,
      "ider": 3345,
      "ule": 3346,
      "ente": 3347,
      "ool": 3348,
      "ira": 3349,
      "PS": 3350,
      "ero": 3351,
      "err": 3352,
      "Ġgr": 3353,
      "Ġatt": 3354,
      "arc": 3355,
      "arl": 3356,
      "Man": 3357,
      "ille": 3358,
      "Ġut": 3359,
      "ages": 3360,
      "Ġoc": 3361,
      "ĠCl": 3362,
      "ando": 3363,
      "ste": 3364,
      "ĠX": 3365,
      "ograph": 3366,
      "Ġг": 3367,
      "Ġrem": 3368,
      "ند": 3369,
      "IV": 3370,
      "ите": 3371,
      "ree": 3372,
      "amente": 3373,
      "uth": 3374,
      "met": 3375,
      "rd": 3376,
      "اع": 3377,
      "Ġсо": 3378,
      "OT": 3379,
      "Ġвы": 3380,
      "му": 3381,
      "ange": 3382,
      "yc": 3383,
      "vel": 3384,
      "ĠPh": 3385,
      "SP": 3386,
      "rol": 3387,
      "Ġol": 3388,
      "Ġق": 3389,
      "Ġrel": 3390,
      "Array": 3391,
      "ream": 3392,
      "Ġfor": 3393,
      "hr": 3394,
      "ior": 3395,
      "ycl": 3396,
      "жи": 3397,
      "Ġpart": 3398,
      "Ġed": 3399,
      "éd": 3400,
      "ivers": 3401,
      "Ġmod": 3402,
      "ocal": 3403,
      "ral": 3404,
      "ta": 3405,
      "By": 3406,
      "rec": 3407,
      "elect": 3408,
      "ument": 3409,
      "ante": 3410,
      "ée": 3411,
      "duct": 3412,
      "vert": 3413,
      "Ġx": 3414,
      "Ġđ": 3415,
      "ao": 3416,
      "IP": 3417,
      "ای": 3418,
      "bar": 3419,
      "rack": 3420,
      "Ġover": 3421,
      "vol": 3422,
      "ito": 3423,
      "hi": 3424,
      "ري": 3425,
      "read": 3426,
      "elle": 3427,
      "ál": 3428,
      "Ġmon": 3429,
      "Ġup": 3430,
      "ей": 3431,
      "Ġinf": 3432,
      "ford": 3433,
      "ify": 3434,
      "SC": 3435,
      "ali": 3436,
      "Index": 3437,
      "Ġext": 3438,
      "って": 3439,
      "rem": 3440,
      "nh": 3441,
      "Image": 3442,
      "ency": 3443,
      "UM": 3444,
      "Ġor": 3445,
      "Int": 3446,
      "State": 3447,
      "ĠGu": 3448,
      "icht": 3449,
      "ns": 3450,
      "ita": 3451,
      "App": 3452,
      "Ġsch": 3453,
      "ту": 3454,
      "Ġmult": 3455,
      "cont": 3456,
      "yr": 3457,
      "back": 3458,
      "gu": 3459,
      "by": 3460,
      "arch": 3461,
      "ution": 3462,
      "Time": 3463,
      "ні": 3464,
      "Ġwh": 3465,
      "Ġhe": 3466,
      "reen": 3467,
      "IA": 3468,
      "cur": 3469,
      "со": 3470,
      "Param": 3471,
      "inter": 3472,
      "ower": 3473,
      "rain": 3474,
      "rap": 3475,
      "Field": 3476,
      "iones": 3477,
      "va": 3478,
      "unk": 3479,
      "Ġот": 3480,
      "sub": 3481,
      "Ġdep": 3482,
      "ici": 3483,
      "Ġпре": 3484,
      "iles": 3485,
      "Ġins": 3486,
      "وا": 3487,
      "зи": 3488,
      "oul": 3489,
      "ég": 3490,
      "irm": 3491,
      "go": 3492,
      "Ġdist": 3493,
      "ĠQu": 3494,
      "oot": 3495,
      "Ġvol": 3496,
      "aps": 3497,
      "ians": 3498,
      "ĠС": 3499,
      "ique": 3500,
      "Ġus": 3501,
      "ales": 3502,
      "ui": 3503,
      "Ġмо": 3504,
      "Ġpost": 3505,
      "ĠВ": 3506,
      "ima": 3507,
      "US": 3508,
      "br": 3509,
      "ür": 3510,
      "یر": 3511,
      "Ġآ": 3512,
      "ource": 3513,
      "rel": 3514,
      "ude": 3515,
      "ego": 3516,
      "ско": 3517,
      "IR": 3518,
      "Ġber": 3519,
      "rie": 3520,
      "equest": 3521,
      "ía": 3522,
      "ية": 3523,
      "for": 3524,
      "Ġلل": 3525,
      "off": 3526,
      "aya": 3527,
      "ayout": 3528,
      "ments": 3529,
      "ml": 3530,
      "ás": 3531,
      "ĠPl": 3532,
      "Ġconf": 3533,
      "vo": 3534,
      "arr": 3535,
      "Ġsw": 3536,
      "cent": 3537,
      "load": 3538,
      "Ġbe": 3539,
      "Color": 3540,
      "сть": 3541,
      "ias": 3542,
      "Al": 3543,
      "ble": 3544,
      "Ġsol": 3545,
      "лен": 3546,
      "oto": 3547,
      "се": 3548,
      "ты": 3549,
      "Context": 3550,
      "rite": 3551,
      "ilit": 3552,
      "Ġmet": 3553,
      "Ġdel": 3554,
      "CE": 3555,
      "ident": 3556,
      "Ġrep": 3557,
      "zi": 3558,
      "CL": 3559,
      "round": 3560,
      "ception": 3561,
      "сь": 3562,
      "ör": 3563,
      "zy": 3564,
      "Ġexp": 3565,
      "press": 3566,
      "ის": 3567,
      "Ġend": 3568,
      "ese": 3569,
      "Ġст": 3570,
      "ря": 3571,
      "eld": 3572,
      "ır": 3573,
      "Ġpres": 3574,
      "Fl": 3575,
      "Ġво": 3576,
      "enz": 3577,
      "ĠAm": 3578,
      "RP": 3579,
      "ayer": 3580,
      "ection": 3581,
      "Ġact": 3582,
      "aus": 3583,
      "Ġbr": 3584,
      "Ġenc": 3585,
      "وم": 3586,
      "BS": 3587,
      "asc": 3588,
      "اس": 3589,
      "وب": 3590,
      "Ġov": 3591,
      "ор": 3592,
      "OC": 3593,
      "onent": 3594,
      "ير": 3595,
      "Ġmin": 3596,
      "Ġod": 3597,
      "ua": 3598,
      "Ġpot": 3599,
      "my": 3600,
      "ĠLe": 3601,
      "ms": 3602,
      "Code": 3603,
      "sw": 3604,
      "irect": 3605,
      "Ġcal": 3606,
      "nie": 3607,
      "Ġon": 3608,
      "ette": 3609,
      "Ġpo": 3610,
      "ных": 3611,
      "TR": 3612,
      "AB": 3613,
      "لي": 3614,
      "any": 3615,
      "itch": 3616,
      "rip": 3617,
      "Ġэ": 3618,
      "lex": 3619,
      "elt": 3620,
      "ouse": 3621,
      "Get": 3622,
      "lin": 3623,
      "itz": 3624,
      "OD": 3625,
      "da": 3626,
      "Ġdisc": 3627,
      "udd": 3628,
      "iro": 3629,
      "ender": 3630,
      "rup": 3631,
      "ение": 3632,
      "irt": 3633,
      "ever": 3634,
      "ĠVer": 3635,
      "Ref": 3636,
      "Ġes": 3637,
      "Ġма": 3638,
      "Box": 3639,
      "uan": 3640,
      "ров": 3641,
      "uild": 3642,
      "All": 3643,
      "Ġdem": 3644,
      "Ġstr": 3645,
      "oad": 3646,
      "Ġang": 3647,
      "mp": 3648,
      "ĠBe": 3649,
      "Ġdo": 3650,
      "ues": 3651,
      "Bl": 3652,
      "Ġprop": 3653,
      "ital": 3654,
      "opp": 3655,
      "ود": 3656,
      "ouch": 3657,
      "uer": 3658,
      "ny": 3659,
      "ii": 3660,
      "acc": 3661,
      "ape": 3662,
      "order": 3663,
      "Up": 3664,
      "box": 3665,
      "ου": 3666,
      "Ġpos": 3667,
      "ae": 3668,
      "uto": 3669,
      "itor": 3670,
      "aan": 3671,
      "Ġapp": 3672,
      "Ġesc": 3673,
      "Ġinv": 3674,
      "Ġte": 3675,
      "ql": 3676,
      "ken": 3677,
      "ught": 3678,
      "ĠUn": 3679,
      "ody": 3680,
      "Ġwe": 3681,
      "Th": 3682,
      "он": 3683,
      "пу": 3684,
      "ences": 3685,
      "ils": 3686,
      "bol": 3687,
      "ability": 3688,
      "Ap": 3689,
      "су": 3690,
      "abb": 3691,
      "esh": 3692,
      "Ġme": 3693,
      "unter": 3694,
      "ives": 3695,
      "Ġred": 3696,
      "ational": 3697,
      "ips": 3698,
      "ove": 3699,
      "ogg": 3700,
      "ные": 3701,
      "EC": 3702,
      "Ġpe": 3703,
      "ists": 3704,
      "User": 3705,
      "Ġsm": 3706,
      "Request": 3707,
      "atter": 3708,
      "Ġep": 3709,
      "Ġdev": 3710,
      "ily": 3711,
      "ester": 3712,
      "PL": 3713,
      "är": 3714,
      "ной": 3715,
      "amm": 3716,
      "ius": 3717,
      "kh": 3718,
      "rig": 3719,
      "nal": 3720,
      "cre": 3721,
      "ides": 3722,
      "SA": 3723,
      "enu": 3724,
      "Bar": 3725,
      "Ġي": 3726,
      "akt": 3727,
      "ope": 3728,
      "Ġdet": 3729,
      "رو": 3730,
      "abel": 3731,
      "uest": 3732,
      "ination": 3733,
      "ology": 3734,
      "zt": 3735,
      "ní": 3736,
      "Group": 3737,
      "ün": 3738,
      "aint": 3739,
      "Ġall": 3740,
      "ced": 3741,
      "FF": 3742,
      "imp": 3743,
      "akan": 3744,
      "len": 3745,
      "board": 3746,
      "Inter": 3747,
      "TS": 3748,
      "ción": 3749,
      "Ġart": 3750,
      "یک": 3751,
      "icul": 3752,
      "orb": 3753,
      "Ġleg": 3754,
      "acter": 3755,
      "ット": 3756,
      "urb": 3757,
      "Out": 3758,
      "Ġemb": 3759,
      "DA": 3760,
      "ved": 3761,
      "Ġsal": 3762,
      "lev": 3763,
      "OP": 3764,
      "ote": 3765,
      "ებ": 3766,
      "raz": 3767,
      "alk": 3768,
      "struct": 3769,
      "ault": 3770,
      "ды": 3771,
      "chen": 3772,
      "uel": 3773,
      "osph": 3774,
      "ים": 3775,
      "ствен": 3776,
      "Ġگ": 3777,
      "indow": 3778,
      "ados": 3779,
      "col": 3780,
      "Ġsur": 3781,
      "com": 3782,
      "Set": 3783,
      "ĠFl": 3784,
      "idth": 3785,
      "uid": 3786,
      "Class": 3787,
      "át": 3788,
      "hen": 3789,
      "Ġir": 3790,
      "lad": 3791,
      "ca": 3792,
      "wa": 3793,
      "ices": 3794,
      "Ġص": 3795,
      "oken": 3796,
      "CP": 3797,
      "Ġраз": 3798,
      "ces": 3799,
      "view": 3800,
      "umer": 3801,
      "Ġnot": 3802,
      "ift": 3803,
      "ators": 3804,
      "orth": 3805,
      "Ġmar": 3806,
      "ĠEd": 3807,
      "mi": 3808,
      "unch": 3809,
      "Ġann": 3810,
      "eler": 3811,
      "ours": 3812,
      "TH": 3813,
      "Ass": 3814,
      "pond": 3815,
      "En": 3816,
      "Ġoff": 3817,
      "ete": 3818,
      "onic": 3819,
      "спо": 3820,
      "して": 3821,
      "ĠEm": 3822,
      "SS": 3823,
      "ves": 3824,
      "Ph": 3825,
      "imm": 3826,
      "ει": 3827,
      "aks": 3828,
      "aft": 3829,
      "Input": 3830,
      "ید": 3831,
      "istic": 3832,
      "zen": 3833,
      "ĠAb": 3834,
      "UL": 3835,
      "onal": 3836,
      "Ġه": 3837,
      "omet": 3838,
      "endo": 3839,
      "ère": 3840,
      "يه": 3841,
      "oon": 3842,
      "لی": 3843,
      "CS": 3844,
      "IB": 3845,
      "ĠEn": 3846,
      "orph": 3847,
      "ified": 3848,
      "ola": 3849,
      "щи": 3850,
      "las": 3851,
      "ature": 3852,
      "Pre": 3853,
      "roph": 3854,
      "clus": 3855,
      "PC": 3856,
      "uct": 3857,
      "etic": 3858,
      "ный": 3859,
      "Ġان": 3860,
      "do": 3861,
      "Un": 3862,
      "eder": 3863,
      "uro": 3864,
      "лі": 3865,
      "ids": 3866,
      "gram": 3867,
      "Char": 3868,
      "abor": 3869,
      "ona": 3870,
      "Ġmeng": 3871,
      "ited": 3872,
      "Layout": 3873,
      "Ġпа": 3874,
      "ulf": 3875,
      "raft": 3876,
      "bre": 3877,
      "ida": 3878,
      "Ġec": 3879,
      "ense": 3880,
      "ements": 3881,
      "asi": 3882,
      "ĠPol": 3883,
      "cal": 3884,
      "Ġtest": 3885,
      "Ġfil": 3886,
      "ées": 3887,
      "ocation": 3888,
      "ende": 3889,
      "rict": 3890,
      "ites": 3891,
      "ного": 3892,
      "ermin": 3893,
      "Ġimm": 3894,
      "кт": 3895,
      "empl": 3896,
      "atus": 3897,
      "éc": 3898,
      "Manager": 3899,
      "unic": 3900,
      "ky": 3901,
      "ula": 3902,
      "Ġform": 3903,
      "يد": 3904,
      "Prop": 3905,
      "lor": 3906,
      "ĠБ": 3907,
      "Ġsec": 3908,
      "از": 3909,
      "Ġconv": 3910,
      "ĠPr": 3911,
      "Col": 3912,
      "ains": 3913,
      "now": 3914,
      "Ġrest": 3915,
      "cht": 3916,
      "agg": 3917,
      "Ġfr": 3918,
      "Ġprof": 3919,
      "ĠА": 3920,
      "ATION": 3921,
      "تر": 3922,
      "utter": 3923,
      "ĠPar": 3924,
      "اف": 3925,
      "Ġge": 3926,
      "Ġك": 3927,
      "した": 3928,
      "Result": 3929,
      "Ġneg": 3930,
      "atis": 3931,
      "πο": 3932,
      "esch": 3933,
      "ém": 3934,
      "ков": 3935,
      "рав": 3936,
      "lig": 3937,
      "Ġdesc": 3938,
      "ĠHe": 3939,
      "edia": 3940,
      "Ġте": 3941,
      "serv": 3942,
      "zo": 3943,
      "ック": 3944,
      "atan": 3945,
      "Ġgi": 3946,
      "ries": 3947,
      "Def": 3948,
      "oe": 3949,
      "رد": 3950,
      "ono": 3951,
      "comp": 3952,
      "Ġбо": 3953,
      "ards": 3954,
      "Ġequ": 3955,
      "ות": 3956,
      "Element": 3957,
      "oxy": 3958,
      "MS": 3959,
      "onom": 3960,
      "cor": 3961,
      "onn": 3962,
      "With": 3963,
      "ĠAg": 3964,
      "way": 3965,
      "Ġго": 3966,
      "field": 3967,
      "ava": 3968,
      "гра": 3969,
      "new": 3970,
      "Ġро": 3971,
      "oci": 3972,
      "count": 3973,
      "aster": 3974,
      "not": 3975,
      "rab": 3976,
      "berg": 3977,
      "path": 3978,
      "ще": 3979,
      "organ": 3980,
      "ät": 3981,
      "кі": 3982,
      "HT": 3983,
      "ki": 3984,
      "raf": 3985,
      "ĠCont": 3986,
      "αν": 3987,
      "Ġaff": 3988,
      "ched": 3989,
      "wood": 3990,
      "Event": 3991,
      "For": 3992,
      "oint": 3993,
      "anam": 3994,
      "ila": 3995,
      "Ġж": 3996,
      "rif": 3997,
      "PT": 3998,
      "eader": 3999,
      "ité": 4000,
      "ше": 4001,
      "ops": 4002,
      "ĠComp": 4003,
      "omer": 4004,
      "den": 4005,
      "anti": 4006,
      "Ġval": 4007,
      "Action": 4008,
      "oma": 4009,
      "Ġpub": 4010,
      "Em": 4011,
      "iej": 4012,
      "ength": 4013,
      "urt": 4014,
      "Ġma": 4015,
      "ĠCor": 4016,
      "ĠMar": 4017,
      "Ġesp": 4018,
      "oke": 4019,
      "irc": 4020,
      "ury": 4021,
      "atth": 4022,
      "Call": 4023,
      "ribut": 4024,
      "ĠК": 4025,
      "ön": 4026,
      "Count": 4027,
      "حد": 4028,
      "وس": 4029,
      "Number": 4030,
      "Ġrad": 4031,
      "ска": 4032,
      "Ġfe": 4033,
      "item": 4034,
      "Ġhand": 4035,
      "вер": 4036,
      "pect": 4037,
      "ured": 4038,
      "ĠCar": 4039,
      "ход": 4040,
      "ivity": 4041,
      "Ġla": 4042,
      "ца": 4043,
      "comm": 4044,
      "Ġsuc": 4045,
      "リー": 4046,
      "igen": 4047,
      "omen": 4048,
      "ан": 4049,
      "olic": 4050,
      "atal": 4051,
      "OW": 4052,
      "Service": 4053,
      "ĠEl": 4054,
      "IF": 4055,
      "Ġjed": 4056,
      "Ġtran": 4057,
      "di": 4058,
      "stra": 4059,
      "ĠApp": 4060,
      "duc": 4061,
      "ois": 4062,
      "ening": 4063,
      "рова": 4064,
      "Ġبال": 4065,
      "Ġutil": 4066,
      "Ġcr": 4067,
      "Config": 4068,
      "った": 4069,
      "Is": 4070,
      "Ġdiv": 4071,
      "acy": 4072,
      "Ġto": 4073,
      "ko": 4074,
      "ucle": 4075,
      "ĠCol": 4076,
      "eli": 4077,
      "Ġbo": 4078,
      "Ġinst": 4079,
      "ney": 4080,
      "AY": 4081,
      "amin": 4082,
      "ross": 4083,
      "ede": 4084,
      "alle": 4085,
      "room": 4086,
      "atri": 4087,
      "ĠCo": 4088,
      "play": 4089,
      "ール": 4090,
      "Ġбу": 4091,
      "Ġperm": 4092,
      "би": 4093,
      "Ġso": 4094,
      "EG": 4095,
      "Ġtro": 4096,
      "Table": 4097,
      "ones": 4098,
      "imb": 4099,
      "Ġkh": 4100,
      "usc": 4101,
      "Ġста": 4102,
      "ync": 4103,
      "map": 4104,
      "mar": 4105,
      "osc": 4106,
      "ĠIm": 4107,
      "tre": 4108,
      "ethod": 4109,
      "ised": 4110,
      "ĠП": 4111,
      "ails": 4112,
      "Ġsym": 4113,
      "ept": 4114,
      "ай": 4115,
      "zer": 4116,
      "ĠSe": 4117,
      "Exception": 4118,
      "key": 4119,
      "än": 4120,
      "iffer": 4121,
      "фи": 4122,
      "omin": 4123,
      "Ġσ": 4124,
      "Ġba": 4125,
      "mod": 4126,
      "unn": 4127,
      "Date": 4128,
      "bit": 4129,
      "Ġng": 4130,
      "Model": 4131,
      "يا": 4132,
      "lish": 4133,
      "ugg": 4134,
      "ート": 4135,
      "رب": 4136,
      "ador": 4137,
      "ungen": 4138,
      "Ġnew": 4139,
      "Ġbre": 4140,
      "Log": 4141,
      "Ġя": 4142,
      "тель": 4143,
      "Ġز": 4144,
      "Ġsv": 4145,
      "aur": 4146,
      "GR": 4147,
      "MA": 4148,
      "hat": 4149,
      "ector": 4150,
      "ít": 4151,
      "CO": 4152,
      "Ġbi": 4153,
      "Ġcap": 4154,
      "elf": 4155,
      "earch": 4156,
      "ige": 4157,
      "pen": 4158,
      "js": 4159,
      "ibr": 4160,
      "ĠBar": 4161,
      "oro": 4162,
      "ika": 4163,
      "ilt": 4164,
      "encia": 4165,
      "ング": 4166,
      "لم": 4167,
      "Qu": 4168,
      "ĠBr": 4169,
      "ют": 4170,
      "Ġaf": 4171,
      "He": 4172,
      "Ġtre": 4173,
      "Ġкон": 4174,
      "iento": 4175,
      "CA": 4176,
      "Ġreal": 4177,
      "ĠIN": 4178,
      "ben": 4179,
      "rv": 4180,
      "Ġsem": 4181,
      "ires": 4182,
      "IST": 4183,
      "Ġlo": 4184,
      "text": 4185,
      "anj": 4186,
      "Ġpal": 4187,
      "ster": 4188,
      "essage": 4189,
      "بر": 4190,
      "Ġआ": 4191,
      "DS": 4192,
      "lı": 4193,
      "Ġш": 4194,
      "gi": 4195,
      "Ġиз": 4196,
      "down": 4197,
      "ington": 4198,
      "Ġhom": 4199,
      "ydro": 4200,
      "ogen": 4201,
      "ız": 4202,
      "point": 4203,
      "зы": 4204,
      "ül": 4205,
      "OS": 4206,
      "Ġadd": 4207,
      "Test": 4208,
      "rum": 4209,
      "ĠOr": 4210,
      "une": 4211,
      "aro": 4212,
      "Ġsn": 4213,
      "Ġmed": 4214,
      "Ġч": 4215,
      "Node": 4216,
      "Ġsu": 4217,
      "ials": 4218,
      "τα": 4219,
      "ification": 4220,
      "ски": 4221,
      "ethyl": 4222,
      "yth": 4223,
      "Act": 4224,
      "Ġچ": 4225,
      "aki": 4226,
      "cer": 4227,
      "por": 4228,
      "ison": 4229,
      "ission": 4230,
      "anel": 4231,
      "avig": 4232,
      "name": 4233,
      "izing": 4234,
      "Ġpass": 4235,
      "Ġви": 4236,
      "ери": 4237,
      "Ġπ": 4238,
      "onse": 4239,
      "اش": 4240,
      "isp": 4241,
      "ski": 4242,
      "char": 4243,
      "DE": 4244,
      "DP": 4245,
      "Ġالع": 4246,
      "adi": 4247,
      "rl": 4248,
      "Arg": 4249,
      "odes": 4250,
      "iber": 4251,
      "angan": 4252,
      "Ġsim": 4253,
      "olo": 4254,
      "erty": 4255,
      "ume": 4256,
      "resent": 4257,
      "awa": 4258,
      "Comm": 4259,
      "TER": 4260,
      "Window": 4261,
      "minist": 4262,
      "Ġmem": 4263,
      "ów": 4264,
      "ogn": 4265,
      "erk": 4266,
      "ется": 4267,
      "ku": 4268,
      "umin": 4269,
      "Ġпод": 4270,
      "SM": 4271,
      "Ġہ": 4272,
      "Ġet": 4273,
      "AA": 4274,
      "ран": 4275,
      "Info": 4276,
      "Ġmot": 4277,
      "Ġmo": 4278,
      "oder": 4279,
      "ba": 4280,
      "web": 4281,
      "ек": 4282,
      "Map": 4283,
      "lu": 4284,
      "Ġالت": 4285,
      "eep": 4286,
      "сы": 4287,
      "aim": 4288,
      "تی": 4289,
      "ικ": 4290,
      "Ġsz": 4291,
      "tim": 4292,
      "Ġин": 4293,
      "ather": 4294,
      "ttp": 4295,
      "Ġمن": 4296,
      "orr": 4297,
      "Resp": 4298,
      "ния": 4299,
      "Ġpop": 4300,
      "ım": 4301,
      "anz": 4302,
      "icos": 4303,
      "isi": 4304,
      "وں": 4305,
      "Ġhum": 4306,
      "یم": 4307,
      "Hand": 4308,
      "illa": 4309,
      "Ġri": 4310,
      "ên": 4311,
      "lik": 4312,
      "aten": 4313,
      "FA": 4314,
      "Ġmax": 4315,
      "Ġç": 4316,
      "init": 4317,
      "ega": 4318,
      "ĠAp": 4319,
      "Att": 4320,
      "urch": 4321,
      "ami": 4322,
      "ĠMon": 4323,
      "ulation": 4324,
      "rich": 4325,
      "sm": 4326,
      "iver": 4327,
      "nya": 4328,
      "ocus": 4329,
      "igg": 4330,
      "лы": 4331,
      "yg": 4332,
      "ances": 4333,
      "یا": 4334,
      "der": 4335,
      "ĠSw": 4336,
      "ĠSal": 4337,
      "äh": 4338,
      "сси": 4339,
      "ji": 4340,
      "una": 4341,
      "ĠComm": 4342,
      "ges": 4343,
      "edd": 4344,
      "arks": 4345,
      "ĠMan": 4346,
      "mente": 4347,
      "Ġcent": 4348,
      "amos": 4349,
      "ĠWh": 4350,
      "rew": 4351,
      "ending": 4352,
      "atory": 4353,
      "irst": 4354,
      "ares": 4355,
      "Width": 4356,
      "ony": 4357,
      "EST": 4358,
      "An": 4359,
      "Ġде": 4360,
      "ivo": 4361,
      "Co": 4362,
      "eri": 4363,
      "ively": 4364,
      "inf": 4365,
      "ordin": 4366,
      "mat": 4367,
      "icas": 4368,
      "Ġdest": 4369,
      "eta": 4370,
      "Be": 4371,
      "Ġpat": 4372,
      "Ġprz": 4373,
      "date": 4374,
      "CM": 4375,
      "Re": 4376,
      "uge": 4377,
      "Ġcond": 4378,
      "ınd": 4379,
      "лов": 4380,
      "ural": 4381,
      "Ġsign": 4382,
      "Ġhab": 4383,
      "ently": 4384,
      "ened": 4385,
      "list": 4386,
      "Ġkon": 4387,
      "Ġfre": 4388,
      "ĠReg": 4389,
      "erman": 4390,
      "ĠAss": 4391,
      "Form": 4392,
      "aran": 4393,
      "Ġה": 4394,
      "Ġser": 4395,
      "нд": 4396,
      "At": 4397,
      "Ġü": 4398,
      "rick": 4399,
      "aph": 4400,
      "TA": 4401,
      "riter": 4402,
      "ases": 4403,
      "bra": 4404,
      "igu": 4405,
      "Ġvis": 4406,
      "ба": 4407,
      "ej": 4408,
      "Ġmis": 4409,
      "Sub": 4410,
      "tra": 4411,
      "uffer": 4412,
      "Ġinform": 4413,
      "Ġdiss": 4414,
      "rob": 4415,
      "Ġgu": 4416,
      "ĠEr": 4417,
      "ден": 4418,
      "ired": 4419,
      "ระ": 4420,
      "Ġprom": 4421,
      "ories": 4422,
      "Ġfac": 4423,
      "net": 4424,
      "ха": 4425,
      "Ġме": 4426,
      "roc": 4427,
      "Ġmic": 4428,
      "şt": 4429,
      "Ġgen": 4430,
      "izz": 4431,
      "CI": 4432,
      "shire": 4433,
      "ها": 4434,
      "スト": 4435,
      "про": 4436,
      "Ġdisp": 4437,
      "last": 4438,
      "oles": 4439,
      "si": 4440,
      "nik": 4441,
      "ない": 4442,
      "unct": 4443,
      "ows": 4444,
      "änd": 4445,
      "umn": 4446,
      "itter": 4447,
      "це": 4448,
      "Ġأ": 4449,
      "Ġprot": 4450,
      "inu": 4451,
      "BC": 4452,
      "Ġtri": 4453,
      "aud": 4454,
      "lem": 4455,
      "Line": 4456,
      "Ġeff": 4457,
      "het": 4458,
      "Component": 4459,
      "Ġcu": 4460,
      "ikan": 4461,
      "ista": 4462,
      "older": 4463,
      "ei": 4464,
      "log": 4465,
      "osa": 4466,
      "Ġren": 4467,
      "رف": 4468,
      "QU": 4469,
      "emat": 4470,
      "AV": 4471,
      "ols": 4472,
      "ESS": 4473,
      "ecial": 4474,
      "Ġالأ": 4475,
      "hip": 4476,
      "Ġcoll": 4477,
      "Ġمع": 4478,
      "ρα": 4479,
      "anda": 4480,
      "Not": 4481,
      "cher": 4482,
      "PR": 4483,
      "avor": 4484,
      "ĠOb": 4485,
      "inder": 4486,
      "Ġexc": 4487,
      "uns": 4488,
      "arth": 4489,
      "oi": 4490,
      "لو": 4491,
      "Rec": 4492,
      "Ġid": 4493,
      "вет": 4494,
      "ном": 4495,
      "ĠSl": 4496,
      "itions": 4497,
      "рі": 4498,
      "arget": 4499,
      "iers": 4500,
      "hib": 4501,
      "Menu": 4502,
      "ario": 4503,
      "mas": 4504,
      "iem": 4505,
      "gr": 4506,
      "する": 4507,
      "aul": 4508,
      "rest": 4509,
      "iner": 4510,
      "aries": 4511,
      "DR": 4512,
      "tn": 4513,
      "ends": 4514,
      "ialog": 4515,
      "Ġvi": 4516,
      "gg": 4517,
      "бу": 4518,
      "же": 4519,
      "ecut": 4520,
      "Ġالا": 4521,
      "ĠST": 4522,
      "On": 4523,
      "Ġseg": 4524,
      "osis": 4525,
      "iam": 4526,
      "ades": 4527,
      "cup": 4528,
      "wi": 4529,
      "жен": 4530,
      "Ġport": 4531,
      "ela": 4532,
      "ím": 4533,
      "Ġbeg": 4534,
      "Det": 4535,
      "uring": 4536,
      "amil": 4537,
      "riz": 4538,
      "Ġing": 4539,
      "ĠRes": 4540,
      "ĠAt": 4541,
      "inst": 4542,
      "geb": 4543,
      "بي": 4544,
      "او": 4545,
      "Ġда": 4546,
      "Start": 4547,
      "Ġhal": 4548,
      "Page": 4549,
      "nam": 4550,
      "Ġالس": 4551,
      "We": 4552,
      "ור": 4553,
      "han": 4554,
      "érie": 4555,
      "Rep": 4556,
      "ova": 4557,
      "Ġden": 4558,
      "ელ": 4559,
      "üh": 4560,
      "aire": 4561,
      "Ġč": 4562,
      "تا": 4563,
      "tern": 4564,
      "ills": 4565,
      "ivid": 4566,
      "rot": 4567,
      "ĠО": 4568,
      "ekt": 4569,
      "akes": 4570,
      "Ġpen": 4571,
      "api": 4572,
      "ĠPal": 4573,
      "lie": 4574,
      "Select": 4575,
      "eda": 4576,
      "гу": 4577,
      "ám": 4578,
      "ĠМ": 4579,
      "ader": 4580,
      "anger": 4581,
      "dec": 4582,
      "enth": 4583,
      "umm": 4584,
      "Web": 4585,
      "ĠР": 4586,
      "ately": 4587,
      "ერ": 4588,
      "тив": 4589,
      "gress": 4590,
      "Ġsa": 4591,
      "τε": 4592,
      "ential": 4593,
      "Pos": 4594,
      "сле": 4595,
      "jo": 4596,
      "db": 4597,
      "hab": 4598,
      "chem": 4599,
      "ches": 4600,
      "ERS": 4601,
      "ĠAll": 4602,
      "itu": 4603,
      "არ": 4604,
      "ising": 4605,
      "Go": 4606,
      "van": 4607,
      "amera": 4608,
      "ahan": 4609,
      "PA": 4610,
      "rypt": 4611,
      "ella": 4612,
      "hand": 4613,
      "Ġbel": 4614,
      "нда": 4615,
      "Ġdeb": 4616,
      "otic": 4617,
      "اری": 4618,
      "ister": 4619,
      "rame": 4620,
      "uls": 4621,
      "Ġsam": 4622,
      "зу": 4623,
      "ĠInd": 4624,
      "ĠCom": 4625,
      "iler": 4626,
      "ared": 4627,
      "ĠNe": 4628,
      "imo": 4629,
      "اه": 4630,
      "ECT": 4631,
      "bb": 4632,
      "hav": 4633,
      "ables": 4634,
      "Style": 4635,
      "اک": 4636,
      "ords": 4637,
      "resh": 4638,
      "يم": 4639,
      "Ġта": 4640,
      "As": 4641,
      "ijk": 4642,
      "Mode": 4643,
      "open": 4644,
      "And": 4645,
      "Down": 4646,
      "II": 4647,
      "ĠCH": 4648,
      "Ġpred": 4649,
      "aka": 4650,
      "MP": 4651,
      "DK": 4652,
      "ár": 4653,
      "Api": 4654,
      "ls": 4655,
      "file": 4656,
      "abil": 4657,
      "Ġback": 4658,
      "Ġelect": 4659,
      "Back": 4660,
      "arp": 4661,
      "Ġfin": 4662,
      "inh": 4663,
      "ĠИ": 4664,
      "です": 4665,
      "ref": 4666,
      "cs": 4667,
      "roid": 4668,
      "IO": 4669,
      "agen": 4670,
      "Message": 4671,
      "eller": 4672,
      "тов": 4673,
      "Client": 4674,
      "Ġdiff": 4675,
      "ści": 4676,
      "egr": 4677,
      "CR": 4678,
      "iya": 4679,
      "eric": 4680,
      "ocket": 4681,
      "ке": 4682,
      "ĠAnd": 4683,
      "ĠWe": 4684,
      "ourn": 4685,
      "SO": 4686,
      "تب": 4687,
      "LL": 4688,
      "aux": 4689,
      "udent": 4690,
      "erson": 4691,
      "ння": 4692,
      "ground": 4693,
      "imento": 4694,
      "ĠRep": 4695,
      "Ġcan": 4696,
      "ĠRec": 4697,
      "Ġphot": 4698,
      "یں": 4699,
      "Panel": 4700,
      "aker": 4701,
      "iness": 4702,
      "lection": 4703,
      "ρο": 4704,
      "าย": 4705,
      "iri": 4706,
      "evel": 4707,
      "Ġsuper": 4708,
      "Ġvo": 4709,
      "Ġexpl": 4710,
      "ason": 4711,
      "мы": 4712,
      "icip": 4713,
      "rz": 4714,
      "ache": 4715,
      "Ġve": 4716,
      "aly": 4717,
      "Ġhyp": 4718,
      "Trans": 4719,
      "Ġps": 4720,
      "ival": 4721,
      "Ġpod": 4722,
      "こと": 4723,
      "кра": 4724,
      "Ġtem": 4725,
      "ibility": 4726,
      "well": 4727,
      "ably": 4728,
      "ryst": 4729,
      "rupt": 4730,
      "uen": 4731,
      "Auth": 4732,
      "ipl": 4733,
      "став": 4734,
      "oper": 4735,
      "ended": 4736,
      "arant": 4737,
      "ynam": 4738,
      "udi": 4739,
      "ye": 4740,
      "amento": 4741,
      "Ġvers": 4742,
      "ĠGr": 4743,
      "hor": 4744,
      "ams": 4745,
      "ĠТ": 4746,
      "ід": 4747,
      "イン": 4748,
      "current": 4749,
      "Ġbil": 4750,
      "lob": 4751,
      "anding": 4752,
      "сту": 4753,
      "GF": 4754,
      "eft": 4755,
      "Star": 4756,
      "دا": 4757,
      "اہ": 4758,
      "SI": 4759,
      "econd": 4760,
      "reet": 4761,
      "work": 4762,
      "ショ": 4763,
      "MC": 4764,
      "iev": 4765,
      "aires": 4766,
      "other": 4767,
      "elles": 4768,
      "Ġgener": 4769,
      "ria": 4770,
      "ceed": 4771,
      "вы": 4772,
      "ploy": 4773,
      "wh": 4774,
      "esis": 4775,
      "ĠAc": 4776,
      "aga": 4777,
      "icks": 4778,
      "Ġsyn": 4779,
      "ín": 4780,
      "Ġmill": 4781,
      "ums": 4782,
      "ное": 4783,
      "یت": 4784,
      "зова": 4785,
      "Ġur": 4786,
      "Ġdig": 4787,
      "ished": 4788,
      "له": 4789,
      "Token": 4790,
      "itting": 4791,
      "ів": 4792,
      "Ġbro": 4793,
      "URE": 4794,
      "Ġunder": 4795,
      "Ġmer": 4796,
      "aces": 4797,
      "ifer": 4798,
      "New": 4799,
      "enti": 4800,
      "ward": 4801,
      "dz": 4802,
      "سم": 4803,
      "ĠД": 4804,
      "ike": 4805,
      "ifier": 4806,
      "CON": 4807,
      "rog": 4808,
      "izer": 4809,
      "ota": 4810,
      "Ġmat": 4811,
      "Ġeg": 4812,
      "rug": 4813,
      "osp": 4814,
      "ĠEst": 4815,
      "upp": 4816,
      "draw": 4817,
      "alth": 4818,
      "Ġmel": 4819,
      "alam": 4820,
      "iting": 4821,
      "Ġсу": 4822,
      "zn": 4823,
      "VER": 4824,
      "ander": 4825,
      "ori": 4826,
      "ça": 4827,
      "itar": 4828,
      "des": 4829,
      "rown": 4830,
      "ან": 4831,
      "Ġfran": 4832,
      "Ġх": 4833,
      "Url": 4834,
      "Ed": 4835,
      "XX": 4836,
      "ная": 4837,
      "ят": 4838,
      "ained": 4839,
      "Ġmagn": 4840,
      "ĠAng": 4841,
      "PM": 4842,
      "igned": 4843,
      "rij": 4844,
      "니다": 4845,
      "ство": 4846,
      "eva": 4847,
      "ние": 4848,
      "oid": 4849,
      "PE": 4850,
      "Ġالن": 4851,
      "Ġпред": 4852,
      "цен": 4853,
      "ĠMcC": 4854,
      "rio": 4855,
      "iki": 4856,
      "él": 4857,
      "ropri": 4858,
      "ously": 4859,
      "vest": 4860,
      "وان": 4861,
      "oms": 4862,
      "ĠMah": 4863,
      "ました": 4864,
      "یل": 4865,
      "Ġö": 4866,
      "oa": 4867,
      "eless": 4868,
      "ITY": 4869,
      "data": 4870,
      "ージ": 4871,
      "ingu": 4872,
      "ystem": 4873,
      "asis": 4874,
      "ĠTr": 4875,
      "ĠBro": 4876,
      "Conn": 4877,
      "ypes": 4878,
      "ision": 4879,
      "تم": 4880,
      "Ġто": 4881,
      "opy": 4882,
      "ĠMe": 4883,
      "aciones": 4884,
      "Ġса": 4885,
      "ита": 4886,
      "ORT": 4887,
      "hal": 4888,
      "ĠCons": 4889,
      "action": 4890,
      "Ġuse": 4891,
      "یز": 4892,
      "lj": 4893,
      "lass": 4894,
      "eto": 4895,
      "ocument": 4896,
      "Ġالق": 4897,
      "astic": 4898,
      "aler": 4899,
      "يك": 4900,
      "ĠBel": 4901,
      "Add": 4902,
      "Ġcurrent": 4903,
      "Ġkn": 4904,
      "ным": 4905,
      "Response": 4906,
      "Ġالح": 4907,
      "ined": 4908,
      "aking": 4909,
      "SRP": 4910,
      "าร": 4911,
      "ights": 4912,
      "argin": 4913,
      "Header": 4914,
      "iten": 4915,
      "ustom": 4916,
      "бе": 4917,
      "ration": 4918,
      "ĠDe": 4919,
      "Ġinfl": 4920,
      "quis": 4921,
      "ск": 4922,
      "GE": 4923,
      "anth": 4924,
      "aa": 4925,
      "صل": 4926,
      "Dec": 4927,
      "ĠSte": 4928,
      "ĠН": 4929,
      "BA": 4930,
      "ims": 4931,
      "ension": 4932,
      "cient": 4933,
      "otal": 4934,
      "Params": 4935,
      "Cre": 4936,
      "ша": 4937,
      "har": 4938,
      "рга": 4939,
      "اء": 4940,
      "ности": 4941,
      "Status": 4942,
      "ouv": 4943,
      "μα": 4944,
      "Ġअ": 4945,
      "ief": 4946,
      "ენ": 4947,
      "DB": 4948,
      "Ġком": 4949,
      "stitut": 4950,
      "find": 4951,
      "Ġnov": 4952,
      "osh": 4953,
      "arrow": 4954,
      "ession": 4955,
      "iance": 4956,
      "SR": 4957,
      "esi": 4958,
      "ignment": 4959,
      "cy": 4960,
      "Ġمح": 4961,
      "Av": 4962,
      "Ġsil": 4963,
      "DI": 4964,
      "Ġlog": 4965,
      "bs": 4966,
      "imal": 4967,
      "ões": 4968,
      "Ġcle": 4969,
      "uts": 4970,
      "eger": 4971,
      "Us": 4972,
      "Ġmal": 4973,
      "outh": 4974,
      "Init": 4975,
      "eff": 4976,
      "lam": 4977,
      "Ġbar": 4978,
      "print": 4979,
      "Ġε": 4980,
      "war": 4981,
      "Ġple": 4982,
      "Ġconc": 4983,
      "under": 4984,
      "Ġof": 4985,
      "Ġadj": 4986,
      "oring": 4987,
      "AND": 4988,
      "ĠInt": 4989,
      "rint": 4990,
      "ged": 4991,
      "Ġresp": 4992,
      "class": 4993,
      "лек": 4994,
      "Rout": 4995,
      "space": 4996,
      "eni": 4997,
      "います": 4998,
      "fort": 4999,
      "TE": 5000,
      "sz": 5001,
      "Ġpur": 5002,
      "Ġho": 5003,
      "ker": 5004,
      "ĠSm": 5005,
      "ĠIs": 5006,
      "Output": 5007,
      "lay": 5008,
      "Ġok": 5009,
      "pear": 5010,
      "itan": 5011,
      "Ġi": 5012,
      "echn": 5013,
      "ried": 5014,
      "def": 5015,
      "UD": 5016,
      "qual": 5017,
      "inger": 5018,
      "ĠRE": 5019,
      "Ġط": 5020,
      "roller": 5021,
      "ibus": 5022,
      "يل": 5023,
      "ART": 5024,
      "ands": 5025,
      "ients": 5026,
      "ored": 5027,
      "Var": 5028,
      "opt": 5029,
      "یس": 5030,
      "ân": 5031,
      "erial": 5032,
      "iva": 5033,
      "aik": 5034,
      "ık": 5035,
      "خت": 5036,
      "Ġbet": 5037,
      "Ġkar": 5038,
      "ested": 5039,
      "alar": 5040,
      "rey": 5041,
      "Ġتع": 5042,
      "Buffer": 5043,
      "kin": 5044,
      "Ġmy": 5045,
      "Ġnh": 5046,
      "cons": 5047,
      "esse": 5048,
      "ises": 5049,
      "Ġlocal": 5050,
      "prop": 5051,
      "Build": 5052,
      "vid": 5053,
      "ĠInter": 5054,
      "iente": 5055,
      "ography": 5056,
      "ML": 5057,
      "Ġprim": 5058,
      "part": 5059,
      "Ġder": 5060,
      "mark": 5061,
      "rea": 5062,
      "Ġpri": 5063,
      "inct": 5064,
      "oir": 5065,
      "xy": 5066,
      "iert": 5067,
      "End": 5068,
      "رح": 5069,
      "mon": 5070,
      "orld": 5071,
      "RA": 5072,
      "ĠCal": 5073,
      "Ġси": 5074,
      "Exp": 5075,
      "py": 5076,
      "lan": 5077,
      "gar": 5078,
      "idget": 5079,
      "ĠMod": 5080,
      "rer": 5081,
      "Ġeng": 5082,
      "BL": 5083,
      "win": 5084,
      "rect": 5085,
      "зо": 5086,
      "uter": 5087,
      "Ġten": 5088,
      "Ġult": 5089,
      "ga": 5090,
      "вто": 5091,
      "añ": 5092,
      "Sw": 5093,
      "рт": 5094,
      "kow": 5095,
      "Ġorgan": 5096,
      "éri": 5097,
      "emos": 5098,
      "rah": 5099,
      "omy": 5100,
      "ươ": 5101,
      "ность": 5102,
      "TC": 5103,
      "رم": 5104,
      "fol": 5105,
      "ント": 5106,
      "script": 5107,
      "при": 5108,
      "iction": 5109,
      "Ġpor": 5110,
      "Per": 5111,
      "face": 5112,
      "emia": 5113,
      "Ġру": 5114,
      "اح": 5115,
      "ĠSub": 5116,
      "ront": 5117,
      "Ġfort": 5118,
      "agon": 5119,
      "ĠГ": 5120,
      "ption": 5121,
      "сі": 5122,
      "RI": 5123,
      "xim": 5124,
      "رس": 5125,
      "rade": 5126,
      "pol": 5127,
      "owing": 5128,
      "Ġхо": 5129,
      "ds": 5130,
      "ued": 5131,
      "PP": 5132,
      "ства": 5133,
      "ĠAcc": 5134,
      "ĠBo": 5135,
      "illing": 5136,
      "fully": 5137,
      "iser": 5138,
      "igo": 5139,
      "Ġgra": 5140,
      "LO": 5141,
      "ormal": 5142,
      "وز": 5143,
      "link": 5144,
      "Ġil": 5145,
      "ti": 5146,
      "Dialog": 5147,
      "Link": 5148,
      "elet": 5149,
      "abs": 5150,
      "rar": 5151,
      "Content": 5152,
      "ological": 5153,
      "ategor": 5154,
      "три": 5155,
      "стро": 5156,
      "Ġdim": 5157,
      "ĠArch": 5158,
      "ĠRo": 5159,
      "ĠWil": 5160,
      "UST": 5161,
      "Change": 5162,
      "este": 5163,
      "aid": 5164,
      "eds": 5165,
      "icial": 5166,
      "Block": 5167,
      "Sl": 5168,
      "Ġche": 5169,
      "hes": 5170,
      "user": 5171,
      "asm": 5172,
      "awn": 5173,
      "itle": 5174,
      "Ġbas": 5175,
      "وج": 5176,
      "MENT": 5177,
      "yte": 5178,
      "ORD": 5179,
      "atas": 5180,
      "Ġли": 5181,
      "ól": 5182,
      "eling": 5183,
      "eal": 5184,
      "Or": 5185,
      "мет": 5186,
      "Inst": 5187,
      "кме": 5188,
      "ió": 5189,
      "anh": 5190,
      "rou": 5191,
      "eti": 5192,
      "vas": 5193,
      "icker": 5194,
      "Ġprec": 5195,
      "ipe": 5196,
      "rial": 5197,
      "inde": 5198,
      "ンド": 5199,
      "ві": 5200,
      "CD": 5201,
      "auc": 5202,
      "ĠMart": 5203,
      "Ġmi": 5204,
      "SD": 5205,
      "From": 5206,
      "cel": 5207,
      "ersion": 5208,
      "Ġmil": 5209,
      "uda": 5210,
      "Ġemp": 5211,
      "いた": 5212,
      "burg": 5213,
      "ĠFre": 5214,
      "نی": 5215,
      "Ġtw": 5216,
      "ამ": 5217,
      "sen": 5218,
      "CB": 5219,
      "mann": 5220,
      "ukan": 5221,
      "ции": 5222,
      "itri": 5223,
      "pty": 5224,
      "Height": 5225,
      "itive": 5226,
      "Ġserv": 5227,
      "יי": 5228,
      "arts": 5229,
      "Ġpi": 5230,
      "aven": 5231,
      "Ġher": 5232,
      "cell": 5233,
      "ILL": 5234,
      "amer": 5235,
      "ther": 5236,
      "Ġjedn": 5237,
      "cho": 5238,
      "ytes": 5239,
      "Ac": 5240,
      "Focus": 5241,
      "OUR": 5242,
      "шен": 5243,
      "Ġsens": 5244,
      "Ġве": 5245,
      "entes": 5246,
      "Ġloc": 5247,
      "ema": 5248,
      "has": 5249,
      "AK": 5250,
      "adas": 5251,
      "Ġét": 5252,
      "yan": 5253,
      "Ġconst": 5254,
      "Ġú": 5255,
      "xx": 5256,
      "Ġnec": 5257,
      "etch": 5258,
      "rs": 5259,
      "acer": 5260,
      "echan": 5261,
      "مع": 5262,
      "бли": 5263,
      "MB": 5264,
      "ция": 5265,
      "Ġaus": 5266,
      "いて": 5267,
      "post": 5268,
      "зыва": 5269,
      "Ġu": 5270,
      "TP": 5271,
      "Auto": 5272,
      "ĠBh": 5273,
      "acht": 5274,
      "itation": 5275,
      "ĠPer": 5276,
      "Ġben": 5277,
      "Ġhist": 5278,
      "ων": 5279,
      "íc": 5280,
      "eks": 5281,
      "ού": 5282,
      "ĠDec": 5283,
      "いる": 5284,
      "elling": 5285,
      "ased": 5286,
      "Ġhead": 5287,
      "edic": 5288,
      "Ġкра": 5289,
      "ĠSur": 5290,
      "ają": 5291,
      "äng": 5292,
      "epend": 5293,
      "head": 5294,
      "وش": 5295,
      "adr": 5296,
      "ago": 5297,
      "enda": 5298,
      "ests": 5299,
      "Ġtele": 5300,
      "lov": 5301,
      "Ġtext": 5302,
      "Ġanal": 5303,
      "rows": 5304,
      "Oper": 5305,
      "ALL": 5306,
      "inding": 5307,
      "aman": 5308,
      "Ġმ": 5309,
      "ribute": 5310,
      "Ġfer": 5311,
      "kins": 5312,
      "ره": 5313,
      "Ġbeh": 5314,
      "incip": 5315,
      "idos": 5316,
      "Ġالد": 5317,
      "EX": 5318,
      "iving": 5319,
      "Ġsep": 5320,
      "spect": 5321,
      "FBS": 5322,
      "itud": 5323,
      "band": 5324,
      "rift": 5325,
      "مل": 5326,
      "кер": 5327,
      "Ġwa": 5328,
      "fin": 5329,
      "ップ": 5330,
      "UG": 5331,
      "ĠRef": 5332,
      "mitt": 5333,
      "mooth": 5334,
      "gn": 5335,
      "rez": 5336,
      "ship": 5337,
      "Ġба": 5338,
      "lock": 5339,
      "aring": 5340,
      "var": 5341,
      "Ġvel": 5342,
      "Ġhem": 5343,
      "ター": 5344,
      "del": 5345,
      "ρι": 5346,
      "NS": 5347,
      "Ord": 5348,
      "rage": 5349,
      "etri": 5350,
      "Ġbul": 5351,
      "antes": 5352,
      "Ġaw": 5353,
      "Acc": 5354,
      "icle": 5355,
      "Cur": 5356,
      "एस": 5357,
      "Ġcreate": 5358,
      "ству": 5359,
      "след": 5360,
      "Ġсто": 5361,
      "Ġالج": 5362,
      "Mut": 5363,
      "Ġрас": 5364,
      "clud": 5365,
      "Ġhar": 5366,
      "OK": 5367,
      "bor": 5368,
      "фор": 5369,
      "usion": 5370,
      "ques": 5371,
      "ungs": 5372,
      "فر": 5373,
      "Ġnon": 5374,
      "roy": 5375,
      "Ġmag": 5376,
      "Ġمش": 5377,
      "Dis": 5378,
      "ĠCR": 5379,
      "right": 5380,
      "erse": 5381,
      "UND": 5382,
      "Ġлю": 5383,
      "ressed": 5384,
      "ته": 5385,
      "Task": 5386,
      "Resource": 5387,
      "ĠFran": 5388,
      "ία": 5389,
      "ancy": 5390,
      "light": 5391,
      "lim": 5392,
      "ember": 5393,
      "Ġq": 5394,
      "ugin": 5395,
      "ュー": 5396,
      "hel": 5397,
      "EE": 5398,
      "Cho": 5399,
      "Ġშ": 5400,
      "aging": 5401,
      "Ġκ": 5402,
      "ected": 5403,
      "циа": 5404,
      "Ġcost": 5405,
      "ebug": 5406,
      "με": 5407,
      "Ġarch": 5408,
      "Port": 5409,
      "Ġpay": 5410,
      "iller": 5411,
      "aver": 5412,
      "лет": 5413,
      "Ġtrav": 5414,
      "Http": 5415,
      "Control": 5416,
      "ís": 5417,
      "Cell": 5418,
      "Ġос": 5419,
      "ellen": 5420,
      "ць": 5421,
      "iene": 5422,
      "Ġзна": 5423,
      "Ġام": 5424,
      "imet": 5425,
      "aste": 5426,
      "Handler": 5427,
      "Ġven": 5428,
      "لس": 5429,
      "Ġuns": 5430,
      "вод": 5431,
      "olar": 5432,
      "bed": 5433,
      "obb": 5434,
      "race": 5435,
      "inner": 5436,
      "angle": 5437,
      "miss": 5438,
      "ware": 5439,
      "irk": 5440,
      "Ġele": 5441,
      "Rect": 5442,
      "Ġamb": 5443,
      "Ġit": 5444,
      "olds": 5445,
      "irl": 5446,
      "Row": 5447,
      "FBSDK": 5448,
      "зна": 5449,
      "rome": 5450,
      "riff": 5451,
      "UC": 5452,
      "onne": 5453,
      "auf": 5454,
      "icz": 5455,
      "кла": 5456,
      "ĠNew": 5457,
      "Ġbaş": 5458,
      "Ġot": 5459,
      "Ġka": 5460,
      "Ġrev": 5461,
      "รา": 5462,
      "ference": 5463,
      "Ġα": 5464,
      "ĠPL": 5465,
      "rev": 5466,
      "wer": 5467,
      "exp": 5468,
      "ления": 5469,
      "اي": 5470,
      "Ġspe": 5471,
      "izar": 5472,
      "Ġtop": 5473,
      "emon": 5474,
      "aper": 5475,
      "ом": 5476,
      "Ġker": 5477,
      "ôt": 5478,
      "ге": 5479,
      "ında": 5480,
      "Ġvari": 5481,
      "RAN": 5482,
      "Ġშე": 5483,
      "кой": 5484,
      "FT": 5485,
      "CTION": 5486,
      "Ġпов": 5487,
      "Ġcirc": 5488,
      "ife": 5489,
      "Server": 5490,
      "зя": 5491,
      "Ġdil": 5492,
      "ĠRev": 5493,
      "udio": 5494,
      "ived": 5495,
      "Ġbh": 5496,
      "ello": 5497,
      "angu": 5498,
      "Ġআ": 5499,
      "Bo": 5500,
      "PO": 5501,
      "etter": 5502,
      "bro": 5503,
      "send": 5504,
      "Ġcin": 5505,
      "Ġram": 5506,
      "Ġpriv": 5507,
      "ifest": 5508,
      "Ġmas": 5509,
      "ĠDis": 5510,
      "üt": 5511,
      "Ġе": 5512,
      "ĠPe": 5513,
      "Ġبر": 5514,
      "opup": 5515,
      "word": 5516,
      "ці": 5517,
      "rell": 5518,
      "rep": 5519,
      "Off": 5520,
      "Ġს": 5521,
      "ον": 5522,
      "Property": 5523,
      "стра": 5524,
      "ĠHel": 5525,
      "olt": 5526,
      "ĠMor": 5527,
      "rado": 5528,
      "ĠWood": 5529,
      "Ġhy": 5530,
      "hou": 5531,
      "ollow": 5532,
      "ty": 5533,
      "apping": 5534,
      "Ġpel": 5535,
      "amo": 5536,
      "uble": 5537,
      "book": 5538,
      "ու": 5539,
      "Ġspl": 5540,
      "ương": 5541,
      "اند": 5542,
      "onder": 5543,
      "Module": 5544,
      "ideo": 5545,
      "ocks": 5546,
      "iste": 5547,
      "каза": 5548,
      "input": 5549,
      "ĠEng": 5550,
      "iden": 5551,
      "enter": 5552,
      "Rad": 5553,
      "apter": 5554,
      "anes": 5555,
      "Game": 5556,
      "Track": 5557,
      "Vis": 5558,
      "orte": 5559,
      "Ġî": 5560,
      "ahr": 5561,
      "iously": 5562,
      "ailed": 5563,
      "iaz": 5564,
      "ما": 5565,
      "TL": 5566,
      "Ġpon": 5567,
      "upt": 5568,
[...]
