{
  "version": "1.0",
  "truncation": null,
  "padding": null,
  "added_tokens": [
    {
      "id": 1094,
      "content": "<UNK>",
      "single_word": false,
      "lstrip": false,
      "rstrip": false,
      "normalized": true,
      "special": true
    },
    {
      "id": 1095,
      "content": "<｜end▁of▁sentence｜>",
      "single_word": false,
      "lstrip": false,
      "rstrip": false,
      "normalized": true,
      "special": true
    },
    {
      "id": 1096,
      "content": "<｜pad｜>",
      "single_word": false,
      "lstrip": false,
      "rstrip": false,
      "normalized": true,
      "special": true
    },
    {
      "id": 1097,
      "content": "<｜begin▁of▁sentence｜>",
      "single_word": false,
      "lstrip": false,
      "rstrip": false,
      "normalized": true,
      "special": true
    }
  ],
  "normalizer": {
    "type": "Sequence",
    "normalizers": []
  },
  "pre_tokenizer": {
    "type": "Sequence",
    "pretokenizers": [
      {
        "type": "Split",
        "pattern": {
          "Regex": "[\\r\\n]"
        },
        "behavior": "Isolated",
        "invert": false
      },
      {
        "type": "Split",
        "pattern": {
          "Regex": "\\s?[A-Za-zµÀ-ÖØ-öø-ƺƼ-ƿǄ-ʓʕ-ʯͰ-ͳͶͷͻ-ͽͿΆΈ-ΊΌΎ-ΡΣ-ϵϷ-ҁҊ-ԯԱ-ՖႠ-ჅᎠ-Ᏽᏸ-ᏽᲐ-ᲺᲽ-Ჿᴀ-ᴫᵫ-ᵷᵹ-ᶚḀ-ἕἘ-Ἕἠ-ὅὈ-Ὅὐ-ὗὙὛὝὟ-ώᾀ-ᾴᾶ-ᾼιῂ-ῄῆ-ῌῐ-ΐῖ-Ίῠ-Ῥῲ-ῴῶ-ῼℂℇℊ-ℓℕℙ-ℝℤΩℨK-ℭℯ-ℴℹℼ-ℿⅅ-ⅉⅎↃↄⰀ-ⱻⱾ-ⳤⳫ-ⳮⳲⳳꙀ-ꙭꚀ-ꚛꜢ-ꝯꝱ-ꞇꞋ-ꞎꭰ-ꮿﬀ-ﬆﬓ-ﬗＡ-Ｚａ-ｚ𐐀-𐑏𐒰-𐓓𐓘-𐓻𐲀-𐲲𐳀-𐳲𑢠-𑣟𞤀-𞥃]+"
        },
        "behavior": "Isolated",
        "invert": false
      },
      {
        "type": "Split",
        "pattern": {
          "Regex": "\\s?[!-/:-~！-／：-～‘-‟　-。]+"
        },
        "behavior": "Isolated",
        "invert": false
      },
      {
        "type": "Split",
        "pattern": {
          "Regex": "\\s+$"
        },
        "behavior": "Isolated",
        "invert": false
      },
      {
        "type": "Split",
        "pattern": {
          "Regex": "[一-龥ࠀ-一가-퟿]+"
        },
        "behavior": "Isolated",
        "invert": false
      },
      {
        "type": "Digits",
        "individual_digits": true
      },
      {
        "type": "ByteLevel",
        "add_prefix_space": false,
        "trim_offsets": true,
        "use_regex": false
      }
    ]
  },
  "post_processor": {
    "type": "ByteLevel",
    "add_prefix_space": true,
    "trim_offsets": false,
    "use_regex": true
  },
  "decoder": {
    "type": "ByteLevel",
    "add_prefix_space": true,
    "trim_offsets": true,
    "use_regex": true
  },
  "model": {
    "type": "BPE",
    "dropout": null,
    "unk_token": "<UNK>",
    "continuing_subword_prefix": null,
    "end_of_word_suffix": null,
    "fuse_unk": false,
    "byte_fallback": false,
    "ignore_merges": false,
    "bMax_frequency": true,
    "max_frequency": 254107538,
    "vocab": {
      "Ġjed": 0,
      "Ġtran": 1,
      "di": 2,
      "stra": 3,
      "ĠApp": 4,
      "duc": 5,
      "ois": 6,
      "ening": 7,
      "рова": 8,
      "Ġبال": 9,
      "Ġutil": 10,
      "Ġcr": 11,
      "Config": 12,
      "った": 13,
      "Is": 14,
      "Ġdiv": 15,
      "acy": 16,
      "Ġto": 17,
      "ko": 18,
      "ucle": 19,
      "ĠCol": 20,
      "eli": 21,
      "Ġbo": 22,
      "Ġinst": 23,
      "ney": 24,
      "AY": 25,
      "amin": 26,
      "ross": 27,
      "ede": 28,
      "alle": 29,
      "room": 30,
      "atri": 31,
      "ĠCo": 32,
      "play": 33,
      "ール": 34,
      "Ġбу": 35,
      "Ġperm": 36,
      "би": 37,
      "Ġso": 38,
      "EG": 39,
      "Ġtro": 40,
      "Table": 41,
      "ones": 42,
      "imb": 43,
      "Ġkh": 44,
      "usc": 45,
      "Ġста": 46,
      "ync": 47,
      "map": 48,
      "mar": 49,
      "osc": 50,
      "ĠIm": 51,
      "tre": 52,
      "ethod": 53,
      "ised": 54,
      "ĠП": 55,
      "ails": 56,
      "Ġsym": 57,
      "ept": 58,
      "ай": 59,
      "zer": 60,
      "ĠSe": 61,
      "Exception": 62,
      "key": 63,
      "än": 64,
      "iffer": 65,
      "фи": 66,
      "omin": 67,
      "Ġσ": 68,
      "Ġba": 69,
      "mod": 70,
      "unn": 71,
      "Date": 72,
      "bit": 73,
      "Ġng": 74,
      "Model": 75,
      "يا": 76,
      "lish": 77,
      "ugg": 78,
      "ート": 79,
      "رب": 80,
      "ador": 81,
      "ungen": 82,
      "Ġnew": 83,
      "Ġbre": 84,
      "Log": 85,
      "Ġя": 86,
      "тель": 87,
      "Ġز": 88,
      "Ġsv": 89,
      "aur": 90,
      "GR": 91,
      "MA": 92,
      "hat": 93,
      "ector": 94,
      "ít": 95,
      "CO": 96,
      "Ġbi": 97,
      "Ġcap": 98,
      "elf": 99,
      "earch": 100,
      "ige": 101,
      "pen": 102,
      "js": 103,
      "ibr": 104,
      "ĠBar": 105,
      "oro": 106,
      "ika": 107,
      "ilt": 108,
      "encia": 109,
      "ング": 110,
      "لم": 111,
      "Qu": 112,
      "ĠBr": 113,
      "ют": 114,
      "Ġaf": 115,
      "He": 116,
      "Ġtre": 117,
      "Ġкон": 118,
      "iento": 119,
      "CA": 120,
      "Ġreal": 121,
      "ĠIN": 122,
      "ben": 123,
      "rv": 124,
      "Ġsem": 125,
      "ires": 126,
      "IST": 127,
      "Ġlo": 128,
      "text": 129,
      "anj": 130,
      "Ġpal": 131,
      "ster": 132,
      "essage": 133,
      "بر": 134,
      "Ġआ": 135,
      "DS": 136,
      "lı": 137,
      "Ġш": 138,
      "gi": 139,
      "Ġиз": 140,
      "down": 141,
      "ington": 142,
      "Ġhom": 143,
      "ydro": 144,
      "ogen": 145,
      "ız": 146,
      "point": 147,
      "зы": 148,
      "ül": 149,
      "OS": 150,
      "Ġadd": 151,
      "Test": 152,
      "rum": 153,
      "ĠOr": 154,
      "une": 155,
      "aro": 156,
      "Ġsn": 157,
      "Ġmed": 158,
      "Ġч": 159,
      "Node": 160,
      "Ġsu": 161,
      "ials": 162,
      "τα": 163,
      "ification": 164,
      "ски": 165,
      "ethyl": 166,
      "yth": 167,
      "Act": 168,
      "Ġچ": 169,
      "aki": 170,
      "cer": 171,
      "por": 172,
      "ison": 173,
      "ission": 174,
      "anel": 175,
      "avig": 176,
      "name": 177,
      "izing": 178,
      "Ġpass": 179,
      "Ġви": 180,
      "ери": 181,
      "Ġπ": 182,
      "onse": 183,
      "اش": 184,
      "isp": 185,
      "ski": 186,
      "char": 187,
      "DE": 188,
      "DP": 189,
      "Ġالع": 190,
      "adi": 191,
      "rl": 192,
      "Arg": 193,
      "odes": 194,
      "iber": 195,
      "angan": 196,
      "Ġsim": 197,
      "olo": 198,
      "erty": 199,
      "ume": 200,
      "resent": 201,
      "awa": 202,
      "Comm": 203,
      "TER": 204,
      "Window": 205,
      "minist": 206,
      "Ġmem": 207,
      "ów": 208,
      "ogn": 209,
      "erk": 210,
      "ется": 211,
      "ku": 212,
      "umin": 213,
      "Ġпод": 214,
      "SM": 215,
      "Ġہ": 216,
      "Ġet": 217,
      "AA": 218,
      "ран": 219,
      "Info": 220,
      "Ġmot": 221,
      "Ġmo": 222,
      "oder": 223,
      "ba": 224,
      "web": 225,
      "ек": 226,
      "Map": 227,
      "lu": 228,
      "Ġالت": 229,
      "eep": 230,
      "сы": 231,
      "aim": 232,
      "تی": 233,
      "ικ": 234,
      "Ġsz": 235,
      "tim": 236,
      "Ġин": 237,
      "ather": 238,
      "ttp": 239,
      "Ġمن": 240,
      "orr": 241,
      "Resp": 242,
      "ния": 243,
      "Ġpop": 244,
      "ım": 245,
      "anz": 246,
      "icos": 247,
      "isi": 248,
      "وں": 249,
      "Ġhum": 250,
      "یم": 251,
      "Hand": 252,
      "illa": 253,
      "Ġri": 254,
      "ên": 255,
      "lik": 256,
      "aten": 257,
      "FA": 258,
      "Ġmax": 259,
      "Ġç": 260,
      "init": 261,
      "ega": 262,
      "ĠAp": 263,
      "Att": 264,
      "urch": 265,
      "ami": 266,
      "ĠMon": 267,
      "ulation": 268,
      "rich": 269,
      "sm": 270,
      "iver": 271,
      "nya": 272,
      "ocus": 273,
      "igg": 274,
      "лы": 275,
      "yg": 276,
      "ances": 277,
      "یا": 278,
      "der": 279,
      "ĠSw": 280,
      "ĠSal": 281,
      "äh": 282,
      "сси": 283,
      "ji": 284,
      "una": 285,
      "ĠComm": 286,
      "ges": 287,
      "edd": 288,
      "arks": 289,
      "ĠMan": 290,
      "mente": 291,
      "Ġcent": 292,
      "amos": 293,
      "ĠWh": 294,
      "rew": 295,
      "ending": 296,
      "atory": 297,
      "irst": 298,
      "ares": 299,
      "Width": 300,
      "ony": 301,
      "EST": 302,
      "An": 303,
      "Ġде": 304,
      "ivo": 305,
      "Co": 306,
      "eri": 307,
      "ively": 308,
      "inf": 309,
      "ordin": 310,
      "mat": 311,
      "icas": 312,
      "Ġdest": 313,
      "eta": 314,
      "Be": 315,
      "Ġpat": 316,
      "Ġprz": 317,
      "date": 318,
      "CM": 319,
      "Re": 320,
      "uge": 321,
      "Ġcond": 322,
      "ınd": 323,
      "лов": 324,
      "ural": 325,
      "Ġsign": 326,
      "Ġhab": 327,
      "ently": 328,
      "ened": 329,
      "list": 330,
      "Ġkon": 331,
      "Ġfre": 332,
      "ĠReg": 333,
      "erman": 334,
      "ĠAss": 335,
      "Form": 336,
      "aran": 337,
      "Ġה": 338,
      "Ġser": 339,
      "нд": 340,
      "At": 341,
      "Ġü": 342,
      "rick": 343,
      "aph": 344,
      "TA": 345,
      "riter": 346,
      "ases": 347,
      "bra": 348,
      "igu": 349,
      "Ġvis": 350,
      "ба": 351,
      "ej": 352,
      "Ġmis": 353,
      "Sub": 354,
      "tra": 355,
      "uffer": 356,
      "Ġinform": 357,
      "Ġdiss": 358,
      "rob": 359,
      "Ġgu": 360,
      "ĠEr": 361,
      "ден": 362,
      "ired": 363,
      "ระ": 364,
      "Ġprom": 365,
      "ories": 366,
      "Ġfac": 367,
      "net": 368,
      "ха": 369,
      "Ġме": 370,
      "roc": 371,
      "Ġmic": 372,
      "şt": 373,
      "Ġgen": 374,
      "izz": 375,
      "CI": 376,
      "shire": 377,
      "ها": 378,
      "スト": 379,
      "про": 380,
      "Ġdisp": 381,
      "last": 382,
      "oles": 383,
      "si": 384,
      "nik": 385,
      "ない": 386,
      "unct": 387,
      "ows": 388,
      "änd": 389,
      "umn": 390,
      "itter": 391,
      "це": 392,
      "Ġأ": 393,
      "Ġprot": 394,
      "inu": 395,
      "BC": 396,
      "Ġtri": 397,
      "aud": 398,
      "lem": 399,
      "Line": 400,
      "Ġeff": 401,
      "het": 402,
      "Component": 403,
      "Ġcu": 404,
      "ikan": 405,
      "ista": 406,
      "older": 407,
      "ei": 408,
      "log": 409,
      "osa": 410,
      "Ġren": 411,
      "رف": 412,
      "QU": 413,
      "emat": 414,
      "AV": 415,
      "ols": 416,
      "ESS": 417,
      "ecial": 418,
      "Ġالأ": 419,
      "hip": 420,
      "Ġcoll": 421,
      "Ġمع": 422,
      "ρα": 423,
      "anda": 424,
      "Not": 425,
      "cher": 426,
      "PR": 427,
      "avor": 428,
      "ĠOb": 429,
      "inder": 430,
      "Ġexc": 431,
      "uns": 432,
      "arth": 433,
      "oi": 434,
      "لو": 435,
      "Rec": 436,
      "Ġid": 437,
      "вет": 438,
      "ном": 439,
      "ĠSl": 440,
      "itions": 441,
      "рі": 442,
      "arget": 443,
      "iers": 444,
      "hib": 445,
      "Menu": 446,
      "ario": 447,
      "mas": 448,
      "iem": 449,
      "gr": 450,
      "する": 451,
      "aul": 452,
      "rest": 453,
      "iner": 454,
      "aries": 455,
      "DR": 456,
      "tn": 457,
      "ends": 458,
      "ialog": 459,
      "Ġvi": 460,
      "gg": 461,
      "бу": 462,
      "же": 463,
      "ecut": 464,
      "Ġالا": 465,
      "ĠST": 466,
      "On": 467,
      "Ġseg": 468,
      "osis": 469,
      "iam": 470,
      "ades": 471,
      "cup": 472,
      "wi": 473,
      "жен": 474,
      "Ġport": 475,
      "ela": 476,
      "ím": 477,
      "Ġbeg": 478,
      "Det": 479,
      "uring": 480,
      "amil": 481,
      "riz": 482,
      "Ġing": 483,
      "ĠRes": 484,
      "ĠAt": 485,
      "inst": 486,
      "geb": 487,
      "بي": 488,
      "او": 489,
      "Ġда": 490,
      "Start": 491,
      "Ġhal": 492,
      "Page": 493,
      "nam": 494,
      "Ġالس": 495,
      "We": 496,
      "ור": 497,
      "han": 498,
      "érie": 499,
      "Rep": 500,
      "ova": 501,
      "Ġden": 502,
      "ელ": 503,
      "üh": 504,
      "aire": 505,
      "Ġč": 506,
      "تا": 507,
      "tern": 508,
      "ills": 509,
      "ivid": 510,
      "rot": 511,
      "ĠО": 512,
      "ekt": 513,
      "akes": 514,
      "Ġpen": 515,
      "api": 516,
      "ĠPal": 517,
      "lie": 518,
      "Select": 519,
      "eda": 520,
      "гу": 521,
      "ám": 522,
      "ĠМ": 523,
      "ader": 524,
      "anger": 525,
      "dec": 526,
      "enth": 527,
      "umm": 528,
      "Web": 529,
      "ĠР": 530,
      "ately": 531,
      "ერ": 532,
      "тив": 533,
      "gress": 534,
      "Ġsa": 535,
      "τε": 536,
      "ential": 537,
      "Pos": 538,
      "сле": 539,
      "jo": 540,
      "db": 541,
      "hab": 542,
      "chem": 543,
      "ches": 544,
      "ERS": 545,
      "ĠAll": 546,
      "itu": 547,
      "არ": 548,
      "ising": 549,
      "Go": 550,
      "van": 551,
      "amera": 552,
      "ahan": 553,
      "PA": 554,
      "rypt": 555,
      "ella": 556,
      "hand": 557,
      "Ġbel": 558,
      "нда": 559,
      "Ġdeb": 560,
      "otic": 561,
      "اری": 562,
      "ister": 563,
      "rame": 564,
      "uls": 565,
      "Ġsam": 566,
      "зу": 567,
      "ĠInd": 568,
      "ĠCom": 569,
      "iler": 570,
      "ared": 571,
      "ĠNe": 572,
      "imo": 573,
      "اه": 574,
      "ECT": 575,
      "bb": 576,
      "hav": 577,
      "ables": 578,
      "Style": 579,
      "اک": 580,
      "ords": 581,
      "resh": 582,
      "يم": 583,
      "Ġта": 584,
      "As": 585,
      "ijk": 586,
      "Mode": 587,
      "open": 588,
      "And": 589,
      "Down": 590,
      "II": 591,
      "ĠCH": 592,
      "Ġpred": 593,
      "aka": 594,
      "MP": 595,
      "DK": 596,
      "ár": 597,
      "Api": 598,
      "ls": 599,
      "file": 600,
      "abil": 601,
      "Ġback": 602,
      "Ġelect": 603,
      "Back": 604,
      "arp": 605,
      "Ġfin": 606,
      "inh": 607,
      "ĠИ": 608,
      "です": 609,
      "ref": 610,
      "cs": 611,
      "roid": 612,
      "IO": 613,
      "agen": 614,
      "Message": 615,
      "eller": 616,
      "тов": 617,
      "Client": 618,
      "Ġdiff": 619,
      "ści": 620,
      "egr": 621,
      "CR": 622,
      "iya": 623,
      "eric": 624,
      "ocket": 625,
      "ке": 626,
      "ĠAnd": 627,
      "ĠWe": 628,
      "ourn": 629,
      "SO": 630,
      "تب": 631,
      "LL": 632,
      "aux": 633,
      "udent": 634,
      "erson": 635,
      "ння": 636,
      "ground": 637,
      "imento": 638,
      "ĠRep": 639,
      "Ġcan": 640,
      "ĠRec": 641,
      "Ġphot": 642,
      "یں": 643,
      "Panel": 644,
      "aker": 645,
      "iness": 646,
      "lection": 647,
      "ρο": 648,
      "าย": 649,
      "iri": 650,
      "evel": 651,
      "Ġsuper": 652,
      "Ġvo": 653,
      "Ġexpl": 654,
      "ason": 655,
      "мы": 656,
      "icip": 657,
      "rz": 658,
      "ache": 659,
      "Ġve": 660,
      "aly": 661,
      "Ġhyp": 662,
      "Trans": 663,
      "Ġps": 664,
      "ival": 665,
      "Ġpod": 666,
      "こと": 667,
      "кра": 668,
      "Ġtem": 669,
      "ibility": 670,
      "well": 671,
      "ably": 672,
      "ryst": 673,
      "rupt": 674,
      "uen": 675,
      "Auth": 676,
      "ipl": 677,
      "став": 678,
      "oper": 679,
      "ended": 680,
      "arant": 681,
      "ynam": 682,
      "udi": 683,
      "ye": 684,
      "amento": 685,
      "Ġvers": 686,
      "ĠGr": 687,
      "hor": 688,
      "ams": 689,
      "ĠТ": 690,
      "ід": 691,
      "イン": 692,
      "current": 693,
      "Ġbil": 694,
      "lob": 695,
      "anding": 696,
      "сту": 697,
      "GF": 698,
      "eft": 699,
      "Star": 700,
      "دا": 701,
      "اہ": 702,
      "SI": 703,
      "econd": 704,
      "reet": 705,
      "work": 706,
      "ショ": 707,
      "MC": 708,
      "iev": 709,
      "aires": 710,
      "other": 711,
      "elles": 712,
      "Ġgener": 713,
      "ria": 714,
      "ceed": 715,
      "вы": 716,
      "ploy": 717,
      "wh": 718,
      "esis": 719,
      "ĠAc": 720,
      "aga": 721,
      "icks": 722,
      "Ġsyn": 723,
      "ín": 724,
      "Ġmill": 725,
      "ums": 726,
      "ное": 727,
      "یت": 728,
      "зова": 729,
      "Ġur": 730,
      "Ġdig": 731,
      "ished": 732,
      "له": 733,
      "Token": 734,
      "itting": 735,
      "ів": 736,
      "Ġbro": 737,
      "URE": 738,
      "Ġunder": 739,
      "Ġmer": 740,
      "aces": 741,
      "ifer": 742,
      "New": 743,
      "enti": 744,
      "ward": 745,
      "dz": 746,
      "سم": 747,
      "ĠД": 748,
      "ike": 749,
      "ifier": 750,
      "CON": 751,
      "rog": 752,
      "izer": 753,
      "ota": 754,
      "Ġmat": 755,
      "Ġeg": 756,
      "rug": 757,
      "osp": 758,
      "ĠEst": 759,
      "upp": 760,
      "draw": 761,
      "alth": 762,
      "Ġmel": 763,
      "alam": 764,
      "iting": 765,
      "Ġсу": 766,
      "zn": 767,
      "VER": 768,
      "ander": 769,
      "ori": 770,
      "ça": 771,
      "itar": 772,
      "des": 773,
      "rown": 774,
      "ან": 775,
      "Ġfran": 776,
      "Ġх": 777,
      "Url": 778,
      "Ed": 779,
      "XX": 780,
      "ная": 781,
      "ят": 782,
      "ained": 783,
      "Ġmagn": 784,
      "ĠAng": 785,
      "PM": 786,
      "igned": 787,
      "rij": 788,
      "니다": 789,
      "ство": 790,
      "eva": 791,
      "ние": 792,
      "oid": 793,
      "PE": 794,
      "Ġالن": 795,
      "Ġпред": 796,
      "цен": 797,
      "ĠMcC": 798,
      "rio": 799,
      "iki": 800,
      "él": 801,
      "ropri": 802,
      "ously": 803,
      "vest": 804,
      "وان": 805,
      "oms": 806,
      "ĠMah": 807,
      "ました": 808,
      "یل": 809,
      "Ġö": 810,
      "oa": 811,
      "eless": 812,
      "ITY": 813,
      "data": 814,
      "ージ": 815,
      "ingu": 816,
      "ystem": 817,
      "asis": 818,
      "ĠTr": 819,
      "ĠBro": 820,
      "Conn": 821,
      "ypes": 822,
      "ision": 823,
      "تم": 824,
      "Ġто": 825,
      "opy": 826,
      "ĠMe": 827,
      "aciones": 828,
      "Ġса": 829,
      "ита": 830,
      "ORT": 831,
      "hal": 832,
      "ĠCons": 833,
      "action": 834,
      "Ġuse": 835,
      "یز": 836,
      "lj": 837,
      "lass": 838,
      "eto": 839,
      "ocument": 840,
      "Ġالق": 841,
      "astic": 842,
      "aler": 843,
      "يك": 844,
      "ĠBel": 845,
      "Add": 846,
      "Ġcurrent": 847,
      "Ġkn": 848,
      "ным": 849,
      "Response": 850,
      "Ġالح": 851,
      "ined": 852,
      "aking": 853,
      "SRP": 854,
      "าร": 855,
      "ights": 856,
      "argin": 857,
      "Header": 858,
      "iten": 859,
      "ustom": 860,
      "бе": 861,
      "ration": 862,
      "ĠDe": 863,
      "Ġinfl": 864,
      "quis": 865,
      "ск": 866,
      "GE": 867,
      "anth": 868,
      "aa": 869,
      "صل": 870,
      "Dec": 871,
      "ĠSte": 872,
      "ĠН": 873,
      "BA": 874,
      "ims": 875,
      "ension": 876,
      "cient": 877,
      "otal": 878,
      "Params": 879,
      "Cre": 880,
      "ша": 881,
      "har": 882,
      "рга": 883,
      "اء": 884,
      "ности": 885,
      "Status": 886,
      "ouv": 887,
      "μα": 888,
      "Ġअ": 889,
      "ief": 890,
      "ენ": 891,
      "DB": 892,
      "Ġком": 893,
      "stitut": 894,
      "find": 895,
      "Ġnov": 896,
      "osh": 897,
      "arrow": 898,
      "ession": 899,
      "iance": 900,
      "SR": 901,
      "esi": 902,
      "ignment": 903,
      "cy": 904,
      "Ġمح": 905,
      "Av": 906,
      "Ġsil": 907,
      "DI": 908,
      "Ġlog": 909,
      "bs": 910,
      "imal": 911,
      "ões": 912,
      "Ġcle": 913,
      "uts": 914,
      "eger": 915,
      "Us": 916,
      "Ġmal": 917,
      "outh": 918,
      "Init": 919,
      "eff": 920,
      "lam": 921,
      "Ġbar": 922,
      "print": 923,
      "Ġε": 924,
      "war": 925,
      "Ġple": 926,
      "Ġconc": 927,
      "under": 928,
      "Ġof": 929,
      "Ġadj": 930,
      "oring": 931,
      "AND": 932,
      "ĠInt": 933,
      "rint": 934,
      "ged": 935,
      "Ġresp": 936,
      "class": 937,
      "лек": 938,
      "Rout": 939,
      "space": 940,
      "eni": 941,
      "います": 942,
      "fort": 943,
      "TE": 944,
      "sz": 945,
      "Ġpur": 946,
      "Ġho": 947,
      "ker": 948,
      "ĠSm": 949,
      "ĠIs": 950,
      "Output": 951,
      "lay": 952,
      "Ġok": 953,
      "pear": 954,
      "itan": 955,
      "Ġi": 956,
      "echn": 957,
      "ried": 958,
      "def": 959,
      "UD": 960,
      "qual": 961,
      "inger": 962,
      "ĠRE": 963,
      "Ġط": 964,
      "roller": 965,
      "ibus": 966,
      "يل": 967,
      "ART": 968,
      "ands": 969,
      "ients": 970,
      "ored": 971,
      "Var": 972,
      "opt": 973,
      "یس": 974,
      "ân": 975,
      "erial": 976,
      "iva": 977,
      "aik": 978,
      "ık": 979,
      "خت": 980,
      "Ġbet": 981,
      "Ġkar": 982,
      "ested": 983,
      "alar": 984,
      "rey": 985,
      "Ġتع": 986,
      "Buffer": 987,
      "kin": 988,
      "Ġmy": 989,
      "Ġnh": 990,
      "cons": 991,
      "esse": 992,
      "ises": 993,
      "Ġlocal": 994,
      "prop": 995,
      "Build": 996,
      "vid": 997,
      "ĠInter": 998,
      "iente": 999,
      "ography": 1000,
      "ML": 1001,
      "Ġprim": 1002,
      "part": 1003,
      "Ġder": 1004,
      "mark": 1005,
      "rea": 1006,
      "Ġpri": 1007,
      "inct": 1008,
      "oir": 1009,
      "xy": 1010,
      "iert": 1011,
      "End": 1012,
      "رح": 1013,
      "mon": 1014,
      "orld": 1015,
      "RA": 1016,
      "ĠCal": 1017,
      "Ġси": 1018,
      "Exp": 1019,
      "py": 1020,
      "lan": 1021,
      "gar": 1022,
      "idget": 1023,
      "ĠMod": 1024,
      "rer": 1025,
      "Ġeng": 1026,
      "BL": 1027,
      "win": 1028,
      "rect": 1029,
      "зо": 1030,
      "uter": 1031,
      "Ġten": 1032,
      "Ġult": 1033,
      "ga": 1034,
      "вто": 1035,
      "añ": 1036,
      "Sw": 1037,
      "рт": 1038,
      "kow": 1039,
      "Ġorgan": 1040,
      "éri": 1041,
      "emos": 1042,
      "rah": 1043,
      "omy": 1044,
      "ươ": 1045,
      "ность": 1046,
      "TC": 1047,
      "رم": 1048,
      "fol": 1049,
      "ント": 1050,
      "script": 1051,
      "при": 1052,
      "iction": 1053,
      "Ġpor": 1054,
      "Per": 1055,
      "face": 1056,
      "emia": 1057,
      "Ġру": 1058,
      "اح": 1059,
      "ĠSub": 1060,
      "ront": 1061,
      "Ġfort": 1062,
      "agon": 1063,
      "ĠГ": 1064,
      "ption": 1065,
      "сі": 1066,
      "RI": 1067,
      "xim": 1068,
      "رس": 1069,
      "rade": 1070,
      "pol": 1071,
      "owing": 1072,
      "Ġхо": 1073,
      "ds": 1074,
      "ued": 1075,
      "PP": 1076,
      "ства": 1077,
      "ĠAcc": 1078,
      "ĠBo": 1079,
      "illing": 1080,
      "fully": 1081,
      "iser": 1082,
      "igo": 1083,
      "Ġgra": 1084,
      "LO": 1085,
      "ormal": 1086,
      "وز": 1087,
      "link": 1088,
      "Ġil": 1089,
      "ti": 1090,
      "Dialog": 1091,
      "Link": 1092,
      "elet": 1093,
      "<UNK>": 1094
    },
    "old_vocab": {
      "!": 0,
      "\"": 1,
      "#": 2,
      "$": 3,
      "%": 4,
      "&": 5,
      "'": 6,
      "(": 7,
      ")": 8,
      "*": 9,
      "+": 10,
      ",": 11,
      "-": 12,
      ".": 13,
      "/": 14,
      "0": 15,
      "1": 16,
      "2": 17,
      "3": 18,
      "4": 19,
      "5": 20,
      "6": 21,
      "7": 22,
      "8": 23,
      "9": 24,
      ":": 25,
      ";": 26,
      "<": 27,
      "=": 28,
      ">": 29,
      "?": 30,
      "@": 31,
      "A": 32,
      "B": 33,
      "C": 34,
      "D": 35,
      "E": 36,
      "F": 37,
      "G": 38,
      "H": 39,
      "I": 40,
      "J": 41,
      "K": 42,
      "L": 43,
      "M": 44,
      "N": 45,
      "O": 46,
      "P": 47,
      "Q": 48,
      "R": 49,
      "S": 50,
      "T": 51,
      "U": 52,
      "V": 53,
      "W": 54,
      "X": 55,
      "Y": 56,
      "Z": 57,
      "[": 58,
      "\\": 59,
      "]": 60,
      "^": 61,
      "_": 62,
      "`": 63,
      "a": 64,
      "b": 65,
      "c": 66,
      "d": 67,
      "e": 68,
      "f": 69,
      "g": 70,
      "h": 71,
      "i": 72,
      "j": 73,
      "k": 74,
      "l": 75,
      "m": 76,
      "n": 77,
      "o": 78,
      "p": 79,
      "q": 80,
      "r": 81,
      "s": 82,
      "t": 83,
      "u": 84,
      "v": 85,
      "w": 86,
      "x": 87,
      "y": 88,
      "z": 89,
      "{": 90,
      "|": 91,
      "}": 92,
      "~": 93,
      "¡": 94,
      "¢": 95,
      "£": 96,
      "¤": 97,
      "¥": 98,
      "¦": 99,
      "§": 100,
      "¨": 101,
      "©": 102,
      "ª": 103,
      "«": 104,
      "¬": 105,
      "®": 106,
      "¯": 107,
      "°": 108,
      "±": 109,
      "²": 110,
      "³": 111,
      "´": 112,
      "µ": 113,
      "¶": 114,
      "·": 115,
      "¸": 116,
      "¹": 117,
      "º": 118,
      "»": 119,
      "¼": 120,
      "½": 121,
      "¾": 122,
      "¿": 123,
      "À": 124,
      "Á": 125,
      "Â": 126,
      "Ã": 127,
      "Ä": 128,
      "Å": 129,
      "Æ": 130,
      "Ç": 131,
      "È": 132,
      "É": 133,
      "Ê": 134,
      "Ë": 135,
      "Ì": 136,
      "Í": 137,
      "Î": 138,
      "Ï": 139,
      "Ð": 140,
      "Ñ": 141,
      "Ò": 142,
      "Ó": 143,
      "Ô": 144,
      "Õ": 145,
      "Ö": 146,
      "×": 147,
      "Ø": 148,
      "Ù": 149,
      "Ú": 150,
      "Û": 151,
      "Ü": 152,
      "Ý": 153,
      "Þ": 154,
      "ß": 155,
      "à": 156,
      "á": 157,
      "â": 158,
      "ã": 159,
      "ä": 160,
      "å": 161,
      "æ": 162,
      "ç": 163,
      "è": 164,
      "é": 165,
      "ê": 166,
      "ë": 167,
      "ì": 168,
      "í": 169,
      "î": 170,
      "ï": 171,
      "ð": 172,
      "ñ": 173,
      "ò": 174,
      "ó": 175,
      "ô": 176,
      "õ": 177,
      "ö": 178,
      "÷": 179,
      "ø": 180,
      "ù": 181,
      "ú": 182,
      "û": 183,
      "ü": 184,
      "ý": 185,
      "þ": 186,
      "ÿ": 187,
      "Ā": 188,
      "ā": 189,
      "Ă": 190,
      "ă": 191,
      "Ą": 192,
      "ą": 193,
      "Ć": 194,
      "ć": 195,
      "Ĉ": 196,
      "ĉ": 197,
      "Ċ": 198,
      "ċ": 199,
      "Č": 200,
      "č": 201,
      "Ď": 202,
      "ď": 203,
      "Đ": 204,
      "đ": 205,
      "Ē": 206,
      "ē": 207,
      "Ĕ": 208,
      "ĕ": 209,
      "Ė": 210,
      "ė": 211,
      "Ę": 212,
      "ę": 213,
      "Ě": 214,
      "ě": 215,
      "Ĝ": 216,
      "ĝ": 217,
      "Ğ": 218,
      "ğ": 219,
      "Ġ": 220,
      "ġ": 221,
      "Ģ": 222,
      "ģ": 223,
      "Ĥ": 224,
      "ĥ": 225,
      "Ħ": 226,
      "ħ": 227,
      "Ĩ": 228,
      "ĩ": 229,
      "Ī": 230,
      "ī": 231,
      "Ĭ": 232,
      "ĭ": 233,
      "Į": 234,
      "į": 235,
      "İ": 236,
      "ı": 237,
      "Ĳ": 238,
      "ĳ": 239,
      "Ĵ": 240,
      "ĵ": 241,
      "Ķ": 242,
      "ķ": 243,
      "ĸ": 244,
      "Ĺ": 245,
      "ĺ": 246,
      "Ļ": 247,
      "ļ": 248,
      "Ľ": 249,
      "ľ": 250,
      "Ŀ": 251,
      "ŀ": 252,
      "Ł": 253,
      "ł": 254,
      "Ń": 255,
      "ń": 256,
      "ņ": 257,
      "ň": 258,
      "ō": 259,
      "ő": 260,
      "œ": 261,
      "ř": 262,
      "Ś": 263,
      "ś": 264,
      "Ş": 265,
      "ş": 266,
      "Š": 267,
      "š": 268,
      "ţ": 269,
      "ť": 270,
      "ũ": 271,
      "ū": 272,
      "ŭ": 273,
      "ů": 274,
      "ű": 275,
      "ų": 276,
      "ź": 277,
      "ż": 278,
      "ž": 279,
      "ſ": 280,
      "ơ": 281,
      "Ư": 282,
      "ư": 283,
      "ǎ": 284,
      "ǒ": 285,
      "ș": 286,
      "ț": 287,
      "ə": 288,
      "Α": 289,
      "Γ": 290,
      "Δ": 291,
      "Ε": 292,
      "Κ": 293,
      "Μ": 294,
      "Π": 295,
      "Σ": 296,
      "ά": 297,
      "έ": 298,
      "ή": 299,
      "ί": 300,
      "α": 301,
      "β": 302,
      "γ": 303,
      "δ": 304,
      "ε": 305,
      "ζ": 306,
      "η": 307,
      "θ": 308,
      "ι": 309,
      "κ": 310,
      "λ": 311,
      "μ": 312,
      "ν": 313,
      "ξ": 314,
      "ο": 315,
      "π": 316,
      "ρ": 317,
      "ς": 318,
      "σ": 319,
      "τ": 320,
      "υ": 321,
      "φ": 322,
      "χ": 323,
      "ψ": 324,
      "ω": 325,
      "ϊ": 326,
      "ό": 327,
      "ύ": 328,
      "ώ": 329,
      "Є": 330,
      "І": 331,
      "А": 332,
      "Б": 333,
      "В": 334,
      "Г": 335,
      "Д": 336,
      "Е": 337,
      "Ж": 338,
      "З": 339,
      "И": 340,
      "К": 341,
      "Л": 342,
      "М": 343,
      "Н": 344,
      "О": 345,
      "П": 346,
      "Р": 347,
      "С": 348,
      "Т": 349,
      "У": 350,
      "Ф": 351,
      "Х": 352,
      "Ц": 353,
      "Ч": 354,
      "Ш": 355,
      "Ь": 356,
      "Э": 357,
      "Ю": 358,
      "Я": 359,
      "а": 360,
      "б": 361,
      "в": 362,
      "г": 363,
      "д": 364,
      "е": 365,
      "ж": 366,
      "з": 367,
      "и": 368,
      "й": 369,
      "к": 370,
      "л": 371,
      "м": 372,
      "н": 373,
      "о": 374,
      "п": 375,
      "р": 376,
      "с": 377,
      "т": 378,
      "у": 379,
      "ф": 380,
      "х": 381,
      "ц": 382,
      "ч": 383,
      "ш": 384,
      "щ": 385,
      "ъ": 386,
      "ы": 387,
      "ь": 388,
      "э": 389,
      "ю": 390,
      "я": 391,
      "ё": 392,
      "ђ": 393,
      "є": 394,
      "і": 395,
      "ї": 396,
      "ј": 397,
      "љ": 398,
      "њ": 399,
      "ћ": 400,
      "ў": 401,
      "ғ": 402,
      "җ": 403,
      "қ": 404,
      "ң": 405,
      "ү": 406,
      "ҳ": 407,
      "һ": 408,
      "Ӏ": 409,
      "ә": 410,
      "ө": 411,
      "ա": 412,
      "գ": 413,
      "դ": 414,
      "ե": 415,
      "զ": 416,
      "է": 417,
      "ը": 418,
      "թ": 419,
      "ի": 420,
      "լ": 421,
      "ծ": 422,
      "կ": 423,
      "հ": 424,
      "մ": 425,
      "յ": 426,
      "ն": 427,
      "ո": 428,
      "չ": 429,
      "պ": 430,
      "ջ": 431,
      "ռ": 432,
      "ս": 433,
      "վ": 434,
      "տ": 435,
      "ր": 436,
      "ց": 437,
      "ւ": 438,
      "ք": 439,
      "א": 440,
      "ב": 441,
      "ג": 442,
      "ד": 443,
      "ה": 444,
      "ו": 445,
      "ז": 446,
      "ח": 447,
      "ט": 448,
      "י": 449,
      "ך": 450,
      "כ": 451,
      "ל": 452,
      "ם": 453,
      "מ": 454,
      "ן": 455,
      "נ": 456,
      "ס": 457,
      "ע": 458,
      "פ": 459,
      "צ": 460,
      "ק": 461,
      "ר": 462,
      "ש": 463,
      "ת": 464,
      "ء": 465,
      "آ": 466,
      "أ": 467,
      "ؤ": 468,
      "إ": 469,
      "ئ": 470,
      "ا": 471,
      "ب": 472,
      "ة": 473,
      "ت": 474,
      "ث": 475,
      "ج": 476,
      "ح": 477,
      "خ": 478,
      "د": 479,
      "ذ": 480,
      "ر": 481,
      "ز": 482,
      "س": 483,
      "ش": 484,
      "ص": 485,
      "ض": 486,
      "ط": 487,
      "ظ": 488,
      "ع": 489,
      "غ": 490,
      "ـ": 491,
      "ف": 492,
      "ق": 493,
      "ك": 494,
      "ل": 495,
      "م": 496,
      "ن": 497,
      "ه": 498,
      "و": 499,
      "ى": 500,
      "ي": 501,
      "ٹ": 502,
      "ټ": 503,
      "پ": 504,
      "ځ": 505,
      "څ": 506,
      "چ": 507,
      "ڈ": 508,
      "ډ": 509,
      "ڑ": 510,
      "ړ": 511,
      "ږ": 512,
      "ژ": 513,
      "ک": 514,
      "ڪ": 515,
      "ګ": 516,
      "ڭ": 517,
      "گ": 518,
      "ں": 519,
      "ڻ": 520,
      "ھ": 521,
      "ۀ": 522,
      "ہ": 523,
      "ی": 524,
      "ۍ": 525,
      "ێ": 526,
      "ې": 527,
      "ے": 528,
      "ە": 529,
      "अ": 530,
      "आ": 531,
      "इ": 532,
      "ई": 533,
      "उ": 534,
      "ऊ": 535,
      "ऋ": 536,
      "ए": 537,
      "ऑ": 538,
      "ओ": 539,
      "औ": 540,
      "क": 541,
      "ख": 542,
      "ग": 543,
      "घ": 544,
      "च": 545,
      "ज": 546,
      "झ": 547,
      "ट": 548,
      "ठ": 549,
      "ड": 550,
      "ढ": 551,
      "ण": 552,
      "त": 553,
      "थ": 554,
      "द": 555,
      "ध": 556,
      "न": 557,
      "प": 558,
      "फ": 559,
      "ब": 560,
      "भ": 561,
      "म": 562,
      "य": 563,
      "र": 564,
      "ल": 565,
      "ळ": 566,
      "व": 567,
      "श": 568,
      "ष": 569,
      "स": 570,
      "ह": 571,
      "ज़": 572,
      "ड़": 573,
      "অ": 574,
      "আ": 575,
      "ই": 576,
      "উ": 577,
      "এ": 578,
      "ও": 579,
      "ঔ": 580,
      "ক": 581,
      "খ": 582,
      "গ": 583,
      "ঘ": 584,
      "চ": 585,
      "ছ": 586,
      "জ": 587,
      "ট": 588,
      "ঠ": 589,
      "ণ": 590,
      "ত": 591,
      "থ": 592,
      "দ": 593,
      "ধ": 594,
      "ন": 595,
      "প": 596,
      "ফ": 597,
      "ব": 598,
      "ভ": 599,
      "ম": 600,
      "য": 601,
      "র": 602,
      "ল": 603,
      "শ": 604,
      "ষ": 605,
      "স": 606,
      "হ": 607,
      "ৎ": 608,
      "ড়": 609,
      "য়": 610,
      "ਆ": 611,
      "ਕ": 612,
      "ਣ": 613,
      "ਨ": 614,
      "ਪ": 615,
      "ਰ": 616,
      "અ": 617,
      "આ": 618,
      "ઉ": 619,
      "ક": 620,
      "ખ": 621,
      "ગ": 622,
      "જ": 623,
      "ણ": 624,
      "ત": 625,
      "દ": 626,
      "ન": 627,
      "પ": 628,
      "ફ": 629,
      "ભ": 630,
      "મ": 631,
      "ય": 632,
      "ર": 633,
      "લ": 634,
      "ળ": 635,
      "વ": 636,
      "સ": 637,
      "அ": 638,
      "ஆ": 639,
      "இ": 640,
      "உ": 641,
      "க": 642,
      "ச": 643,
      "ட": 644,
      "ண": 645,
      "த": 646,
      "ந": 647,
      "ன": 648,
      "ப": 649,
      "ம": 650,
      "ய": 651,
      "ர": 652,
      "ற": 653,
      "ல": 654,
      "ழ": 655,
      "வ": 656,
      "ఆ": 657,
      "ఇ": 658,
      "క": 659,
      "ఘ": 660,
      "చ": 661,
      "ట": 662,
      "డ": 663,
      "ణ": 664,
      "త": 665,
      "న": 666,
      "య": 667,
      "ర": 668,
      "ల": 669,
      "వ": 670,
      "ಅ": 671,
      "ಇ": 672,
      "ಎ": 673,
      "ಒ": 674,
      "ಔ": 675,
      "ಕ": 676,
      "ಗ": 677,
      "ಜ": 678,
      "ಡ": 679,
      "ಣ": 680,
      "ತ": 681,
      "ದ": 682,
      "ಧ": 683,
      "ನ": 684,
      "ಬ": 685,
      "ಮ": 686,
      "ಯ": 687,
      "ರ": 688,
      "ಲ": 689,
      "ಳ": 690,
      "ವ": 691,
      "ಷ": 692,
      "ಸ": 693,
      "ಹ": 694,
      "അ": 695,
      "ആ": 696,
      "ഉ": 697,
      "ക": 698,
      "ഘ": 699,
      "ട": 700,
      "ണ": 701,
      "ത": 702,
      "ന": 703,
      "പ": 704,
      "ഭ": 705,
      "മ": 706,
      "യ": 707,
      "ര": 708,
      "റ": 709,
      "ഴ": 710,
      "വ": 711,
      "ശ": 712,
      "ഷ": 713,
      "സ": 714,
      "ൻ": 715,
      "ർ": 716,
      "ൽ": 717,
      "අ": 718,
      "ඔ": 719,
      "ක": 720,
      "ඟ": 721,
      "ට": 722,
      "ණ": 723,
      "ත": 724,
      "න": 725,
      "ප": 726,
      "බ": 727,
      "ම": 728,
      "ර": 729,
      "ස": 730,
      "ก": 731,
      "ข": 732,
      "ค": 733,
      "ง": 734,
      "จ": 735,
      "ฉ": 736,
      "ช": 737,
      "ซ": 738,
      "ญ": 739,
      "ฐ": 740,
      "ณ": 741,
      "ด": 742,
      "ต": 743,
      "ถ": 744,
      "ท": 745,
      "ธ": 746,
      "น": 747,
      "บ": 748,
      "ป": 749,
      "ผ": 750,
      "พ": 751,
      "ฟ": 752,
      "ภ": 753,
      "ม": 754,
      "ย": 755,
      "ร": 756,
      "ล": 757,
      "ว": 758,
      "ศ": 759,
      "ษ": 760,
      "ส": 761,
      "ห": 762,
      "อ": 763,
      "ะ": 764,
      "า": 765,
      "ำ": 766,
      "เ": 767,
      "แ": 768,
      "โ": 769,
      "ใ": 770,
      "ไ": 771,
      "ๆ": 772,
      "ກ": 773,
      "ຂ": 774,
      "ຄ": 775,
      "ງ": 776,
      "ຈ": 777,
      "ຍ": 778,
      "ດ": 779,
      "ຕ": 780,
      "ຖ": 781,
      "ທ": 782,
      "ນ": 783,
      "ບ": 784,
      "ປ": 785,
      "ຜ": 786,
      "ພ": 787,
      "ມ": 788,
      "ລ": 789,
      "ວ": 790,
      "ສ": 791,
      "ຫ": 792,
      "ອ": 793,
      "ຮ": 794,
      "ະ": 795,
      "າ": 796,
      "ເ": 797,
      "ແ": 798,
      "ໂ": 799,
      "ໜ": 800,
      "ა": 801,
      "ბ": 802,
      "გ": 803,
      "დ": 804,
      "ე": 805,
      "ვ": 806,
      "ზ": 807,
      "თ": 808,
      "ი": 809,
      "კ": 810,
      "ლ": 811,
      "მ": 812,
      "ნ": 813,
      "ო": 814,
      "პ": 815,
      "რ": 816,
      "ს": 817,
      "ტ": 818,
      "უ": 819,
      "ფ": 820,
      "ქ": 821,
      "ღ": 822,
      "ყ": 823,
      "შ": 824,
      "ჩ": 825,
      "ც": 826,
      "ძ": 827,
      "წ": 828,
      "ჭ": 829,
      "ხ": 830,
      "ჯ": 831,
      "ሁ": 832,
      "ሂ": 833,
      "ሃ": 834,
      "ህ": 835,
      "ሆ": 836,
      "ለ": 837,
      "ሉ": 838,
      "ላ": 839,
      "ሌ": 840,
      "ል": 841,
      "ሎ": 842,
      "መ": 843,
      "ሚ": 844,
      "ማ": 845,
      "ም": 846,
      "ረ": 847,
      "ሪ": 848,
      "ራ": 849,
      "ር": 850,
      "ሮ": 851,
      "ሰ": 852,
      "ሱ": 853,
      "ሳ": 854,
      "ሴ": 855,
      "ስ": 856,
      "ሽ": 857,
      "ቀ": 858,
      "ቃ": 859,
      "ቅ": 860,
      "በ": 861,
      "ባ": 862,
      "ብ": 863,
      "ተ": 864,
      "ታ": 865,
      "ት": 866,
      "ቶ": 867,
      "ቸ": 868,
      "ች": 869,
      "ኋ": 870,
      "ነ": 871,
      "ኒ": 872,
      "ና": 873,
      "ኔ": 874,
      "ን": 875,
      "ኘ": 876,
      "ኛ": 877,
      "ኝ": 878,
      "አ": 879,
      "እ": 880,
      "ከ": 881,
      "ካ": 882,
      "ክ": 883,
      "ኳ": 884,
      "ወ": 885,
      "ው": 886,
      "ዎ": 887,
      "ዐ": 888,
      "ዓ": 889,
      "ዙ": 890,
      "ዚ": 891,
      "የ": 892,
      "ዩ": 893,
      "ያ": 894,
      "ይ": 895,
      "ደ": 896,
      "ዱ": 897,
      "ዲ": 898,
      "ዳ": 899,
      "ዴ": 900,
      "ድ": 901,
      "ጀ": 902,
      "ጃ": 903,
      "ገ": 904,
      "ጊ": 905,
      "ጋ": 906,
      "ግ": 907,
      "ጠ": 908,
      "ጣ": 909,
      "ጥ": 910,
      "ጨ": 911,
      "ፈ": 912,
      "ፊ": 913,
      "ፋ": 914,
      "ፍ": 915,
      "ṇ": 916,
      "ạ": 917,
      "Ả": 918,
      "ả": 919,
      "ấ": 920,
      "ầ": 921,
      "ẩ": 922,
      "ẫ": 923,
      "ậ": 924,
      "ắ": 925,
      "ằ": 926,
      "ẳ": 927,
      "ẵ": 928,
      "ặ": 929,
      "ẹ": 930,
      "ẻ": 931,
      "ế": 932,
      "ề": 933,
      "ể": 934,
      "ễ": 935,
      "ệ": 936,
      "ỉ": 937,
      "ị": 938,
      "ọ": 939,
      "ỏ": 940,
      "ố": 941,
      "ồ": 942,
      "ổ": 943,
      "ỗ": 944,
      "ộ": 945,
      "ớ": 946,
      "ờ": 947,
      "ở": 948,
      "ỡ": 949,
      "ợ": 950,
      "ụ": 951,
      "ủ": 952,
      "ứ": 953,
      "ừ": 954,
      "ử": 955,
      "ữ": 956,
      "ự": 957,
      "ỳ": 958,
      "ỹ": 959,
      "ὴ": 960,
      "ὶ": 961,
      "ὸ": 962,
      "ῦ": 963,
      "ῶ": 964,
      "々": 965,
      "あ": 966,
      "い": 967,
      "う": 968,
      "え": 969,
      "お": 970,
      "か": 971,
      "が": 972,
      "き": 973,
      "ぎ": 974,
      "く": 975,
      "ぐ": 976,
      "け": 977,
      "げ": 978,
      "こ": 979,
      "ご": 980,
      "さ": 981,
      "ざ": 982,
      "し": 983,
      "じ": 984,
      "す": 985,
      "ず": 986,
      "せ": 987,
      "そ": 988,
      "ぞ": 989,
      "た": 990,
      "だ": 991,
      "ち": 992,
      "っ": 993,
      "つ": 994,
      "づ": 995,
      "て": 996,
      "で": 997,
      "と": 998,
      "ど": 999,
      "な": 1000,
      "に": 1001,
      "ぬ": 1002,
      "ね": 1003,
      "の": 1004,
      "は": 1005,
      "ば": 1006,
      "ぱ": 1007,
      "ひ": 1008,
      "び": 1009,
      "ぴ": 1010,
      "ぶ": 1011,
      "ぷ": 1012,
      "べ": 1013,
      "ほ": 1014,
      "ぽ": 1015,
      "ま": 1016,
      "み": 1017,
      "む": 1018,
      "め": 1019,
      "も": 1020,
      "ゃ": 1021,
      "や": 1022,
      "ゆ": 1023,
      "ょ": 1024,
      "よ": 1025,
      "ら": 1026,
      "り": 1027,
      "る": 1028,
      "れ": 1029,
      "ろ": 1030,
      "わ": 1031,
      "を": 1032,
      "ん": 1033,
      "ァ": 1034,
      "ア": 1035,
      "ィ": 1036,
      "イ": 1037,
      "ゥ": 1038,
      "ウ": 1039,
      "ェ": 1040,
      "エ": 1041,
      "ォ": 1042,
      "オ": 1043,
      "カ": 1044,
      "ガ": 1045,
      "キ": 1046,
      "ギ": 1047,
      "ク": 1048,
      "グ": 1049,
      "ケ": 1050,
      "ゲ": 1051,
      "コ": 1052,
      "ゴ": 1053,
      "サ": 1054,
      "ザ": 1055,
      "シ": 1056,
      "ジ": 1057,
      "ス": 1058,
      "ズ": 1059,
      "セ": 1060,
      "ゼ": 1061,
      "ソ": 1062,
      "ゾ": 1063,
      "タ": 1064,
      "ダ": 1065,
      "チ": 1066,
      "ヂ": 1067,
      "ッ": 1068,
      "ツ": 1069,
      "テ": 1070,
      "デ": 1071,
      "ト": 1072,
      "ド": 1073,
      "ナ": 1074,
      "ニ": 1075,
      "ネ": 1076,
      "ノ": 1077,
      "ハ": 1078,
      "バ": 1079,
      "パ": 1080,
      "ヒ": 1081,
      "ビ": 1082,
      "ピ": 1083,
      "フ": 1084,
      "ブ": 1085,
      "プ": 1086,
      "ヘ": 1087,
      "ベ": 1088,
      "ペ": 1089,
      "ホ": 1090,
      "ボ": 1091,
      "ポ": 1092,
      "マ": 1093,
      "ミ": 1094,
      "ム": 1095,
      "メ": 1096,
      "モ": 1097,
      "ャ": 1098,
      "ヤ": 1099,
      "ュ": 1100,
      "ユ": 1101,
      "ョ": 1102,
      "ヨ": 1103,
      "ラ": 1104,
      "リ": 1105,
      "ル": 1106,
      "レ": 1107,
      "ロ": 1108,
      "ワ": 1109,
      "ン": 1110,
      "ヴ": 1111,
      "ー": 1112,
      "ㅋ": 1113,
      "一": 1114,
      "丁": 1115,
      "七": 1116,
      "万": 1117,
      "丈": 1118,
      "三": 1119,
      "上": 1120,
      "下": 1121,
      "不": 1122,
      "与": 1123,
      "专": 1124,
      "世": 1125,
      "业": 1126,
      "东": 1127,
      "两": 1128,
      "严": 1129,
      "並": 1130,
      "个": 1131,
      "中": 1132,
      "丰": 1133,
      "串": 1134,
      "为": 1135,
      "主": 1136,
      "丽": 1137,
      "么": 1138,
      "义": 1139,
      "之": 1140,
      "乐": 1141,
      "九": 1142,
      "也": 1143,
      "习": 1144,
      "书": 1145,
      "了": 1146,
      "争": 1147,
      "事": 1148,
      "二": 1149,
      "于": 1150,
      "云": 1151,
      "互": 1152,
      "五": 1153,
      "亚": 1154,
      "些": 1155,
      "交": 1156,
      "产": 1157,
      "京": 1158,
      "亮": 1159,
      "人": 1160,
      "亿": 1161,
      "什": 1162,
      "仅": 1163,
      "今": 1164,
      "介": 1165,
      "仕": 1166,
      "他": 1167,
      "付": 1168,
      "代": 1169,
      "令": 1170,
      "以": 1171,
      "们": 1172,
      "件": 1173,
      "价": 1174,
      "任": 1175,
      "份": 1176,
      "企": 1177,
      "伍": 1178,
      "众": 1179,
      "优": 1180,
      "伙": 1181,
      "会": 1182,
      "伝": 1183,
      "传": 1184,
      "伯": 1185,
      "伴": 1186,
      "似": 1187,
      "但": 1188,
      "位": 1189,
      "住": 1190,
      "体": 1191,
      "何": 1192,
      "作": 1193,
      "你": 1194,
      "佳": 1195,
      "使": 1196,
      "來": 1197,
      "例": 1198,
      "供": 1199,
      "便": 1200,
      "係": 1201,
      "俄": 1202,
      "保": 1203,
      "信": 1204,
      "俱": 1205,
      "個": 1206,
      "們": 1207,
      "候": 1208,
      "値": 1209,
      "值": 1210,
      "做": 1211,
      "停": 1212,
      "健": 1213,
      "備": 1214,
      "催": 1215,
      "像": 1216,
      "優": 1217,
      "儿": 1218,
      "允": 1219,
      "元": 1220,
      "充": 1221,
      "先": 1222,
      "克": 1223,
      "児": 1224,
      "党": 1225,
      "入": 1226,
      "全": 1227,
      "八": 1228,
      "公": 1229,
      "六": 1230,
      "共": 1231,
      "关": 1232,
      "兴": 1233,
      "其": 1234,
      "具": 1235,
      "典": 1236,
      "内": 1237,
      "円": 1238,
      "再": 1239,
      "写": 1240,
      "冲": 1241,
      "决": 1242,
      "况": 1243,
      "准": 1244,
      "凝": 1245,
      "出": 1246,
      "函": 1247,
      "分": 1248,
      "切": 1249,
      "列": 1250,
      "则": 1251,
      "创": 1252,
      "初": 1253,
      "別": 1254,
      "利": 1255,
      "别": 1256,
      "到": 1257,
      "制": 1258,
      "券": 1259,
      "前": 1260,
      "剧": 1261,
      "剩": 1262,
      "副": 1263,
      "劇": 1264,
      "力": 1265,
      "办": 1266,
      "功": 1267,
      "加": 1268,
      "务": 1269,
      "动": 1270,
      "助": 1271,
      "効": 1272,
      "動": 1273,
      "務": 1274,
      "募": 1275,
      "包": 1276,
      "化": 1277,
      "北": 1278,
      "区": 1279,
      "十": 1280,
      "午": 1281,
      "半": 1282,
      "华": 1283,
      "协": 1284,
      "单": 1285,
      "南": 1286,
      "単": 1287,
      "博": 1288,
      "卡": 1289,
      "却": 1290,
      "历": 1291,
      "原": 1292,
      "厳": 1293,
      "去": 1294,
      "叁": 1295,
      "参": 1296,
      "及": 1297,
      "友": 1298,
      "収": 1299,
      "发": 1300,
      "取": 1301,
      "受": 1302,
      "变": 1303,
      "口": 1304,
      "古": 1305,
      "句": 1306,
      "另": 1307,
      "只": 1308,
      "可": 1309,
      "台": 1310,
      "史": 1311,
      "右": 1312,
      "号": 1313,
      "司": 1314,
      "各": 1315,
      "合": 1316,
      "同": 1317,
      "名": 1318,
      "后": 1319,
      "向": 1320,
      "否": 1321,
      "含": 1322,
      "听": 1323,
      "告": 1324,
      "员": 1325,
      "周": 1326,
      "味": 1327,
      "呼": 1328,
      "命": 1329,
      "和": 1330,
      "品": 1331,
      "哈": 1332,
      "响": 1333,
      "員": 1334,
      "哥": 1335,
      "哪": 1336,
      "唯": 1337,
      "商": 1338,
      "問": 1339,
      "喜": 1340,
      "営": 1341,
      "器": 1342,
      "四": 1343,
      "回": 1344,
      "因": 1345,
      "园": 1346,
      "囲": 1347,
      "図": 1348,
      "围": 1349,
      "国": 1350,
      "图": 1351,
      "圈": 1352,
      "園": 1353,
      "土": 1354,
      "在": 1355,
      "地": 1356,
      "圳": 1357,
      "场": 1358,
      "块": 1359,
      "坡": 1360,
      "型": 1361,
      "城": 1362,
      "域": 1363,
      "基": 1364,
      "埼": 1365,
      "報": 1366,
      "場": 1367,
      "塔": 1368,
      "境": 1369,
      "增": 1370,
      "墨": 1371,
      "士": 1372,
      "声": 1373,
      "売": 1374,
      "壹": 1375,
      "处": 1376,
      "备": 1377,
      "変": 1378,
      "复": 1379,
      "外": 1380,
      "多": 1381,
      "够": 1382,
      "大": 1383,
      "天": 1384,
      "太": 1385,
      "夫": 1386,
      "失": 1387,
      "头": 1388,
      "夹": 1389,
      "奈": 1390,
      "女": 1391,
      "好": 1392,
      "如": 1393,
      "始": 1394,
      "委": 1395,
      "娱": 1396,
      "嬉": 1397,
      "子": 1398,
      "字": 1399,
      "存": 1400,
      "学": 1401,
      "孩": 1402,
      "學": 1403,
      "它": 1404,
      "安": 1405,
      "完": 1406,
      "定": 1407,
      "宝": 1408,
      "实": 1409,
      "実": 1410,
      "客": 1411,
      "室": 1412,
      "宮": 1413,
      "家": 1414,
      "容": 1415,
      "寄": 1416,
      "富": 1417,
      "實": 1418,
      "寧": 1419,
      "对": 1420,
      "导": 1421,
      "対": 1422,
      "専": 1423,
      "将": 1424,
      "小": 1425,
      "少": 1426,
      "尔": 1427,
      "尤": 1428,
      "就": 1429,
      "尼": 1430,
      "尽": 1431,
      "尿": 1432,
      "局": 1433,
      "层": 1434,
      "届": 1435,
      "屋": 1436,
      "展": 1437,
      "属": 1438,
      "層": 1439,
      "島": 1440,
      "川": 1441,
      "工": 1442,
      "巧": 1443,
      "巨": 1444,
      "差": 1445,
      "己": 1446,
      "已": 1447,
      "巴": 1448,
      "币": 1449,
      "市": 1450,
      "布": 1451,
      "师": 1452,
      "希": 1453,
      "带": 1454,
      "帳": 1455,
      "常": 1456,
      "幅": 1457,
      "平": 1458,
      "年": 1459,
      "并": 1460,
      "幼": 1461,
      "广": 1462,
      "庁": 1463,
      "広": 1464,
      "序": 1465,
      "库": 1466,
      "应": 1467,
      "底": 1468,
      "店": 1469,
      "府": 1470,
      "度": 1471,
      "康": 1472,
      "建": 1473,
      "开": 1474,
      "式": 1475,
      "引": 1476,
      "强": 1477,
      "当": 1478,
      "录": 1479,
      "形": 1480,
      "影": 1481,
      "役": 1482,
      "待": 1483,
      "很": 1484,
      "律": 1485,
      "後": 1486,
      "従": 1487,
      "得": 1488,
      "微": 1489,
      "徴": 1490,
      "心": 1491,
      "必": 1492,
      "忍": 1493,
      "志": 1494,
      "忙": 1495,
      "応": 1496,
      "念": 1497,
      "态": 1498,
      "怎": 1499,
      "思": 1500,
      "性": 1501,
      "总": 1502,
      "息": 1503,
      "悉": 1504,
      "您": 1505,
      "情": 1506,
      "想": 1507,
      "意": 1508,
      "愛": 1509,
      "感": 1510,
      "愿": 1511,
      "態": 1512,
      "戏": 1513,
      "成": 1514,
      "我": 1515,
      "或": 1516,
      "戲": 1517,
      "户": 1518,
      "房": 1519,
      "所": 1520,
      "手": 1521,
      "才": 1522,
      "打": 1523,
      "払": 1524,
      "找": 1525,
      "承": 1526,
      "技": 1527,
      "把": 1528,
      "投": 1529,
      "択": 1530,
      "护": 1531,
      "担": 1532,
      "拉": 1533,
      "招": 1534,
      "拟": 1535,
      "拡": 1536,
      "择": 1537,
      "括": 1538,
      "拿": 1539,
      "持": 1540,
      "指": 1541,
      "振": 1542,
      "捌": 1543,
      "换": 1544,
      "据": 1545,
      "排": 1546,
      "採": 1547,
      "接": 1548,
      "控": 1549,
      "推": 1550,
      "提": 1551,
      "搜": 1552,
      "摄": 1553,
      "撒": 1554,
      "操": 1555,
      "擎": 1556,
      "支": 1557,
      "改": 1558,
      "政": 1559,
      "故": 1560,
      "效": 1561,
      "教": 1562,
      "散": 1563,
      "数": 1564,
      "整": 1565,
      "敵": 1566,
      "數": 1567,
      "文": 1568,
      "料": 1569,
      "断": 1570,
      "斯": 1571,
      "新": 1572,
      "方": 1573,
      "施": 1574,
      "无": 1575,
      "日": 1576,
      "时": 1577,
      "明": 1578,
      "易": 1579,
      "是": 1580,
      "显": 1581,
      "時": 1582,
      "普": 1583,
      "晴": 1584,
      "智": 1585,
      "暖": 1586,
      "暮": 1587,
      "曲": 1588,
      "更": 1589,
      "書": 1590,
      "最": 1591,
      "會": 1592,
      "月": 1593,
      "有": 1594,
      "朋": 1595,
      "服": 1596,
      "朗": 1597,
      "望": 1598,
      "期": 1599,
      "未": 1600,
      "本": 1601,
      "术": 1602,
      "机": 1603,
      "杂": 1604,
      "材": 1605,
      "束": 1606,
      "条": 1607,
      "来": 1608,
      "杯": 1609,
      "東": 1610,
      "构": 1611,
      "果": 1612,
      "柒": 1613,
      "染": 1614,
      "柔": 1615,
      "标": 1616,
      "校": 1617,
      "株": 1618,
      "样": 1619,
      "核": 1620,
      "格": 1621,
      "案": 1622,
      "档": 1623,
      "梅": 1624,
      "森": 1625,
      "業": 1626,
      "極": 1627,
      "楽": 1628,
      "概": 1629,
      "榜": 1630,
      "様": 1631,
      "模": 1632,
      "樣": 1633,
      "権": 1634,
      "機": 1635,
      "次": 1636,
      "欢": 1637,
      "欲": 1638,
      "款": 1639,
      "正": 1640,
      "此": 1641,
      "步": 1642,
      "殊": 1643,
      "段": 1644,
      "每": 1645,
      "比": 1646,
      "毕": 1647,
      "民": 1648,
      "気": 1649,
      "氧": 1650,
      "求": 1651,
      "污": 1652,
      "決": 1653,
      "沒": 1654,
      "没": 1655,
      "河": 1656,
      "治": 1657,
      "況": 1658,
      "法": 1659,
      "波": 1660,
      "注": 1661,
      "洋": 1662,
      "活": 1663,
      "流": 1664,
      "浏": 1665,
      "海": 1666,
      "消": 1667,
      "涉": 1668,
      "深": 1669,
      "混": 1670,
      "添": 1671,
      "游": 1672,
      "源": 1673,
      "满": 1674,
      "滤": 1675,
      "漂": 1676,
      "潛": 1677,
      "澳": 1678,
      "炉": 1679,
      "点": 1680,
      "為": 1681,
      "無": 1682,
      "然": 1683,
      "照": 1684,
      "熟": 1685,
      "爱": 1686,
      "片": 1687,
      "版": 1688,
      "牌": 1689,
      "牙": 1690,
      "物": 1691,
      "特": 1692,
      "状": 1693,
      "独": 1694,
      "献": 1695,
      "獲": 1696,
      "率": 1697,
      "玉": 1698,
      "玖": 1699,
      "环": 1700,
      "现": 1701,
      "班": 1702,
      "現": 1703,
      "球": 1704,
      "理": 1705,
      "甚": 1706,
      "生": 1707,
      "用": 1708,
      "由": 1709,
      "申": 1710,
      "电": 1711,
      "男": 1712,
      "画": 1713,
      "界": 1714,
      "異": 1715,
      "疫": 1716,
      "病": 1717,
      "発": 1718,
      "登": 1719,
      "白": 1720,
      "百": 1721,
      "的": 1722,
      "皆": 1723,
      "监": 1724,
      "目": 1725,
      "直": 1726,
      "相": 1727,
      "省": 1728,
      "看": 1729,
      "県": 1730,
      "真": 1731,
      "眼": 1732,
      "着": 1733,
      "督": 1734,
      "知": 1735,
      "石": 1736,
      "码": 1737,
      "研": 1738,
      "础": 1739,
      "确": 1740,
      "確": 1741,
      "示": 1742,
      "社": 1743,
      "神": 1744,
      "离": 1745,
      "秀": 1746,
      "私": 1747,
      "种": 1748,
      "科": 1749,
      "称": 1750,
      "程": 1751,
      "稚": 1752,
      "種": 1753,
      "稳": 1754,
      "積": 1755,
      "究": 1756,
      "空": 1757,
      "立": 1758,
      "竞": 1759,
      "章": 1760,
      "端": 1761,
      "笔": 1762,
      "符": 1763,
      "第": 1764,
      "等": 1765,
      "筑": 1766,
      "简": 1767,
      "算": 1768,
      "管": 1769,
      "篇": 1770,
      "簡": 1771,
      "簽": 1772,
      "米": 1773,
      "类": 1774,
      "精": 1775,
      "糖": 1776,
      "系": 1777,
      "素": 1778,
      "索": 1779,
      "紫": 1780,
      "細": 1781,
      "紹": 1782,
      "終": 1783,
      "組": 1784,
      "経": 1785,
      "結": 1786,
      "絡": 1787,
      "給": 1788,
      "絶": 1789,
      "続": 1790,
      "綺": 1791,
      "緒": 1792,
      "線": 1793,
      "締": 1794,
      "繁": 1795,
      "繋": 1796,
      "繰": 1797,
      "级": 1798,
      "线": 1799,
      "组": 1800,
      "织": 1801,
      "绍": 1802,
      "经": 1803,
      "结": 1804,
      "给": 1805,
      "络": 1806,
      "统": 1807,
      "继": 1808,
      "续": 1809,
      "维": 1810,
      "缓": 1811,
      "编": 1812,
      "网": 1813,
      "罗": 1814,
      "置": 1815,
      "美": 1816,
      "考": 1817,
      "者": 1818,
      "而": 1819,
      "耶": 1820,
      "联": 1821,
      "聞": 1822,
      "肆": 1823,
      "股": 1824,
      "肯": 1825,
      "育": 1826,
      "能": 1827,
      "腕": 1828,
      "自": 1829,
      "至": 1830,
      "致": 1831,
      "航": 1832,
      "般": 1833,
      "良": 1834,
      "色": 1835,
      "艺": 1836,
      "节": 1837,
      "英": 1838,
      "范": 1839,
      "获": 1840,
      "萄": 1841,
      "营": 1842,
      "落": 1843,
      "著": 1844,
      "葡": 1845,
      "董": 1846,
      "虑": 1847,
      "虚": 1848,
      "蛋": 1849,
      "行": 1850,
      "術": 1851,
      "衣": 1852,
      "表": 1853,
      "被": 1854,
      "裙": 1855,
      "裡": 1856,
      "製": 1857,
      "複": 1858,
      "西": 1859,
      "要": 1860,
      "見": 1861,
      "規": 1862,
      "視": 1863,
      "覚": 1864,
      "覧": 1865,
      "覺": 1866,
      "见": 1867,
      "观": 1868,
      "规": 1869,
      "视": 1870,
      "览": 1871,
      "觉": 1872,
      "角": 1873,
      "解": 1874,
      "言": 1875,
      "計": 1876,
      "記": 1877,
      "設": 1878,
      "許": 1879,
      "詳": 1880,
      "認": 1881,
      "誕": 1882,
      "語": 1883,
      "說": 1884,
      "説": 1885,
      "読": 1886,
      "調": 1887,
      "講": 1888,
      "謝": 1889,
      "證": 1890,
      "議": 1891,
      "讓": 1892,
      "计": 1893,
      "认": 1894,
      "让": 1895,
      "记": 1896,
      "许": 1897,
      "论": 1898,
      "设": 1899,
      "访": 1900,
      "证": 1901,
      "识": 1902,
      "诉": 1903,
      "词": 1904,
      "译": 1905,
      "话": 1906,
      "该": 1907,
      "误": 1908,
      "说": 1909,
      "请": 1910,
      "读": 1911,
      "谓": 1912,
      "豊": 1913,
      "象": 1914,
      "財": 1915,
      "販": 1916,
      "買": 1917,
      "費": 1918,
      "質": 1919,
      "購": 1920,
      "贈": 1921,
      "负": 1922,
      "责": 1923,
      "质": 1924,
      "购": 1925,
      "费": 1926,
      "资": 1927,
      "赤": 1928,
      "起": 1929,
      "超": 1930,
      "越": 1931,
      "趣": 1932,
      "足": 1933,
      "跟": 1934,
      "路": 1935,
      "身": 1936,
      "車": 1937,
      "転": 1938,
      "軽": 1939,
      "較": 1940,
      "輸": 1941,
      "车": 1942,
      "转": 1943,
      "软": 1944,
      "轻": 1945,
      "较": 1946,
      "辑": 1947,
      "输": 1948,
      "辨": 1949,
      "込": 1950,
      "达": 1951,
      "过": 1952,
      "迎": 1953,
      "运": 1954,
      "近": 1955,
      "返": 1956,
      "还": 1957,
      "这": 1958,
      "进": 1959,
      "连": 1960,
      "迪": 1961,
      "追": 1962,
      "送": 1963,
      "适": 1964,
      "选": 1965,
      "逊": 1966,
      "這": 1967,
      "通": 1968,
      "速": 1969,
      "造": 1970,
      "連": 1971,
      "遇": 1972,
      "遊": 1973,
      "過": 1974,
      "道": 1975,
      "違": 1976,
      "適": 1977,
      "選": 1978,
      "還": 1979,
      "那": 1980,
      "邮": 1981,
      "部": 1982,
      "都": 1983,
      "配": 1984,
      "酒": 1985,
      "采": 1986,
      "里": 1987,
      "重": 1988,
      "量": 1989,
      "金": 1990,
      "録": 1991,
      "链": 1992,
      "销": 1993,
      "错": 1994,
      "键": 1995,
      "長": 1996,
      "长": 1997,
      "門": 1998,
      "開": 1999,
      "間": 2000,
      "関": 2001,
      "閲": 2002,
      "關": 2003,
      "门": 2004,
      "问": 2005,
      "间": 2006,
      "阅": 2007,
      "防": 2008,
      "阿": 2009,
      "附": 2010,
      "际": 2011,
      "限": 2012,
      "院": 2013,
      "除": 2014,
      "隐": 2015,
      "際": 2016,
      "雅": 2017,
      "集": 2018,
      "難": 2019,
      "雰": 2020,
      "零": 2021,
      "電": 2022,
      "需": 2023,
      "青": 2024,
      "非": 2025,
      "面": 2026,
      "音": 2027,
      "響": 2028,
      "頂": 2029,
      "項": 2030,
      "頭": 2031,
      "題": 2032,
      "願": 2033,
      "類": 2034,
      "页": 2035,
      "项": 2036,
      "须": 2037,
      "领": 2038,
      "题": 2039,
      "额": 2040,
      "食": 2041,
      "飲": 2042,
      "館": 2043,
      "馆": 2044,
      "駅": 2045,
      "駐": 2046,
      "马": 2047,
      "验": 2048,
      "高": 2049,
      "鹿": 2050,
      "麗": 2051,
      "麼": 2052,
      "黑": 2053,
      "가": 2054,
      "각": 2055,
      "간": 2056,
      "감": 2057,
      "갑": 2058,
      "같": 2059,
      "개": 2060,
      "갤": 2061,
      "거": 2062,
      "건": 2063,
      "겁": 2064,
      "것": 2065,
      "게": 2066,
      "겠": 2067,
      "결": 2068,
      "경": 2069,
      "계": 2070,
      "고": 2071,
      "곱": 2072,
      "공": 2073,
      "과": 2074,
      "관": 2075,
      "광": 2076,
      "굉": 2077,
      "교": 2078,
      "구": 2079,
      "국": 2080,
      "그": 2081,
      "글": 2082,
      "금": 2083,
      "기": 2084,
      "길": 2085,
      "까": 2086,
      "나": 2087,
      "난": 2088,
      "내": 2089,
      "너": 2090,
      "네": 2091,
      "넷": 2092,
      "년": 2093,
      "녕": 2094,
      "노": 2095,
      "는": 2096,
      "늘": 2097,
      "능": 2098,
      "니": 2099,
      "님": 2100,
      "다": 2101,
      "단": 2102,
      "답": 2103,
      "당": 2104,
      "대": 2105,
      "더": 2106,
      "데": 2107,
      "도": 2108,
      "동": 2109,
      "되": 2110,
      "된": 2111,
      "됩": 2112,
      "드": 2113,
      "든": 2114,
      "들": 2115,
      "등": 2116,
      "디": 2117,
      "따": 2118,
      "때": 2119,
      "떻": 2120,
      "라": 2121,
      "람": 2122,
      "랍": 2123,
      "래": 2124,
      "랜": 2125,
      "램": 2126,
      "랫": 2127,
      "러": 2128,
      "럭": 2129,
      "런": 2130,
      "럼": 2131,
      "렇": 2132,
      "레": 2133,
      "려": 2134,
      "련": 2135,
      "령": 2136,
      "로": 2137,
      "록": 2138,
      "롤": 2139,
      "르": 2140,
      "른": 2141,
      "를": 2142,
      "름": 2143,
      "리": 2144,
      "릭": 2145,
      "린": 2146,
      "립": 2147,
      "마": 2148,
      "막": 2149,
      "만": 2150,
      "말": 2151,
      "머": 2152,
      "메": 2153,
      "며": 2154,
      "면": 2155,
      "명": 2156,
      "모": 2157,
      "무": 2158,
      "문": 2159,
      "뭐": 2160,
      "미": 2161,
      "민": 2162,
      "바": 2163,
      "반": 2164,
      "발": 2165,
      "밝": 2166,
      "방": 2167,
      "버": 2168,
      "벌": 2169,
      "법": 2170,
      "베": 2171,
      "벤": 2172,
      "변": 2173,
      "별": 2174,
      "보": 2175,
      "본": 2176,
      "볼": 2177,
      "봅": 2178,
      "부": 2179,
      "북": 2180,
      "분": 2181,
      "불": 2182,
      "브": 2183,
      "블": 2184,
      "비": 2185,
      "빠": 2186,
      "사": 2187,
      "산": 2188,
      "살": 2189,
      "삼": 2190,
      "삽": 2191,
      "상": 2192,
      "새": 2193,
      "생": 2194,
      "서": 2195,
      "선": 2196,
      "설": 2197,
      "세": 2198,
      "션": 2199,
      "소": 2200,
      "수": 2201,
      "순": 2202,
      "스": 2203,
      "습": 2204,
      "슷": 2205,
      "시": 2206,
      "식": 2207,
      "신": 2208,
      "실": 2209,
      "심": 2210,
      "십": 2211,
      "써": 2212,
      "씀": 2213,
      "아": 2214,
      "안": 2215,
      "않": 2216,
      "알": 2217,
      "암": 2218,
      "았": 2219,
      "앞": 2220,
      "야": 2221,
      "양": 2222,
      "얘": 2223,
      "어": 2224,
      "언": 2225,
      "얼": 2226,
      "업": 2227,
      "없": 2228,
      "었": 2229,
      "에": 2230,
      "여": 2231,
      "역": 2232,
      "열": 2233,
      "였": 2234,
      "영": 2235,
      "예": 2236,
      "오": 2237,
      "온": 2238,
      "와": 2239,
      "완": 2240,
      "요": 2241,
      "용": 2242,
      "우": 2243,
      "운": 2244,
      "울": 2245,
      "움": 2246,
      "워": 2247,
      "원": 2248,
      "위": 2249,
      "유": 2250,
      "으": 2251,
      "은": 2252,
      "을": 2253,
      "음": 2254,
      "의": 2255,
      "이": 2256,
      "인": 2257,
      "일": 2258,
      "입": 2259,
      "있": 2260,
      "자": 2261,
      "작": 2262,
      "잖": 2263,
      "장": 2264,
      "재": 2265,
      "적": 2266,
      "전": 2267,
      "점": 2268,
      "정": 2269,
      "제": 2270,
      "젝": 2271,
      "조": 2272,
      "존": 2273,
      "좋": 2274,
      "죠": 2275,
      "주": 2276,
      "준": 2277,
      "줍": 2278,
      "중": 2279,
      "즈": 2280,
      "지": 2281,
      "진": 2282,
      "쪽": 2283,
      "차": 2284,
      "찬": 2285,
      "처": 2286,
      "체": 2287,
      "최": 2288,
      "츠": 2289,
      "카": 2290,
      "캐": 2291,
      "컨": 2292,
      "컴": 2293,
      "코": 2294,
      "콘": 2295,
      "크": 2296,
      "키": 2297,
      "타": 2298,
      "탄": 2299,
      "태": 2300,
      "터": 2301,
      "털": 2302,
      "테": 2303,
      "텐": 2304,
      "템": 2305,
      "토": 2306,
      "통": 2307,
      "튜": 2308,
      "트": 2309,
      "특": 2310,
      "파": 2311,
      "페": 2312,
      "펴": 2313,
      "포": 2314,
      "폼": 2315,
      "퓨": 2316,
      "프": 2317,
      "플": 2318,
      "필": 2319,
      "하": 2320,
      "학": 2321,
      "한": 2322,
      "할": 2323,
      "함": 2324,
      "합": 2325,
      "해": 2326,
      "했": 2327,
      "향": 2328,
      "혔": 2329,
      "형": 2330,
      "홈": 2331,
      "확": 2332,
      "회": 2333,
      "히": 2334,
      "Ａ": 2335,
      "Ｅ": 2336,
      "Ｎ": 2337,
      "Ｐ": 2338,
      "er": 2339,
      "in": 2340,
      "en": 2341,
      "on": 2342,
      "an": 2343,
      "es": 2344,
      "at": 2345,
      "ar": 2346,
      "al": 2347,
      "or": 2348,
      "ed": 2349,
      "st": 2350,
      "it": 2351,
      "ic": 2352,
      "re": 2353,
      "Ġc": 2354,
      "Ġp": 2355,
      "Ġs": 2356,
      "le": 2357,
      "ing": 2358,
      "ro": 2359,
      "et": 2360,
      "is": 2361,
      "el": 2362,
      "ent": 2363,
      "ion": 2364,
      "ra": 2365,
      "Ġd": 2366,
      "ch": 2367,
      "as": 2368,
      "un": 2369,
      "am": 2370,
      "il": 2371,
      "Ġm": 2372,
      "Ġt": 2373,
      "ol": 2374,
      "ad": 2375,
      "ĠS": 2376,
      "ur": 2377,
      "om": 2378,
      "ut": 2379,
      "ĠC": 2380,
      "ac": 2381,
      "Ġb": 2382,
      "id": 2383,
      "us": 2384,
      "em": 2385,
      "os": 2386,
      "im": 2387,
      "ul": 2388,
      "ĠM": 2389,
      "Ġf": 2390,
      "ig": 2391,
      "ct": 2392,
      "ĠP": 2393,
      "ĠA": 2394,
      "ĠB": 2395,
      "ab": 2396,
      "ag": 2397,
      "ot": 2398,
      "ri": 2399,
      "Ġg": 2400,
      "um": 2401,
      "ap": 2402,
      "Ġh": 2403,
      "iv": 2404,
      "ers": 2405,
      "od": 2406,
      "Ġv": 2407,
      "ir": 2408,
      "qu": 2409,
      "ation": 2410,
      "Ġn": 2411,
      "ĠD": 2412,
      "est": 2413,
      "ĠT": 2414,
      "Ġl": 2415,
      "ĠR": 2416,
      "oc": 2417,
      "Ġin": 2418,
      "Ġre": 2419,
      "ie": 2420,
      "op": 2421,
      "ex": 2422,
      "ce": 2423,
      "Ġk": 2424,
      "ak": 2425,
      "ant": 2426,
      "ĠG": 2427,
      "ist": 2428,
      "and": 2429,
      "ĠH": 2430,
      "ال": 2431,
      "ĠE": 2432,
      "ess": 2433,
      "ec": 2434,
      "ow": 2435,
      "ter": 2436,
      "ay": 2437,
      "ĠF": 2438,
      "og": 2439,
      "ĠL": 2440,
      "ly": 2441,
      "ia": 2442,
      "ate": 2443,
      "iz": 2444,
      "ст": 2445,
      "Ġr": 2446,
      "av": 2447,
      "if": 2448,
      "end": 2449,
      "ov": 2450,
      "Ġw": 2451,
      "ip": 2452,
      "ĠN": 2453,
      "Ġcon": 2454,
      "up": 2455,
      "Ġп": 2456,
      "ub": 2457,
      "ang": 2458,
      "ĠK": 2459,
      "th": 2460,
      "eg": 2461,
      "In": 2462,
      "ен": 2463,
      "ud": 2464,
      "ib": 2465,
      "ik": 2466,
      "ра": 2467,
      "ĠW": 2468,
      "Ġال": 2469,
      "te": 2470,
      "ob": 2471,
      "ect": 2472,
      "ine": 2473,
      "ff": 2474,
      "pl": 2475,
      "ah": 2476,
      "Ġa": 2477,
      "Ġst": 2478,
      "ов": 2479,
      "ert": 2480,
      "art": 2481,
      "ug": 2482,
      "ep": 2483,
      "ens": 2484,
      "ell": 2485,
      "ĠV": 2486,
      "ph": 2487,
      "ast": 2488,
      "ard": 2489,
      "ok": 2490,
      "io": 2491,
      "ill": 2492,
      "ass": 2493,
      "ont": 2494,
      "ev": 2495,
      "ort": 2496,
      "uc": 2497,
      "und": 2498,
      "Ġpro": 2499,
      "ies": 2500,
      "ht": 2501,
      "pt": 2502,
      "ment": 2503,
      "ity": 2504,
      "ial": 2505,
      "all": 2506,
      "Ġj": 2507,
      "но": 2508,
      "на": 2509,
      "ian": 2510,
      "Ġch": 2511,
      "ef": 2512,
      "eb": 2513,
      "Ġс": 2514,
      "ne": 2515,
      "able": 2516,
      "ath": 2517,
      "ер": 2518,
      "ĠO": 2519,
      "ĠI": 2520,
      "ind": 2521,
      "St": 2522,
      "ive": 2523,
      "ĠJ": 2524,
      "omp": 2525,
      "ung": 2526,
      "ро": 2527,
      "ran": 2528,
      "age": 2529,
      "se": 2530,
      "ord": 2531,
      "ко": 2532,
      "int": 2533,
      "pe": 2534,
      "Ġex": 2535,
      "cl": 2536,
      "he": 2537,
      "res": 2538,
      "ng": 2539,
      "our": 2540,
      "Ġم": 2541,
      "ust": 2542,
      "Ġun": 2543,
      "get": 2544,
      "Ġe": 2545,
      "ost": 2546,
      "ult": 2547,
      "orm": 2548,
      "ure": 2549,
      "ek": 2550,
      "ric": 2551,
      "yl": 2552,
      "enc": 2553,
      "ка": 2554,
      "erm": 2555,
      "out": 2556,
      "ни": 2557,
      "ire": 2558,
      "ри": 2559,
      "ER": 2560,
      "ated": 2561,
      "Ġв": 2562,
      "ue": 2563,
      "ach": 2564,
      "ack": 2565,
      "Ġо": 2566,
      "ll": 2567,
      "ier": 2568,
      "ان": 2569,
      "az": 2570,
      "ey": 2571,
      "Ġz": 2572,
      "ĠU": 2573,
      "ors": 2574,
      "ре": 2575,
      "ain": 2576,
      "ли": 2577,
      "ou": 2578,
      "Ġsp": 2579,
      "ile": 2580,
      "ew": 2581,
      "att": 2582,
      "ous": 2583,
      "ла": 2584,
      "ry": 2585,
      "ions": 2586,
      "sp": 2587,
      "ond": 2588,
      "aw": 2589,
      "ox": 2590,
      "ons": 2591,
      "ON": 2592,
      "act": 2593,
      "uk": 2594,
      "per": 2595,
      "ich": 2596,
      "aj": 2597,
      "erv": 2598,
      "Ġdis": 2599,
      "ет": 2600,
      "ann": 2601,
      "ار": 2602,
      "rit": 2603,
      "ele": 2604,
      "ical": 2605,
      "nd": 2606,
      "Ġب": 2607,
      "ci": 2608,
      "Ġpr": 2609,
      "ĠCh": 2610,
      "ern": 2611,
      "ext": 2612,
      "ish": 2613,
      "Ġпо": 2614,
      "ru": 2615,
      "ign": 2616,
      "ick": 2617,
      "eng": 2618,
      "sh": 2619,
      "ym": 2620,
      "ль": 2621,
      "Ġth": 2622,
      "ock": 2623,
      "unt": 2624,
      "au": 2625,
      "are": 2626,
      "lo": 2627,
      "Ġad": 2628,
      "ss": 2629,
      "ит": 2630,
      "ton": 2631,
      "Ġا": 2632,
      "omm": 2633,
      "ight": 2634,
      "rad": 2635,
      "да": 2636,
      "ata": 2637,
      "ary": 2638,
      "Ġو": 2639,
      "rop": 2640,
      "ame": 2641,
      "го": 2642,
      "yn": 2643,
      "Ġap": 2644,
      "то": 2645,
      "ere": 2646,
      "Ġim": 2647,
      "ва": 2648,
      "IN": 2649,
      "iss": 2650,
      "ient": 2651,
      "Ġal": 2652,
      "pr": 2653,
      "ber": 2654,
      "ĠIn": 2655,
      "ón": 2656,
      "ong": 2657,
      "ft": 2658,
      "Ġqu": 2659,
      "EN": 2660,
      "Ġle": 2661,
      "ore": 2662,
      "sc": 2663,
      "Ġac": 2664,
      "set": 2665,
      "ram": 2666,
      "ide": 2667,
      "tt": 2668,
      "за": 2669,
      "iel": 2670,
      "ement": 2671,
      "ence": 2672,
      "ge": 2673,
      "ij": 2674,
      "Ġм": 2675,
      "Ġд": 2676,
      "sk": 2677,
      "que": 2678,
      "не": 2679,
      "ны": 2680,
      "ya": 2681,
      "anc": 2682,
      "ES": 2683,
      "iew": 2684,
      "ject": 2685,
      "ark": 2686,
      "ти": 2687,
      "eh": 2688,
      "ĠSt": 2689,
      "ez": 2690,
      "Ġsh": 2691,
      "OR": 2692,
      "to": 2693,
      "rom": 2694,
      "та": 2695,
      "co": 2696,
      "ax": 2697,
      "ins": 2698,
      "ite": 2699,
      "ode": 2700,
      "les": 2701,
      "ail": 2702,
      "AR": 2703,
      "ations": 2704,
      "AN": 2705,
      "ys": 2706,
      "Ġar": 2707,
      "ле": 2708,
      "pp": 2709,
      "Ġت": 2710,
      "ator": 2711,
      "oll": 2712,
      "ash": 2713,
      "ari": 2714,
      "ver": 2715,
      "Ġpl": 2716,
      "Ġsc": 2717,
      "AT": 2718,
      "ron": 2719,
      "ice": 2720,
      "ale": 2721,
      "ло": 2722,
      "ance": 2723,
      "na": 2724,
      "old": 2725,
      "oy": 2726,
      "row": 2727,
      "Ch": 2728,
      "Ġб": 2729,
      "Ġpre": 2730,
      "her": 2731,
      "emb": 2732,
      "ени": 2733,
      "ring": 2734,
      "Ġy": 2735,
      "те": 2736,
      "Ġres": 2737,
      "AL": 2738,
      "ize": 2739,
      "IC": 2740,
      "itt": 2741,
      "ction": 2742,
      "ett": 2743,
      "ST": 2744,
      "li": 2745,
      "ai": 2746,
      "own": 2747,
      "amp": 2748,
      "ime": 2749,
      "ane": 2750,
      "ica": 2751,
      "IT": 2752,
      "fer": 2753,
      "Ġcomp": 2754,
      "ype": 2755,
      "let": 2756,
      "one": 2757,
      "ado": 2758,
      "ings": 2759,
      "Ġan": 2760,
      "ild": 2761,
      "rib": 2762,
      "we": 2763,
      "во": 2764,
      "Ġrec": 2765,
      "Ġل": 2766,
      "ма": 2767,
      "erc": 2768,
      "ink": 2769,
      "ات": 2770,
      "ise": 2771,
      "oh": 2772,
      "ual": 2773,
      "Ġس": 2774,
      "Ġcl": 2775,
      "Ġу": 2776,
      "ĠSh": 2777,
      "ки": 2778,
      "Ġcont": 2779,
      "Ġen": 2780,
      "pro": 2781,
      "LE": 2782,
      "rac": 2783,
      "ien": 2784,
      "ull": 2785,
      "rat": 2786,
      "esc": 2787,
      "Ġab": 2788,
      "Ġro": 2789,
      "fl": 2790,
      "ith": 2791,
      "man": 2792,
      "arg": 2793,
      "form": 2794,
      "ix": 2795,
      "ho": 2796,
      "add": 2797,
      "ми": 2798,
      "ase": 2799,
      "UR": 2800,
      "red": 2801,
      "ve": 2802,
      "ans": 2803,
      "Ar": 2804,
      "bo": 2805,
      "ру": 2806,
      "ana": 2807,
      "eth": 2808,
      "ars": 2809,
      "over": 2810,
      "Ġsub": 2811,
      "ina": 2812,
      "Ġco": 2813,
      "ren": 2814,
      "ace": 2815,
      "rans": 2816,
      "Ġко": 2817,
      "ام": 2818,
      "erg": 2819,
      "és": 2820,
      "ict": 2821,
      "ĠZ": 2822,
      "put": 2823,
      "amb": 2824,
      "air": 2825,
      "nt": 2826,
      "ely": 2827,
      "urs": 2828,
      "Cont": 2829,
      "ди": 2830,
      "ID": 2831,
      "ied": 2832,
      "Ġph": 2833,
      "Cl": 2834,
      "To": 2835,
      "Ġи": 2836,
      "ati": 2837,
      "ión": 2838,
      "ma": 2839,
      "ress": 2840,
      "ть": 2841,
      "CT": 2842,
      "als": 2843,
      "olog": 2844,
      "ics": 2845,
      "по": 2846,
      "Ġن": 2847,
      "ĠY": 2848,
      "af": 2849,
      "yd": 2850,
      "ова": 2851,
      "Ġo": 2852,
      "ks": 2853,
      "ament": 2854,
      "Ġpar": 2855,
      "Ġper": 2856,
      "ста": 2857,
      "du": 2858,
      "cept": 2859,
      "che": 2860,
      "Ex": 2861,
      "ler": 2862,
      "oj": 2863,
      "IS": 2864,
      "ating": 2865,
      "Ġob": 2866,
      "ور": 2867,
      "Ġна": 2868,
      "pos": 2869,
      "Ġinter": 2870,
      "Ġза": 2871,
      "led": 2872,
      "ield": 2873,
      "Pro": 2874,
      "uff": 2875,
      "ade": 2876,
      "orn": 2877,
      "ĠAr": 2878,
      "con": 2879,
      "ear": 2880,
      "ray": 2881,
      "ون": 2882,
      "Ġد": 2883,
      "ura": 2884,
      "ism": 2885,
      "esp": 2886,
      "ret": 2887,
      "ĠMc": 2888,
      "ene": 2889,
      "ole": 2890,
      "Ġک": 2891,
      "ition": 2892,
      "Ġcom": 2893,
      "мо": 2894,
      "son": 2895,
      "app": 2896,
      "ся": 2897,
      "ead": 2898,
      "Con": 2899,
      "ча": 2900,
      "tr": 2901,
      "ze": 2902,
      "rav": 2903,
      "View": 2904,
      "ates": 2905,
      "gen": 2906,
      "ific": 2907,
      "ĠQ": 2908,
      "atch": 2909,
      "Val": 2910,
      "Ġtr": 2911,
      "lect": 2912,
      "га": 2913,
      "ory": 2914,
      "ium": 2915,
      "ão": 2916,
      "yp": 2917,
      "RE": 2918,
      "arm": 2919,
      "ater": 2920,
      "ada": 2921,
      "ION": 2922,
      "ood": 2923,
      "ین": 2924,
      "Ġé": 2925,
      "ци": 2926,
      "no": 2927,
      "ato": 2928,
      "Ġк": 2929,
      "ular": 2930,
      "ka": 2931,
      "Ġind": 2932,
      "Ġint": 2933,
      "Ġra": 2934,
      "Ġam": 2935,
      "iy": 2936,
      "Ob": 2937,
      "Id": 2938,
      "port": 2939,
      "ем": 2940,
      "си": 2941,
      "ér": 2942,
      "Ġالم": 2943,
      "oz": 2944,
      "ви": 2945,
      "Ġbl": 2946,
      "Ġer": 2947,
      "eter": 2948,
      "Ġfl": 2949,
      "cc": 2950,
      "uj": 2951,
      "Type": 2952,
      "AM": 2953,
      "aut": 2954,
      "Ġа": 2955,
      "inc": 2956,
      "oth": 2957,
      "ner": 2958,
      "tem": 2959,
      "ĠAl": 2960,
      "ke": 2961,
      "uf": 2962,
      "Ġem": 2963,
      "ня": 2964,
      "де": 2965,
      "equ": 2966,
      "yt": 2967,
      "List": 2968,
      "vent": 2969,
      "ech": 2970,
      "its": 2971,
      "lement": 2972,
      "ser": 2973,
      "raph": 2974,
      "Ġent": 2975,
      "Ġر": 2976,
      "Name": 2977,
      "riv": 2978,
      "la": 2979,
      "ih": 2980,
      "ĠSch": 2981,
      "ush": 2982,
      "ست": 2983,
      "ara": 2984,
      "ets": 2985,
      "alt": 2986,
      "yst": 2987,
      "me": 2988,
      "uss": 2989,
      "Ġop": 2990,
      "be": 2991,
      "kan": 2992,
      "ott": 2993,
      "Ġра": 2994,
      "CH": 2995,
      "SE": 2996,
      "ract": 2997,
      "اب": 2998,
      "rid": 2999,
      "Ġج": 3000,
      "ee": 3001,
      "хо": 3002,
      "olor": 3003,
      "ized": 3004,
      "bl": 3005,
      "land": 3006,
      "ni": 3007,
      "ery": 3008,
      "Ġsl": 3009,
      "اد": 3010,
      "Ġف": 3011,
      "Ġcons": 3012,
      "uy": 3013,
      "els": 3014,
      "ork": 3015,
      "sch": 3016,
      "Object": 3017,
      "reg": 3018,
      "ror": 3019,
      "kt": 3020,
      "Ġпро": 3021,
      "Ġest": 3022,
      "án": 3023,
      "min": 3024,
      "ros": 3025,
      "Comp": 3026,
      "ha": 3027,
      "ais": 3028,
      "Ġant": 3029,
      "ents": 3030,
      "ول": 3031,
      "Ġع": 3032,
      "par": 3033,
      "ional": 3034,
      "ED": 3035,
      "Ġdec": 3036,
      "ля": 3037,
      "roll": 3038,
      "Ġas": 3039,
      "ound": 3040,
      "of": 3041,
      "об": 3042,
      "ux": 3043,
      "Ġver": 3044,
      "ank": 3045,
      "rent": 3046,
      "Ġsup": 3047,
      "ps": 3048,
      "za": 3049,
      "ley": 3050,
      "raw": 3051,
      "Ġdes": 3052,
      "oss": 3053,
      "ugh": 3054,
      "ious": 3055,
      "ats": 3056,
      "ini": 3057,
      "ĠPro": 3058,
      "gl": 3059,
      "org": 3060,
      "po": 3061,
      "ری": 3062,
      "ered": 3063,
      "Im": 3064,
      "UT": 3065,
      "Value": 3066,
      "Ġinc": 3067,
      "Data": 3068,
      "enn": 3069,
      "ility": 3070,
      "ENT": 3071,
      "isc": 3072,
      "de": 3073,
      "نا": 3074,
      "ener": 3075,
      "ку": 3076,
      "ruct": 3077,
      "ute": 3078,
      "ts": 3079,
      "umb": 3080,
      "ham": 3081,
      "сти": 3082,
      "ible": 3083,
      "uch": 3084,
      "IL": 3085,
      "iti": 3086,
      "urn": 3087,
      "Ġacc": 3088,
      "Ġپ": 3089,
      "unc": 3090,
      "iter": 3091,
      "ĠTh": 3092,
      "val": 3093,
      "AS": 3094,
      "rim": 3095,
      "CC": 3096,
      "ger": 3097,
      "ico": 3098,
      "сто": 3099,
      "ĠCon": 3100,
      "чи": 3101,
      "ative": 3102,
      "oph": 3103,
      "ét": 3104,
      "igh": 3105,
      "Sc": 3106,
      "ake": 3107,
      "Ġне": 3108,
      "utton": 3109,
      "OM": 3110,
      "uz": 3111,
      "Ġка": 3112,
      "omb": 3113,
      "Ġcar": 3114,
      "ose": 3115,
      "uck": 3116,
      "ме": 3117,
      "Path": 3118,
      "Ġtra": 3119,
      "Text": 3120,
      "Item": 3121,
      "UN": 3122,
      "бо": 3123,
      "ĠAn": 3124,
      "use": 3125,
      "eck": 3126,
      "ры": 3127,
      "Ġag": 3128,
      "ĠEx": 3129,
      "ript": 3130,
      "ств": 3131,
      "och": 3132,
      "ures": 3133,
      "uit": 3134,
      "rt": 3135,
      "до": 3136,
      "mer": 3137,
      "ione": 3138,
      "arn": 3139,
      "iff": 3140,
      "Ġaut": 3141,
      "Res": 3142,
      "Ġde": 3143,
      "ĠSp": 3144,
      "men": 3145,
      "لا": 3146,
      "Ġخ": 3147,
      "AD": 3148,
      "uv": 3149,
      "را": 3150,
      "inn": 3151,
      "ling": 3152,
      "ios": 3153,
      "ores": 3154,
      "ait": 3155,
      "ines": 3156,
      "ities": 3157,
      "ald": 3158,
      "lic": 3159,
      "RO": 3160,
      "Ġund": 3161,
      "Ġпри": 3162,
      "ну": 3163,
      "па": 3164,
      "нов": 3165,
      "Ġimp": 3166,
      "Key": 3167,
      "ção": 3168,
      "ally": 3169,
      "ama": 3170,
      "ĠAd": 3171,
      "ena": 3172,
      "жа": 3173,
      "Par": 3174,
      "Ġsk": 3175,
      "fo": 3176,
      "мен": 3177,
      "ET": 3178,
      "Ġcor": 3179,
      "era": 3180,
      "cul": 3181,
      "ере": 3182,
      "AC": 3183,
      "cess": 3184,
      "agn": 3185,
      "cz": 3186,
      "ين": 3187,
      "Ġat": 3188,
      "ación": 3189,
      "lar": 3190,
      "ful": 3191,
      "vers": 3192,
      "stit": 3193,
      "utt": 3194,
      "ani": 3195,
      "ome": 3196,
      "Ġter": 3197,
      "Ġdé": 3198,
      "че": 3199,
      "Ġis": 3200,
      "Ġse": 3201,
      "Ġret": 3202,
      "ount": 3203,
      "roup": 3204,
      "ants": 3205,
      "Ġtrans": 3206,
      "je": 3207,
      "ino": 3208,
      "Ġel": 3209,
      "ck": 3210,
      "leg": 3211,
      "sl": 3212,
      "Ġт": 3213,
      "Ġdef": 3214,
      "ays": 3215,
      "ris": 3216,
      "AP": 3217,
      "Ġgl": 3218,
      "ائ": 3219,
      "ili": 3220,
      "Ġpol": 3221,
      "Ġش": 3222,
      "ĠBl": 3223,
      "Er": 3224,
      "iment": 3225,
      "emp": 3226,
      "ras": 3227,
      "Ġman": 3228,
      "str": 3229,
      "Pl": 3230,
      "EL": 3231,
      "ization": 3232,
      "ld": 3233,
      "én": 3234,
      "Ġmen": 3235,
      "ве": 3236,
      "ook": 3237,
      "Sh": 3238,
      "iqu": 3239,
      "ness": 3240,
      "ido": 3241,
      "Ġз": 3242,
      "rag": 3243,
      "ten": 3244,
      "vis": 3245,
      "ask": 3246,
      "nc": 3247,
      "Ġne": 3248,
      "OL": 3249,
      "urg": 3250,
      "rist": 3251,
      "Ġget": 3252,
      "Ġф": 3253,
      "aff": 3254,
      "plic": 3255,
      "Ġass": 3256,
      "Ġdi": 3257,
      "File": 3258,
      "AG": 3259,
      "Button": 3260,
      "лу": 3261,
      "apt": 3262,
      "ĠRe": 3263,
      "IM": 3264,
      "ja": 3265,
      "idd": 3266,
      "ave": 3267,
      "arb": 3268,
      "са": 3269,
      "Ġreg": 3270,
      "Of": 3271,
      "umber": 3272,
      "Ġоб": 3273,
      "ora": 3274,
      "line": 3275,
      "oo": 3276,
      "ala": 3277,
      "Ġev": 3278,
      "uh": 3279,
      "Ind": 3280,
      "Ad": 3281,
      "ду": 3282,
      "Ġcomm": 3283,
      "erd": 3284,
      "fe": 3285,
      "atic": 3286,
      "ın": 3287,
      "ering": 3288,
      "fig": 3289,
      "inal": 3290,
      "Ġré": 3291,
      "Ġpers": 3292,
      "ipp": 3293,
      "Serv": 3294,
      "vi": 3295,
      "pre": 3296,
      "ĠSc": 3297,
      "eme": 3298,
      "Size": 3299,
      "mo": 3300,
      "edi": 3301,
      "ши": 3302,
      "ить": 3303,
      "ych": 3304,
      "Ġcre": 3305,
      "ically": 3306,
      "Ġout": 3307,
      "Mod": 3308,
      "idad": 3309,
      "Ġре": 3310,
      "Ġcur": 3311,
      "Ġav": 3312,
      "ения": 3313,
      "ots": 3314,
      "ativ": 3315,
      "ги": 3316,
      "Ġوال": 3317,
      "ven": 3318,
      "ump": 3319,
      "lich": 3320,
      "less": 3321,
      "Ġдо": 3322,
      "lt": 3323,
      "Error": 3324,
      "ING": 3325,
      "ano": 3326,
      "IG": 3327,
      "пе": 3328,
      "iet": 3329,
      "Ġref": 3330,
      "пи": 3331,
      "Ġset": 3332,
      "ager": 3333,
      "atur": 3334,
      "String": 3335,
      "ateg": 3336,
      "Ġcol": 3337,
      "yle": 3338,
      "ます": 3339,
      "ово": 3340,
      "Sp": 3341,
      "Ġح": 3342,
      "EM": 3343,
      "лю": 3344,
      "ider": 3345,
      "ule": 3346,
      "ente": 3347,
      "ool": 3348,
      "ira": 3349,
      "PS": 3350,
      "ero": 3351,
      "err": 3352,
      "Ġgr": 3353,
      "Ġatt": 3354,
      "arc": 3355,
      "arl": 3356,
      "Man": 3357,
      "ille": 3358,
      "Ġut": 3359,
      "ages": 3360,
      "Ġoc": 3361,
      "ĠCl": 3362,
      "ando": 3363,
      "ste": 3364,
      "ĠX": 3365,
      "ograph": 3366,
      "Ġг": 3367,
      "Ġrem": 3368,
      "ند": 3369,
      "IV": 3370,
      "ите": 3371,
      "ree": 3372,
      "amente": 3373,
      "uth": 3374,
      "met": 3375,
      "rd": 3376,
      "اع": 3377,
      "Ġсо": 3378,
      "OT": 3379,
      "Ġвы": 3380,
      "му": 3381,
      "ange": 3382,
      "yc": 3383,
      "vel": 3384,
      "ĠPh": 3385,
      "SP": 3386,
      "rol": 3387,
      "Ġol": 3388,
      "Ġق": 3389,
      "Ġrel": 3390,
      "Array": 3391,
      "ream": 3392,
      "Ġfor": 3393,
      "hr": 3394,
      "ior": 3395,
      "ycl": 3396,
      "жи": 3397,
      "Ġpart": 3398,
      "Ġed": 3399,
      "éd": 3400,
      "ivers": 3401,
      "Ġmod": 3402,
      "ocal": 3403,
      "ral": 3404,
      "ta": 3405,
      "By": 3406,
      "rec": 3407,
      "elect": 3408,
      "ument": 3409,
      "ante": 3410,
      "ée": 3411,
      "duct": 3412,
      "vert": 3413,
      "Ġx": 3414,
      "Ġđ": 3415,
      "ao": 3416,
      "IP": 3417,
      "ای": 3418,
      "bar": 3419,
      "rack": 3420,
      "Ġover": 3421,
      "vol": 3422,
      "ito": 3423,
      "hi": 3424,
      "ري": 3425,
      "read": 3426,
      "elle": 3427,
      "ál": 3428,
      "Ġmon": 3429,
      "Ġup": 3430,
      "ей": 3431,
      "Ġinf": 3432,
      "ford": 3433,
      "ify": 3434,
      "SC": 3435,
      "ali": 3436,
      "Index": 3437,
      "Ġext": 3438,
      "って": 3439,
      "rem": 3440,
      "nh": 3441,
      "Image": 3442,
      "ency": 3443,
      "UM": 3444,
      "Ġor": 3445,
      "Int": 3446,
      "State": 3447,
      "ĠGu": 3448,
      "icht": 3449,
      "ns": 3450,
      "ita": 3451,
      "App": 3452,
      "Ġsch": 3453,
      "ту": 3454,
      "Ġmult": 3455,
      "cont": 3456,
      "yr": 3457,
      "back": 3458,
      "gu": 3459,
      "by": 3460,
      "arch": 3461,
      "ution": 3462,
      "Time": 3463,
      "ні": 3464,
      "Ġwh": 3465,
      "Ġhe": 3466,
      "reen": 3467,
      "IA": 3468,
      "cur": 3469,
      "со": 3470,
      "Param": 3471,
      "inter": 3472,
      "ower": 3473,
      "rain": 3474,
      "rap": 3475,
      "Field": 3476,
      "iones": 3477,
      "va": 3478,
      "unk": 3479,
      "Ġот": 3480,
      "sub": 3481,
      "Ġdep": 3482,
      "ici": 3483,
      "Ġпре": 3484,
      "iles": 3485,
      "Ġins": 3486,
      "وا": 3487,
      "зи": 3488,
      "oul": 3489,
      "ég": 3490,
      "irm": 3491,
      "go": 3492,
      "Ġdist": 3493,
      "ĠQu": 3494,
      "oot": 3495,
      "Ġvol": 3496,
      "aps": 3497,
      "ians": 3498,
      "ĠС": 3499,
      "ique": 3500,
      "Ġus": 3501,
      "ales": 3502,
      "ui": 3503,
      "Ġмо": 3504,
      "Ġpost": 3505,
      "ĠВ": 3506,
      "ima": 3507,
      "US": 3508,
      "br": 3509,
      "ür": 3510,
      "یر": 3511,
      "Ġآ": 3512,
      "ource": 3513,
      "rel": 3514,
      "ude": 3515,
      "ego": 3516,
      "ско": 3517,
      "IR": 3518,
      "Ġber": 3519,
      "rie": 3520,
      "equest": 3521,
      "ía": 3522,
      "ية": 3523,
      "for": 3524,
      "Ġلل": 3525,
      "off": 3526,
      "aya": 3527,
      "ayout": 3528,
      "ments": 3529,
      "ml": 3530,
      "ás": 3531,
      "ĠPl": 3532,
      "Ġconf": 3533,
      "vo": 3534,
      "arr": 3535,
      "Ġsw": 3536,
      "cent": 3537,
      "load": 3538,
      "Ġbe": 3539,
      "Color": 3540,
      "сть": 3541,
      "ias": 3542,
      "Al": 3543,
      "ble": 3544,
      "Ġsol": 3545,
      "лен": 3546,
      "oto": 3547,
      "се": 3548,
      "ты": 3549,
      "Context": 3550,
      "rite": 3551,
      "ilit": 3552,
      "Ġmet": 3553,
      "Ġdel": 3554,
      "CE": 3555,
      "ident": 3556,
      "Ġrep": 3557,
      "zi": 3558,
      "CL": 3559,
      "round": 3560,
      "ception": 3561,
      "сь": 3562,
      "ör": 3563,
      "zy": 3564,
      "Ġexp": 3565,
      "press": 3566,
      "ის": 3567,
      "Ġend": 3568,
      "ese": 3569,
      "Ġст": 3570,
      "ря": 3571,
      "eld": 3572,
      "ır": 3573,
      "Ġpres": 3574,
      "Fl": 3575,
      "Ġво": 3576,
      "enz": 3577,
      "ĠAm": 3578,
      "RP": 3579,
      "ayer": 3580,
      "ection": 3581,
      "Ġact": 3582,
      "aus": 3583,
      "Ġbr": 3584,
      "Ġenc": 3585,
      "وم": 3586,
      "BS": 3587,
      "asc": 3588,
      "اس": 3589,
      "وب": 3590,
      "Ġov": 3591,
      "ор": 3592,
      "OC": 3593,
      "onent": 3594,
      "ير": 3595,
      "Ġmin": 3596,
      "Ġod": 3597,
      "ua": 3598,
      "Ġpot": 3599,
      "my": 3600,
      "ĠLe": 3601,
      "ms": 3602,
      "Code": 3603,
      "sw": 3604,
      "irect": 3605,
      "Ġcal": 3606,
      "nie": 3607,
      "Ġon": 3608,
      "ette": 3609,
      "Ġpo": 3610,
      "ных": 3611,
      "TR": 3612,
      "AB": 3613,
      "لي": 3614,
      "any": 3615,
      "itch": 3616,
      "rip": 3617,
      "Ġэ": 3618,
      "lex": 3619,
      "elt": 3620,
      "ouse": 3621,
      "Get": 3622,
      "lin": 3623,
      "itz": 3624,
      "OD": 3625,
      "da": 3626,
      "Ġdisc": 3627,
      "udd": 3628,
      "iro": 3629,
      "ender": 3630,
      "rup": 3631,
      "ение": 3632,
      "irt": 3633,
      "ever": 3634,
      "ĠVer": 3635,
      "Ref": 3636,
      "Ġes": 3637,
      "Ġма": 3638,
      "Box": 3639,
      "uan": 3640,
      "ров": 3641,
      "uild": 3642,
      "All": 3643,
      "Ġdem": 3644,
      "Ġstr": 3645,
      "oad": 3646,
      "Ġang": 3647,
      "mp": 3648,
      "ĠBe": 3649,
      "Ġdo": 3650,
      "ues": 3651,
      "Bl": 3652,
      "Ġprop": 3653,
      "ital": 3654,
      "opp": 3655,
      "ود": 3656,
      "ouch": 3657,
      "uer": 3658,
      "ny": 3659,
      "ii": 3660,
      "acc": 3661,
      "ape": 3662,
      "order": 3663,
      "Up": 3664,
      "box": 3665,
      "ου": 3666,
      "Ġpos": 3667,
      "ae": 3668,
      "uto": 3669,
      "itor": 3670,
      "aan": 3671,
      "Ġapp": 3672,
      "Ġesc": 3673,
      "Ġinv": 3674,
      "Ġte": 3675,
      "ql": 3676,
      "ken": 3677,
      "ught": 3678,
      "ĠUn": 3679,
      "ody": 3680,
      "Ġwe": 3681,
      "Th": 3682,
      "он": 3683,
      "пу": 3684,
      "ences": 3685,
      "ils": 3686,
      "bol": 3687,
      "ability": 3688,
      "Ap": 3689,
      "су": 3690,
      "abb": 3691,
      "esh": 3692,
      "Ġme": 3693,
      "unter": 3694,
      "ives": 3695,
      "Ġred": 3696,
      "ational": 3697,
      "ips": 3698,
      "ove": 3699,
      "ogg": 3700,
      "ные": 3701,
      "EC": 3702,
      "Ġpe": 3703,
      "ists": 3704,
      "User": 3705,
      "Ġsm": 3706,
      "Request": 3707,
      "atter": 3708,
      "Ġep": 3709,
      "Ġdev": 3710,
      "ily": 3711,
      "ester": 3712,
      "PL": 3713,
      "är": 3714,
      "ной": 3715,
      "amm": 3716,
      "ius": 3717,
      "kh": 3718,
      "rig": 3719,
      "nal": 3720,
      "cre": 3721,
      "ides": 3722,
      "SA": 3723,
      "enu": 3724,
      "Bar": 3725,
      "Ġي": 3726,
      "akt": 3727,
      "ope": 3728,
      "Ġdet": 3729,
      "رو": 3730,
      "abel": 3731,
      "uest": 3732,
      "ination": 3733,
      "ology": 3734,
      "zt": 3735,
      "ní": 3736,
      "Group": 3737,
      "ün": 3738,
      "aint": 3739,
      "Ġall": 3740,
      "ced": 3741,
      "FF": 3742,
      "imp": 3743,
      "akan": 3744,
      "len": 3745,
      "board": 3746,
      "Inter": 3747,
      "TS": 3748,
      "ción": 3749,
      "Ġart": 3750,
      "یک": 3751,
      "icul": 3752,
      "orb": 3753,
      "Ġleg": 3754,
      "acter": 3755,
      "ット": 3756,
      "urb": 3757,
      "Out": 3758,
      "Ġemb": 3759,
      "DA": 3760,
      "ved": 3761,
      "Ġsal": 3762,
      "lev": 3763,
      "OP": 3764,
      "ote": 3765,
      "ებ": 3766,
      "raz": 3767,
      "alk": 3768,
      "struct": 3769,
      "ault": 3770,
      "ды": 3771,
      "chen": 3772,
      "uel": 3773,
      "osph": 3774,
      "ים": 3775,
      "ствен": 3776,
      "Ġگ": 3777,
      "indow": 3778,
      "ados": 3779,
      "col": 3780,
      "Ġsur": 3781,
      "com": 3782,
      "Set": 3783,
      "ĠFl": 3784,
      "idth": 3785,
      "uid": 3786,
      "Class": 3787,
      "át": 3788,
      "hen": 3789,
      "Ġir": 3790,
      "lad": 3791,
      "ca": 3792,
      "wa": 3793,
      "ices": 3794,
      "Ġص": 3795,
      "oken": 3796,
      "CP": 3797,
      "Ġраз": 3798,
      "ces": 3799,
      "view": 3800,
      "umer": 3801,
      "Ġnot": 3802,
      "ift": 3803,
      "ators": 3804,
      "orth": 3805,
      "Ġmar": 3806,
      "ĠEd": 3807,
      "mi": 3808,
      "unch": 3809,
      "Ġann": 3810,
      "eler": 3811,
      "ours": 3812,
      "TH": 3813,
      "Ass": 3814,
      "pond": 3815,
      "En": 3816,
      "Ġoff": 3817,
      "ete": 3818,
      "onic": 3819,
      "спо": 3820,
      "して": 3821,
      "ĠEm": 3822,
      "SS": 3823,
      "ves": 3824,
      "Ph": 3825,
      "imm": 3826,
      "ει": 3827,
      "aks": 3828,
      "aft": 3829,
      "Input": 3830,
      "ید": 3831,
      "istic": 3832,
      "zen": 3833,
      "ĠAb": 3834,
      "UL": 3835,
      "onal": 3836,
      "Ġه": 3837,
      "omet": 3838,
      "endo": 3839,
      "ère": 3840,
      "يه": 3841,
      "oon": 3842,
      "لی": 3843,
      "CS": 3844,
      "IB": 3845,
      "ĠEn": 3846,
      "orph": 3847,
      "ified": 3848,
      "ola": 3849,
      "щи": 3850,
      "las": 3851,
      "ature": 3852,
      "Pre": 3853,
      "roph": 3854,
      "clus": 3855,
      "PC": 3856,
      "uct": 3857,
      "etic": 3858,
      "ный": 3859,
      "Ġان": 3860,
      "do": 3861,
      "Un": 3862,
      "eder": 3863,
      "uro": 3864,
      "лі": 3865,
      "ids": 3866,
      "gram": 3867,
      "Char": 3868,
      "abor": 3869,
      "ona": 3870,
      "Ġmeng": 3871,
      "ited": 3872,
      "Layout": 3873,
      "Ġпа": 3874,
      "ulf": 3875,
      "raft": 3876,
      "bre": 3877,
      "ida": 3878,
      "Ġec": 3879,
      "ense": 3880,
      "ements": 3881,
      "asi": 3882,
      "ĠPol": 3883,
      "cal": 3884,
      "Ġtest": 3885,
      "Ġfil": 3886,
      "ées": 3887,
      "ocation": 3888,
      "ende": 3889,
      "rict": 3890,
      "ites": 3891,
      "ного": 3892,
      "ermin": 3893,
      "Ġimm": 3894,
      "кт": 3895,
      "empl": 3896,
      "atus": 3897,
      "éc": 3898,
      "Manager": 3899,
      "unic": 3900,
      "ky": 3901,
      "ula": 3902,
      "Ġform": 3903,
      "يد": 3904,
      "Prop": 3905,
      "lor": 3906,
      "ĠБ": 3907,
      "Ġsec": 3908,
      "از": 3909,
      "Ġconv": 3910,
      "ĠPr": 3911,
      "Col": 3912,
      "ains": 3913,
      "now": 3914,
      "Ġrest": 3915,
      "cht": 3916,
      "agg": 3917,
      "Ġfr": 3918,
      "Ġprof": 3919,
      "ĠА": 3920,
      "ATION": 3921,
      "تر": 3922,
      "utter": 3923,
      "ĠPar": 3924,
      "اف": 3925,
      "Ġge": 3926,
      "Ġك": 3927,
      "した": 3928,
      "Result": 3929,
      "Ġneg": 3930,
      "atis": 3931,
      "πο": 3932,
      "esch": 3933,
      "ém": 3934,
      "ков": 3935,
      "рав": 3936,
      "lig": 3937,
      "Ġdesc": 3938,
      "ĠHe": 3939,
      "edia": 3940,
      "Ġте": 3941,
      "serv": 3942,
      "zo": 3943,
      "ック": 3944,
      "atan": 3945,
      "Ġgi": 3946,
      "ries": 3947,
      "Def": 3948,
      "oe": 3949,
      "رد": 3950,
      "ono": 3951,
      "comp": 3952,
      "Ġбо": 3953,
      "ards": 3954,
      "Ġequ": 3955,
      "ות": 3956,
      "Element": 3957,
      "oxy": 3958,
      "MS": 3959,
      "onom": 3960,
      "cor": 3961,
      "onn": 3962,
      "With": 3963,
      "ĠAg": 3964,
      "way": 3965,
      "Ġго": 3966,
      "field": 3967,
      "ava": 3968,
      "гра": 3969,
      "new": 3970,
      "Ġро": 3971,
      "oci": 3972,
      "count": 3973,
      "aster": 3974,
      "not": 3975,
      "rab": 3976,
      "berg": 3977,
      "path": 3978,
      "ще": 3979,
      "organ": 3980,
      "ät": 3981,
      "кі": 3982,
      "HT": 3983,
      "ki": 3984,
      "raf": 3985,
      "ĠCont": 3986,
      "αν": 3987,
      "Ġaff": 3988,
      "ched": 3989,
      "wood": 3990,
      "Event": 3991,
      "For": 3992,
      "oint": 3993,
      "anam": 3994,
      "ila": 3995,
      "Ġж": 3996,
      "rif": 3997,
      "PT": 3998,
      "eader": 3999,
      "ité": 4000,
      "ше": 4001,
      "ops": 4002,
      "ĠComp": 4003,
      "omer": 4004,
      "den": 4005,
      "anti": 4006,
      "Ġval": 4007,
      "Action": 4008,
      "oma": 4009,
      "Ġpub": 4010,
      "Em": 4011,
      "iej": 4012,
      "ength": 4013,
      "urt": 4014,
      "Ġma": 4015,
      "ĠCor": 4016,
      "ĠMar": 4017,
      "Ġesp": 4018,
      "oke": 4019,
      "irc": 4020,
      "ury": 4021,
      "atth": 4022,
      "Call": 4023,
      "ribut": 4024,
      "ĠК": 4025,
      "ön": 4026,
      "Count": 4027,
      "حد": 4028,
      "وس": 4029,
      "Number": 4030,
      "Ġrad": 4031,
      "ска": 4032,
      "Ġfe": 4033,
      "item": 4034,
      "Ġhand": 4035,
      "вер": 4036,
      "pect": 4037,
      "ured": 4038,
      "ĠCar": 4039,
      "ход": 4040,
      "ivity": 4041,
      "Ġla": 4042,
      "ца": 4043,
      "comm": 4044,
      "Ġsuc": 4045,
      "リー": 4046,
      "igen": 4047,
      "omen": 4048,
      "ан": 4049,
      "olic": 4050,
      "atal": 4051,
      "OW": 4052,
      "Service": 4053,
      "ĠEl": 4054,
      "IF": 4055,
      "Ġjed": 4056,
      "Ġtran": 4057,
      "di": 4058,
      "stra": 4059,
      "ĠApp": 4060,
      "duc": 4061,
      "ois": 4062,
      "ening": 4063,
      "рова": 4064,
      "Ġبال": 4065,
      "Ġutil": 4066,
      "Ġcr": 4067,
      "Config": 4068,
      "った": 4069,
      "Is": 4070,
      "Ġdiv": 4071,
      "acy": 4072,
      "Ġto": 4073,
      "ko": 4074,
      "ucle": 4075,
      "ĠCol": 4076,
      "eli": 4077,
      "Ġbo": 4078,
      "Ġinst": 4079,
      "ney": 4080,
      "AY": 4081,
      "amin": 4082,
      "ross": 4083,
      "ede": 4084,
      "alle": 4085,
      "room": 4086,
      "atri": 4087,
      "ĠCo": 4088,
      "play": 4089,
      "ール": 4090,
      "Ġбу": 4091,
      "Ġperm": 4092,
      "би": 4093,
      "Ġso": 4094,
      "EG": 4095,
      "Ġtro": 4096,
      "Table": 4097,
      "ones": 4098,
      "imb": 4099,
      "Ġkh": 4100,
      "usc": 4101,
      "Ġста": 4102,
      "ync": 4103,
      "map": 4104,
      "mar": 4105,
      "osc": 4106,
      "ĠIm": 4107,
      "tre": 4108,
      "ethod": 4109,
      "ised": 4110,
      "ĠП": 4111,
      "ails": 4112,
      "Ġsym": 4113,
      "ept": 4114,
      "ай": 4115,
      "zer": 4116,
      "ĠSe": 4117,
      "Exception": 4118,
      "key": 4119,
      "än": 4120,
      "iffer": 4121,
      "фи": 4122,
      "omin": 4123,
      "Ġσ": 4124,
      "Ġba": 4125,
      "mod": 4126,
      "unn": 4127,
      "Date": 4128,
      "bit": 4129,
      "Ġng": 4130,
      "Model": 4131,
      "يا": 4132,
      "lish": 4133,
      "ugg": 4134,
      "ート": 4135,
      "رب": 4136,
      "ador": 4137,
      "ungen": 4138,
      "Ġnew": 4139,
      "Ġbre": 4140,
      "Log": 4141,
      "Ġя": 4142,
      "тель": 4143,
      "Ġز": 4144,
      "Ġsv": 4145,
      "aur": 4146,
      "GR": 4147,
      "MA": 4148,
      "hat": 4149,
      "ector": 4150,
      "ít": 4151,
      "CO": 4152,
      "Ġbi": 4153,
      "Ġcap": 4154,
      "elf": 4155,
      "earch": 4156,
      "ige": 4157,
      "pen": 4158,
      "js": 4159,
      "ibr": 4160,
      "ĠBar": 4161,
      "oro": 4162,
      "ika": 4163,
      "ilt": 4164,
      "encia": 4165,
      "ング": 4166,
      "لم": 4167,
      "Qu": 4168,
      "ĠBr": 4169,
      "ют": 4170,
      "Ġaf": 4171,
      "He": 4172,
      "Ġtre": 4173,
      "Ġкон": 4174,
      "iento": 4175,
      "CA": 4176,
      "Ġreal": 4177,
      "ĠIN": 4178,
      "ben": 4179,
      "rv": 4180,
      "Ġsem": 4181,
      "ires": 4182,
      "IST": 4183,
      "Ġlo": 4184,
      "text": 4185,
      "anj": 4186,
      "Ġpal": 4187,
      "ster": 4188,
      "essage": 4189,
      "بر": 4190,
      "Ġआ": 4191,
      "DS": 4192,
      "lı": 4193,
      "Ġш": 4194,
      "gi": 4195,
      "Ġиз": 4196,
      "down": 4197,
      "ington": 4198,
      "Ġhom": 4199,
      "ydro": 4200,
      "ogen": 4201,
      "ız": 4202,
      "point": 4203,
      "зы": 4204,
      "ül": 4205,
      "OS": 4206,
      "Ġadd": 4207,
      "Test": 4208,
      "rum": 4209,
      "ĠOr": 4210,
      "une": 4211,
      "aro": 4212,
      "Ġsn": 4213,
      "Ġmed": 4214,
      "Ġч": 4215,
      "Node": 4216,
      "Ġsu": 4217,
      "ials": 4218,
      "τα": 4219,
      "ification": 4220,
      "ски": 4221,
      "ethyl": 4222,
      "yth": 4223,
      "Act": 4224,
      "Ġچ": 4225,
      "aki": 4226,
      "cer": 4227,
      "por": 4228,
      "ison": 4229,
      "ission": 4230,
      "anel": 4231,
      "avig": 4232,
      "name": 4233,
      "izing": 4234,
      "Ġpass": 4235,
      "Ġви": 4236,
      "ери": 4237,
      "Ġπ": 4238,
      "onse": 4239,
      "اش": 4240,
      "isp": 4241,
      "ski": 4242,
      "char": 4243,
      "DE": 4244,
      "DP": 4245,
      "Ġالع": 4246,
      "adi": 4247,
      "rl": 4248,
      "Arg": 4249,
      "odes": 4250,
      "iber": 4251,
      "angan": 4252,
      "Ġsim": 4253,
      "olo": 4254,
      "erty": 4255,
      "ume": 4256,
      "resent": 4257,
      "awa": 4258,
      "Comm": 4259,
      "TER": 4260,
      "Window": 4261,
      "minist": 4262,
      "Ġmem": 4263,
      "ów": 4264,
      "ogn": 4265,
      "erk": 4266,
      "ется": 4267,
      "ku": 4268,
      "umin": 4269,
      "Ġпод": 4270,
      "SM": 4271,
      "Ġہ": 4272,
      "Ġet": 4273,
      "AA": 4274,
      "ран": 4275,
      "Info": 4276,
      "Ġmot": 4277,
      "Ġmo": 4278,
      "oder": 4279,
      "ba": 4280,
      "web": 4281,
      "ек": 4282,
      "Map": 4283,
      "lu": 4284,
      "Ġالت": 4285,
      "eep": 4286,
      "сы": 4287,
      "aim": 4288,
      "تی": 4289,
      "ικ": 4290,
      "Ġsz": 4291,
      "tim": 4292,
      "Ġин": 4293,
      "ather": 4294,
      "ttp": 4295,
      "Ġمن": 4296,
      "orr": 4297,
      "Resp": 4298,
      "ния": 4299,
      "Ġpop": 4300,
      "ım": 4301,
      "anz": 4302,
      "icos": 4303,
      "isi": 4304,
      "وں": 4305,
      "Ġhum": 4306,
      "یم": 4307,
      "Hand": 4308,
      "illa": 4309,
      "Ġri": 4310,
      "ên": 4311,
      "lik": 4312,
      "aten": 4313,
      "FA": 4314,
      "Ġmax": 4315,
      "Ġç": 4316,
      "init": 4317,
      "ega": 4318,
      "ĠAp": 4319,
      "Att": 4320,
      "urch": 4321,
      "ami": 4322,
      "ĠMon": 4323,
      "ulation": 4324,
      "rich": 4325,
      "sm": 4326,
      "iver": 4327,
      "nya": 4328,
      "ocus": 4329,
      "igg": 4330,
      "лы": 4331,
      "yg": 4332,
      "ances": 4333,
      "یا": 4334,
      "der": 4335,
      "ĠSw": 4336,
      "ĠSal": 4337,
      "äh": 4338,
      "сси": 4339,
      "ji": 4340,
      "una": 4341,
      "ĠComm": 4342,
      "ges": 4343,
      "edd": 4344,
      "arks": 4345,
      "ĠMan": 4346,
      "mente": 4347,
      "Ġcent": 4348,
      "amos": 4349,
      "ĠWh": 4350,
      "rew": 4351,
      "ending": 4352,
      "atory": 4353,
      "irst": 4354,
      "ares": 4355,
      "Width": 4356,
      "ony": 4357,
      "EST": 4358,
      "An": 4359,
      "Ġде": 4360,
      "ivo": 4361,
      "Co": 4362,
      "eri": 4363,
      "ively": 4364,
      "inf": 4365,
      "ordin": 4366,
      "mat": 4367,
      "icas": 4368,
      "Ġdest": 4369,
      "eta": 4370,
      "Be": 4371,
      "Ġpat": 4372,
      "Ġprz": 4373,
      "date": 4374,
      "CM": 4375,
      "Re": 4376,
      "uge": 4377,
      "Ġcond": 4378,
      "ınd": 4379,
      "лов": 4380,
      "ural": 4381,
      "Ġsign": 4382,
      "Ġhab": 4383,
      "ently": 4384,
      "ened": 4385,
      "list": 4386,
      "Ġkon": 4387,
      "Ġfre": 4388,
      "ĠReg": 4389,
      "erman": 4390,
      "ĠAss": 4391,
      "Form": 4392,
      "aran": 4393,
      "Ġה": 4394,
      "Ġser": 4395,
      "нд": 4396,
      "At": 4397,
      "Ġü": 4398,
      "rick": 4399,
      "aph": 4400,
      "TA": 4401,
      "riter": 4402,
      "ases": 4403,
      "bra": 4404,
      "igu": 4405,
      "Ġvis": 4406,
      "ба": 4407,
      "ej": 4408,
      "Ġmis": 4409,
      "Sub": 4410,
      "tra": 4411,
      "uffer": 4412,
      "Ġinform": 4413,
      "Ġdiss": 4414,
      "rob": 4415,
      "Ġgu": 4416,
      "ĠEr": 4417,
      "ден": 4418,
      "ired": 4419,
      "ระ": 4420,
      "Ġprom": 4421,
      "ories": 4422,
      "Ġfac": 4423,
      "net": 4424,
      "ха": 4425,
      "Ġме": 4426,
      "roc": 4427,
      "Ġmic": 4428,
      "şt": 4429,
      "Ġgen": 4430,
      "izz": 4431,
      "CI": 4432,
      "shire": 4433,
      "ها": 4434,
      "スト": 4435,
      "про": 4436,
      "Ġdisp": 4437,
      "last": 4438,
      "oles": 4439,
      "si": 4440,
      "nik": 4441,
      "ない": 4442,
      "unct": 4443,
      "ows": 4444,
      "änd": 4445,
      "umn": 4446,
      "itter": 4447,
      "це": 4448,
      "Ġأ": 4449,
      "Ġprot": 4450,
      "inu": 4451,
      "BC": 4452,
      "Ġtri": 4453,
      "aud": 4454,
      "lem": 4455,
      "Line": 4456,
      "Ġeff": 4457,
      "het": 4458,
      "Component": 4459,
      "Ġcu": 4460,
      "ikan": 4461,
      "ista": 4462,
      "older": 4463,
      "ei": 4464,
      "log": 4465,
      "osa": 4466,
      "Ġren": 4467,
      "رف": 4468,
      "QU": 4469,
      "emat": 4470,
      "AV": 4471,
      "ols": 4472,
      "ESS": 4473,
      "ecial": 4474,
      "Ġالأ": 4475,
      "hip": 4476,
      "Ġcoll": 4477,
      "Ġمع": 4478,
      "ρα": 4479,
      "anda": 4480,
      "Not": 4481,
      "cher": 4482,
      "PR": 4483,
      "avor": 4484,
      "ĠOb": 4485,
      "inder": 4486,
      "Ġexc": 4487,
      "uns": 4488,
      "arth": 4489,
      "oi": 4490,
      "لو": 4491,
      "Rec": 4492,
      "Ġid": 4493,
      "вет": 4494,
      "ном": 4495,
      "ĠSl": 4496,
      "itions": 4497,
      "рі": 4498,
      "arget": 4499,
      "iers": 4500,
      "hib": 4501,
      "Menu": 4502,
      "ario": 4503,
      "mas": 4504,
      "iem": 4505,
      "gr": 4506,
      "する": 4507,
      "aul": 4508,
      "rest": 4509,
      "iner": 4510,
      "aries": 4511,
      "DR": 4512,
      "tn": 4513,
      "ends": 4514,
      "ialog": 4515,
      "Ġvi": 4516,
      "gg": 4517,
      "бу": 4518,
      "же": 4519,
      "ecut": 4520,
      "Ġالا": 4521,
      "ĠST": 4522,
      "On": 4523,
      "Ġseg": 4524,
      "osis": 4525,
      "iam": 4526,
      "ades": 4527,
      "cup": 4528,
      "wi": 4529,
      "жен": 4530,
      "Ġport": 4531,
      "ela": 4532,
      "ím": 4533,
      "Ġbeg": 4534,
      "Det": 4535,
      "uring": 4536,
      "amil": 4537,
      "riz": 4538,
      "Ġing": 4539,
      "ĠRes": 4540,
      "ĠAt": 4541,
      "inst": 4542,
      "geb": 4543,
      "بي": 4544,
      "او": 4545,
      "Ġда": 4546,
      "Start": 4547,
      "Ġhal": 4548,
      "Page": 4549,
      "nam": 4550,
      "Ġالس": 4551,
      "We": 4552,
      "ור": 4553,
      "han": 4554,
      "érie": 4555,
      "Rep": 4556,
      "ova": 4557,
      "Ġden": 4558,
      "ელ": 4559,
      "üh": 4560,
      "aire": 4561,
      "Ġč": 4562,
      "تا": 4563,
      "tern": 4564,
      "ills": 4565,
      "ivid": 4566,
      "rot": 4567,
      "ĠО": 4568,
      "ekt": 4569,
      "akes": 4570,
      "Ġpen": 4571,
      "api": 4572,
      "ĠPal": 4573,
      "lie": 4574,
      "Select": 4575,
      "eda": 4576,
      "гу": 4577,
      "ám": 4578,
      "ĠМ": 4579,
      "ader": 4580,
      "anger": 4581,
      "dec": 4582,
      "enth": 4583,
      "umm": 4584,
      "Web": 4585,
      "ĠР": 4586,
      "ately": 4587,
      "ერ": 4588,
      "тив": 4589,
      "gress": 4590,
      "Ġsa": 4591,
      "τε": 4592,
      "ential": 4593,
      "Pos": 4594,
      "сле": 4595,
      "jo": 4596,
      "db": 4597,
      "hab": 4598,
      "chem": 4599,
      "ches": 4600,
      "ERS": 4601,
      "ĠAll": 4602,
      "itu": 4603,
      "არ": 4604,
      "ising": 4605,
      "Go": 4606,
      "van": 4607,
      "amera": 4608,
      "ahan": 4609,
      "PA": 4610,
      "rypt": 4611,
      "ella": 4612,
      "hand": 4613,
      "Ġbel": 4614,
      "нда": 4615,
      "Ġdeb": 4616,
      "otic": 4617,
      "اری": 4618,
      "ister": 4619,
      "rame": 4620,
      "uls": 4621,
      "Ġsam": 4622,
      "зу": 4623,
      "ĠInd": 4624,
      "ĠCom": 4625,
      "iler": 4626,
      "ared": 4627,
      "ĠNe": 4628,
      "imo": 4629,
      "اه": 4630,
      "ECT": 4631,
      "bb": 4632,
      "hav": 4633,
      "ables": 4634,
      "Style": 4635,
      "اک": 4636,
      "ords": 4637,
      "resh": 4638,
      "يم": 4639,
      "Ġта": 4640,
      "As": 4641,
      "ijk": 4642,
      "Mode": 4643,
      "open": 4644,
      "And": 4645,
      "Down": 4646,
      "II": 4647,
      "ĠCH": 4648,
      "Ġpred": 4649,
      "aka": 4650,
      "MP": 4651,
      "DK": 4652,
      "ár": 4653,
      "Api": 4654,
      "ls": 4655,
      "file": 4656,
      "abil": 4657,
      "Ġback": 4658,
      "Ġelect": 4659,
      "Back": 4660,
      "arp": 4661,
      "Ġfin": 4662,
      "inh": 4663,
      "ĠИ": 4664,
      "です": 4665,
      "ref": 4666,
      "cs": 4667,
      "roid": 4668,
      "IO": 4669,
      "agen": 4670,
      "Message": 4671,
      "eller": 4672,
      "тов": 4673,
      "Client": 4674,
      "Ġdiff": 4675,
      "ści": 4676,
      "egr": 4677,
      "CR": 4678,
      "iya": 4679,
      "eric": 4680,
      "ocket": 4681,
      "ке": 4682,
      "ĠAnd": 4683,
      "ĠWe": 4684,
      "ourn": 4685,
      "SO": 4686,
      "تب": 4687,
      "LL": 4688,
      "aux": 4689,
      "udent": 4690,
      "erson": 4691,
      "ння": 4692,
      "ground": 4693,
      "imento": 4694,
      "ĠRep": 4695,
      "Ġcan": 4696,
      "ĠRec": 4697,
      "Ġphot": 4698,
      "یں": 4699,
      "Panel": 4700,
      "aker": 4701,
      "iness": 4702,
      "lection": 4703,
      "ρο": 4704,
      "าย": 4705,
      "iri": 4706,
      "evel": 4707,
      "Ġsuper": 4708,
      "Ġvo": 4709,
      "Ġexpl": 4710,
      "ason": 4711,
      "мы": 4712,
      "icip": 4713,
      "rz": 4714,
      "ache": 4715,
      "Ġve": 4716,
      "aly": 4717,
      "Ġhyp": 4718,
      "Trans": 4719,
      "Ġps": 4720,
      "ival": 4721,
      "Ġpod": 4722,
      "こと": 4723,
      "кра": 4724,
      "Ġtem": 4725,
      "ibility": 4726,
      "well": 4727,
      "ably": 4728,
      "ryst": 4729,
      "rupt": 4730,
      "uen": 4731,
      "Auth": 4732,
      "ipl": 4733,
      "став": 4734,
      "oper": 4735,
      "ended": 4736,
      "arant": 4737,
      "ynam": 4738,
      "udi": 4739,
      "ye": 4740,
      "amento": 4741,
      "Ġvers": 4742,
      "ĠGr": 4743,
      "hor": 4744,
      "ams": 4745,
      "ĠТ": 4746,
      "ід": 4747,
      "イン": 4748,
      "current": 4749,
      "Ġbil": 4750,
      "lob": 4751,
      "anding": 4752,
      "сту": 4753,
      "GF": 4754,
      "eft": 4755,
      "Star": 4756,
      "دا": 4757,
      "اہ": 4758,
      "SI": 4759,
      "econd": 4760,
      "reet": 4761,
      "work": 4762,
      "ショ": 4763,
      "MC": 4764,
      "iev": 4765,
      "aires": 4766,
      "other": 4767,
      "elles": 4768,
      "Ġgener": 4769,
      "ria": 4770,
      "ceed": 4771,
      "вы": 4772,
      "ploy": 4773,
      "wh": 4774,
      "esis": 4775,
      "ĠAc": 4776,
      "aga": 4777,
      "icks": 4778,
      "Ġsyn": 4779,
      "ín": 4780,
      "Ġmill": 4781,
      "ums": 4782,
      "ное": 4783,
      "یت": 4784,
      "зова": 4785,
      "Ġur": 4786,
      "Ġdig": 4787,
      "ished": 4788,
      "له": 4789,
      "Token": 4790,
      "itting": 4791,
      "ів": 4792,
      "Ġbro": 4793,
      "URE": 4794,
      "Ġunder": 4795,
      "Ġmer": 4796,
      "aces": 4797,
      "ifer": 4798,
      "New": 4799,
      "enti": 4800,
      "ward": 4801,
      "dz": 4802,
      "سم": 4803,
      "ĠД": 4804,
      "ike": 4805,
      "ifier": 4806,
      "CON": 4807,
      "rog": 4808,
      "izer": 4809,
      "ota": 4810,
      "Ġmat": 4811,
      "Ġeg": 4812,
      "rug": 4813,
      "osp": 4814,
      "ĠEst": 4815,
      "upp": 4816,
      "draw": 4817,
      "alth": 4818,
      "Ġmel": 4819,
      "alam": 4820,
      "iting": 4821,
      "Ġсу": 4822,
      "zn": 4823,
      "VER": 4824,
      "ander": 4825,
      "ori": 4826,
      "ça": 4827,
      "itar": 4828,
      "des": 4829,
      "rown": 4830,
      "ან": 4831,
      "Ġfran": 4832,
      "Ġх": 4833,
      "Url": 4834,
      "Ed": 4835,
      "XX": 4836,
      "ная": 4837,
      "ят": 4838,
      "ained": 4839,
      "Ġmagn": 4840,
      "ĠAng": 4841,
      "PM": 4842,
      "igned": 4843,
      "rij": 4844,
      "니다": 4845,
      "ство": 4846,
      "eva": 4847,
      "ние": 4848,
      "oid": 4849,
      "PE": 4850,
      "Ġالن": 4851,
      "Ġпред": 4852,
      "цен": 4853,
      "ĠMcC": 4854,
      "rio": 4855,
      "iki": 4856,
      "él": 4857,
      "ropri": 4858,
      "ously": 4859,
      "vest": 4860,
      "وان": 4861,
      "oms": 4862,
      "ĠMah": 4863,
      "ました": 4864,
      "یل": 4865,
      "Ġö": 4866,
      "oa": 4867,
      "eless": 4868,
      "ITY": 4869,
      "data": 4870,
      "ージ": 4871,
      "ingu": 4872,
      "ystem": 4873,
      "asis": 4874,
      "ĠTr": 4875,
      "ĠBro": 4876,
      "Conn": 4877,
      "ypes": 4878,
      "ision": 4879,
      "تم": 4880,
      "Ġто": 4881,
      "opy": 4882,
      "ĠMe": 4883,
      "aciones": 4884,
      "Ġса": 4885,
      "ита": 4886,
      "ORT": 4887,
      "hal": 4888,
      "ĠCons": 4889,
      "action": 4890,
      "Ġuse": 4891,
      "یز": 4892,
      "lj": 4893,
      "lass": 4894,
      "eto": 4895,
      "ocument": 4896,
      "Ġالق": 4897,
      "astic": 4898,
      "aler": 4899,
      "يك": 4900,
      "ĠBel": 4901,
      "Add": 4902,
      "Ġcurrent": 4903,
      "Ġkn": 4904,
      "ным": 4905,
      "Response": 4906,
      "Ġالح": 4907,
      "ined": 4908,
      "aking": 4909,
      "SRP": 4910,
      "าร": 4911,
      "ights": 4912,
      "argin": 4913,
      "Header": 4914,
      "iten": 4915,
      "ustom": 4916,
      "бе": 4917,
      "ration": 4918,
      "ĠDe": 4919,
      "Ġinfl": 4920,
      "quis": 4921,
      "ск": 4922,
      "GE": 4923,
      "anth": 4924,
      "aa": 4925,
      "صل": 4926,
      "Dec": 4927,
      "ĠSte": 4928,
      "ĠН": 4929,
      "BA": 4930,
      "ims": 4931,
      "ension": 4932,
      "cient": 4933,
      "otal": 4934,
      "Params": 4935,
      "Cre": 4936,
      "ша": 4937,
      "har": 4938,
      "рга": 4939,
      "اء": 4940,
      "ности": 4941,
      "Status": 4942,
      "ouv": 4943,
      "μα": 4944,
      "Ġअ": 4945,
      "ief": 4946,
      "ენ": 4947,
      "DB": 4948,
      "Ġком": 4949,
      "stitut": 4950,
      "find": 4951,
      "Ġnov": 4952,
      "osh": 4953,
      "arrow": 4954,
      "ession": 4955,
      "iance": 4956,
      "SR": 4957,
      "esi": 4958,
      "ignment": 4959,
      "cy": 4960,
      "Ġمح": 4961,
      "Av": 4962,
      "Ġsil": 4963,
      "DI": 4964,
      "Ġlog": 4965,
      "bs": 4966,
      "imal": 4967,
      "ões": 4968,
      "Ġcle": 4969,
      "uts": 4970,
      "eger": 4971,
      "Us": 4972,
      "Ġmal": 4973,
      "outh": 4974,
      "Init": 4975,
      "eff": 4976,
      "lam": 4977,
      "Ġbar": 4978,
      "print": 4979,
      "Ġε": 4980,
      "war": 4981,
      "Ġple": 4982,
      "Ġconc": 4983,
      "under": 4984,
      "Ġof": 4985,
      "Ġadj": 4986,
      "oring": 4987,
      "AND": 4988,
      "ĠInt": 4989,
      "rint": 4990,
      "ged": 4991,
      "Ġresp": 4992,
      "class": 4993,
      "лек": 4994,
      "Rout": 4995,
      "space": 4996,
      "eni": 4997,
      "います": 4998,
      "fort": 4999,
      "TE": 5000,
      "sz": 5001,
      "Ġpur": 5002,
      "Ġho": 5003,
      "ker": 5004,
      "ĠSm": 5005,
      "ĠIs": 5006,
      "Output": 5007,
      "lay": 5008,
      "Ġok": 5009,
      "pear": 5010,
      "itan": 5011,
      "Ġi": 5012,
      "echn": 5013,
      "ried": 5014,
      "def": 5015,
      "UD": 5016,
      "qual": 5017,
      "inger": 5018,
      "ĠRE": 5019,
      "Ġط": 5020,
      "roller": 5021,
      "ibus": 5022,
      "يل": 5023,
      "ART": 5024,
      "ands": 5025,
      "ients": 5026,
      "ored": 5027,
      "Var": 5028,
      "opt": 5029,
      "یس": 5030,
      "ân": 5031,
      "erial": 5032,
      "iva": 5033,
      "aik": 5034,
      "ık": 5035,
      "خت": 5036,
      "Ġbet": 5037,
      "Ġkar": 5038,
      "ested": 5039,
      "alar": 5040,
      "rey": 5041,
      "Ġتع": 5042,
      "Buffer": 5043,
      "kin": 5044,
      "Ġmy": 5045,
      "Ġnh": 5046,
      "cons": 5047,
      "esse": 5048,
      "ises": 5049,
      "Ġlocal": 5050,
      "prop": 5051,
      "Build": 5052,
      "vid": 5053,
      "ĠInter": 5054,
      "iente": 5055,
      "ography": 5056,
      "ML": 5057,
      "Ġprim": 5058,
      "part": 5059,
      "Ġder": 5060,
      "mark": 5061,
      "rea": 5062,
      "Ġpri": 5063,
      "inct": 5064,
      "oir": 5065,
      "xy": 5066,
      "iert": 5067,
      "End": 5068,
      "رح": 5069,
      "mon": 5070,
      "orld": 5071,
      "RA": 5072,
      "ĠCal": 5073,
      "Ġси": 5074,
      "Exp": 5075,
      "py": 5076,
      "lan": 5077,
      "gar": 5078,
      "idget": 5079,
      "ĠMod": 5080,
      "rer": 5081,
      "Ġeng": 5082,
      "BL": 5083,
      "win": 5084,
      "rect": 5085,
      "зо": 5086,
      "uter": 5087,
      "Ġten": 5088,
      "Ġult": 5089,
      "ga": 5090,
      "вто": 5091,
      "añ": 5092,
      "Sw": 5093,
      "рт": 5094,
      "kow": 5095,
      "Ġorgan": 5096,
      "éri": 5097,
      "emos": 5098,
      "rah": 5099,
      "omy": 5100,
      "ươ": 5101,
      "ность": 5102,
      "TC": 5103,
      "رم": 5104,
      "fol": 5105,
      "ント": 5106,
      "script": 5107,
      "при": 5108,
      "iction": 5109,
      "Ġpor": 5110,
      "Per": 5111,
      "face": 5112,
      "emia": 5113,
      "Ġру": 5114,
      "اح": 5115,
      "ĠSub": 5116,
      "ront": 5117,
      "Ġfort": 5118,
      "agon": 5119,
      "ĠГ": 5120,
      "ption": 5121,
      "сі": 5122,
      "RI": 5123,
      "xim": 5124,
      "رس": 5125,
      "rade": 5126,
      "pol": 5127,
      "owing": 5128,
      "Ġхо": 5129,
      "ds": 5130,
      "ued": 5131,
      "PP": 5132,
      "ства": 5133,
      "ĠAcc": 5134,
      "ĠBo": 5135,
      "illing": 5136,
      "fully": 5137,
      "iser": 5138,
      "igo": 5139,
      "Ġgra": 5140,
      "LO": 5141,
      "ormal": 5142,
      "وز": 5143,
      "link": 5144,
      "Ġil": 5145,
      "ti": 5146,
      "Dialog": 5147,
      "Link": 5148,
      "elet": 5149,
      "<UNK>": 5150
    },
    "merges": [
      "e r",
      "i n",
      "e n",
      "o n",
      "a n",
      "e s",
      "a t",
      "a r",
      "a l",
      "o r",
      "e d",
      "s t",
      "i t",
      "i c",
      "r e",
      "Ġ c",
      "Ġ p",
      "Ġ s",
      "l e",
      "in g",
      "r o",
      "e t",
      "i s",
      "e l",
      "en t",
      "i on",
      "r a",
      "Ġ d",
      "c h",
      "a s",
      "u n",
      "a m",
      "i l",
      "Ġ m",
      "Ġ t",
      "o l",
      "a d",
      "Ġ S",
      "u r",
      "o m",
      "u t",
      "Ġ C",
      "a c",
      "Ġ b",
      "i d",
      "u s",
      "e m",
      "o s",
      "i m",
      "u l",
      "Ġ M",
      "Ġ f",
      "i g",
      "c t",
      "Ġ P",
      "Ġ A",
      "Ġ B",
      "a b",
      "a g",
      "o t",
      "r i",
      "Ġ g",
      "u m",
      "a p",
      "Ġ h",
      "i v",
      "er s",
      "o d",
      "Ġ v",
      "i r",
      "q u",
      "at ion",
      "Ġ n",
      "Ġ D",
      "es t",
      "Ġ T",
      "Ġ l",
      "Ġ R",
      "o c",
      "Ġ in",
      "Ġ re",
      "i e",
      "o p",
      "e x",
      "c e",
      "Ġ k",
      "a k",
      "an t",
      "Ġ G",
      "i st",
      "an d",
      "Ġ H",
      "ا ل",
      "Ġ E",
      "es s",
      "e c",
      "o w",
      "t er",
      "a y",
      "Ġ F",
      "o g",
      "Ġ L",
      "l y",
      "i a",
      "at e",
      "i z",
      "с т",
      "Ġ r",
      "a v",
      "i f",
      "en d",
      "o v",
      "Ġ w",
      "i p",
      "Ġ N",
      "Ġc on",
      "u p",
      "Ġ п",
      "u b",
      "an g",
      "Ġ K",
      "t h",
      "e g",
      "I n",
      "е н",
      "u d",
      "i b",
      "i k",
      "р а",
      "Ġ W",
      "Ġ ال",
      "t e",
      "o b",
      "e ct",
      "in e",
      "f f",
      "p l",
      "a h",
      "Ġ a",
      "Ġ st",
      "о в",
      "er t",
      "ar t",
      "u g",
      "e p",
      "en s",
      "el l",
      "Ġ V",
      "p h",
      "a st",
      "ar d",
      "o k",
      "i o",
      "il l",
      "as s",
      "on t",
      "e v",
      "or t",
      "u c",
      "un d",
      "Ġp ro",
      "i es",
      "h t",
      "p t",
      "m ent",
      "it y",
      "i al",
      "al l",
      "Ġ j",
      "н о",
      "н а",
      "i an",
      "Ġc h",
      "e f",
      "e b",
      "Ġ с",
      "n e",
      "ab le",
      "at h",
      "е р",
      "Ġ O",
      "Ġ I",
      "in d",
      "S t",
      "iv e",
      "Ġ J",
      "om p",
      "un g",
      "р о",
      "r an",
      "ag e",
      "s e",
      "or d",
      "к о",
      "in t",
      "p e",
      "Ġ ex",
      "c l",
      "h e",
      "r es",
      "n g",
      "o ur",
      "Ġ م",
      "u st",
      "Ġ un",
      "g et",
      "Ġ e",
      "o st",
      "ul t",
      "or m",
      "u re",
      "e k",
      "r ic",
      "y l",
      "en c",
      "к а",
      "er m",
      "o ut",
      "н и",
      "i re",
      "р и",
      "E R",
      "at ed",
      "Ġ в",
      "u e",
      "a ch",
      "ac k",
      "Ġ о",
      "l l",
      "i er",
      "ا ن",
      "a z",
      "e y",
      "Ġ z",
      "Ġ U",
      "or s",
      "р е",
      "a in",
      "л и",
      "o u",
      "Ġs p",
      "i le",
      "e w",
      "at t",
      "o us",
      "л а",
      "r y",
      "ion s",
      "s p",
      "on d",
      "a w",
      "o x",
      "on s",
      "O N",
      "ac t",
      "u k",
      "p er",
      "ic h",
      "a j",
      "er v",
      "Ġd is",
      "е т",
      "an n",
      "ا ر",
      "r it",
      "e le",
      "ic al",
      "n d",
      "Ġ ب",
      "c i",
      "Ġp r",
      "ĠC h",
      "er n",
      "ex t",
      "is h",
      "Ġп о",
      "r u",
      "ig n",
      "ic k",
      "en g",
      "s h",
      "y m",
      "л ь",
      "Ġt h",
      "oc k",
      "un t",
      "a u",
      "ar e",
      "l o",
      "Ġ ad",
      "s s",
      "и т",
      "t on",
      "Ġ ا",
      "om m",
      "ig ht",
      "ra d",
      "д а",
      "at a",
      "ar y",
      "Ġ و",
      "ro p",
      "am e",
      "г о",
      "y n",
      "Ġ ap",
      "т о",
      "er e",
      "Ġ im",
      "в а",
      "I N",
      "is s",
      "i ent",
      "Ġ al",
      "p r",
      "b er",
      "Ġ In",
      "ó n",
      "on g",
      "f t",
      "Ġ qu",
      "E N",
      "Ġ le",
      "or e",
      "s c",
      "Ġ ac",
      "s et",
      "ra m",
      "id e",
      "t t",
      "з а",
      "i el",
      "em ent",
      "en ce",
      "g e",
      "i j",
      "Ġ м",
      "Ġ д",
      "s k",
      "qu e",
      "н е",
      "н ы",
      "y a",
      "an c",
      "E S",
      "ie w",
      "j ect",
      "ar k",
      "т и",
      "e h",
      "ĠS t",
      "e z",
      "Ġs h",
      "O R",
      "t o",
      "ro m",
      "т а",
      "c o",
      "a x",
      "in s",
      "it e",
      "od e",
      "l es",
      "a il",
      "A R",
      "ation s",
      "A N",
      "y s",
      "Ġ ar",
      "л е",
      "p p",
      "Ġ ت",
      "at or",
      "ol l",
      "as h",
      "ar i",
      "v er",
      "Ġp l",
      "Ġs c",
      "A T",
      "r on",
      "ic e",
      "al e",
      "л о",
      "an ce",
      "n a",
      "ol d",
      "o y",
      "ro w",
      "C h",
      "Ġ б",
      "Ġp re",
      "h er",
      "em b",
      "ен и",
      "r ing",
      "Ġ y",
      "т е",
      "Ġr es",
      "A L",
      "iz e",
      "I C",
      "it t",
      "ct ion",
      "et t",
      "S T",
      "l i",
      "a i",
      "ow n",
      "am p",
      "im e",
      "an e",
      "ic a",
      "I T",
      "f er",
      "Ġc omp",
      "y pe",
      "le t",
      "on e",
      "ad o",
      "ing s",
      "Ġ an",
      "il d",
      "ri b",
      "w e",
      "в о",
      "Ġre c",
      "Ġ ل",
      "м а",
      "er c",
      "in k",
      "ا ت",
      "is e",
      "o h",
      "u al",
      "Ġ س",
      "Ġc l",
      "Ġ у",
      "ĠS h",
      "к и",
      "Ġcon t",
      "Ġ en",
      "p ro",
      "L E",
      "ra c",
      "i en",
      "ul l",
      "r at",
      "es c",
      "Ġ ab",
      "Ġ ro",
      "f l",
      "it h",
      "m an",
      "ar g",
      "f orm",
      "i x",
      "h o",
      "ad d",
      "м и",
      "as e",
      "U R",
      "r ed",
      "v e",
      "an s",
      "A r",
      "b o",
      "р у",
      "an a",
      "et h",
      "ar s",
      "ov er",
      "Ġs ub",
      "in a",
      "Ġc o",
      "r en",
      "ac e",
      "ran s",
      "Ġ ко",
      "ا م",
      "er g",
      "é s",
      "ic t",
      "Ġ Z",
      "p ut",
      "am b",
      "a ir",
      "n t",
      "el y",
      "ur s",
      "C ont",
      "д и",
      "I D",
      "i ed",
      "Ġp h",
      "C l",
      "T o",
      "Ġ и",
      "at i",
      "i ón",
      "m a",
      "r ess",
      "т ь",
      "C T",
      "al s",
      "ol og",
      "ic s",
      "п о",
      "Ġ ن",
      "Ġ Y",
      "a f",
      "y d",
      "ов а",
      "Ġ o",
      "k s",
      "am ent",
      "Ġp ar",
      "Ġp er",
      "ст а",
      "d u",
      "ce pt",
      "ch e",
      "E x",
      "l er",
      "o j",
      "I S",
      "at ing",
      "Ġ ob",
      "و ر",
      "Ġ на",
      "p os",
      "Ġin ter",
      "Ġ за",
      "l ed",
      "iel d",
      "P ro",
      "u ff",
      "ad e",
      "or n",
      "ĠA r",
      "c on",
      "e ar",
      "ra y",
      "و ن",
      "Ġ د",
      "u ra",
      "is m",
      "es p",
      "re t",
      "ĠM c",
      "en e",
      "o le",
      "Ġ ک",
      "it ion",
      "Ġc om",
      "м о",
      "s on",
      "ap p",
      "с я",
      "e ad",
      "C on",
      "ч а",
      "t r",
      "z e",
      "ra v",
      "V iew",
      "at es",
      "g en",
      "if ic",
      "Ġ Q",
      "at ch",
      "V al",
      "Ġt r",
      "le ct",
      "г а",
      "or y",
      "i um",
      "ã o",
      "y p",
      "R E",
      "ar m",
      "at er",
      "ad a",
      "I ON",
      "o od",
      "ی ن",
      "Ġ é",
      "ц и",
      "n o",
      "at o",
      "Ġ к",
      "ul ar",
      "k a",
      "Ġin d",
      "Ġin t",
      "Ġ ra",
      "Ġ am",
      "i y",
      "O b",
      "I d",
      "p ort",
      "е м",
      "с и",
      "é r",
      "Ġال م",
      "o z",
      "в и",
      "Ġb l",
      "Ġ er",
      "et er",
      "Ġf l",
      "c c",
      "u j",
      "T ype",
      "A M",
      "a ut",
      "Ġ а",
      "in c",
      "ot h",
      "n er",
      "t em",
      "ĠA l",
      "k e",
      "u f",
      "Ġ em",
      "н я",
      "д е",
      "e qu",
      "y t",
      "L ist",
      "v ent",
      "e ch",
      "it s",
      "le ment",
      "s er",
      "ra ph",
      "Ġ ent",
      "Ġ ر",
      "N ame",
      "ri v",
      "l a",
      "i h",
      "ĠS ch",
      "us h",
      "س ت",
      "ar a",
      "et s",
      "al t",
      "y st",
      "m e",
      "us s",
      "Ġ op",
      "b e",
      "k an",
      "ot t",
      "Ġ ра",
      "C H",
      "S E",
      "ra ct",
      "ا ب",
      "r id",
      "Ġ ج",
      "e e",
      "х о",
      "ol or",
      "iz ed",
      "b l",
      "l and",
      "n i",
      "er y",
      "Ġs l",
      "ا د",
      "Ġ ف",
      "Ġcon s",
      "u y",
      "el s",
      "or k",
      "s ch",
      "Ob ject",
      "re g",
      "r or",
      "k t",
      "Ġп ро",
      "Ġ est",
      "á n",
      "m in",
      "ro s",
      "C omp",
      "h a",
      "a is",
      "Ġ ant",
      "ent s",
      "و ل",
      "Ġ ع",
      "p ar",
      "ion al",
      "E D",
      "Ġd ec",
      "л я",
      "ro ll",
      "Ġ as",
      "o und",
      "o f",
      "о б",
      "u x",
      "Ġv er",
      "an k",
      "r ent",
      "Ġs up",
      "p s",
      "z a",
      "le y",
      "ra w",
      "Ġd es",
      "os s",
      "ug h",
      "io us",
      "at s",
      "in i",
      "ĠP ro",
      "g l",
      "or g",
      "p o",
      "ر ی",
      "er ed",
      "I m",
      "U T",
      "Val ue",
      "Ġin c",
      "D ata",
      "en n",
      "il ity",
      "EN T",
      "is c",
      "d e",
      "ن ا",
      "en er",
      "к у",
      "ru ct",
      "ut e",
      "t s",
      "um b",
      "h am",
      "ст и",
      "ib le",
      "u ch",
      "I L",
      "it i",
      "ur n",
      "Ġac c",
      "Ġ پ",
      "un c",
      "it er",
      "ĠT h",
      "v al",
      "A S",
      "r im",
      "C C",
      "g er",
      "ic o",
      "ст о",
      "ĠC on",
      "ч и",
      "at ive",
      "op h",
      "é t",
      "ig h",
      "S c",
      "ak e",
      "Ġ не",
      "ut ton",
      "O M",
      "u z",
      "Ġ ка",
      "om b",
      "Ġc ar",
      "os e",
      "uc k",
      "м е",
      "P ath",
      "Ġt ra",
      "T ext",
      "I tem",
      "U N",
      "б о",
      "ĠA n",
      "us e",
      "ec k",
      "р ы",
      "Ġ ag",
      "ĠE x",
      "ri pt",
      "ст в",
      "o ch",
      "ur es",
      "u it",
      "r t",
      "д о",
      "m er",
      "ion e",
      "ar n",
      "if f",
      "Ġa ut",
      "R es",
      "Ġd e",
      "ĠS p",
      "m en",
      "ل ا",
      "Ġ خ",
      "A D",
      "u v",
      "ر ا",
      "in n",
      "l ing",
      "i os",
      "or es",
      "a it",
      "in es",
      "it ies",
      "al d",
      "l ic",
      "R O",
      "Ġ und",
      "Ġп ри",
      "н у",
      "п а",
      "н ов",
      "Ġim p",
      "K ey",
      "ç ão",
      "al ly",
      "am a",
      "ĠA d",
      "en a",
      "ж а",
      "P ar",
      "Ġs k",
      "f o",
      "м ен",
      "E T",
      "Ġc or",
      "er a",
      "c ul",
      "ер е",
      "A C",
      "c ess",
      "ag n",
      "c z",
      "ي ن",
      "Ġ at",
      "ac ión",
      "l ar",
      "f ul",
      "v ers",
      "st it",
      "ut t",
      "an i",
      "om e",
      "Ġt er",
      "Ġd é",
      "ч е",
      "Ġ is",
      "Ġs e",
      "Ġre t",
      "o unt",
      "ro up",
      "ant s",
      "Ġt rans",
      "j e",
      "in o",
      "Ġ el",
      "c k",
      "le g",
      "s l",
      "Ġ т",
      "Ġd ef",
      "ay s",
      "r is",
      "A P",
      "Ġg l",
      "ا ئ",
      "il i",
      "Ġp ol",
      "Ġ ش",
      "ĠB l",
      "E r",
      "im ent",
      "em p",
      "ra s",
      "Ġm an",
      "st r",
      "P l",
      "E L",
      "iz ation",
      "l d",
      "é n",
      "Ġm en",
      "в е",
      "o ok",
      "S h",
      "i qu",
      "n ess",
      "id o",
      "Ġ з",
      "ra g",
      "t en",
      "v is",
      "as k",
      "n c",
      "Ġn e",
      "O L",
      "ur g",
      "ri st",
      "Ġg et",
      "Ġ ф",
      "a ff",
      "pl ic",
      "Ġ ass",
      "Ġd i",
      "F ile",
      "A G",
      "B utton",
      "л у",
      "ap t",
      "ĠR e",
      "I M",
      "j a",
      "id d",
      "av e",
      "ar b",
      "с а",
      "Ġre g",
      "O f",
      "um ber",
      "Ġо б",
      "or a",
      "l ine",
      "o o",
      "al a",
      "Ġ ev",
      "u h",
      "In d",
      "A d",
      "д у",
      "Ġc omm",
      "er d",
      "f e",
      "at ic",
      "ı n",
      "er ing",
      "f ig",
      "in al",
      "Ġr é",
      "Ġp ers",
      "ip p",
      "S erv",
      "v i",
      "p re",
      "ĠS c",
      "em e",
      "S ize",
      "m o",
      "ed i",
      "ш и",
      "ит ь",
      "y ch",
      "Ġc re",
      "ical ly",
      "Ġ out",
      "M od",
      "id ad",
      "Ġ ре",
      "Ġc ur",
      "Ġ av",
      "ени я",
      "ot s",
      "at iv",
      "г и",
      "Ġو ال",
      "v en",
      "um p",
      "l ich",
      "l ess",
      "Ġд о",
      "l t",
      "Er ror",
      "IN G",
      "an o",
      "I G",
      "п е",
      "i et",
      "Ġre f",
      "п и",
      "Ġs et",
      "ag er",
      "at ur",
      "St ring",
      "ate g",
      "Ġc ol",
      "y le",
      "ま す",
      "ов о",
      "S p",
      "Ġ ح",
      "E M",
      "л ю",
      "id er",
      "u le",
      "ent e",
      "o ol",
      "i ra",
      "P S",
      "er o",
      "er r",
      "Ġg r",
      "Ġ att",
      "ar c",
      "ar l",
      "M an",
      "il le",
      "Ġ ut",
      "ag es",
      "Ġ oc",
      "ĠC l",
      "and o",
      "st e",
      "Ġ X",
      "og raph",
      "Ġ г",
      "Ġre m",
      "ن د",
      "I V",
      "ит е",
      "re e",
      "ament e",
      "ut h",
      "m et",
      "r d",
      "ا ع",
      "Ġс о",
      "O T",
      "Ġв ы",
      "м у",
      "ang e",
      "y c",
      "v el",
      "ĠP h",
      "S P",
      "ro l",
      "Ġ ol",
      "Ġ ق",
      "Ġre l",
      "Ar ray",
      "re am",
      "Ġf or",
      "h r",
      "i or",
      "y cl",
      "ж и",
      "Ġp art",
      "Ġ ed",
      "é d",
      "iv ers",
      "Ġm od",
      "oc al",
      "r al",
      "t a",
      "B y",
      "re c",
      "ele ct",
      "um ent",
      "ant e",
      "é e",
      "du ct",
      "v ert",
      "Ġ x",
      "Ġ đ",
      "a o",
      "I P",
      "ا ی",
      "b ar",
      "rac k",
      "Ġ over",
      "v ol",
      "it o",
      "h i",
      "ر ي",
      "re ad",
      "el le",
      "á l",
      "Ġm on",
      "Ġ up",
      "е й",
      "Ġin f",
      "f ord",
      "if y",
      "S C",
      "al i",
      "Ind ex",
      "Ġex t",
      "っ て",
      "re m",
      "n h",
      "Im age",
      "enc y",
      "U M",
      "Ġ or",
      "In t",
      "St ate",
      "ĠG u",
      "ic ht",
      "n s",
      "it a",
      "A pp",
      "Ġs ch",
      "т у",
      "Ġm ult",
      "c ont",
      "y r",
      "b ack",
      "g u",
      "b y",
      "ar ch",
      "ut ion",
      "T ime",
      "н і",
      "Ġw h",
      "Ġh e",
      "re en",
      "I A",
      "c ur",
      "с о",
      "Par am",
      "in ter",
      "ow er",
      "ra in",
      "ra p",
      "F ield",
      "ion es",
      "v a",
      "un k",
      "Ġо т",
      "s ub",
      "Ġd ep",
      "ic i",
      "Ġп ре",
      "il es",
      "Ġin s",
      "و ا",
      "з и",
      "o ul",
      "é g",
      "ir m",
      "g o",
      "Ġd ist",
      "ĠQ u",
      "o ot",
      "Ġv ol",
      "ap s",
      "ian s",
      "Ġ С",
      "i que",
      "Ġ us",
      "al es",
      "u i",
      "Ġм о",
      "Ġp ost",
      "Ġ В",
      "im a",
      "U S",
      "b r",
      "ü r",
      "ی ر",
      "Ġ آ",
      "our ce",
      "re l",
      "ud e",
      "eg o",
      "с ко",
      "I R",
      "Ġb er",
      "ri e",
      "equ est",
      "í a",
      "ي ة",
      "f or",
      "Ġل ل",
      "o ff",
      "ay a",
      "ay out",
      "ment s",
      "m l",
      "á s",
      "ĠP l",
      "Ġcon f",
      "v o",
      "ar r",
      "Ġs w",
      "c ent",
      "lo ad",
      "Ġb e",
      "C olor",
      "ст ь",
      "i as",
      "A l",
      "b le",
      "Ġs ol",
      "л ен",
      "ot o",
      "с е",
      "т ы",
      "Cont ext",
      "rit e",
      "il it",
      "Ġm et",
      "Ġd el",
      "C E",
      "id ent",
      "Ġre p",
      "z i",
      "C L",
      "ro und",
      "cept ion",
      "с ь",
      "ö r",
      "z y",
      "Ġex p",
      "pr ess",
      "ი ს",
      "Ġ end",
      "es e",
      "Ġ ст",
      "р я",
      "el d",
      "ı r",
      "Ġp res",
      "F l",
      "Ġв о",
      "en z",
      "ĠA m",
      "R P",
      "ay er",
      "ect ion",
      "Ġ act",
      "a us",
      "Ġb r",
      "Ġ enc",
      "و م",
      "B S",
      "as c",
      "ا س",
      "و ب",
      "Ġ ov",
      "о р",
      "O C",
      "on ent",
      "ي ر",
      "Ġm in",
      "Ġ od",
      "u a",
      "Ġp ot",
      "m y",
      "ĠL e",
      "m s",
      "C ode",
      "s w",
      "ire ct",
      "Ġc al",
      "n ie",
      "Ġ on",
      "et te",
      "Ġp o",
      "ны х",
      "T R",
      "A B",
      "ل ي",
      "an y",
      "it ch",
      "ri p",
      "Ġ э",
      "le x",
      "el t",
      "ous e",
      "G et",
      "l in",
      "it z",
      "O D",
      "d a",
      "Ġdis c",
      "ud d",
      "i ro",
      "end er",
      "r up",
      "ени е",
      "ir t",
      "ev er",
      "ĠV er",
      "R ef",
      "Ġ es",
      "Ġм а",
      "B ox",
      "u an",
      "р ов",
      "u ild",
      "A ll",
      "Ġd em",
      "Ġst r",
      "o ad",
      "Ġ ang",
      "m p",
      "ĠB e",
      "Ġd o",
      "u es",
      "B l",
      "Ġpro p",
      "it al",
      "op p",
      "و د",
      "ou ch",
      "u er",
      "n y",
      "i i",
      "ac c",
      "ap e",
      "ord er",
      "U p",
      "b ox",
      "ο υ",
      "Ġp os",
      "a e",
      "ut o",
      "it or",
      "a an",
      "Ġap p",
      "Ġ esc",
      "Ġin v",
      "Ġt e",
      "q l",
      "k en",
      "ug ht",
      "ĠU n",
      "od y",
      "Ġw e",
      "T h",
      "о н",
      "п у",
      "enc es",
      "il s",
      "b ol",
      "ab ility",
      "A p",
      "с у",
      "ab b",
      "es h",
      "Ġm e",
      "un ter",
      "iv es",
      "Ġr ed",
      "ation al",
      "ip s",
      "ov e",
      "og g",
      "ны е",
      "E C",
      "Ġp e",
      "ist s",
      "U ser",
      "Ġs m",
      "R equest",
      "at ter",
      "Ġ ep",
      "Ġd ev",
      "il y",
      "est er",
      "P L",
      "ä r",
      "но й",
      "am m",
      "i us",
      "k h",
      "r ig",
      "n al",
      "c re",
      "id es",
      "S A",
      "en u",
      "B ar",
      "Ġ ي",
      "ak t",
      "op e",
      "Ġd et",
      "ر و",
      "ab el",
      "u est",
      "in ation",
      "olog y",
      "z t",
      "n í",
      "G roup",
      "ü n",
      "a int",
      "Ġ all",
      "c ed",
      "F F",
      "im p",
      "ak an",
      "l en",
      "bo ard",
      "In ter",
      "T S",
      "ci ón",
      "Ġ art",
      "ی ک",
      "ic ul",
      "or b",
      "Ġle g",
      "ac ter",
      "ッ ト",
      "ur b",
      "O ut",
      "Ġ emb",
      "D A",
      "v ed",
      "Ġs al",
      "le v",
      "O P",
      "ot e",
      "ე ბ",
      "ra z",
      "al k",
      "st ruct",
      "a ult",
      "д ы",
      "ch en",
      "u el",
      "os ph",
      "י ם",
      "ств ен",
      "Ġ گ",
      "ind ow",
      "ad os",
      "c ol",
      "Ġs ur",
      "c om",
      "S et",
      "ĠF l",
      "id th",
      "u id",
      "Cl ass",
      "á t",
      "h en",
      "Ġ ir",
      "l ad",
      "c a",
      "w a",
      "ic es",
      "Ġ ص",
      "ok en",
      "C P",
      "Ġра з",
      "c es",
      "v iew",
      "um er",
      "Ġn ot",
      "if t",
      "at ors",
      "or th",
      "Ġm ar",
      "ĠE d",
      "m i",
      "un ch",
      "Ġ ann",
      "el er",
      "our s",
      "T H",
      "A ss",
      "p ond",
      "E n",
      "Ġo ff",
      "et e",
      "on ic",
      "с по",
      "し て",
      "ĠE m",
      "S S",
      "v es",
      "P h",
      "im m",
      "ε ι",
      "ak s",
      "a ft",
      "In put",
      "ی د",
      "ist ic",
      "z en",
      "ĠA b",
      "U L",
      "on al",
      "Ġ ه",
      "om et",
      "end o",
      "è re",
      "ي ه",
      "o on",
      "ل ی",
      "C S",
      "I B",
      "ĠE n",
      "or ph",
      "if ied",
      "ol a",
      "щ и",
      "l as",
      "at ure",
      "P re",
      "ro ph",
      "cl us",
      "P C",
      "u ct",
      "et ic",
      "ны й",
      "Ġ ان",
      "d o",
      "U n",
      "ed er",
      "u ro",
      "л і",
      "id s",
      "g ram",
      "Ch ar",
      "ab or",
      "on a",
      "Ġm eng",
      "it ed",
      "L ayout",
      "Ġп а",
      "ul f",
      "ra ft",
      "b re",
      "id a",
      "Ġ ec",
      "ens e",
      "ement s",
      "as i",
      "ĠP ol",
      "c al",
      "Ġt est",
      "Ġf il",
      "é es",
      "oc ation",
      "end e",
      "ric t",
      "it es",
      "но го",
      "erm in",
      "Ġim m",
      "к т",
      "em pl",
      "at us",
      "é c",
      "Man ager",
      "un ic",
      "k y",
      "ul a",
      "Ġf orm",
      "ي د",
      "P rop",
      "l or",
      "Ġ Б",
      "Ġs ec",
      "ا ز",
      "Ġcon v",
      "ĠP r",
      "C ol",
      "ain s",
      "n ow",
      "Ġr est",
      "ch t",
      "ag g",
      "Ġf r",
      "Ġpro f",
      "Ġ А",
      "AT ION",
      "ت ر",
      "ut ter",
      "ĠP ar",
      "ا ف",
      "Ġg e",
      "Ġ ك",
      "し た",
      "Res ult",
      "Ġn eg",
      "at is",
      "π ο",
      "es ch",
      "é m",
      "к ов",
      "ра в",
      "l ig",
      "Ġd esc",
      "ĠH e",
      "ed ia",
      "Ġ те",
      "s erv",
      "z o",
      "ッ ク",
      "at an",
      "Ġg i",
      "ri es",
      "D ef",
      "o e",
      "ر د",
      "on o",
      "c omp",
      "Ġб о",
      "ard s",
      "Ġe qu",
      "ו ת",
      "E lement",
      "ox y",
      "M S",
      "on om",
      "c or",
      "on n",
      "W ith",
      "ĠA g",
      "w ay",
      "Ġ го",
      "f ield",
      "av a",
      "г ра",
      "ne w",
      "Ġ ро",
      "oc i",
      "co unt",
      "ast er",
      "n ot",
      "ra b",
      "ber g",
      "p ath",
      "щ е",
      "org an",
      "ä t",
      "к і",
      "H T",
      "k i",
      "ra f",
      "ĠC ont",
      "α ν",
      "Ġa ff",
      "ch ed",
      "w ood",
      "E vent",
      "F or",
      "o int",
      "an am",
      "il a",
      "Ġ ж",
      "ri f",
      "P T",
      "ead er",
      "it é",
      "ш е",
      "op s",
      "ĠC omp",
      "om er",
      "d en",
      "ant i",
      "Ġv al",
      "A ction",
      "om a",
      "Ġp ub",
      "E m",
      "ie j",
      "eng th",
      "ur t",
      "Ġm a",
      "ĠC or",
      "ĠM ar",
      "Ġ esp",
      "ok e",
      "ir c",
      "ur y",
      "at th",
      "C all",
      "rib ut",
      "Ġ К",
      "ö n",
      "C ount",
      "ح د",
      "و س",
      "N umber",
      "Ġ rad",
      "с ка",
      "Ġf e",
      "it em",
      "Ġh and",
      "в ер",
      "p ect",
      "ur ed",
      "ĠC ar",
      "хо д",
      "iv ity",
      "Ġl a",
      "ц а",
      "c omm",
      "Ġs uc",
      "リ ー",
      "ig en",
      "om en",
      "а н",
      "ol ic",
      "at al",
      "O W",
      "Serv ice",
      "ĠE l",
      "I F",
      "Ġj ed",
      "Ġt ran",
      "d i",
      "st ra",
      "ĠA pp",
      "d uc",
      "o is",
      "en ing",
      "р ова",
      "Ġب ال",
      "Ġut il",
      "Ġc r",
      "Con fig",
      "っ た",
      "I s",
      "Ġd iv",
      "ac y",
      "Ġt o",
      "k o",
      "uc le",
      "ĠC ol",
      "el i",
      "Ġb o",
      "Ġin st",
      "ne y",
      "A Y",
      "am in",
      "ro ss",
      "ed e",
      "al le",
      "ro om",
      "at ri",
      "ĠC o",
      "pl ay",
      "ー ル",
      "Ġб у",
      "Ġp erm",
      "б и",
      "Ġs o",
      "E G",
      "Ġt ro",
      "T able",
      "on es",
      "im b",
      "Ġk h",
      "us c",
      "Ġ ста",
      "yn c",
      "m ap",
      "m ar",
      "os c",
      "ĠI m",
      "t re",
      "eth od",
      "is ed",
      "Ġ П",
      "ail s",
      "Ġs ym",
      "ep t",
      "а й",
      "z er",
      "ĠS e",
      "Ex ception",
      "k ey",
      "ä n",
      "if fer",
      "ф и",
      "om in",
      "Ġ σ",
      "Ġb a",
      "m od",
      "un n",
      "D ate",
      "b it",
      "Ġn g",
      "Mod el",
      "ي ا",
      "l ish",
      "ug g",
      "ー ト",
      "ر ب",
      "ad or",
      "ung en",
      "Ġn ew",
      "Ġb re",
      "L og",
      "Ġ я",
      "те ль",
      "Ġ ز",
      "Ġs v",
      "a ur",
      "G R",
      "M A",
      "h at",
      "ect or",
      "í t",
      "C O",
      "Ġb i",
      "Ġc ap",
      "el f",
      "ear ch",
      "ig e",
      "p en",
      "j s",
      "ib r",
      "ĠB ar",
      "or o",
      "ik a",
      "il t",
      "enc ia",
      "ン グ",
      "ل م",
      "Q u",
      "ĠB r",
      "ю т",
      "Ġa f",
      "H e",
      "Ġt re",
      "Ġко н",
      "ient o",
      "C A",
      "Ġre al",
      "ĠI N",
      "b en",
      "r v",
      "Ġs em",
      "ir es",
      "I ST",
      "Ġl o",
      "t ext",
      "an j",
      "Ġp al",
      "st er",
      "ess age",
      "ب ر",
      "Ġ आ",
      "D S",
      "l ı",
      "Ġ ш",
      "g i",
      "Ġи з",
      "d own",
      "ing ton",
      "Ġh om",
      "yd ro",
      "og en",
      "ı z",
      "po int",
      "з ы",
      "ü l",
      "O S",
      "Ġad d",
      "T est",
      "r um",
      "ĠO r",
      "un e",
      "ar o",
      "Ġs n",
      "Ġm ed",
      "Ġ ч",
      "N ode",
      "Ġs u",
      "ial s",
      "τ α",
      "ific ation",
      "с ки",
      "eth yl",
      "y th",
      "A ct",
      "Ġ چ",
      "ak i",
      "c er",
      "p or",
      "is on",
      "iss ion",
      "an el",
      "av ig",
      "n ame",
      "iz ing",
      "Ġp ass",
      "Ġв и",
      "ер и",
      "Ġ π",
      "on se",
      "ا ش",
      "is p",
      "sk i",
      "ch ar",
      "D E",
      "D P",
      "Ġال ع",
      "ad i",
      "r l",
      "Ar g",
      "od es",
      "ib er",
      "ang an",
      "Ġs im",
      "ol o",
      "ert y",
      "um e",
      "res ent",
      "aw a",
      "C omm",
      "T ER",
      "W indow",
      "min ist",
      "Ġm em",
      "ó w",
      "og n",
      "er k",
      "ет ся",
      "k u",
      "um in",
      "Ġпо д",
      "S M",
      "Ġ ہ",
      "Ġ et",
      "A A",
      "ра н",
      "In fo",
      "Ġm ot",
      "Ġm o",
      "od er",
      "b a",
      "w eb",
      "е к",
      "M ap",
      "l u",
      "Ġال ت",
      "e ep",
      "с ы",
      "a im",
      "ت ی",
      "ι κ",
      "Ġs z",
      "t im",
      "Ġи н",
      "ath er",
      "tt p",
      "Ġم ن",
      "or r",
      "R esp",
      "ни я",
      "Ġp op",
      "ı m",
      "an z",
      "ic os",
      "is i",
      "و ں",
      "Ġh um",
      "ی م",
      "H and",
      "ill a",
      "Ġ ri",
      "ê n",
      "l ik",
      "at en",
      "F A",
      "Ġm ax",
      "Ġ ç",
      "in it",
      "eg a",
      "ĠA p",
      "A tt",
      "ur ch",
      "am i",
      "ĠM on",
      "ul ation",
      "ric h",
      "s m",
      "iv er",
      "n ya",
      "oc us",
      "ig g",
      "л ы",
      "y g",
      "anc es",
      "ی ا",
      "d er",
      "ĠS w",
      "ĠS al",
      "ä h",
      "с си",
      "j i",
      "un a",
      "ĠC omm",
      "g es",
      "ed d",
      "ark s",
      "ĠM an",
      "ment e",
      "Ġc ent",
      "am os",
      "ĠW h",
      "re w",
      "end ing",
      "ator y",
      "ir st",
      "ar es",
      "W idth",
      "on y",
      "ES T",
      "A n",
      "Ġд е",
      "iv o",
      "C o",
      "er i",
      "iv ely",
      "in f",
      "ord in",
      "m at",
      "ic as",
      "Ġd est",
      "et a",
      "B e",
      "Ġp at",
      "Ġpr z",
      "d ate",
      "C M",
      "R e",
      "ug e",
      "Ġcon d",
      "ı nd",
      "л ов",
      "ur al",
      "Ġs ign",
      "Ġh ab",
      "ent ly",
      "en ed",
      "l ist",
      "Ġk on",
      "Ġf re",
      "ĠR eg",
      "erm an",
      "ĠA ss",
      "F orm",
      "ar an",
      "Ġ ה",
      "Ġs er",
      "н д",
      "A t",
      "Ġ ü",
      "ric k",
      "ap h",
      "T A",
      "rit er",
      "as es",
      "b ra",
      "ig u",
      "Ġv is",
      "б а",
      "e j",
      "Ġm is",
      "S ub",
      "t ra",
      "uff er",
      "Ġin form",
      "Ġdis s",
      "ro b",
      "Ġg u",
      "ĠE r",
      "д ен",
      "ir ed",
      "ร ะ",
      "Ġpro m",
      "or ies",
      "Ġf ac",
      "n et",
      "х а",
      "Ġм е",
      "ro c",
      "Ġm ic",
      "ş t",
      "Ġg en",
      "iz z",
      "C I",
      "sh ire",
      "ه ا",
      "ス ト",
      "п ро",
      "Ġdis p",
      "l ast",
      "ol es",
      "s i",
      "n ik",
      "な い",
      "un ct",
      "ow s",
      "ä nd",
      "um n",
      "it ter",
      "ц е",
      "Ġ أ",
      "Ġpro t",
      "in u",
      "B C",
      "Ġt ri",
      "a ud",
      "le m",
      "L ine",
      "Ġe ff",
      "h et",
      "Comp onent",
      "Ġc u",
      "ik an",
      "ist a",
      "old er",
      "e i",
      "l og",
      "os a",
      "Ġr en",
      "ر ف",
      "Q U",
      "em at",
      "A V",
      "ol s",
      "ES S",
      "ec ial",
      "Ġال أ",
      "h ip",
      "Ġc oll",
      "Ġم ع",
      "ρ α",
      "and a",
      "N ot",
      "ch er",
      "P R",
      "av or",
      "ĠO b",
      "ind er",
      "Ġex c",
      "un s",
      "ar th",
      "o i",
      "ل و",
      "R ec",
      "Ġ id",
      "в ет",
      "но м",
      "ĠS l",
      "it ions",
      "р і",
      "ar get",
      "i ers",
      "h ib",
      "M enu",
      "ar io",
      "m as",
      "i em",
      "g r",
      "す る",
      "a ul",
      "r est",
      "in er",
      "ar ies",
      "D R",
      "t n",
      "end s",
      "ial og",
      "Ġv i",
      "g g",
      "б у",
      "ж е",
      "ec ut",
      "Ġال ا",
      "ĠS T",
      "O n",
      "Ġs eg",
      "os is",
      "i am",
      "ad es",
      "c up",
      "w i",
      "ж ен",
      "Ġp ort",
      "el a",
      "í m",
      "Ġb eg",
      "D et",
      "ur ing",
      "am il",
      "ri z",
      "Ġ ing",
      "ĠR es",
      "ĠA t",
      "in st",
      "g eb",
      "ب ي",
      "ا و",
      "Ġ да",
      "St art",
      "Ġh al",
      "P age",
      "n am",
      "Ġال س",
      "W e",
      "ו ר",
      "h an",
      "é rie",
      "R ep",
      "ov a",
      "Ġd en",
      "ე ლ",
      "ü h",
      "a ire",
      "Ġ č",
      "ت ا",
      "ter n",
      "ill s",
      "iv id",
      "ro t",
      "Ġ О",
      "ek t",
      "ak es",
      "Ġp en",
      "ap i",
      "ĠP al",
      "l ie",
      "S elect",
      "ed a",
      "г у",
      "á m",
      "Ġ М",
      "ad er",
      "ang er",
      "d ec",
      "ent h",
      "um m",
      "W eb",
      "Ġ Р",
      "at ely",
      "ე რ",
      "ти в",
      "g ress",
      "Ġs a",
      "τ ε",
      "ent ial",
      "P os",
      "с ле",
      "j o",
      "d b",
      "h ab",
      "ch em",
      "ch es",
      "ER S",
      "ĠA ll",
      "it u",
      "ა რ",
      "is ing",
      "G o",
      "v an",
      "am era",
      "ah an",
      "P A",
      "ry pt",
      "ell a",
      "h and",
      "Ġb el",
      "н да",
      "Ġd eb",
      "ot ic",
      "ار ی",
      "ist er",
      "ram e",
      "ul s",
      "Ġs am",
      "з у",
      "ĠIn d",
      "ĠC om",
      "il er",
      "ar ed",
      "ĠN e",
      "im o",
      "ا ه",
      "E CT",
      "b b",
      "h av",
      "ab les",
      "St yle",
      "ا ک",
      "ord s",
      "res h",
      "ي م",
      "Ġ та",
      "A s",
      "ij k",
      "M ode",
      "op en",
      "A nd",
      "D own",
      "I I",
      "ĠC H",
      "Ġpr ed",
      "ak a",
      "M P",
      "D K",
      "á r",
      "Ap i",
      "l s",
      "f ile",
      "ab il",
      "Ġb ack",
      "Ġe lect",
      "B ack",
      "ar p",
      "Ġf in",
      "in h",
      "Ġ И",
      "で す",
      "re f",
      "c s",
      "ro id",
      "I O",
      "ag en",
      "M essage",
      "ell er",
      "т ов",
      "Cl ient",
      "Ġd iff",
      "ś ci",
      "eg r",
      "C R",
      "i ya",
      "er ic",
      "ock et",
      "к е",
      "ĠA nd",
      "ĠW e",
      "our n",
      "S O",
      "ت ب",
      "L L",
      "au x",
      "ud ent",
      "ers on",
      "н ня",
      "g round",
      "iment o",
      "ĠR ep",
      "Ġc an",
      "ĠR ec",
      "Ġph ot",
      "ی ں",
      "P anel",
      "ak er",
      "in ess",
      "le ction",
      "ρ ο",
      "า ย",
      "i ri",
      "ev el",
      "Ġsup er",
      "Ġv o",
      "Ġex pl",
      "as on",
      "м ы",
      "ic ip",
      "r z",
      "ach e",
      "Ġv e",
      "al y",
      "Ġh yp",
      "T rans",
      "Ġp s",
      "iv al",
      "Ġp od",
      "こ と",
      "к ра",
      "Ġt em",
      "ib ility",
      "w ell",
      "ab ly",
      "ry st",
      "rup t",
      "u en",
      "A uth",
      "ip l",
      "ста в",
      "op er",
      "end ed",
      "ar ant",
      "yn am",
      "ud i",
      "y e",
      "ament o",
      "Ġv ers",
      "ĠG r",
      "h or",
      "am s",
      "Ġ Т",
      "і д",
      "イ ン",
      "cur rent",
      "Ġb il",
      "l ob",
      "and ing",
      "ст у",
      "G F",
      "ef t",
      "St ar",
      "د ا",
      "ا ہ",
      "S I",
      "ec ond",
      "re et",
      "w ork",
      "シ ョ",
      "M C",
      "ie v",
      "air es",
      "ot her",
      "ell es",
      "Ġg ener",
      "ri a",
      "ce ed",
      "в ы",
      "pl oy",
      "w h",
      "es is",
      "ĠA c",
      "ag a",
      "ick s",
      "Ġs yn",
      "í n",
      "Ġm ill",
      "um s",
      "но е",
      "ی ت",
      "з ова",
      "Ġ ur",
      "Ġd ig",
      "ish ed",
      "ل ه",
      "T oken",
      "itt ing",
      "і в",
      "Ġb ro",
      "UR E",
      "Ġund er",
      "Ġm er",
      "ac es",
      "if er",
      "N ew",
      "ent i",
      "w ard",
      "d z",
      "س م",
      "Ġ Д",
      "ik e",
      "if ier",
      "C ON",
      "ro g",
      "iz er",
      "ot a",
      "Ġm at",
      "Ġ eg",
      "r ug",
      "os p",
      "ĠE st",
      "up p",
      "d raw",
      "al th",
      "Ġm el",
      "al am",
      "it ing",
      "Ġс у",
      "z n",
      "V ER",
      "and er",
      "or i",
      "ç a",
      "it ar",
      "d es",
      "row n",
      "ა ნ",
      "Ġf ran",
      "Ġ х",
      "U rl",
      "E d",
      "X X",
      "на я",
      "я т",
      "ain ed",
      "Ġm agn",
      "ĠA ng",
      "P M",
      "ign ed",
      "ri j",
      "니 다",
      "ст во",
      "ev a",
      "ни е",
      "o id",
      "P E",
      "Ġال ن",
      "Ġпре д",
      "ц ен",
      "ĠMc C",
      "ri o",
      "ik i",
      "é l",
      "rop ri",
      "ous ly",
      "v est",
      "و ان",
      "om s",
      "ĠM ah",
      "ま した",
      "ی ل",
      "Ġ ö",
      "o a",
      "el ess",
      "IT Y",
      "d ata",
      "ー ジ",
      "ing u",
      "yst em",
      "as is",
      "ĠT r",
      "ĠB ro",
      "Con n",
      "yp es",
      "is ion",
      "ت م",
      "Ġ то",
      "op y",
      "ĠM e",
      "ac iones",
      "Ġс а",
      "ит а",
      "OR T",
      "h al",
      "ĠC ons",
      "act ion",
      "Ġ use",
      "ی ز",
      "l j",
      "l ass",
      "et o",
      "oc ument",
      "Ġال ق",
      "ast ic",
      "al er",
      "ي ك",
      "ĠB el",
      "Ad d",
      "Ġcur rent",
      "Ġk n",
      "ны м",
      "Resp onse",
      "Ġال ح",
      "in ed",
      "ak ing",
      "S RP",
      "า ร",
      "ight s",
      "arg in",
      "H eader",
      "it en",
      "ust om",
      "б е",
      "r ation",
      "ĠD e",
      "Ġin fl",
      "qu is",
      "с к",
      "G E",
      "ant h",
      "a a",
      "ص ل",
      "D ec",
      "ĠS te",
      "Ġ Н",
      "B A",
      "im s",
      "ens ion",
      "ci ent",
      "ot al",
      "Param s",
      "C re",
      "ш а",
      "h ar",
      "р га",
      "ا ء",
      "но сти",
      "St atus",
      "ou v",
      "μ α",
      "Ġ अ",
      "ie f",
      "ე ნ",
      "D B",
      "Ġко м",
      "stit ut",
      "f ind",
      "Ġn ov",
      "os h",
      "ar row",
      "ess ion",
      "ian ce",
      "S R",
      "es i",
      "ign ment",
      "c y",
      "Ġم ح",
      "A v",
      "Ġs il",
      "D I",
      "Ġl og",
      "b s",
      "im al",
      "õ es",
      "Ġc le",
      "ut s",
      "eg er",
      "U s",
      "Ġm al",
      "out h",
      "In it",
      "e ff",
      "l am",
      "Ġb ar",
      "pr int",
      "Ġ ε",
      "w ar",
      "Ġp le",
      "Ġcon c",
      "und er",
      "Ġo f",
      "Ġad j",
      "or ing",
      "AN D",
      "ĠIn t",
      "r int",
      "g ed",
      "Ġres p",
      "cl ass",
      "ле к",
      "R out",
      "sp ace",
      "en i",
      "い ます",
      "f ort",
      "T E",
      "s z",
      "Ġp ur",
      "Ġh o",
      "k er",
      "ĠS m",
      "ĠI s",
      "Out put",
      "l ay",
      "Ġ ok",
      "pe ar",
      "it an",
      "Ġ i",
      "ech n",
      "ri ed",
      "d ef",
      "U D",
      "qu al",
      "ing er",
      "ĠR E",
      "Ġ ط",
      "roll er",
      "ib us",
      "ي ل",
      "AR T",
      "and s",
      "ient s",
      "or ed",
      "V ar",
      "op t",
      "ی س",
      "â n",
      "er ial",
      "iv a",
      "a ik",
      "ı k",
      "خ ت",
      "Ġb et",
      "Ġk ar",
      "est ed",
      "al ar",
      "re y",
      "Ġت ع",
      "B uffer",
      "k in",
      "Ġm y",
      "Ġn h",
      "c ons",
      "ess e",
      "is es",
      "Ġl ocal",
      "p rop",
      "B uild",
      "v id",
      "ĠIn ter",
      "ient e",
      "ograph y",
      "M L",
      "Ġpr im",
      "p art",
      "Ġd er",
      "m ark",
      "re a",
      "Ġp ri",
      "in ct",
      "o ir",
      "x y",
      "i ert",
      "E nd",
      "ر ح",
      "m on",
      "or ld",
      "R A",
      "ĠC al",
      "Ġс и",
      "Ex p",
      "p y",
      "l an",
      "g ar",
      "id get",
      "ĠM od",
      "r er",
      "Ġ eng",
      "B L",
      "w in",
      "re ct",
      "з о",
      "ut er",
      "Ġt en",
      "Ġ ult",
      "g a",
      "в то",
      "a ñ",
      "S w",
      "р т",
      "k ow",
      "Ġ organ",
      "é ri",
      "em os",
      "ra h",
      "om y",
      "ư ơ",
      "но сть",
      "T C",
      "ر م",
      "f ol",
      "ン ト",
      "sc ript",
      "п ри",
      "ict ion",
      "Ġp or",
      "P er",
      "f ace",
      "em ia",
      "Ġ ру",
      "ا ح",
      "ĠS ub",
      "r ont",
      "Ġf ort",
      "ag on",
      "Ġ Г",
      "pt ion",
      "с і",
      "R I",
      "x im",
      "ر س",
      "rad e",
      "p ol",
      "ow ing",
      "Ġ хо",
      "d s",
      "u ed",
      "P P",
      "ст ва",
      "ĠA cc",
      "ĠB o",
      "ill ing",
      "ful ly",
      "is er",
      "ig o",
      "Ġg ra",
      "L O",
      "orm al",
      "و ز",
      "l ink",
      "Ġ il",
      "t i",
      "D ialog",
      "L ink",
      "ele t"
    ],
    "counts": "[[32,22773],[40,8323],[64,46795],[72,12586],[2342,23680],[2343,44639],[2345,63726],[2351,36249],[2361,50674],[2368,22954],[2384,24324],[2394,19394],[2429,15804],[2448,6050],[2455,20253],[2477,18971],[2520,8535],[2525,14425],[2537,8042],[2540,21593],[2548,7057],[2555,36046],[2556,10896],[2592,9737],[2598,32205],[2603,9937],[2616,11324],[2618,12352],[2633,26054],[2640,15421],[2670,61638],[2685,20297],[2686,59516],[2693,66820],[2694,19215],[2702,28144],[2705,25277],[2712,11441],[2713,5718],[2718,14082],[2725,12902],[2727,15310],[2731,10302],[2741,14915],[2743,13928],[2752,10805],[2760,17234],[2761,21420],[2762,33400],[2763,5542],[2768,13278],[2769,48082],[2783,7415],[2785,23227],[2791,14465],[2793,15393],[2808,9252],[2816,13999],[2819,11496],[2821,9015],[2823,10077],[2825,18579],[2835,1872],[2840,27752],[2844,10324],[2854,14427],[2859,19025],[2864,7268],[2873,17314],[2875,27002],[2877,27744],[2880,8976],[2881,10636],[2898,54687],[2903,28473],[2907,16762],[2909,33653],[2912,11929],[2919,14893],[2920,7823],[2927,27441],[2939,16723],[2948,11716],[2957,45129],[2969,13503],[2970,17254],[2971,8030],[2974,12306],[2978,37592],[2982,11671],[2987,28829],[2988,34996],[2989,29557],[2991,17966],[2993,10275],[2997,9779],[2999,10685],[3003,33812],[3015,7804],[3017,10683],[3019,23494],[3038,8332],[3039,5957],[3040,15510],[3041,15882],[3045,35808],[3046,9159],[3051,11404],[3053,15667],[3054,16776],[3066,8460],[3069,9077],[3072,25167],[3075,11061],[3077,15189],[3080,15842],[3084,13263],[3086,9567],[3087,10569],[3091,10795],[3094,6349],[3095,21249],[3099,25100],[3103,9764],[3105,12271],[3107,12232],[3109,41473],[3113,9462],[3116,21198],[3118,12084],[3121,17115],[3124,14627],[3126,42826],[3130,18536],[3131,37191],[3132,7397],[3134,8165],[3139,17856],[3140,24768],[3151,13693],[3155,17904],[3158,10032],[3165,24095],[3167,16432],[3177,18009],[3181,8681],[3182,26164],[3184,10696],[3185,35129],[3188,12301],[3192,17350],[3193,18728],[3194,27174],[3200,6718],[3203,23972],[3204,14432],[3216,10833],[3225,10125],[3237,12698],[3239,38382],[3243,9867],[3246,19718],[3250,21612],[3251,18587],[3255,17302],[3258,12564],[3260,20094],[3262,15637],[3266,24585],[3267,8362],[3268,16136],[3271,18359],[3272,11359],[3274,7897],[3284,13868],[3289,7638],[3290,40041],[3293,12780],[3294,7577],[3298,7162],[3299,12482],[3301,9656],[3303,57183],[3304,39965],[3307,17123],[3314,9821],[3315,11960],[3317,19447],[3319,11477],[3320,10784],[3324,12014],[3329,16485],[3333,12763],[3334,26571],[3335,7612],[3336,30037],[3338,46530],[3345,9759],[3346,18388],[3348,17568],[3349,19086],[3352,11285],[3356,8890],[3358,18358],[3366,15316],[3372,13428],[3374,25372],[3382,10976],[3384,14846],[3387,6984],[3391,8788],[3392,22019],[3393,6380],[3395,12822],[3396,26415],[3401,25367],[3403,15380],[3406,9842],[3408,9986],[3409,15881],[3412,13181],[3413,6798],[3420,5929],[3426,7872],[3427,17859],[3430,17840],[3433,38731],[3434,15504],[3437,12155],[3442,11277],[3443,8314],[3447,10064],[3449,21588],[3458,28619],[3460,9361],[3461,9797],[3462,11443],[3466,8239],[3467,39222],[3471,11384],[3473,21705],[3474,11306],[3475,9829],[3476,21649],[3479,22465],[3485,8004],[3489,11724],[3491,16560],[3495,21856],[3497,14772],[3498,38566],[3501,18790],[3508,5226],[3513,11005],[3515,16572],[3516,31610],[3517,23517],[3524,6584],[3527,31867],[3528,16478],[3537,23076],[3538,11452],[3539,8254],[3540,14379],[3541,22776],[3546,21711],[3547,9059],[3550,13452],[3551,10461],[3552,43779],[3556,13568],[3560,19354],[3561,8918],[3566,9932],[3577,17898],[3580,8859],[3588,13201],[3594,25049],[3600,20518],[3603,14429],[3605,9366],[3608,12538],[3609,11917],[3611,15765],[3615,19269],[3616,55629],[3617,11198],[3619,16643],[3620,12375],[3621,14527],[3624,9725],[3628,11887],[3629,14349],[3630,13154],[3631,18301],[3633,25545],[3634,13422],[3639,9657],[3640,11539],[3641,26395],[3642,8619],[3646,39703],[3649,12186],[3650,5959],[3654,8271],[3655,10847],[3657,8420],[3658,10269],[3662,8348],[3663,12248],[3664,6506],[3665,15080],[3669,7954],[3670,7119],[3678,16199],[3680,7732],[3681,9738],[3685,8308],[3687,7158],[3688,7742],[3691,14461],[3692,44163],[3693,10517],[3694,13570],[3697,10017],[3698,11474],[3700,63115],[3701,16714],[3704,12781],[3705,11422],[3707,13988],[3708,12271],[3711,7612],[3712,17989],[3715,20007],[3716,7064],[3717,6364],[3719,14896],[3722,6981],[3724,9983],[3727,16157],[3731,7144],[3732,8944],[3733,19899],[3737,9643],[3739,19021],[3744,8884],[3746,10516],[3752,20467],[3753,39300],[3755,32654],[3757,9371],[3758,14440],[3763,7514],[3765,9062],[3767,12424],[3768,6332],[3769,17057],[3770,16957],[3773,8660],[3774,22634],[3776,40972],[3778,31266],[3785,24035],[3786,17061],[3787,16685],[3791,36094],[3794,10514],[3796,23392],[3798,11489],[3801,19534],[3802,7308],[3803,26960],[3804,7399],[3805,9297],[3809,16276],[3811,26717],[3812,26114],[3815,23844],[3818,21983],[3819,5673],[3820,27319],[3828,11330],[3829,14598],[3830,13409],[3832,13926],[3833,22273],[3838,13256],[3839,5959],[3840,32302],[3842,10779],[3847,14386],[3848,18554],[3849,6091],[3852,24245],[3854,26796],[3855,18673],[3857,25417],[3858,11499],[3859,15198],[3861,11639],[3863,10584],[3864,6921],[3866,11622],[3867,17771],[3869,6288],[3870,36757],[3871,5653],[3872,17071],[3873,20492],[3875,12591],[3876,9794],[3878,13660],[3880,8692],[3882,9480],[3885,10538],[3887,8296],[3888,10698],[3889,23833],[3890,23421],[3891,10252],[3892,26619],[3893,42666],[3896,8043],[3897,5912],[3899,12322],[3900,10180],[3902,9190],[3913,18766],[3914,8137],[3917,13706],[3923,14170],[3929,9470],[3930,15079],[3931,7105],[3933,8298],[3935,19246],[3936,30453],[3937,8852],[3938,10108],[3939,8201],[3940,11303],[3942,9212],[3945,40543],[3951,5640],[3954,21685],[3957,9773],[3958,5836],[3960,16233],[3962,7000],[3963,5509],[3965,9554],[3967,21308],[3969,18326],[3972,12230],[3973,11209],[3974,15830],[3975,11375],[3976,46840],[3977,5517],[3978,12641],[3980,8655],[3985,26888],[3990,7309],[3991,11290],[3992,4429],[3993,21471],[3994,38985],[3995,38066],[3997,9380],[4000,10585],[4002,10315],[4004,7314],[4008,9406],[4009,8311],[4010,11604],[4012,60529],[4013,16190],[4014,29315],[4019,12191],[4020,11660],[4021,8256],[4022,36007],[4023,9592],[4024,15921],[4027,11113],[4030,14543],[4032,19394],[4034,16947],[4035,10701],[4036,12213],[4037,10896],[4038,12092],[4040,37714],[4041,12309],[4045,19023],[4047,11915],[4048,12380],[4050,14461],[4051,19681],[4053,11134],[4055,8510],[4056,8645],[4061,17910],[4062,16523],[4063,6491],[4064,13266],[4065,32921],[4066,13624],[4068,13721],[4070,2639],[4072,13845],[4073,10983],[4075,30160],[4080,46167],[4082,6402],[4083,9513],[4084,11494],[4085,19171],[4086,16880],[4087,25445],[4089,10107],[4094,5015],[4099,21013],[4101,18024],[4103,21614],[4104,10059],[4106,17994],[4109,21990],[4110,10381],[4112,13747],[4113,5127],[4114,45968],[4116,5884],[4118,18075],[4119,16254],[4121,34649],[4123,7622],[4127,23804],[4128,7676],[4129,24153],[4131,12582],[4133,33383],[4134,17473],[4137,7926],[4138,56264],[4143,20187],[4146,26475],[4149,19317],[4150,15333],[4155,10032],[4156,13646],[4157,12763],[4160,10405],[4162,5161],[4163,10164],[4164,12058],[4165,11638],[4172,4385],[4174,6007],[4175,15129],[4177,13230],[4182,16945],[4186,7613],[4189,15074],[4197,13945],[4198,52898],[4200,10975],[4201,16976],[4203,11481],[4208,10525],[4209,11717],[4211,24063],[4212,46201],[4216,13310],[4218,63658],[4220,19032],[4221,19760],[4222,6593],[4223,44237],[4226,6805],[4229,8403],[4230,14069],[4231,9326],[4234,12572],[4235,12358],[4241,16702],[4242,21868],[4246,35581],[4249,13985],[4250,10611],[4251,15865],[4252,16603],[4254,18966],[4255,16051],[4256,11223],[4257,20219],[4258,15410],[4261,17861],[4262,9297],[4265,34871],[4266,10494],[4267,12670],[4269,6430],[4270,9914],[4275,33533],[4276,29692],[4279,16488],[4281,9421],[4283,10059],[4285,31098],[4286,35471],[4288,5359],[4292,10064],[4294,5730],[4295,13554],[4297,23702],[4300,16252],[4302,12286],[4303,6871],[4304,61371],[4306,14464],[4308,7907],[4309,10162],[4312,16337],[4313,7148],[4315,7973],[4317,9442],[4318,38849],[4321,28211],[4322,17982],[4324,9153],[4325,8518],[4327,27035],[4329,11925],[4330,13020],[4333,11007],[4339,25634],[4341,25057],[4344,9877],[4345,43619],[4348,24822],[4349,11003],[4351,29959],[4352,9736],[4353,7953],[4354,19397],[4355,14131],[4356,15834],[4357,5399],[4359,4091],[4361,16063],[4363,10707],[4364,11189],[4366,8397],[4368,9541],[4369,18413],[4370,9364],[4371,3595],[4373,10161],[4374,9585],[4377,18431],[4379,18721],[4380,35358],[4381,14145],[4382,18377],[4383,10707],[4384,39608],[4385,9209],[4390,39748],[4393,47893],[4397,1962],[4399,10044],[4400,15406],[4402,10062],[4403,14494],[4405,9177],[4412,8472],[4413,18174],[4414,7795],[4415,10044],[4418,9332],[4419,43259],[4421,15161],[4422,5185],[4424,13009],[4427,6121],[4431,17633],[4433,31118],[4438,18619],[4439,6049],[4441,39004],[4443,12927],[4444,31285],[4445,9325],[4446,7455],[4447,10103],[4451,7529],[4454,7326],[4455,20457],[4457,11196],[4458,27221],[4459,15276],[4461,9596],[4462,9919],[4463,14672],[4466,26790],[4470,23609],[4472,11363],[4475,43763],[4476,7467],[4480,11651],[4481,6366],[4484,8338],[4486,14467],[4488,8552],[4489,18386],[4494,26907],[4495,21918],[4497,17444],[4499,11203],[4500,16148],[4501,33059],[4502,18993],[4503,8793],[4505,18948],[4508,25969],[4510,8181],[4511,10454],[4514,9255],[4515,11764],[4523,2254],[4524,10571],[4525,25142],[4526,12191],[4528,10453],[4530,12308],[4531,17276],[4532,10560],[4534,7650],[4536,12211],[4537,21827],[4538,28425],[4541,2019],[4543,9440],[4547,9390],[4549,14543],[4550,8746],[4551,27708],[4552,2676],[4555,13571],[4557,22458],[4564,9155],[4565,10828],[4566,14902],[4567,9375],[4569,15893],[4570,11767],[4572,30465],[4574,12274],[4575,6775],[4576,9944],[4580,9738],[4581,10774],[4583,12257],[4584,24132],[4585,9453],[4587,13919],[4589,13132],[4590,13364],[4593,11065],[4595,15749],[4598,11980],[4599,13020],[4603,13299],[4605,17431],[4607,26906],[4608,23378],[4609,49370],[4611,8356],[4612,12442],[4613,10483],[4615,25202],[4616,17847],[4617,29374],[4618,25428],[4619,24295],[4620,21608],[4621,8694],[4626,8551],[4627,13207],[4629,7314],[4633,5720],[4634,6858],[4635,10254],[4637,10421],[4638,46663],[4641,1984],[4642,31039],[4643,9526],[4644,11127],[4645,2486],[4646,13625],[4649,7303],[4650,64738],[4654,19701],[4656,10859],[4657,12516],[4658,11141],[4659,8996],[4660,11028],[4661,11079],[4663,38290],[4668,16626],[4670,9250],[4671,12874],[4672,13599],[4673,54508],[4674,14047],[4675,8007],[4676,32480],[4679,71103],[4680,19447],[4681,7639],[4683,3815],[4684,10174],[4686,4925],[4689,12857],[4690,21952],[4691,9287],[4692,18544],[4693,17963],[4694,12918],[4698,12508],[4700,9455],[4701,12436],[4702,6370],[4703,42178],[4706,10157],[4710,9888],[4711,29776],[4713,21906],[4715,11032],[4717,5900],[4718,6474],[4721,55968],[4722,16138],[4724,17087],[4726,9099],[4727,18827],[4729,38008],[4730,16604],[4731,10256],[4732,8829],[4733,21508],[4734,19088],[4735,8714],[4736,9760],[4737,23031],[4738,25422],[4739,20619],[4741,13685],[4742,13903],[4745,22399],[4749,6018],[4751,14797],[4752,14819],[4753,21732],[4755,41227],[4761,13760],[4762,13734],[4765,44278],[4766,14520],[4767,10589],[4768,20216],[4769,6001],[4771,25998],[4773,9695],[4775,22905],[4777,58529],[4778,13299],[4779,7796],[4781,6859],[4782,7813],[4783,32901],[4785,17028],[4787,12401],[4788,27361],[4790,11679],[4791,8326],[4797,12899],[4798,11764],[4800,9935],[4805,18331],[4806,17208],[4808,30826],[4809,11796],[4810,10678],[4813,13581],[4814,12131],[4816,15497],[4817,9068],[4818,14095],[4820,19649],[4821,12042],[4825,23342],[4828,10614],[4830,15615],[4832,24525],[4834,13107],[4837,20755],[4839,15885],[4840,22732],[4843,12234],[4844,32951],[4846,32530],[4847,8841],[4849,34061],[4851,18559],[4852,6559],[4853,32859],[4854,6059],[4856,14831],[4858,29295],[4859,11237],[4860,25138],[4861,29993],[4862,7525],[4863,9655],[4864,10265],[4868,16539],[4872,18437],[4873,10016],[4874,25301],[4877,10340],[4878,9188],[4879,12426],[4882,13859],[4883,12465],[4884,11027],[4886,20910],[4890,11648],[4894,16791],[4895,8426],[4896,10152],[4897,32520],[4898,18061],[4899,6200],[4903,6694],[4905,28749],[4906,12353],[4907,15611],[4909,11358],[4910,48010],[4912,12310],[4913,15680],[4914,15406],[4915,14644],[4916,10791],[4920,18984],[4921,9174],[4924,6868],[4931,9348],[4932,14301],[4933,31656],[4934,10344],[4935,8800],[4939,19850],[4941,16295],[4942,18264],[4943,13674],[4946,11835],[4949,6310],[4951,8352],[4952,34024],[4953,6360],[4954,26584],[4955,16878],[4956,14478],[4958,29451],[4959,26890],[4963,8918],[4967,25061],[4968,7264],[4970,10570],[4971,25768],[4972,25490],[4974,18609],[4975,12118],[4976,6394],[4977,17246],[4979,11907],[4985,17556],[4986,7259],[4987,9241],[4988,8130],[4990,16625],[4993,16534],[4994,39847],[4996,9514],[4997,49345],[4998,10143],[4999,9353],[5002,8836],[5006,3017],[5007,13085],[5008,33191],[5010,21006],[5011,20065],[5012,18090],[5014,8398],[5017,7293],[5018,7883],[5021,19554],[5022,17850],[5025,14278],[5026,11153],[5027,7153],[5029,10213],[5032,10830],[5033,11542],[5034,16216],[5037,26886],[5039,16204],[5040,51282],[5041,4026],[5043,14116],[5044,20151],[5045,23637],[5048,28688],[5049,12800],[5050,11233],[5052,7766],[5053,25831],[5055,11779],[5056,15071],[5058,8683],[5061,14427],[5064,23037],[5065,26315],[5067,12548],[5071,12541],[5079,26481],[5082,8819],[5084,7101],[5085,12608],[5087,9192],[5091,10214],[5095,42095],[5096,15270],[5097,11326],[5098,30920],[5099,15228],[5100,19590],[5102,14745],[5105,11967],[5107,20809],[5109,28239],[5112,9897],[5113,36195],[5117,20102],[5118,15686],[5119,12473],[5124,26861],[5126,14761],[5128,25603],[5131,10404],[5133,25189],[5136,12173],[5137,6812],[5138,13243],[5139,10161],[5142,12719],[5144,11149],[5147,10191],[5148,9334]]"
  }
}