{
  "version": "1.0",
  "truncation": null,
  "padding": null,
  "added_tokens": [
    {
      "id": 7642,
      "content": "<UNK>",
      "single_word": false,
      "lstrip": false,
      "rstrip": false,
      "normalized": true,
      "special": true
    },
    {
      "id": 7643,
      "content": "<｜end▁of▁sentence｜>",
      "single_word": false,
      "lstrip": false,
      "rstrip": false,
      "normalized": true,
      "special": true
    },
    {
      "id": 7644,
      "content": "<｜pad｜>",
      "single_word": false,
      "lstrip": false,
      "rstrip": false,
      "normalized": true,
      "special": true
    },
    {
      "id": 7645,
      "content": "<｜begin▁of▁sentence｜>",
      "single_word": false,
      "lstrip": false,
      "rstrip": false,
      "normalized": true,
      "special": true
    }
  ],
  "normalizer": {
    "type": "Sequence",
    "normalizers": []
  },
  "pre_tokenizer": {
    "type": "Sequence",
    "pretokenizers": [
      {
        "type": "Split",
        "pattern": {
          "Regex": "[\\r\\n]"
        },
        "behavior": "Isolated",
        "invert": false
      },
      {
        "type": "Split",
        "pattern": {
          "Regex": "\\s?[A-Za-zµÀ-ÖØ-öø-ƺƼ-ƿǄ-ʓʕ-ʯͰ-ͳͶͷͻ-ͽͿΆΈ-ΊΌΎ-ΡΣ-ϵϷ-ҁҊ-ԯԱ-ՖႠ-ჅᎠ-Ᏽᏸ-ᏽᲐ-ᲺᲽ-Ჿᴀ-ᴫᵫ-ᵷᵹ-ᶚḀ-ἕἘ-Ἕἠ-ὅὈ-Ὅὐ-ὗὙὛὝὟ-ώᾀ-ᾴᾶ-ᾼιῂ-ῄῆ-ῌῐ-ΐῖ-Ίῠ-Ῥῲ-ῴῶ-ῼℂℇℊ-ℓℕℙ-ℝℤΩℨK-ℭℯ-ℴℹℼ-ℿⅅ-ⅉⅎↃↄⰀ-ⱻⱾ-ⳤⳫ-ⳮⳲⳳꙀ-ꙭꚀ-ꚛꜢ-ꝯꝱ-ꞇꞋ-ꞎꭰ-ꮿﬀ-ﬆﬓ-ﬗＡ-Ｚａ-ｚ𐐀-𐑏𐒰-𐓓𐓘-𐓻𐲀-𐲲𐳀-𐳲𑢠-𑣟𞤀-𞥃]+"
        },
        "behavior": "Isolated",
        "invert": false
      },
      {
        "type": "Split",
        "pattern": {
          "Regex": "\\s?[!-/:-~！-／：-～‘-‟　-。]+"
        },
        "behavior": "Isolated",
        "invert": false
      },
      {
        "type": "Split",
        "pattern": {
          "Regex": "\\s+$"
        },
        "behavior": "Isolated",
        "invert": false
      },
      {
        "type": "Split",
        "pattern": {
          "Regex": "[一-龥ࠀ-一가-퟿]+"
        },
        "behavior": "Isolated",
        "invert": false
      },
      {
        "type": "Digits",
        "individual_digits": true
      },
      {
        "type": "ByteLevel",
        "add_prefix_space": false,
        "trim_offsets": true,
        "use_regex": false
      }
    ]
  },
  "post_processor": {
    "type": "ByteLevel",
    "add_prefix_space": true,
    "trim_offsets": false,
    "use_regex": true
  },
  "decoder": {
    "type": "ByteLevel",
    "add_prefix_space": true,
    "trim_offsets": true,
    "use_regex": true
  },
  "model": {
    "type": "BPE",
    "dropout": null,
    "unk_token": "<UNK>",
    "continuing_subword_prefix": null,
    "end_of_word_suffix": null,
    "fuse_unk": false,
    "byte_fallback": false,
    "ignore_merges": false,
    "bMax_frequency": true,
    "max_frequency": 254107538,
    "vocab": {
      "شهاد": 0,
      "すぎ": 1,
      "ĠNucleaires": 2,
      "Ġsplen": 3,
      "Ġvertebra": 4,
      "Ġakut": 5,
      "stven": 6,
      "ysel": 7,
      "quinone": 8,
      "ĠExcell": 9,
      "Ġבמה": 10,
      "henga": 11,
      "料無料": 12,
      "送料無料": 13,
      "ĠAPA": 14,
      "ĠFebru": 15,
      "spapers": 16,
      "uniary": 17,
      "izio": 18,
      "тых": 19,
      "Ġcałość": 20,
      "İN": 21,
      "Ġوف": 22,
      "ĠRede": 23,
      "Ġaș": 24,
      "Ġfiltr": 25,
      "Ġpove": 26,
      "isateur": 27,
      "Ġساين": 28,
      "ISTEN": 29,
      "umac": 30,
      "Ġskj": 31,
      "payment": 32,
      "entropy": 33,
      "shan": 34,
      "Ġmessy": 35,
      "Flash": 36,
      "Ġluat": 37,
      "Ġundersigned": 38,
      "ohol": 39,
      "ĠKrug": 40,
      "Atom": 41,
      "Ġultrasonic": 42,
      "대한": 43,
      "Ġ최대한": 44,
      "ĠUART": 45,
      "Scheduled": 46,
      "áním": 47,
      "مس": 48,
      "unehm": 49,
      "ĠLeach": 50,
      "Ġcardinality": 51,
      "Ġhamilton": 52,
      "DUCED": 53,
      "akat": 54,
      "ĠAgar": 55,
      "OutputStream": 56,
      "Ġsukham": 57,
      "Ġkeepsake": 58,
      "iora": 59,
      "ĠSht": 60,
      "ĠOkada": 61,
      "achery": 62,
      "ireann": 63,
      "гат": 64,
      "ernation": 65,
      "ĠKwan": 66,
      "рез": 67,
      "ĠYol": 68,
      "ورسٹ": 69,
      "ورسٹی": 70,
      "ابر": 71,
      "intos": 72,
      "ĠRhys": 73,
      "ลาส": 74,
      "номет": 75,
      "ĠKus": 76,
      "Ġвнима": 77,
      "huang": 78,
      "featur": 79,
      "ĠIEC": 80,
      "ARS": 81,
      "ĠKampala": 82,
      "ński": 83,
      "ĠHeidi": 84,
      "Ġshēng": 85,
      "odhya": 86,
      "сков": 87,
      "шло": 88,
      "Ġrestructuring": 89,
      "тное": 90,
      "dum": 91,
      "èi": 92,
      "Ġwèi": 93,
      "elitian": 94,
      "حدد": 95,
      "assment": 96,
      "Ġبنی": 97,
      "Ġalice": 98,
      "readFileSync": 99,
      "ższy": 100,
      "ĠUlu": 101,
      "スマート": 102,
      "Ġdissanti": 103,
      "Ġenfrent": 104,
      "Ġfreuen": 105,
      "ĠCAB": 106,
      "ulier": 107,
      "ové": 108,
      "HTT": 109,
      "ambilan": 110,
      "immel": 111,
      "GTG": 112,
      "lineContainer": 113,
      "мышлен": 114,
      "EndInit": 115,
      "mUserManager": 116,
      "シーズ": 117,
      "рур": 118,
      "THF": 119,
      "Ġtrội": 120,
      "Ġbird": 121,
      "ĠKug": 122,
      "ették": 123,
      "maß": 124,
      "cesz": 125,
      "Ġfis": 126,
      "Ġdivert": 127,
      "Ġhummus": 128,
      "Ġbloated": 129,
      "Self": 130,
      "ulasi": 131,
      "Ġpolinom": 132,
      "Ġsplike": 133,
      "Mc": 134,
      "yng": 135,
      "Ġcallbacks": 136,
      "Ġpegs": 137,
      "ĠManifesto": 138,
      "рей": 139,
      "Ġogran": 140,
      "Ġcess": 141,
      "Low": 142,
      "ineuses": 143,
      "EGO": 144,
      "Ġtrival": 145,
      "Ġtrivalent": 146,
      "ardom": 147,
      "ícula": 148,
      "ĠUIColor": 149,
      "Ġcogener": 150,
      "ĠMoz": 151,
      "ARIFF": 152,
      "Ġcogeneration": 153,
      "Ġساخت": 154,
      "чика": 155,
      "ĠPirelli": 156,
      "enseign": 157,
      "ностей": 158,
      "onov": 159,
      "SynSocket": 160,
      "BeforeCall": 161,
      "ĠPelosi": 162,
      "Ġgrizz": 163,
      "кими": 164,
      "ĠVenus": 165,
      "azada": 166,
      "CODE": 167,
      "ahoo": 168,
      "制代码": 169,
      "复制代码": 170,
      "Ġcollided": 171,
      "stanza": 172,
      "SData": 173,
      "ĠBSData": 174,
      "有效": 175,
      "Ġnúc": 176,
      "cot": 177,
      "untungan": 178,
      "Ġtrick": 179,
      "houn": 180,
      "ĠNair": 181,
      "ístico": 182,
      "Ġتقس": 183,
      "Ġcamera": 184,
      "CURSOR": 185,
      "ĠBurgess": 186,
      "oción": 187,
      "Ġzpů": 188,
      "Ġdazz": 189,
      "ĠLact": 190,
      "Ġrecense": 191,
      "ĠTP": 192,
      "Ġموس": 193,
      "ĠКонгре": 194,
      "pays": 195,
      "anil": 196,
      "рё": 197,
      "ĠFSA": 198,
      "рёх": 199,
      "Ġister": 200,
      "ĠHuan": 201,
      "образие": 202,
      "ĠBitter": 203,
      "нула": 204,
      "Ġpropried": 205,
      "Ġφ": 206,
      "Ġapex": 207,
      "ويلة": 208,
      "patient": 209,
      "ĠMuscat": 210,
      "Pot": 211,
      "ĠMenzies": 212,
      "Ġsputtering": 213,
      "moji": 214,
      "ეცი": 215,
      "ĠYeş": 216,
      "ĠYeşil": 217,
      "iben": 218,
      "تاة": 219,
      "发生": 220,
      "isRequired": 221,
      "ArrayAdapter": 222,
      "Phantom": 223,
      "يران": 224,
      "ivr": 225,
      "QLException": 226,
      "ўро": 227,
      "entet": 228,
      "kao": 229,
      "Ġberada": 230,
      "ĠЕўро": 231,
      "Ġdihasil": 232,
      "زمت": 233,
      "Ġcatólica": 234,
      "intosh": 235,
      "Ġyaar": 236,
      "Ġعارفين": 237,
      "Ġfisc": 238,
      "šte": 239,
      "ĠLister": 240,
      "ĠSWAT": 241,
      "unun": 242,
      "hyung": 243,
      "тном": 244,
      "acios": 245,
      "edar": 246,
      "ĠBoyle": 247,
      "rists": 248,
      "ítě": 249,
      "ĠMartini": 250,
      "plants": 251,
      "Ġcardiomy": 252,
      "Ġcaball": 253,
      "inness": 254,
      "icki": 255,
      "hew": 256,
      "ĠContreras": 257,
      "ĠLook": 258,
      "Ġocé": 259,
      "راجعه": 260,
      "ruc": 261,
      "Ġtou": 262,
      "prefetch": 263,
      "ĠMcCulloch": 264,
      "raison": 265,
      "Ġtung": 266,
      "Ġواله": 267,
      "ocurrency": 268,
      "atiu": 269,
      "ĠCaval": 270,
      "Ġditt": 271,
      "dering": 272,
      "ອງ": 273,
      "Ġშეიძ": 274,
      "Ġخواہ": 275,
      "ĠBens": 276,
      "ĠBrushed": 277,
      "adurch": 278,
      "Ġلکھ": 279,
      "vens": 280,
      "ژگی": 281,
      "bac": 282,
      "Ġslto": 283,
      "bacanam": 284,
      "rals": 285,
      "ĠSever": 286,
      "ahue": 287,
      "Ġይችላል": 288,
      "ssd": 289,
      "oughton": 290,
      "RETURN": 291,
      "ĠBevölker": 292,
      "zott": 293,
      "ĠKad": 294,
      "userDetail": 295,
      "Ġgad": 296,
      "номо": 297,
      "ĠEmploy": 298,
      "Ġpreocup": 299,
      "ĠJSP": 300,
      "endam": 301,
      "ensuche": 302,
      "Ġpleadings": 303,
      "Ġການ": 304,
      "Ġabscess": 305,
      "ĠMaui": 306,
      "subset": 307,
      "hatti": 308,
      "ibranch": 309,
      "ĠFOD": 310,
      "fopen": 311,
      "Ġτε": 312,
      "τουργ": 313,
      "Ġτελευτα": 314,
      "character": 315,
      "Ġexquis": 316,
      "ĠJPMorgan": 317,
      "обще": 318,
      "voren": 319,
      "Navigate": 320,
      "Ġsaddas": 321,
      "DEA": 322,
      "ترض": 323,
      "ĠBrat": 324,
      "Ġbeth": 325,
      "örü": 326,
      "ulus": 327,
      "anggap": 328,
      "amba": 329,
      "Ġimparts": 330,
      "Ġjednog": 331,
      "mets": 332,
      "Ġфара": 333,
      "Ġთვით": 334,
      "ĠNicol": 335,
      "émique": 336,
      "PerRow": 337,
      "Ġاصلا": 338,
      "ilí": 339,
      "ohms": 340,
      "emun": 341,
      "Ġsubjecting": 342,
      "blum": 343,
      "Ġforeclose": 344,
      "äsident": 345,
      "ĠFei": 346,
      "hältnis": 347,
      "userInput": 348,
      "ĠSIA": 349,
      "ĠGMT": 350,
      "Ġrenou": 351,
      "urias": 352,
      "UTILS": 353,
      "StateManager": 354,
      "Wat": 355,
      "Ġmold": 356,
      "Ġyellow": 357,
      "featuresMatrix": 358,
      "StackNavigator": 359,
      "hrad": 360,
      "ĠMembranes": 361,
      "ĠSBOM": 362,
      "ampo": 363,
      "ĠChauhan": 364,
      "HeaderParams": 365,
      "ĠMohd": 366,
      "وزه": 367,
      "イヤー": 368,
      "提供": 369,
      "clesiast": 370,
      "ĠJaaye": 371,
      "כון": 372,
      "ibou": 373,
      "ActionButton": 374,
      "CATS": 375,
      "ńskiego": 376,
      "usakan": 377,
      "ĠJara": 378,
      "クラ": 379,
      "Ġdibut": 380,
      "MenuInflater": 381,
      "idane": 382,
      "Ġenrich": 383,
      "Ġanglais": 384,
      "بری": 385,
      "Ġبسر": 386,
      "enly": 387,
      "rzy": 388,
      "ĠSchilling": 389,
      "Ġbrunâtre": 390,
      "ĠOlaf": 391,
      "Ġволо": 392,
      "genes": 393,
      "жета": 394,
      "Ġgrot": 395,
      "Ġмагни": 396,
      "aternary": 397,
      "ĠAngelica": 398,
      "облада": 399,
      "CCN": 400,
      "defaultValue": 401,
      "Ġhafif": 402,
      "phants": 403,
      "Ġteş": 404,
      "Ġdehuman": 405,
      "kadot": 406,
      "Ġchac": 407,
      "ĠAdil": 408,
      "Ġdobro": 409,
      "Ġstale": 410,
      "ფორმა": 411,
      "ĠDBS": 412,
      "ində": 413,
      "Ġupris": 414,
      "Ġsitua": 415,
      "ارع": 416,
      "underland": 417,
      "Ġembol": 418,
      "íonn": 419,
      "Ġdíg": 420,
      "stdio": 421,
      "ĠKobayashi": 422,
      "Ġvat": 423,
      "Ġspace": 424,
      "Upon": 425,
      "ĠPCD": 426,
      "Ġvär": 427,
      "ĠHenrietta": 428,
      "lebars": 429,
      "arynx": 430,
      "ทรง": 431,
      "ĠNieto": 432,
      "Ġpřed": 433,
      "Ġдепозит": 434,
      "uZ": 435,
      "TGFuZ": 436,
      "ések": 437,
      "Ġdamos": 438,
      "ĠHue": 439,
      "ukaan": 440,
      "icula": 441,
      "rao": 442,
      "ĠKü": 443,
      "ĠISD": 444,
      "overage": 445,
      "erio": 446,
      "ĠXamarin": 447,
      "őség": 448,
      "ĠNSP": 449,
      "Ġpatente": 450,
      "ĠЕлена": 451,
      "ĠWittgenstein": 452,
      "ichromo": 453,
      "Ġyeti": 454,
      "Ġensl": 455,
      "éristique": 456,
      "roquois": 457,
      "ĠUSD": 458,
      "Ġconci": 459,
      "Ġirrepar": 460,
      "Impl": 461,
      "Console": 462,
      "htb": 463,
      "athermy": 464,
      "onycha": 465,
      "DeleteDialogOpen": 466,
      "ICENSE": 467,
      "збеки": 468,
      "uze": 469,
      "osito": 470,
      "ĠNear": 471,
      "SMITH": 472,
      "Ġfertig": 473,
      "amboo": 474,
      "riages": 475,
      "ĠBell": 476,
      "irut": 477,
      "Ġthresh": 478,
      "arbage": 479,
      "atap": 480,
      "Ġcím": 481,
      "ĠPik": 482,
      "ĠKyrgyz": 483,
      "cyt": 484,
      "ани": 485,
      "arq": 486,
      "ConfigSource": 487,
      "gunaan": 488,
      "горит": 489,
      "Ġبالأ": 490,
      "Ġoutcrops": 491,
      "Ġbete": 492,
      "cije": 493,
      "ĠLennox": 494,
      "Ġkapp": 495,
      "ĠNapole": 496,
      "Ġsicht": 497,
      "ależy": 498,
      "castruct": 499,
      "Amer": 500,
      "ĠEvel": 501,
      "ĠIdani": 502,
      "джа": 503,
      "Ġpreoccup": 504,
      "isEqualTo": 505,
      "znym": 506,
      "Ġwykon": 507,
      "gios": 508,
      "zzy": 509,
      "ĠOzzy": 510,
      "Ġלנו": 511,
      "Ġpraz": 512,
      "Ġwyr": 513,
      "Ġtrace": 514,
      "UGUST": 515,
      "Ġrenvers": 516,
      "Ġhemolysis": 517,
      "Ġсвобо": 518,
      "ĠEllison": 519,
      "Debugging": 520,
      "âmb": 521,
      "ergillus": 522,
      "ĠAspergillus": 523,
      "цией": 524,
      "Ġтала": 525,
      "kag": 526,
      "ĠAstrid": 527,
      "Ġpalo": 528,
      "ĠManfred": 529,
      "Ġapplause": 530,
      "ników": 531,
      "berta": 532,
      "Ġstriis": 533,
      "Ġالبع": 534,
      "meck": 535,
      "pppp": 536,
      "sendStatus": 537,
      "ĠstrokeWeight": 538,
      "Ġİlç": 539,
      "Stage": 540,
      "Ġocean": 541,
      "ĠRams": 542,
      "Ġsvij": 543,
      "чке": 544,
      "ەک": 545,
      "ĠUGC": 546,
      "چار": 547,
      "ícím": 548,
      "ĠcontentView": 549,
      "bursements": 550,
      "ĠALU": 551,
      "Ġwarrant": 552,
      "iksaan": 553,
      "гээ": 554,
      "Ġestad": 555,
      "Ġitertools": 556,
      "erde": 557,
      "Ġvolition": 558,
      "Ġipak": 559,
      "ícias": 560,
      "表示": 561,
      "ĠHutt": 562,
      "Ġamide": 563,
      "Ġhabla": 564,
      "avra": 565,
      "Hair": 566,
      "faz": 567,
      "ISIONS": 568,
      "Ġlysates": 569,
      "Про": 570,
      "Ġانس": 571,
      "Ġkarane": 572,
      "rally": 573,
      "Ġвыходит": 574,
      "ylobacter": 575,
      "აც": 576,
      "ĠBorough": 577,
      "Ġimplicate": 578,
      "dru": 579,
      "addAttribute": 580,
      "eacute": 581,
      "abay": 582,
      "cznie": 583,
      "Ġterrazzo": 584,
      "rüche": 585,
      "ĠAnsprüche": 586,
      "инд": 587,
      "ĠГинд": 588,
      "ogli": 589,
      "Ġroka": 590,
      "Ġkerül": 591,
      "phthal": 592,
      "μαι": 593,
      "SupportActionBar": 594,
      "escue": 595,
      "ĠAenean": 596,
      "Ġусі": 597,
      "Ġステン": 598,
      "写真": 599,
      "Ġenzym": 600,
      "downs": 601,
      "Ġjurul": 602,
      "Ġچکے": 603,
      "Ġdistance": 604,
      "asserie": 605,
      "ankind": 606,
      "ának": 607,
      "istocene": 608,
      "Ġroug": 609,
      "órico": 610,
      "obit": 611,
      "лно": 612,
      "Ġvertebral": 613,
      "ĠОльга": 614,
      "iedades": 615,
      "Ġemoz": 616,
      "Ġimpug": 617,
      "édéric": 618,
      "Ġkost": 619,
      "achu": 620,
      "Ġterpen": 621,
      "ipzig": 622,
      "afil": 623,
      "Ġspod": 624,
      "Ġkval": 625,
      "FindBy": 626,
      "Ġestre": 627,
      "会社": 628,
      "ĠBeckett": 629,
      "actose": 630,
      "Ġdeprecated": 631,
      "unoassay": 632,
      "iid": 633,
      "Ġビ": 634,
      "ĠTsu": 635,
      "warp": 636,
      "gol": 637,
      "ĠRIP": 638,
      "Ġвул": 639,
      "Ġприд": 640,
      "Inventory": 641,
      "ratch": 642,
      "enek": 643,
      "Ġkõ": 644,
      "ĠWex": 645,
      "Ġнеу": 646,
      "BtnPanel": 647,
      "ĠCrowley": 648,
      "ĠRenata": 649,
      "ĠConcurrentTask": 650,
      "жного": 651,
      "வர": 652,
      "Ġஅவர": 653,
      "ĠSdn": 654,
      "Ġمقر": 655,
      "セージ": 656,
      "ッセージ": 657,
      "ĠMNR": 658,
      "イズ": 659,
      "ĠGreeks": 660,
      "Rank": 661,
      "LensGlare": 662,
      "Ġاتا": 663,
      "érez": 664,
      "тным": 665,
      "ĠBatt": 666,
      "ätter": 667,
      "ĠVolta": 668,
      "Ġвідповід": 669,
      "ĠRoad": 670,
      "Ġсегодня": 671,
      "ispanic": 672,
      "Sensor": 673,
      "Ġinté": 674,
      "ĠBane": 675,
      "ĠPhang": 676,
      "hren": 677,
      "ixon": 678,
      "ĠSchaus": 679,
      "ovice": 680,
      "Brainz": 681,
      "embe": 682,
      "requency": 683,
      "ĠCummings": 684,
      "OO": 685,
      "Sig": 686,
      "ĠpSig": 687,
      "Ġrokov": 688,
      "ĠDwight": 689,
      "verticalLayout": 690,
      "seva": 691,
      "Ġmengatakan": 692,
      "рафон": 693,
      "arai": 694,
      "Ġbánh": 695,
      "Interpol": 696,
      "ĠBAU": 697,
      "Ġdowns": 698,
      "ęż": 699,
      "Ġbrisk": 700,
      "ężczy": 701,
      "ĠGandh": 702,
      "Ġпопасть": 703,
      "Ġtíp": 704,
      "owanym": 705,
      "ĠGaia": 706,
      "glas": 707,
      "ormap": 708,
      "Ġelectroph": 709,
      "Ġscrut": 710,
      "rugula": 711,
      "Alb": 712,
      "Ġмедици": 713,
      "Ġالحره": 714,
      "вера": 715,
      "Ġизда": 716,
      "ĠBianca": 717,
      "カウン": 718,
      "ĠMPP": 719,
      "izaje": 720,
      "Ġfath": 721,
      "налу": 722,
      "ĠHins": 723,
      "Ġlever": 724,
      "Ġleader": 725,
      "Ġlather": 726,
      "zony": 727,
      "ĠRic": 728,
      "łączy": 729,
      "bigg": 730,
      "lüğ": 731,
      "进行": 732,
      "ĠCarls": 733,
      "ALTH": 734,
      "ントリー": 735,
      "Ġwaahanga": 736,
      "ensão": 737,
      "ĠAHL": 738,
      "Ġбизне": 739,
      "setPassword": 740,
      "ĠGhent": 741,
      "Ġthrombo": 742,
      "Ġsöyledi": 743,
      "mvn": 744,
      "coat": 745,
      "setCellValue": 746,
      "ibilités": 747,
      "ermore": 748,
      "près": 749,
      "Ġigre": 750,
      "ĠPied": 751,
      "ocie": 752,
      "inskii": 753,
      "OPLE": 754,
      "صاف": 755,
      "είτε": 756,
      "isz": 757,
      "Ġrecited": 758,
      "ĠNPE": 759,
      "ardier": 760,
      "Ġየተ": 761,
      "Ġtorch": 762,
      "Ġфутбол": 763,
      "URLConnection": 764,
      "ĠKondo": 765,
      "Ġהי": 766,
      "JUnit": 767,
      "cón": 768,
      "ĠJezus": 769,
      "チーズ": 770,
      "bitwise": 771,
      "ĠMargot": 772,
      "ĠUtica": 773,
      "urety": 774,
      "Ġepistem": 775,
      "ĠEnter": 776,
      "ĠCCSDT": 777,
      "ĠRecife": 778,
      "putes": 779,
      "ĠIrina": 780,
      "Ġhues": 781,
      "Ġinteress": 782,
      "VERN": 783,
      "ĠAVEN": 784,
      "Ġpérd": 785,
      "Ġcytokinin": 786,
      "Ġmonadic": 787,
      "iciently": 788,
      "ekti": 789,
      "Ġexerted": 790,
      "ňuje": 791,
      "Ġsprayer": 792,
      "ĠProzent": 793,
      "Ġalred": 794,
      "ographies": 795,
      "женных": 796,
      "Ġремон": 797,
      "vamente": 798,
      "Ġallem": 799,
      "Allen": 800,
      "چنین": 801,
      "subsection": 802,
      "rifle": 803,
      "Ġetc": 804,
      "Ġmans": 805,
      "ĠBVHTreeNode": 806,
      "ĠObjectID": 807,
      "BND": 808,
      "ĠUBND": 809,
      "Ġспокой": 810,
      "quent": 811,
      "Ġвра": 812,
      "Ġaccep": 813,
      "Ġszem": 814,
      "ĠTrim": 815,
      "Ġвезе": 816,
      "emers": 817,
      "ĠDumas": 818,
      "Ġباست": 819,
      "olev": 820,
      "scope": 821,
      "Ġحم": 822,
      "ንዳንድ": 823,
      "Embed": 824,
      "ĠMetall": 825,
      "Ġuitge": 826,
      "ամ": 827,
      "janja": 828,
      "Ġհամ": 829,
      "ĠMetcalf": 830,
      "Ġставка": 831,
      "Ġjub": 832,
      "UREG": 833,
      "AddComponent": 834,
      "Ġfrost": 835,
      "Ġfouls": 836,
      "Ġfiz": 837,
      "Ġreversion": 838,
      "čiti": 839,
      "wiata": 840,
      "MeshData": 841,
      "ĠMcDermott": 842,
      "ripty": 843,
      "Ġالنقطه": 844,
      "Ġосуществля": 845,
      "ĠWaits": 846,
      "Ġصہیون": 847,
      "Ġhablan": 848,
      "Ġphosphoryl": 849,
      "Ġoverdrive": 850,
      "omit": 851,
      "acruz": 852,
      "ribed": 853,
      "idega": 854,
      "DEL": 855,
      "Ġcamar": 856,
      "ĠJordi": 857,
      "AID": 858,
      "Ġfark": 859,
      "Ġuch": 860,
      "ĠTand": 861,
      "Ġfastened": 862,
      "Ġeins": 863,
      "dni": 864,
      "ĠSCH": 865,
      "ĠMartin": 866,
      "Ġtomó": 867,
      "Ġchampioned": 868,
      "TextureAsset": 869,
      "qli": 870,
      "keydown": 871,
      "Ġhumanities": 872,
      "ОВ": 873,
      "Ġсере": 874,
      "Ġbolog": 875,
      "irteenth": 876,
      "vd": 877,
      "ĠMPR": 878,
      "Ġictal": 879,
      "нта": 880,
      "Ġegyszer": 881,
      "Ġsın": 882,
      "ĠKings": 883,
      "Aslam": 884,
      "ĠPolize": 885,
      "Aslamualaikum": 886,
      "kező": 887,
      "MatContext": 888,
      "ĠIntPtr": 889,
      "Drawer": 890,
      "ĠSPARSE": 891,
      "ĠCMC": 892,
      "Ġprescrib": 893,
      "Ġالتن": 894,
      "urança": 895,
      "ĠSiri": 896,
      "ĠBR": 897,
      "rauen": 898,
      "ĠBloom": 899,
      "وجد": 900,
      "holders": 901,
      "Ġbater": 902,
      "Ġled": 903,
      "ĠBarrow": 904,
      "Slots": 905,
      "ReaderWriter": 906,
      "DTDs": 907,
      "ĠNestor": 908,
      "forschungs": 909,
      "Ġfear": 910,
      "utama": 911,
      "ĠTat": 912,
      "ĠGipps": 913,
      "jeeling": 914,
      "ivational": 915,
      "ĠFaw": 916,
      "Ġssh": 917,
      "Ġkaug": 918,
      "Nodes": 919,
      "Ġencephal": 920,
      "Ġдает": 921,
      "entrum": 922,
      "系统": 923,
      "Ġsekar": 924,
      "ені": 925,
      "リーム": 926,
      "PAssignment": 927,
      "iminary": 928,
      "lád": 929,
      "mitter": 930,
      "umni": 931,
      "énées": 932,
      "ĠИван": 933,
      "ĠSchwarzen": 934,
      "ĠMSU": 935,
      "CImgBoard": 936,
      "Ġпредмет": 937,
      "Ġfáb": 938,
      "álás": 939,
      "ellows": 940,
      "Ġconvirt": 941,
      "ĠСпорт": 942,
      "áveis": 943,
      "ilene": 944,
      "summ": 945,
      "Ġtová": 946,
      "beli": 947,
      "ektiv": 948,
      "ĠBancroft": 949,
      "Ġconfe": 950,
      "dc": 951,
      "Ġconfisc": 952,
      "EnumValue": 953,
      "getApplication": 954,
      "ToDO": 955,
      "Ġbetrayed": 956,
      "Ġинтел": 957,
      "timePlusEvents": 958,
      "ĠFROMVS": 959,
      "pract": 960,
      "Ġitch": 961,
      "Ġleicht": 962,
      "ĠDevOps": 963,
      "Ġnigga": 964,
      "ĠKnowles": 965,
      "ĠKensington": 966,
      "glia": 967,
      "Ġширо": 968,
      "ĠKnock": 969,
      "ĠTijuana": 970,
      "ĠgeoLocation": 971,
      "Prem": 972,
      "ĠXuan": 973,
      "anoj": 974,
      "Ġearthen": 975,
      "ĠThun": 976,
      "ĠChesh": 977,
      "Ġтребу": 978,
      "ĠCheshire": 979,
      "ĠPew": 980,
      "ائو": 981,
      "foon": 982,
      "ĠBetty": 983,
      "いくつ": 984,
      "ytale": 985,
      "umination": 986,
      "Ġペ": 987,
      "系列": 988,
      "Ġprol": 989,
      "ĠThacker": 990,
      "apper": 991,
      "Ġgörü": 992,
      "inink": 993,
      "BNA": 994,
      "ômes": 995,
      "ĠAik": 996,
      "Ġschwer": 997,
      "Ġсигна": 998,
      "OAuth": 999,
      "olées": 1000,
      "maras": 1001,
      "ينا": 1002,
      "Ġbiting": 1003,
      "ĠRae": 1004,
      "Ġultimo": 1005,
      "imd": 1006,
      "ĠEMG": 1007,
      "thedocs": 1008,
      "Ġkupu": 1009,
      "Ġindígen": 1010,
      "empi": 1011,
      "Ġangust": 1012,
      "ĠBiswas": 1013,
      "oporto": 1014,
      "llrp": 1015,
      "Ġ위": 1016,
      "ске": 1017,
      "ĠRfd": 1018,
      "Ġwych": 1019,
      "akaan": 1020,
      "ĠZamora": 1021,
      "قب": 1022,
      "Ġmjes": 1023,
      "ĠCym": 1024,
      "korn": 1025,
      "ezone": 1026,
      "ترین": 1027,
      "imiya": 1028,
      "PECT": 1029,
      "Ġsandhaya": 1030,
      "Ġcongrat": 1031,
      "yoruz": 1032,
      "まり": 1033,
      "obaan": 1034,
      "ĠPlank": 1035,
      "选择": 1036,
      "wes": 1037,
      "insky": 1038,
      "ĠChaud": 1039,
      "最大": 1040,
      "orra": 1041,
      "中的": 1042,
      "ĠMaint": 1043,
      "Ġupas": 1044,
      "unidad": 1045,
      "ĠMortimer": 1046,
      "ንገ": 1047,
      "ĠCDC": 1048,
      "ĠCrescent": 1049,
      "STAND": 1050,
      "Ġመንገ": 1051,
      "Ġመንገድ": 1052,
      "Ġoffen": 1053,
      "acrylate": 1054,
      "لان": 1055,
      "ệng": 1056,
      "BYTE": 1057,
      "Ġmaî": 1058,
      "Ġskyrock": 1059,
      "ĠErl": 1060,
      "овт": 1061,
      "Ġжовт": 1062,
      "Ġkandi": 1063,
      "UX": 1064,
      "ĠVeget": 1065,
      "enangkan": 1066,
      "UIView": 1067,
      "Ġرمی": 1068,
      "ગર": 1069,
      "નગર": 1070,
      "encie": 1071,
      "Ġhandic": 1072,
      "ekar": 1073,
      "ensburg": 1074,
      "Ġالمنت": 1075,
      "ĠAlvarado": 1076,
      "ĠPolly": 1077,
      "Ġбола": 1078,
      "Ġphotovolta": 1079,
      "Ġseç": 1080,
      "ĠИчиго": 1081,
      "ĠCartan": 1082,
      "Ġvadati": 1083,
      "Ġworkpiece": 1084,
      "aksana": 1085,
      "водитель": 1086,
      "ĠAML": 1087,
      "inees": 1088,
      "uscle": 1089,
      "eqref": 1090,
      "otho": 1091,
      "leston": 1092,
      "Ġdemonst": 1093,
      "ismas": 1094,
      "atoshi": 1095,
      "Ġincarc": 1096,
      "Ġincarcer": 1097,
      "мова": 1098,
      "Famil": 1099,
      "Ġiri": 1100,
      "富な": 1101,
      "豊富な": 1102,
      "Ġглу": 1103,
      "ĠQuill": 1104,
      "ĠLest": 1105,
      "heits": 1106,
      "тельная": 1107,
      "ĠВолоди": 1108,
      "Ġcrab": 1109,
      "ложить": 1110,
      "ливо": 1111,
      "ĠLEED": 1112,
      "apsible": 1113,
      "ĠСаме": 1114,
      "Ġnightcl": 1115,
      "Ġespuma": 1116,
      "rinos": 1117,
      "Melitaea": 1118,
      "Ġeest": 1119,
      "Ġmjest": 1120,
      "dre": 1121,
      "Ġenvers": 1122,
      "languageTag": 1123,
      "ركه": 1124,
      "ĠTriv": 1125,
      "ContextCompat": 1126,
      "ĠRosal": 1127,
      "ĠRUTAREAL": 1128,
      "abcati": 1129,
      "sum": 1130,
      "ïdes": 1131,
      "icaria": 1132,
      "ampunk": 1133,
      "льні": 1134,
      "ĠLaufe": 1135,
      "ĠHoud": 1136,
      "жены": 1137,
      "Ġmelakukannya": 1138,
      "чне": 1139,
      "Ġreject": 1140,
      "Ġyapılan": 1141,
      "óa": 1142,
      "енок": 1143,
      "ìm": 1144,
      "Ġkolei": 1145,
      "csvStream": 1146,
      "ĠGCD": 1147,
      "Kh": 1148,
      "Ġχρησιμοποι": 1149,
      "ĠCommandCenter": 1150,
      "britannien": 1151,
      "Ġtransfection": 1152,
      "Ġgift": 1153,
      "aterData": 1154,
      "BASELINE": 1155,
      "ĠReth": 1156,
      "ésil": 1157,
      "Ġtoege": 1158,
      "Ġadjourned": 1159,
      "Ġjū": 1160,
      "bear": 1161,
      "MouseMove": 1162,
      "ardless": 1163,
      "Ġcref": 1164,
      "odium": 1165,
      "ĠIDC": 1166,
      "etary": 1167,
      "Place": 1168,
      "laszt": 1169,
      "ĠHorde": 1170,
      "博物": 1171,
      "onin": 1172,
      "Ġétrang": 1173,
      "ناط": 1174,
      "bappe": 1175,
      "ĠMbappe": 1176,
      "ĠAhm": 1177,
      "rides": 1178,
      "Shiv": 1179,
      "TextUtils": 1180,
      "ĠCompoundButton": 1181,
      "Ġthank": 1182,
      "toArray": 1183,
      "initro": 1184,
      "ajat": 1185,
      "ambu": 1186,
      "nol": 1187,
      "pPATH": 1188,
      "myMDP": 1189,
      "Ġvérit": 1190,
      "uance": 1191,
      "Ġзаклад": 1192,
      "Ġxrd": 1193,
      "Ġrisult": 1194,
      "かる": 1195,
      "ĠDé": 1196,
      "Ġалуу": 1197,
      "inje": 1198,
      "ĠVali": 1199,
      "ĠHilary": 1200,
      "uyo": 1201,
      "Ġمما": 1202,
      "ĠSIC": 1203,
      "ĠGalilee": 1204,
      "UpperBound": 1205,
      "ĠMaulana": 1206,
      "StartZ": 1207,
      "RIBUTION": 1208,
      "leme": 1209,
      "ранд": 1210,
      "стребо": 1211,
      "Ġkotlinx": 1212,
      "èse": 1213,
      "кої": 1214,
      "Labels": 1215,
      "ĠVor": 1216,
      "urgence": 1217,
      "Ren": 1218,
      "staben": 1219,
      "nek": 1220,
      "CreateCharacter": 1221,
      "Ġfriv": 1222,
      "ĠChayin": 1223,
      "IDField": 1224,
      "ĠGast": 1225,
      "frist": 1226,
      "ĠJasper": 1227,
      "ataa": 1228,
      "cookieParser": 1229,
      "itania": 1230,
      "Ġsucedido": 1231,
      "таль": 1232,
      "ĠRizzo": 1233,
      "rowable": 1234,
      "niPaf": 1235,
      "ĠwikiHow": 1236,
      "markUpdateChoice": 1237,
      "Cert": 1238,
      "ĠMatth": 1239,
      "umbre": 1240,
      "Ġelt": 1241,
      "holder": 1242,
      "ĠFurn": 1243,
      "mediately": 1244,
      "Ġspark": 1245,
      "isValue": 1246,
      "ColorEffects": 1247,
      "Ġakadem": 1248,
      "Flat": 1249,
      "ĠmotionProxy": 1250,
      "amicin": 1251,
      "ĠAMS": 1252,
      "ropolitana": 1253,
      "ĠKrueger": 1254,
      "itoring": 1255,
      "чва": 1256,
      "updateOne": 1257,
      "corner": 1258,
      "ĠAviv": 1259,
      "Ġbillion": 1260,
      "داد": 1261,
      "eraj": 1262,
      "riculum": 1263,
      "ameni": 1264,
      "вала": 1265,
      "Ġmaxime": 1266,
      "ĠTrit": 1267,
      "Ġperoxidase": 1268,
      "чин": 1269,
      "Ġincess": 1270,
      "ĠPROF": 1271,
      "germeister": 1272,
      "ĠSitt": 1273,
      "ĠRous": 1274,
      "wrist": 1275,
      "Arvore": 1276,
      "Ġare": 1277,
      "ĠPUBL": 1278,
      "UME": 1279,
      "lexemeTable": 1280,
      "ilitas": 1281,
      "ĠMelville": 1282,
      "ĠTarn": 1283,
      "Ġyaşad": 1284,
      "sav": 1285,
      "ĠPAM": 1286,
      "IfNot": 1287,
      "Ġملتی": 1288,
      "ĠCST": 1289,
      "ViewSet": 1290,
      "Ġfoo": 1291,
      "ĠNajib": 1292,
      "Ġナイス": 1293,
      "Ġвозра": 1294,
      "ĠVuk": 1295,
      "bane": 1296,
      "Ġbound": 1297,
      "Ġredist": 1298,
      "arest": 1299,
      "coelastic": 1300,
      "ĠBlind": 1301,
      "чное": 1302,
      "digo": 1303,
      "áculo": 1304,
      "кторов": 1305,
      "städ": 1306,
      "ĠArrang": 1307,
      "ĠCOc": 1308,
      "Ġپید": 1309,
      "dateTime": 1310,
      "Ġमसल": 1311,
      "krieg": 1312,
      "ĠRush": 1313,
      "Ġالمرسلين": 1314,
      "اسة": 1315,
      "личество": 1316,
      "ĠTij": 1317,
      "рана": 1318,
      "Ġjist": 1319,
      "Ġوالك": 1320,
      "Ġузна": 1321,
      "brado": 1322,
      "ĠJal": 1323,
      "Ġknocks": 1324,
      "pheromone": 1325,
      "Ticks": 1326,
      "ĠFus": 1327,
      "diri": 1328,
      "ĠReilly": 1329,
      "hwar": 1330,
      "inggi": 1331,
      "ĠSCE": 1332,
      "UNDLE": 1333,
      "ĠCCBUNDLE": 1334,
      "АТ": 1335,
      "АТО": 1336,
      "Ġrod": 1337,
      "flare": 1338,
      "Ġblank": 1339,
      "ĠShin": 1340,
      "bao": 1341,
      "Ġvért": 1342,
      "ĠNassau": 1343,
      "ungle": 1344,
      "ída": 1345,
      "Ġpsychosocial": 1346,
      "шает": 1347,
      "ocin": 1348,
      "shoring": 1349,
      "Zawodnik": 1350,
      "Ġugu": 1351,
      "Ġчеты": 1352,
      "jasmine": 1353,
      "Ġfang": 1354,
      "incar": 1355,
      "Ġчув": 1356,
      "fatter": 1357,
      "ĠLSR": 1358,
      "Ġčlán": 1359,
      "apuram": 1360,
      "ĠPLoS": 1361,
      "Computed": 1362,
      "Ġдево": 1363,
      "čili": 1364,
      "Ġتكبرها": 1365,
      "atonin": 1366,
      "ستی": 1367,
      "Ġsmeared": 1368,
      "ዚህ": 1369,
      "Carter": 1370,
      "orned": 1371,
      "ĠGodwin": 1372,
      "imester": 1373,
      "Ġوعلى": 1374,
      "ĠTobago": 1375,
      "кологи": 1376,
      "Txt": 1377,
      "Ġtae": 1378,
      "Ġretire": 1379,
      "StartPreview": 1380,
      "careous": 1381,
      "ledo": 1382,
      "Ġimb": 1383,
      "asers": 1384,
      "compromising": 1385,
      "ĠISPs": 1386,
      "ĠWilbur": 1387,
      "HttpPut": 1388,
      "nonce": 1389,
      "ĠVerv": 1390,
      "Ġstö": 1391,
      "غيرة": 1392,
      "Ġjonka": 1393,
      "hilt": 1394,
      "icating": 1395,
      "oskeleton": 1396,
      "ennem": 1397,
      "ĠPhen": 1398,
      "fle": 1399,
      "Ġcélé": 1400,
      "Ġinvo": 1401,
      "beforeend": 1402,
      "екси": 1403,
      "Ġkwe": 1404,
      "ysta": 1405,
      "ĠEdw": 1406,
      "Definition": 1407,
      "anyon": 1408,
      "fers": 1409,
      "elol": 1410,
      "Ġinvertebr": 1411,
      "Ġavanc": 1412,
      "Ġwithd": 1413,
      "elolaan": 1414,
      "asInstanceOf": 1415,
      "imų": 1416,
      "ServiceGroupID": 1417,
      "Ġዓይነት": 1418,
      "ólog": 1419,
      "kiem": 1420,
      "ĠRamona": 1421,
      "nucle": 1422,
      "assapi": 1423,
      "ĠCyt": 1424,
      "Ġрам": 1425,
      "haus": 1426,
      "uridad": 1427,
      "iavelli": 1428,
      "Mur": 1429,
      "geschoss": 1430,
      "mack": 1431,
      "ĠNAA": 1432,
      "Ġالأخ": 1433,
      "icato": 1434,
      "skij": 1435,
      "のような": 1436,
      "stö": 1437,
      "Ġélytres": 1438,
      "Ġwcześ": 1439,
      "ĠLorentzian": 1440,
      "oreal": 1441,
      "oulli": 1442,
      "ĠtopRight": 1443,
      "Ġživot": 1444,
      "Ġالجن": 1445,
      "ავლ": 1446,
      "غانستان": 1447,
      "folger": 1448,
      "Ġatent": 1449,
      "Topbar": 1450,
      "BMC": 1451,
      "ベント": 1452,
      "RegisterClass": 1453,
      "ieza": 1454,
      "Ġشهید": 1455,
      "Ġאי": 1456,
      "σω": 1457,
      "Ġкруп": 1458,
      "ĠCONT": 1459,
      "Ġznajdu": 1460,
      "Ġfinit": 1461,
      "ibley": 1462,
      "Ġarada": 1463,
      "اتف": 1464,
      "Ġsiglas": 1465,
      "ILLE": 1466,
      "ĠEinwill": 1467,
      "ifold": 1468,
      "Ġwann": 1469,
      "ereal": 1470,
      "Ġالول": 1471,
      "Ġeps": 1472,
      "PreviewPaused": 1473,
      "ĠPlague": 1474,
      "ĠIwas": 1475,
      "нови": 1476,
      "Ġadren": 1477,
      "PLAC": 1478,
      "ACITY": 1479,
      "Ġmauris": 1480,
      "جنة": 1481,
      "Ġimpre": 1482,
      "ĠNASA": 1483,
      "არს": 1484,
      "Ġbagg": 1485,
      "الش": 1486,
      "Ġeder": 1487,
      "lsulfanyl": 1488,
      "WI": 1489,
      "ĠDWI": 1490,
      "ĠCode": 1491,
      "Ġdoz": 1492,
      "ĠWoodruff": 1493,
      "oste": 1494,
      "Ġوالع": 1495,
      "lių": 1496,
      "Ġgelen": 1497,
      "corn": 1498,
      "此同时": 1499,
      "Ġللع": 1500,
      "MnO": 1501,
      "ปร": 1502,
      "ĠuseSelector": 1503,
      "ждая": 1504,
      "ריך": 1505,
      "ĠPhillies": 1506,
      "Ġcrop": 1507,
      "ĠLancashire": 1508,
      "หมาะ": 1509,
      "abase": 1510,
      "orphous": 1511,
      "hookrightarrow": 1512,
      "ĠLahore": 1513,
      "StatusCodes": 1514,
      "Ġquerc": 1515,
      "Ġlymphoblastic": 1516,
      "ificaciones": 1517,
      "POSITORY": 1518,
      "Ġmorb": 1519,
      "embles": 1520,
      "Ġjedan": 1521,
      "aue": 1522,
      "Ġходить": 1523,
      "Ġzieht": 1524,
      "وعه": 1525,
      "jf": 1526,
      "Ġrjf": 1527,
      "ĠRosetta": 1528,
      "Ġauff": 1529,
      "orsa": 1530,
      "кін": 1531,
      "ĠCAE": 1532,
      "ёнок": 1533,
      "eeing": 1534,
      "Ġseguir": 1535,
      "acité": 1536,
      "itee": 1537,
      "ĠUtils": 1538,
      "ĠGuill": 1539,
      "Ġвідбу": 1540,
      "ünsche": 1541,
      "Ġfunzion": 1542,
      "Ġestern": 1543,
      "Reven": 1544,
      "Transforms": 1545,
      "ütfen": 1546,
      "ĠgenericOverview": 1547,
      "Ġwrześ": 1548,
      "Edge": 1549,
      "ĠGaj": 1550,
      "ipy": 1551,
      "Applic": 1552,
      "Ġdni": 1553,
      "ütter": 1554,
      "uger": 1555,
      "Ġwry": 1556,
      "кту": 1557,
      "府県": 1558,
      "道府県": 1559,
      "ĠRaid": 1560,
      "stp": 1561,
      "ĠNure": 1562,
      "ratie": 1563,
      "konom": 1564,
      "通过": 1565,
      "otri": 1566,
      "Ġالقسمه": 1567,
      "ĠSandler": 1568,
      "PERTY": 1569,
      "ksiyon": 1570,
      "Ġsuffer": 1571,
      "ĠMore": 1572,
      "ĠLiet": 1573,
      "ارڈ": 1574,
      "ritish": 1575,
      "onga": 1576,
      "Ġbaad": 1577,
      "mapi": 1578,
      "ächen": 1579,
      "Ġgeodes": 1580,
      "Ġrational": 1581,
      "ргыз": 1582,
      "ыргыз": 1583,
      "šina": 1584,
      "SwiftlyPlugin": 1585,
      "Ġmung": 1586,
      "пия": 1587,
      "kir": 1588,
      "ші": 1589,
      "Ġواقع": 1590,
      "ğraf": 1591,
      "intergrund": 1592,
      "ĠCDP": 1593,
      "нгтон": 1594,
      "ĠVivienne": 1595,
      "Launching": 1596,
      "objClass": 1597,
      "urad": 1598,
      "uradaki": 1599,
      "lop": 1600,
      "дений": 1601,
      "riet": 1602,
      "ĠFertil": 1603,
      "Ġkej": 1604,
      "Ġبیل": 1605,
      "elligent": 1606,
      "Ġağ": 1607,
      "Ġnhàng": 1608,
      "Ġضر": 1609,
      "detect": 1610,
      "Ġразговор": 1611,
      "nsic": 1612,
      "Ġsandwich": 1613,
      "wikidata": 1614,
      "Ġaran": 1615,
      "тить": 1616,
      "гноз": 1617,
      "CommonAncestor": 1618,
      "Ġdeleter": 1619,
      "Ġcontradicts": 1620,
      "ĠFrans": 1621,
      "ĠGins": 1622,
      "ĠmyCamera": 1623,
      "isodes": 1624,
      "Ġevamadisu": 1625,
      "Glide": 1626,
      "Ġoversh": 1627,
      "zuf": 1628,
      "رويج": 1629,
      "kyverno": 1630,
      "Ġtin": 1631,
      "Ġmaad": 1632,
      "OSED": 1633,
      "ザー": 1634,
      "atihan": 1635,
      "convén": 1636,
      "ocardial": 1637,
      "EphemeralShroud": 1638,
      "PLF": 1639,
      "ĠForge": 1640,
      "Ġchrys": 1641,
      "емый": 1642,
      "itrogen": 1643,
      "jami": 1644,
      "rouw": 1645,
      "وتی": 1646,
      "apos": 1647,
      "voja": 1648,
      "ĠKart": 1649,
      "ymet": 1650,
      "ĠSeymour": 1651,
      "이다": 1652,
      "PLICATION": 1653,
      "Ġсра": 1654,
      "ージャー": 1655,
      "sequently": 1656,
      "ĠBangor": 1657,
      "edm": 1658,
      "apati": 1659,
      "ĠEMU": 1660,
      "Ġtass": 1661,
      "Ġwildest": 1662,
      "Ġsplitpos": 1663,
      "ĠFritz": 1664,
      "არა": 1665,
      "ĠGustave": 1666,
      "quantile": 1667,
      "Ġسپور": 1668,
      "Ġgminy": 1669,
      "bie": 1670,
      "Ġvois": 1671,
      "ĠTenerife": 1672,
      "edì": 1673,
      "Ġcartil": 1674,
      "IndexArray": 1675,
      "Ġconnot": 1676,
      "Ġmanipulative": 1677,
      "oretic": 1678,
      "walker": 1679,
      "psr": 1680,
      "Ġchampignons": 1681,
      "expandedTitle": 1682,
      "Ġnok": 1683,
      "高い": 1684,
      "ለት": 1685,
      "ucius": 1686,
      "Ġért": 1687,
      "oneycomb": 1688,
      "Ġunderval": 1689,
      "פור": 1690,
      "aceholder": 1691,
      "Ġembro": 1692,
      "Ġvigueur": 1693,
      "SetFloat": 1694,
      "Ġмеро": 1695,
      "Ġмероприя": 1696,
      "ordat": 1697,
      "ĠProtect": 1698,
      "ĠcomputeEncoder": 1699,
      "Lead": 1700,
      "endip": 1701,
      "NotNull": 1702,
      "عادة": 1703,
      "ĠAuff": 1704,
      "Shell": 1705,
      "ρούν": 1706,
      "uacute": 1707,
      "ĠIM": 1708,
      "Ġmaven": 1709,
      "Ġgamb": 1710,
      "んど": 1711,
      "ellaneous": 1712,
      "Ġhumiliated": 1713,
      "parametri": 1714,
      "Ġausger": 1715,
      "Ġcach": 1716,
      "ĠMee": 1717,
      "ificates": 1718,
      "дук": 1719,
      "Ġfuncional": 1720,
      "icators": 1721,
      "ĠCHARSET": 1722,
      "Ġdatt": 1723,
      "Ġسرحد": 1724,
      "ρει": 1725,
      "oporosis": 1726,
      "accio": 1727,
      "óticos": 1728,
      "Ġandroid": 1729,
      "Ġcondimentum": 1730,
      "Ġјед": 1731,
      "муж": 1732,
      "Ġpanel": 1733,
      "ĠHerring": 1734,
      "guna": 1735,
      "uas": 1736,
      "ĠEntscheid": 1737,
      "Ġangesehen": 1738,
      "dport": 1739,
      "ĠCush": 1740,
      "Ġinsofar": 1741,
      "Ġショルダー": 1742,
      "Ġannuity": 1743,
      "enov": 1744,
      "ĠGustav": 1745,
      "じゃ": 1746,
      "Ġintram": 1747,
      "repeat": 1748,
      "Ġfreest": 1749,
      "ĠCurtis": 1750,
      "ĠEllie": 1751,
      "ívá": 1752,
      "ĠWic": 1753,
      "щий": 1754,
      "istungs": 1755,
      "aians": 1756,
      "Ġمشین": 1757,
      "Ġ점에서": 1758,
      "ayar": 1759,
      "Ġokun": 1760,
      "lions": 1761,
      "Ġperitone": 1762,
      "ĠGraf": 1763,
      "Ġورځ": 1764,
      "MSFontService": 1765,
      "ĠTraff": 1766,
      "held": 1767,
      "umba": 1768,
      "obin": 1769,
      "oit": 1770,
      "რო": 1771,
      "Doc": 1772,
      "atforms": 1773,
      "áser": 1774,
      "Ġláser": 1775,
      "чим": 1776,
      "Goal": 1777,
      "țile": 1778,
      "Eddie": 1779,
      "сну": 1780,
      "ĠTosc": 1781,
      "Ġrepay": 1782,
      "Define": 1783,
      "Elli": 1784,
      "лоба": 1785,
      "ĠLili": 1786,
      "Ġater": 1787,
      "ĠBoll": 1788,
      "льтра": 1789,
      "elfde": 1790,
      "ĠVilleneuve": 1791,
      "ĠSmartyLint": 1792,
      "ueba": 1793,
      "Ġentfer": 1794,
      "Ġepisc": 1795,
      "enian": 1796,
      "ĠGag": 1797,
      "Ġgamepad": 1798,
      "ĠPerm": 1799,
      "Ġად": 1800,
      "utu": 1801,
      "nin": 1802,
      "stargo": 1803,
      "Ġalgebra": 1804,
      "Ġenth": 1805,
      "ĠBroughton": 1806,
      "icmp": 1807,
      "ĠDES": 1808,
      "Ġreconn": 1809,
      "umpulan": 1810,
      "みたい": 1811,
      "chie": 1812,
      "Ġkasi": 1813,
      "Ġmarm": 1814,
      "ĠYellow": 1815,
      "UpperCase": 1816,
      "khane": 1817,
      "FIL": 1818,
      "ĠEAR": 1819,
      "Ġتجي": 1820,
      "ĠDSM": 1821,
      "ĠLPM": 1822,
      "Ġпози": 1823,
      "onyms": 1824,
      "ĠColson": 1825,
      "ĠCHP": 1826,
      "brow": 1827,
      "zedł": 1828,
      "ASSWORD": 1829,
      "Hos": 1830,
      "ĠMLP": 1831,
      "Appuntamento": 1832,
      "brig": 1833,
      "omycin": 1834,
      "indsay": 1835,
      "Lamb": 1836,
      "mylist": 1837,
      "ĠRAD": 1838,
      "τού": 1839,
      "refixer": 1840,
      "ĠReichs": 1841,
      "ĠGreenfield": 1842,
      "ĠTurb": 1843,
      "Ġostat": 1844,
      "Ġinstr": 1845,
      "ĠLim": 1846,
      "Ġmontar": 1847,
      "BOSS": 1848,
      "Ġreicht": 1849,
      "ĠAmaz": 1850,
      "ĠNewport": 1851,
      "ĠWojcie": 1852,
      "бели": 1853,
      "Ġgolf": 1854,
      "wiet": 1855,
      "unie": 1856,
      "openstreetmap": 1857,
      "euler": 1858,
      "ungsseite": 1859,
      "lma": 1860,
      "ĠFranken": 1861,
      "Ġریک": 1862,
      "Ġрейти": 1863,
      "Ġsetzte": 1864,
      "Transicao": 1865,
      "adn": 1866,
      "ĠBib": 1867,
      "glers": 1868,
      "Ġcorriendo": 1869,
      "recommendet": 1870,
      "Ġtong": 1871,
      "ĠDavao": 1872,
      "ĠGewinn": 1873,
      "Ġstork": 1874,
      "About": 1875,
      "igeon": 1876,
      "distance": 1877,
      "ĠMaxwell": 1878,
      "天市": 1879,
      "楽天市": 1880,
      "楽天市場": 1881,
      "AuthState": 1882,
      "strom": 1883,
      "Hlav": 1884,
      "raves": 1885,
      "შინ": 1886,
      "ĠScar": 1887,
      "τια": 1888,
      "eptide": 1889,
      "ĠSexton": 1890,
      "ĠSikkim": 1891,
      "Ġejerc": 1892,
      "ihar": 1893,
      "colm": 1894,
      "ĠaddConfigureArg": 1895,
      "Ġsweat": 1896,
      "Ġvon": 1897,
      "Ġeager": 1898,
      "Ġダイヤ": 1899,
      "ĠLian": 1900,
      "Ġئەو": 1901,
      "itorio": 1902,
      "bolic": 1903,
      "Ġcuis": 1904,
      "ádiz": 1905,
      "crt": 1906,
      "ĠGaulle": 1907,
      "oretically": 1908,
      "ĠsbParams": 1909,
      "ipc": 1910,
      "ĠSting": 1911,
      "AGER": 1912,
      "Ġhallucin": 1913,
      "ĠМиха": 1914,
      "Dar": 1915,
      "mig": 1916,
      "Ġsepen": 1917,
      "Ġدول": 1918,
      "lás": 1919,
      "racer": 1920,
      "clockwise": 1921,
      "ĠLeiter": 1922,
      "Ġimprov": 1923,
      "mcs": 1924,
      "ĠRip": 1925,
      "მასრულ": 1926,
      "íce": 1927,
      "Ġразли": 1928,
      "Ġsleep": 1929,
      "peers": 1930,
      "ĠElvis": 1931,
      "ĠDOP": 1932,
      "imba": 1933,
      "生命": 1934,
      "anzi": 1935,
      "Ġεργ": 1936,
      "Ġраду": 1937,
      "Ġvacu": 1938,
      "Ġseno": 1939,
      "ĠHuy": 1940,
      "onDestroy": 1941,
      "Ġtortor": 1942,
      "Ġmelt": 1943,
      "Ġfórm": 1944,
      "Ġヨ": 1945,
      "Ġヨコハマ": 1946,
      "woord": 1947,
      "renerg": 1948,
      "ĠUmlauf": 1949,
      "KURZBESCHREIBUNG": 1950,
      "êmes": 1951,
      "ĠDarc": 1952,
      "Ġგას": 1953,
      "ĠPasand": 1954,
      "ĠDarcy": 1955,
      "Ġindirect": 1956,
      "matig": 1957,
      "成的": 1958,
      "ĠThrust": 1959,
      "gouv": 1960,
      "ĠLond": 1961,
      "Ġiod": 1962,
      "Ġpname": 1963,
      "ivate": 1964,
      "Ġrepatri": 1965,
      "sev": 1966,
      "Ġremport": 1967,
      "Ġillet": 1968,
      "Ġspiel": 1969,
      "ListComponent": 1970,
      "ĠArchitect": 1971,
      "ĠHuế": 1972,
      "ĠWaltham": 1973,
      "ĠJakob": 1974,
      "ĠSay": 1975,
      "édération": 1976,
      "Celula": 1977,
      "Ġوالصلاه": 1978,
      "isans": 1979,
      "Ġнасто": 1980,
      "IRC": 1981,
      "MyToolkit": 1982,
      "omh": 1983,
      "ĠDukes": 1984,
      "لیل": 1985,
      "Ġالقب": 1986,
      "atoire": 1987,
      "ĠCarp": 1988,
      "Ġрукой": 1989,
      "glycer": 1990,
      "Ġdough": 1991,
      "hesians": 1992,
      "Ġorthon": 1993,
      "BLINK": 1994,
      "Ġوير": 1995,
      "рные": 1996,
      "ĠWelch": 1997,
      "ricia": 1998,
      "ĠIngers": 1999,
      "IDX": 2000,
      "oxyl": 2001,
      "APPY": 2002,
      "Ġseder": 2003,
      "Ġپار": 2004,
      "Subsec": 2005,
      "ungu": 2006,
      "Ġthrough": 2007,
      "owników": 2008,
      "Ġgruesome": 2009,
      "uscripts": 2010,
      "Ġconvolutional": 2011,
      "ĠWade": 2012,
      "Ġбри": 2013,
      "Ġinsomnia": 2014,
      "Ġsillons": 2015,
      "ujan": 2016,
      "zov": 2017,
      "Ġocasi": 2018,
      "wrapperEl": 2019,
      "ях": 2020,
      "主要": 2021,
      "oplasmic": 2022,
      "adhyay": 2023,
      "наче": 2024,
      "localObject": 2025,
      "NSMutable": 2026,
      "olithic": 2027,
      "implantation": 2028,
      "ĠFan": 2029,
      "Ġunto": 2030,
      "eterm": 2031,
      "peration": 2032,
      "Ġgeleden": 2033,
      "anchi": 2034,
      "ĠNord": 2035,
      "ĠReina": 2036,
      "zął": 2037,
      "RequestBuilder": 2038,
      "otenv": 2039,
      "zado": 2040,
      "куру": 2041,
      "کرین": 2042,
      "Ġdeliverables": 2043,
      "cken": 2044,
      "Ġchad": 2045,
      "liga": 2046,
      "ĠART": 2047,
      "ĠNorb": 2048,
      "Ġpamph": 2049,
      "ĠNorbert": 2050,
      "Listeners": 2051,
      "dda": 2052,
      "Ġetx": 2053,
      "あえ": 2054,
      "rophe": 2055,
      "あえず": 2056,
      "Function": 2057,
      "روت": 2058,
      "iguously": 2059,
      "zero": 2060,
      "ĠGil": 2061,
      "Ġспеціа": 2062,
      "Ġcendré": 2063,
      "OutOf": 2064,
      "Últ": 2065,
      "ĠÚlt": 2066,
      "Ġvaliant": 2067,
      "وذ": 2068,
      "icionar": 2069,
      "picture": 2070,
      "Ġirgend": 2071,
      "Ġthụ": 2072,
      "Ġannual": 2073,
      "ركات": 2074,
      "Dun": 2075,
      "ĠTDI": 2076,
      "ایل": 2077,
      "irting": 2078,
      "Ġupl": 2079,
      "Ġcalda": 2080,
      "utations": 2081,
      "рона": 2082,
      "ĠOTT": 2083,
      "iscoll": 2084,
      "ĠDriscoll": 2085,
      "غه": 2086,
      "Ġwre": 2087,
      "ĠVivekan": 2088,
      "Ġtoa": 2089,
      "ĠEpstein": 2090,
      "Ġmushrooms": 2091,
      "ĠBols": 2092,
      "vergence": 2093,
      "Ġestrut": 2094,
      "plica": 2095,
      "ĠAzt": 2096,
      "Ġمنظ": 2097,
      "ĠAztec": 2098,
      "ĠKath": 2099,
      "rescence": 2100,
      "Ġyıldır": 2101,
      "Ġدستی": 2102,
      "ພາ": 2103,
      "ĠCardoso": 2104,
      "ພາບ": 2105,
      "ĠEuler": 2106,
      "QUENCY": 2107,
      "ครอง": 2108,
      "Aless": 2109,
      "falfa": 2110,
      "eea": 2111,
      "تہ": 2112,
      "Ġپتہ": 2113,
      "oldo": 2114,
      "VF": 2115,
      "Ġtầm": 2116,
      "ĠIVF": 2117,
      "flict": 2118,
      "Ġодну": 2119,
      "alsey": 2120,
      "дян": 2121,
      "Ġphiếu": 2122,
      "жён": 2123,
      "Ġacost": 2124,
      "setGeometry": 2125,
      "ینا": 2126,
      "Ġtwine": 2127,
      "ريط": 2128,
      "rishnan": 2129,
      "Civ": 2130,
      "FTR": 2131,
      "ileged": 2132,
      "вого": 2133,
      "riumph": 2134,
      "lerinden": 2135,
      "ĠАнд": 2136,
      "Ġpabbaj": 2137,
      "Ġει": 2138,
      "Ġkhel": 2139,
      "Ġالاخ": 2140,
      "iviato": 2141,
      "Ġyem": 2142,
      "Ġnariz": 2143,
      "Ġparenth": 2144,
      "Ġکاروب": 2145,
      "ĠRNN": 2146,
      "Ġممل": 2147,
      "áticamente": 2148,
      "ĠtestPanorama": 2149,
      "dag": 2150,
      "zit": 2151,
      "ierzchn": 2152,
      "Ġቀ": 2153,
      "ompar": 2154,
      "Ġscompar": 2155,
      "ĠMoreton": 2156,
      "ĠFrüh": 2157,
      "ãy": 2158,
      "یکی": 2159,
      "Ġarb": 2160,
      "Toe": 2161,
      "ادس": 2162,
      "ĠCIRCUIT": 2163,
      "Ġвзаимо": 2164,
      "cvec": 2165,
      "ầng": 2166,
      "aguars": 2167,
      "בים": 2168,
      "Ġnazar": 2169,
      "ĠMO": 2170,
      "enity": 2171,
      "мий": 2172,
      "رص": 2173,
      "Ġعرص": 2174,
      "FullScreen": 2175,
      "akim": 2176,
      "ĠWille": 2177,
      "Ġincred": 2178,
      "omis": 2179,
      "Ġretali": 2180,
      "bbR": 2181,
      "Ġ제대로": 2182,
      "ůzn": 2183,
      "Ġrůzn": 2184,
      "áticas": 2185,
      "Ġблизь": 2186,
      "看一下": 2187,
      "nienie": 2188,
      "wegen": 2189,
      "Ġted": 2190,
      "quarie": 2191,
      "azaar": 2192,
      "ترنت": 2193,
      "Ġornare": 2194,
      "vars": 2195,
      "odoris": 2196,
      "ĠGeo": 2197,
      "Ġmonotonic": 2198,
      "lox": 2199,
      "alaa": 2200,
      "ゥーン": 2201,
      "トゥーン": 2202,
      "Ġукра": 2203,
      "Ġماد": 2204,
      "Ġreproach": 2205,
      "Ġوب": 2206,
      "luster": 2207,
      "Ġrefract": 2208,
      "ĠASTM": 2209,
      "afeArea": 2210,
      "Ġposticis": 2211,
      "OLYBDENUM": 2212,
      "ĠMcQu": 2213,
      "Ġede": 2214,
      "atinum": 2215,
      "Ġиностран": 2216,
      "ército": 2217,
      "ĠFoo": 2218,
      "iany": 2219,
      "ĠOTP": 2220,
      "рика": 2221,
      "Ġundec": 2222,
      "Ġнаро": 2223,
      "Ġconjoint": 2224,
      "Vu": 2225,
      "DejaVu": 2226,
      "publish": 2227,
      "illor": 2228,
      "لول": 2229,
      "ĠMercy": 2230,
      "Ġконта": 2231,
      "jsp": 2232,
      "ĠLav": 2233,
      "Ġposter": 2234,
      "ĠDole": 2235,
      "жей": 2236,
      "ĠPPT": 2237,
      "nalia": 2238,
      "Ġindel": 2239,
      "selves": 2240,
      "produk": 2241,
      "Tap": 2242,
      "Ġukon": 2243,
      "Ġpheny": 2244,
      "гүй": 2245,
      "Ġphenytoin": 2246,
      "sofar": 2247,
      "indra": 2248,
      "ĠMSD": 2249,
      "лость": 2250,
      "Ġmotivic": 2251,
      "pyr": 2252,
      "вла": 2253,
      "oplan": 2254,
      "manifolds": 2255,
      "ĠErwin": 2256,
      "Sic": 2257,
      "Ġkttt": 2258,
      "ложении": 2259,
      "chevron": 2260,
      "ající": 2261,
      "jolsendev": 2262,
      "utuskan": 2263,
      "تبط": 2264,
      "wege": 2265,
      "ĠHov": 2266,
      "Ġnotice": 2267,
      "ĠNHT": 2268,
      "риа": 2269,
      "Communic": 2270,
      "ĠAKT": 2271,
      "成了": 2272,
      "ĠSamo": 2273,
      "ált": 2274,
      "üle": 2275,
      "Ġoctave": 2276,
      "Ġpropriety": 2277,
      "idemargin": 2278,
      "Ġстепен": 2279,
      "orient": 2280,
      "TabLayout": 2281,
      "iaal": 2282,
      "Ġназад": 2283,
      "MIT": 2284,
      "дів": 2285,
      "ĠFIL": 2286,
      "Ġobdob": 2287,
      "Ġhiv": 2288,
      "šti": 2289,
      "ĠPSD": 2290,
      "bani": 2291,
      "wife": 2292,
      "ĠMediterr": 2293,
      "leiter": 2294,
      "égi": 2295,
      "oyam": 2296,
      "ĠSantander": 2297,
      "incorpor": 2298,
      "Prema": 2299,
      "ĠchatId": 2300,
      "Gosudarstvennyj": 2301,
      "ósfera": 2302,
      "express": 2303,
      "Toolset": 2304,
      "iflower": 2305,
      "some": 2306,
      "aktu": 2307,
      "itates": 2308,
      "ĠKür": 2309,
      "ĠDemoc": 2310,
      "рем": 2311,
      "Ivan": 2312,
      "ENN": 2313,
      "embrie": 2314,
      "Ġdicembre": 2315,
      "ĠWAT": 2316,
      "Ġmostra": 2317,
      "rius": 2318,
      "Ġvọng": 2319,
      "Ġecu": 2320,
      "iphon": 2321,
      "Ġcarapace": 2322,
      "ĠAgnes": 2323,
      "ĠDarmstadt": 2324,
      "Ġآئے": 2325,
      "rikan": 2326,
      "uliert": 2327,
      "Ġfoss": 2328,
      "Ġinterrog": 2329,
      "Ġpunctato": 2330,
      "SwingConstants": 2331,
      "ĠMinist": 2332,
      "ĠObituary": 2333,
      "Ġinfidelity": 2334,
      "ĠTapat": 2335,
      "ĠMcNamara": 2336,
      "Ġocz": 2337,
      "ĠХар": 2338,
      "Ġkere": 2339,
      "Ġmaneuvering": 2340,
      "Ġznač": 2341,
      "ĠOBD": 2342,
      "Failure": 2343,
      "jobj": 2344,
      "шення": 2345,
      "utenant": 2346,
      "fangs": 2347,
      "Working": 2348,
      "لى": 2349,
      "Ġtarih": 2350,
      "ĠGiles": 2351,
      "Ġcurrants": 2352,
      "ĠEDF": 2353,
      "éna": 2354,
      "Ġseal": 2355,
      "Ġprescript": 2356,
      "eleaf": 2357,
      "Ġovation": 2358,
      "chequer": 2359,
      "Tabpage": 2360,
      "Ġоткры": 2361,
      "ĠTreasury": 2362,
      "Ġalcanz": 2363,
      "buster": 2364,
      "etar": 2365,
      "chalk": 2366,
      "APTER": 2367,
      "getpath": 2368,
      "ĠCadillac": 2369,
      "IVING": 2370,
      "ĠAndersson": 2371,
      "arella": 2372,
      "Ġparlour": 2373,
      "ĠSachs": 2374,
      "heem": 2375,
      "平方": 2376,
      "平方米": 2377,
      "ĠKiss": 2378,
      "ĠSchmid": 2379,
      "Ġpwm": 2380,
      "ĠCAC": 2381,
      "Ġipsa": 2382,
      "ĠPita": 2383,
      "ĠGoodwin": 2384,
      "Ġالته": 2385,
      "dirs": 2386,
      "still": 2387,
      "plies": 2388,
      "ĠKerr": 2389,
      "Ġнаде": 2390,
      "MenuGroup": 2391,
      "unglasses": 2392,
      "ĠСури": 2393,
      "customer": 2394,
      "Ġgahetva": 2395,
      "Ġdepl": 2396,
      "ĠJuárez": 2397,
      "ĠStrat": 2398,
      "ĠHuss": 2399,
      "Ġincum": 2400,
      "Linear": 2401,
      "asurement": 2402,
      "Ġcadast": 2403,
      "Ġprawd": 2404,
      "ĠSalesforce": 2405,
      "uhkan": 2406,
      "ânica": 2407,
      "Ġblandit": 2408,
      "agogue": 2409,
      "ĠTram": 2410,
      "Ġalo": 2411,
      "Ġباسکٹ": 2412,
      "Kell": 2413,
      "crest": 2414,
      "engar": 2415,
      "ልክ": 2416,
      "чане": 2417,
      "Ġምልክ": 2418,
      "hiver": 2419,
      "lenme": 2420,
      "ĠChakrab": 2421,
      "ĠUCL": 2422,
      "ureux": 2423,
      "ĠChengdu": 2424,
      "ĠnCenters": 2425,
      "ĠДжа": 2426,
      "ĠЕкатерина": 2427,
      "тів": 2428,
      "obarb": 2429,
      "hnung": 2430,
      "Ġfamilie": 2431,
      "što": 2432,
      "ĠFlor": 2433,
      "کول": 2434,
      "Ġpomo": 2435,
      "Ġstol": 2436,
      "uong": 2437,
      "ésie": 2438,
      "ĠRepublic": 2439,
      "GOND": 2440,
      "licted": 2441,
      "하다": 2442,
      "assays": 2443,
      "ormation": 2444,
      "Ġalmo": 2445,
      "Ġliberalization": 2446,
      "repos": 2447,
      "Ġasn": 2448,
      "nad": 2449,
      "EditDialogOpen": 2450,
      "Suite": 2451,
      "Ġobowią": 2452,
      "Ġдемон": 2453,
      "worldly": 2454,
      "iciable": 2455,
      "Ġбольшо": 2456,
      "Ġai": 2457,
      "нлайн": 2458,
      "จำ": 2459,
      "brains": 2460,
      "PhaseHound": 2461,
      "მის": 2462,
      "ĠArtin": 2463,
      "Outgoing": 2464,
      "입니다": 2465,
      "Ġuint": 2466,
      "Ġmering": 2467,
      "ĠBeatriz": 2468,
      "visional": 2469,
      "ĠEint": 2470,
      "Ġbeso": 2471,
      "ссов": 2472,
      "leq": 2473,
      "ĠVirt": 2474,
      "ĠLegisl": 2475,
      "Ġescuch": 2476,
      "Ġsierp": 2477,
      "nop": 2478,
      "ĠGama": 2479,
      "eshoe": 2480,
      "feder": 2481,
      "の記事": 2482,
      "ubjects": 2483,
      "ítulos": 2484,
      "nato": 2485,
      "بات": 2486,
      "ĠThro": 2487,
      "ĠRiley": 2488,
      "waite": 2489,
      "Ġqtd": 2490,
      "Ġprze": 2491,
      "vah": 2492,
      "Ġпонятно": 2493,
      "ĠGeburt": 2494,
      "íamos": 2495,
      "erful": 2496,
      "Ġcxb": 2497,
      "كذا": 2498,
      "Ġмеханиз": 2499,
      "Ġمحد": 2500,
      "Ġтка": 2501,
      "UTRON": 2502,
      "Ġvín": 2503,
      "Ġramps": 2504,
      "Ġquotient": 2505,
      "ёр": 2506,
      "Ġсічня": 2507,
      "Ġstation": 2508,
      "vée": 2509,
      "Ġcampe": 2510,
      "Ġrigor": 2511,
      "phenol": 2512,
      "Ġsten": 2513,
      "ĠBir": 2514,
      "Salon": 2515,
      "Ġmons": 2516,
      "FromName": 2517,
      "elementProp": 2518,
      "解决": 2519,
      "quilibrium": 2520,
      "ĠBarnett": 2521,
      "ĠMECHAN": 2522,
      "иск": 2523,
      "ĠSar": 2524,
      "rapy": 2525,
      "hra": 2526,
      "Ġodst": 2527,
      "ĠVikt": 2528,
      "Ġfinca": 2529,
      "üse": 2530,
      "Ġsdl": 2531,
      "ებით": 2532,
      "fi": 2533,
      "Ġyield": 2534,
      "ismillahirrah": 2535,
      "roomId": 2536,
      "indler": 2537,
      "agul": 2538,
      "Ġvind": 2539,
      "Ġparv": 2540,
      "ĠDona": 2541,
      "atk": 2542,
      "Ġprosper": 2543,
      "Ġéparsément": 2544,
      "Ġvalorem": 2545,
      "Ġdihad": 2546,
      "Identifier": 2547,
      "TypeValue": 2548,
      "ographics": 2549,
      "ĠTen": 2550,
      "рах": 2551,
      "putnik": 2552,
      "Ġmortal": 2553,
      "ĠEnzyme": 2554,
      "Ġзао": 2555,
      "ĠEri": 2556,
      "ylum": 2557,
      "fcntl": 2558,
      "ĠFlushing": 2559,
      "Ġmys": 2560,
      "Ġfeh": 2561,
      "ĠTeller": 2562,
      "ppable": 2563,
      "Ġconcom": 2564,
      "Ġerforder": 2565,
      "Ġана": 2566,
      "Ġvoglia": 2567,
      "ორციელ": 2568,
      "ĠAeron": 2569,
      "ობას": 2570,
      "wicklung": 2571,
      "eté": 2572,
      "ĠМинистер": 2573,
      "Ġunmist": 2574,
      "asiun": 2575,
      "doctor": 2576,
      "QUID": 2577,
      "AAP": 2578,
      "хта": 2579,
      "iteurs": 2580,
      "ĠReview": 2581,
      "ĠitemCount": 2582,
      "cznego": 2583,
      "heure": 2584,
      "lics": 2585,
      "Ġcolomb": 2586,
      "Ġzest": 2587,
      "EndY": 2588,
      "Ġsynd": 2589,
      "Ġígy": 2590,
      "ventud": 2591,
      "treme": 2592,
      "Ġcolumnspan": 2593,
      "ستي": 2594,
      "Ġäußer": 2595,
      "Ġviendo": 2596,
      "推出了": 2597,
      "isVideoRecording": 2598,
      "Ġسور": 2599,
      "Ġballer": 2600,
      "ActionListener": 2601,
      "ровано": 2602,
      "Ġcár": 2603,
      "arzys": 2604,
      "Ġafast": 2605,
      "ĠDispatch": 2606,
      "Ġbiri": 2607,
      "totalBlockFit": 2608,
      "kti": 2609,
      "Swap": 2610,
      "archa": 2611,
      "Ġjednot": 2612,
      "UNCH": 2613,
      "ongoose": 2614,
      "Ġdisordered": 2615,
      "jskiej": 2616,
      "SearchParams": 2617,
      "Expansion": 2618,
      "كينا": 2619,
      "Ġincompet": 2620,
      "řed": 2621,
      "ragt": 2622,
      "コロ": 2623,
      "iclass": 2624,
      "ĠCurrie": 2625,
      "ĠKyrie": 2626,
      "ĠMeyers": 2627,
      "コロナ": 2628,
      "mother": 2629,
      "Ġpiens": 2630,
      "ĠTeixeira": 2631,
      "CameraButton": 2632,
      "novu": 2633,
      "ipay": 2634,
      "میٹ": 2635,
      "Ly": 2636,
      "hota": 2637,
      "сные": 2638,
      "чка": 2639,
      "furan": 2640,
      "あす": 2641,
      "あす楽": 2642,
      "ĠJustus": 2643,
      "wny": 2644,
      "بلی": 2645,
      "nict": 2646,
      "ducers": 2647,
      "Ġtrough": 2648,
      "xymatrix": 2649,
      "Ġmagick": 2650,
      "Ġمخط": 2651,
      "ぐらい": 2652,
      "ujourd": 2653,
      "业单": 2654,
      "事业单": 2655,
      "事业单位": 2656,
      "Ġsolle": 2657,
      "openide": 2658,
      "ående": 2659,
      "Ġfeud": 2660,
      "Ġwarmth": 2661,
      "Itoa": 2662,
      "raviolet": 2663,
      "ĠCURLE": 2664,
      "Play": 2665,
      "ĠNewell": 2666,
      "jade": 2667,
      "odob": 2668,
      "Ġvitre": 2669,
      "Ġschwier": 2670,
      "кину": 2671,
      "ĠOCE": 2672,
      "enames": 2673,
      "Ġbidirectional": 2674,
      "ĠAbe": 2675,
      "ĠDomini": 2676,
      "Ġкомпонен": 2677,
      "ĠDominique": 2678,
      "awi": 2679,
      "ooi": 2680,
      "Ġganglia": 2681,
      "iently": 2682,
      "Doom": 2683,
      "artigen": 2684,
      "Ġlemb": 2685,
      "Ġpresup": 2686,
      "Ġsniff": 2687,
      "uig": 2688,
      "Ġetern": 2689,
      "houettes": 2690,
      "Fatalf": 2691,
      "Orm": 2692,
      "ovaný": 2693,
      "atil": 2694,
      "ĠDrew": 2695,
      "Ġbrig": 2696,
      "şil": 2697,
      "Ġplag": 2698,
      "Peripheral": 2699,
      "ĠHerald": 2700,
      "Ġboiler": 2701,
      "Ġtherap": 2702,
      "ĠJan": 2703,
      "што": 2704,
      "を作": 2705,
      "ĠMonique": 2706,
      "TimeControl": 2707,
      "openList": 2708,
      "Ġtocó": 2709,
      "ĠFlemish": 2710,
      "лекет": 2711,
      "ಕರ": 2712,
      "ಕರಣ": 2713,
      "pte": 2714,
      "ĠZoro": 2715,
      "ĠRayle": 2716,
      "ونية": 2717,
      "обе": 2718,
      "uves": 2719,
      "ĠRayleigh": 2720,
      "Ġфунда": 2721,
      "bou": 2722,
      "ússia": 2723,
      "ولو": 2724,
      "clientsdetails": 2725,
      "Treas": 2726,
      "Ġcarg": 2727,
      "Ġdefine": 2728,
      "Consentiti": 2729,
      "alliative": 2730,
      "Swagger": 2731,
      "ĠShepp": 2732,
      "GFP": 2733,
      "ĠSheppard": 2734,
      "Ġveniam": 2735,
      "PhotoMode": 2736,
      "سٹم": 2737,
      "ĠОлександр": 2738,
      "Ġkarst": 2739,
      "Ġpercentuale": 2740,
      "段时间": 2741,
      "ĠTian": 2742,
      "ĠBerger": 2743,
      "Ġguerr": 2744,
      "Personal": 2745,
      "Ġsobren": 2746,
      "Ġتحق": 2747,
      "Ġliquidated": 2748,
      "ĠStellen": 2749,
      "кистон": 2750,
      "UTIONS": 2751,
      "epoint": 2752,
      "timepoint": 2753,
      "Ġaasta": 2754,
      "Ġbreech": 2755,
      "Ġejaculation": 2756,
      "Ġয": 2757,
      "ĠPlayer": 2758,
      "mainloop": 2759,
      "ĠBout": 2760,
      "anaf": 2761,
      "ĠRomney": 2762,
      "Ġomin": 2763,
      "ĠAlten": 2764,
      "örter": 2765,
      "missible": 2766,
      "ĠRxg": 2767,
      "ĠLar": 2768,
      "aTag": 2769,
      "task": 2770,
      "metaTag": 2771,
      "Ġgql": 2772,
      "abelle": 2773,
      "รวม": 2774,
      "aterally": 2775,
      "gelopen": 2776,
      "ĠtagReport": 2777,
      "Ġexponentes": 2778,
      "ĠShub": 2779,
      "Ġupt": 2780,
      "Ġстепень": 2781,
      "uncie": 2782,
      "ĠAleks": 2783,
      "Ġincluid": 2784,
      "Ġdico": 2785,
      "ĠWillow": 2786,
      "ĠMadeira": 2787,
      "Ġدف": 2788,
      "Ġmogę": 2789,
      "ქვს": 2790,
      "Ġпроизо": 2791,
      "Ġfurth": 2792,
      "antal": 2793,
      "Ġкров": 2794,
      "InfoHeader": 2795,
      "AccessToken": 2796,
      "itize": 2797,
      "anyika": 2798,
      "ებზე": 2799,
      "ĠHoboken": 2800,
      "Ġограничењима": 2801,
      "キング": 2802,
      "fecture": 2803,
      "шет": 2804,
      "жон": 2805,
      "umbling": 2806,
      "آمد": 2807,
      "VERTISE": 2808,
      "Ġgneiss": 2809,
      "Ġحوالے": 2810,
      "Lyc": 2811,
      "percentages": 2812,
      "Lycodon": 2813,
      "lict": 2814,
      "网络": 2815,
      "heiro": 2816,
      "orary": 2817,
      "Repeat": 2818,
      "後の": 2819,
      "Ġالمز": 2820,
      "UGH": 2821,
      "xsl": 2822,
      "querda": 2823,
      "addSprite": 2824,
      "ahmat": 2825,
      "Ġисте": 2826,
      "Ġтяже": 2827,
      "thren": 2828,
      "OUGH": 2829,
      "Ġdiſ": 2830,
      "લગ": 2831,
      "Ġdeadlock": 2832,
      "Ġlaget": 2833,
      "Ġvestibulum": 2834,
      "Ġsmears": 2835,
      "orestation": 2836,
      "reonine": 2837,
      "Ġapricots": 2838,
      "ĠBOP": 2839,
      "プリング": 2840,
      "ĠMoc": 2841,
      "Ġплю": 2842,
      "waard": 2843,
      "Ġpracovní": 2844,
      "feh": 2845,
      "жив": 2846,
      "Ġmuz": 2847,
      "aing": 2848,
      "اصل": 2849,
      "дове": 2850,
      "idoscope": 2851,
      "Ġзадан": 2852,
      "Ġзаданной": 2853,
      "ĠBingham": 2854,
      "taTime": 2855,
      "AsUp": 2856,
      "ĠPDA": 2857,
      "ttore": 2858,
      "Ġinhabited": 2859,
      "ご了": 2860,
      "ご了承": 2861,
      "Ġevery": 2862,
      "toggler": 2863,
      "achelors": 2864,
      "Ġcunt": 2865,
      "stage": 2866,
      "ĠCANT": 2867,
      "Ġenteral": 2868,
      "ppsala": 2869,
      "Ġopportunistic": 2870,
      "ĠUTA": 2871,
      "Ġjourn": 2872,
      "ĠPeb": 2873,
      "וב": 2874,
      "dach": 2875,
      "osw": 2876,
      "Ġبنگ": 2877,
      "ĠSON": 2878,
      "addr": 2879,
      "Ġاعظم": 2880,
      "park": 2881,
      "Ġہاں": 2882,
      "Ġstroked": 2883,
      "ovation": 2884,
      "arenko": 2885,
      "úni": 2886,
      "icherweise": 2887,
      "únior": 2888,
      "сным": 2889,
      "ĠTTS": 2890,
      "Ġrooft": 2891,
      "ĠSta": 2892,
      "mittance": 2893,
      "Ġdesorption": 2894,
      "Ġbuilt": 2895,
      "Ġawhile": 2896,
      "Ġfrig": 2897,
      "ĠLeland": 2898,
      "mouth": 2899,
      "uor": 2900,
      "ynaptic": 2901,
      "Resolver": 2902,
      "Ġrése": 2903,
      "Ġlead": 2904,
      "irat": 2905,
      "ĠRMB": 2906,
      "ITHUB": 2907,
      "Ġterp": 2908,
      "Ġবল": 2909,
      "Ġgarnished": 2910,
      "Ġconex": 2911,
      "znak": 2912,
      "asius": 2913,
      "ĠHarrier": 2914,
      "rawdę": 2915,
      "Domain": 2916,
      "Ġoid": 2917,
      "ĠMur": 2918,
      "exo": 2919,
      "Ġincor": 2920,
      "uncak": 2921,
      "AlertDialog": 2922,
      "Ġmolybdenum": 2923,
      "Ġconm": 2924,
      "wohl": 2925,
      "Ġبیٹھ": 2926,
      "Ġrato": 2927,
      "Ġpyl": 2928,
      "ĠWain": 2929,
      "Ġúltimo": 2930,
      "otus": 2931,
      "ovaž": 2932,
      "avacak": 2933,
      "Van": 2934,
      "paragraph": 2935,
      "yim": 2936,
      "orce": 2937,
      "Ġsfai": 2938,
      "ogados": 2939,
      "innitus": 2940,
      "CCEPT": 2941,
      "mazione": 2942,
      "ĠHitch": 2943,
      "kinen": 2944,
      "indsight": 2945,
      "ĠGob": 2946,
      "тая": 2947,
      "Ġpong": 2948,
      "ostridium": 2949,
      "Ġupor": 2950,
      "ství": 2951,
      "Ġкаса": 2952,
      "farm": 2953,
      "Ġdz": 2954,
      "efire": 2955,
      "CompliancePolicy": 2956,
      "Ġceasefire": 2957,
      "까지": 2958,
      "elő": 2959,
      "Ġdrum": 2960,
      "Ġthuringiensis": 2961,
      "anyang": 2962,
      "ĠKeci": 2963,
      "ĠNLP": 2964,
      "irent": 2965,
      "Ġкомму": 2966,
      "avía": 2967,
      "erex": 2968,
      "ostrum": 2969,
      "jske": 2970,
      "cienne": 2971,
      "ĠMTT": 2972,
      "ĠByr": 2973,
      "iptic": 2974,
      "ĠByrne": 2975,
      "大利": 2976,
      "града": 2977,
      "Ġممال": 2978,
      "Ġrealizzata": 2979,
      "Ġnont": 2980,
      "hman": 2981,
      "ĠSear": 2982,
      "ĠTej": 2983,
      "arquía": 2984,
      "odigd": 2985,
      "Ġpeculiar": 2986,
      "وتا": 2987,
      "ostatic": 2988,
      "rimazole": 2989,
      "ĠIngram": 2990,
      "bole": 2991,
      "ucalyptus": 2992,
      "vered": 2993,
      "ümüz": 2994,
      "ĠSnapdragon": 2995,
      "プション": 2996,
      "Ġequal": 2997,
      "κει": 2998,
      "acons": 2999,
      "Ġايا": 3000,
      "IVED": 3001,
      "aranth": 3002,
      "dbo": 3003,
      "Ġaccident": 3004,
      "ujuan": 3005,
      "ĠNight": 3006,
      "Yvette": 3007,
      "ClientRect": 3008,
      "ultimo": 3009,
      "niku": 3010,
      "itektur": 3011,
      "pruch": 3012,
      "ĠLyle": 3013,
      "Ġbushel": 3014,
      "شتی": 3015,
      "Ġmethotrexate": 3016,
      "Ġsouven": 3017,
      "могою": 3018,
      "ĠSiber": 3019,
      "افه": 3020,
      "Ġabstra": 3021,
      "ĠMBBS": 3022,
      "язви": 3023,
      "Ġسع": 3024,
      "toml": 3025,
      "Ġsobreviv": 3026,
      "ĠMeteor": 3027,
      "EditorGUI": 3028,
      "сія": 3029,
      "aissez": 3030,
      "ĠERK": 3031,
      "gic": 3032,
      "Ġамерикан": 3033,
      "льян": 3034,
      "idina": 3035,
      "ĠdataGenerator": 3036,
      "ético": 3037,
      "brainer": 3038,
      "ĠLMF": 3039,
      "Ġbract": 3040,
      "рке": 3041,
      "Ġsubheading": 3042,
      "ĠSieg": 3043,
      "Ġprothorax": 3044,
      "AddModel": 3045,
      "omend": 3046,
      "Nexus": 3047,
      "ĠOTA": 3048,
      "Ġالبر": 3049,
      "Ġdiny": 3050,
      "Ġروسی": 3051,
      "ارتی": 3052,
      "Ġthok": 3053,
      "Ġtheref": 3054,
      "LFT": 3055,
      "acuda": 3056,
      "Ġrecycler": 3057,
      "जब": 3058,
      "Ġमजब": 3059,
      "ĠLowell": 3060,
      "ĠScalar": 3061,
      "afone": 3062,
      "Ġشان": 3063,
      "Ġوالث": 3064,
      "ĠTi": 3065,
      "ĠWend": 3066,
      "Ġзим": 3067,
      "ĠCleopatra": 3068,
      "Ġneutroph": 3069,
      "ĠDead": 3070,
      "Ġاکن": 3071,
      "新的": 3072,
      "Ġlengthwise": 3073,
      "Ġschön": 3074,
      "Ġdeleted": 3075,
      "Ġblasp": 3076,
      "uckles": 3077,
      "esseract": 3078,
      "Ġtomonidan": 3079,
      "ĠLDA": 3080,
      "Ġvlast": 3081,
      "emanager": 3082,
      "thememanager": 3083,
      "CriteriaUtils": 3084,
      "潛行": 3085,
      "遊戲": 3086,
      "潛行遊戲": 3087,
      "Ġcohes": 3088,
      "ĠEBIT": 3089,
      "ofi": 3090,
      "currency": 3091,
      "Ġmengh": 3092,
      "ĠIngrid": 3093,
      "الج": 3094,
      "ĠNDP": 3095,
      "روج": 3096,
      "вена": 3097,
      "рованные": 3098,
      "リース": 3099,
      "dab": 3100,
      "oulders": 3101,
      "érence": 3102,
      "aterials": 3103,
      "ĠWast": 3104,
      "Ġcoloc": 3105,
      "Ej": 3106,
      "Ejercicio": 3107,
      "ĠHul": 3108,
      "Ġplea": 3109,
      "enciar": 3110,
      "Ġgenç": 3111,
      "lebr": 3112,
      "rosophila": 3113,
      "Ġcaptured": 3114,
      "Ġllevar": 3115,
      "Ġmaxlength": 3116,
      "Ġunterschied": 3117,
      "amesh": 3118,
      "Ġwar": 3119,
      "новь": 3120,
      "rotnie": 3121,
      "ĠAguil": 3122,
      "iphatic": 3123,
      "ĠmaxSize": 3124,
      "smoothed": 3125,
      "getMinimum": 3126,
      "ermis": 3127,
      "Ġvzdu": 3128,
      "SRPI": 3129,
      "Ġerfolgre": 3130,
      "ونز": 3131,
      "ера": 3132,
      "Ġcolloqu": 3133,
      "ovjek": 3134,
      "をご確認": 3135,
      "Ġклю": 3136,
      "Ġagree": 3137,
      "ĠEuclid": 3138,
      "Ġзахо": 3139,
      "ĠWasserstein": 3140,
      "ĠSCGS": 3141,
      "nofollow": 3142,
      "Ġprennent": 3143,
      "Ġlành": 3144,
      "ĠGrab": 3145,
      "Ġinhe": 3146,
      "Ġгоди": 3147,
      "pies": 3148,
      "ĠVON": 3149,
      "молу": 3150,
      "vog": 3151,
      "ĠPemb": 3152,
      "posites": 3153,
      "raged": 3154,
      "ниците": 3155,
      "梅里": 3156,
      "梅里尼亚克": 3157,
      "ffiti": 3158,
      "ukka": 3159,
      "Ġbrace": 3160,
      "Ġaleg": 3161,
      "ایہ": 3162,
      "lsp": 3163,
      "Ġtuss": 3164,
      "Ġmultius": 3165,
      "Ġارد": 3166,
      "Ġmultiuser": 3167,
      "itl": 3168,
      "nji": 3169,
      "oxys": 3170,
      "Ġsayılı": 3171,
      "ceph": 3172,
      "Ġвыска": 3173,
      "weeney": 3174,
      "Ġparalyzed": 3175,
      "Public": 3176,
      "barkeit": 3177,
      "Ġdéclare": 3178,
      "ouncer": 3179,
      "Ġfranz": 3180,
      "Ġgerade": 3181,
      "forceable": 3182,
      "γει": 3183,
      "validate": 3184,
      "Ġвключа": 3185,
      "ĠSEC": 3186,
      "ĠQMessageBox": 3187,
      "Ġsoliton": 3188,
      "ствующих": 3189,
      "oplankton": 3190,
      "getSaveLocation": 3191,
      "WithString": 3192,
      "Ġpariy": 3193,
      "Ġzeuden": 3194,
      "Curr": 3195,
      "filesystem": 3196,
      "лями": 3197,
      "kadaşlar": 3198,
      "ĠCCC": 3199,
      "ĠMahmud": 3200,
      "gebaut": 3201,
      "Ġaward": 3202,
      "lateg": 3203,
      "ĠIAA": 3204,
      "latego": 3205,
      "uesa": 3206,
      "grown": 3207,
      "ostomy": 3208,
      "ORGE": 3209,
      "Ġmani": 3210,
      "ĠQian": 3211,
      "Ġdịp": 3212,
      "ĠFond": 3213,
      "Ġہتھی": 3214,
      "diam": 3215,
      "acağım": 3216,
      "ilable": 3217,
      "стин": 3218,
      "ĠgetName": 3219,
      "ものの": 3220,
      "nico": 3221,
      "osso": 3222,
      "aites": 3223,
      "Ġacetonitrile": 3224,
      "ĠWight": 3225,
      "Ġstint": 3226,
      "ignments": 3227,
      "italia": 3228,
      "ĠDecor": 3229,
      "Ġڅخه": 3230,
      "ıya": 3231,
      "лизм": 3232,
      "ĠShea": 3233,
      "Ġrepetition": 3234,
      "ForegroundColor": 3235,
      "verbs": 3236,
      "зер": 3237,
      "ĠConway": 3238,
      "arken": 3239,
      "enschap": 3240,
      "Warm": 3241,
      "kelly": 3242,
      "ĠWarm": 3243,
      "Ġprospective": 3244,
      "infoHeader": 3245,
      "Ġcomand": 3246,
      "ĠCarney": 3247,
      "Ġburlap": 3248,
      "lade": 3249,
      "жают": 3250,
      "Ġmischiev": 3251,
      "ĠRav": 3252,
      "currentSprite": 3253,
      "ępow": 3254,
      "inske": 3255,
      "Mip": 3256,
      "Ġrecebe": 3257,
      "ĠATP": 3258,
      "Ġحروف": 3259,
      "cznym": 3260,
      "一個": 3261,
      "ĠOmphalodes": 3262,
      "ĠRedding": 3263,
      "Ġpasal": 3264,
      "Ġгубер": 3265,
      "MotionEvent": 3266,
      "Example": 3267,
      "subTest": 3268,
      "ylmethylsulfanyl": 3269,
      "istung": 3270,
      "Ġrétro": 3271,
      "lipid": 3272,
      "тельное": 3273,
      "Perform": 3274,
      "latency": 3275,
      "असल": 3276,
      "blings": 3277,
      "elics": 3278,
      "ĠPuy": 3279,
      "ĠYee": 3280,
      "ikova": 3281,
      "uzzi": 3282,
      "ína": 3283,
      "alya": 3284,
      "вым": 3285,
      "scrollbar": 3286,
      "כול": 3287,
      "ĠGaller": 3288,
      "ftar": 3289,
      "ámenes": 3290,
      "ნება": 3291,
      "Ġتن": 3292,
      "âle": 3293,
      "Ġunbek": 3294,
      "eyi": 3295,
      "acitor": 3296,
      "Ġszab": 3297,
      "基金产品": 3298,
      "Ġcorpore": 3299,
      "ĠQuantity": 3300,
      "bfs": 3301,
      "azionale": 3302,
      "ĠEsteban": 3303,
      "itudinal": 3304,
      "assertEqual": 3305,
      "ĠLongNumber": 3306,
      "nancy": 3307,
      "ipasi": 3308,
      "remos": 3309,
      "Ġpará": 3310,
      "owanych": 3311,
      "allowed": 3312,
      "ويض": 3313,
      "økt": 3314,
      "ベーション": 3315,
      "ĠTrish": 3316,
      "بدا": 3317,
      "Ġالقي": 3318,
      "Ġdiagram": 3319,
      "лая": 3320,
      "Ġपरख": 3321,
      "merz": 3322,
      "empio": 3323,
      "Ġmerhaba": 3324,
      "kont": 3325,
      "winf": 3326,
      "Ġmse": 3327,
      "ACTER": 3328,
      "ĠGeschäfts": 3329,
      "winfx": 3330,
      "ilih": 3331,
      "getMainUI": 3332,
      "ĠMish": 3333,
      "Ġlicking": 3334,
      "ĠHilde": 3335,
      "ĠBož": 3336,
      "Ġздраво": 3337,
      "otation": 3338,
      "éntesis": 3339,
      "unoscut": 3340,
      "ENEMY": 3341,
      "ĠGarza": 3342,
      "onton": 3343,
      "ĠBritt": 3344,
      "OperationContext": 3345,
      "ĠMinnie": 3346,
      "ってます": 3347,
      "ĠIBS": 3348,
      "unknown": 3349,
      "Ġبتاعت": 3350,
      "bā": 3351,
      "ībā": 3352,
      "ĠnField": 3353,
      "ĠShuk": 3354,
      "Ġunsatisf": 3355,
      "addassa": 3356,
      "IGO": 3357,
      "CISE": 3358,
      "Ġmario": 3359,
      "gainville": 3360,
      "idbody": 3361,
      "ĠFourn": 3362,
      "Ġруковод": 3363,
      "ĠFournier": 3364,
      "Ġوطن": 3365,
      "гъл": 3366,
      "Ġpenyel": 3367,
      "ĠGolub": 3368,
      "пански": 3369,
      "Ġchén": 3370,
      "errated": 3371,
      "Ġtoekom": 3372,
      "Ġвъз": 3373,
      "وري": 3374,
      "Ġuplink": 3375,
      "Ġhason": 3376,
      "srecl": 3377,
      "Ġtsrecl": 3378,
      "ροι": 3379,
      "stum": 3380,
      "ĠDAB": 3381,
      "ardust": 3382,
      "Ġmathematic": 3383,
      "hrVolume": 3384,
      "ĠСай": 3385,
      "aisal": 3386,
      "ĠEpic": 3387,
      "ルバー": 3388,
      "ĠViel": 3389,
      "Ġoverlo": 3390,
      "alaman": 3391,
      "macosx": 3392,
      "WAM": 3393,
      "Starred": 3394,
      "gement": 3395,
      "ĠTUM": 3396,
      "бие": 3397,
      "ifstream": 3398,
      "ĠVys": 3399,
      "Ġпример": 3400,
      "PACT": 3401,
      "ocz": 3402,
      "بیه": 3403,
      "Ġjoue": 3404,
      "ĠChronicle": 3405,
      "ød": 3406,
      "ĠWharton": 3407,
      "calupcounter": 3408,
      "ĠAstr": 3409,
      "ĠLatin": 3410,
      "Ġshaders": 3411,
      "spiderX": 3412,
      "ĠTig": 3413,
      "ANTED": 3414,
      "ĠBlair": 3415,
      "ĠCompan": 3416,
      "Backup": 3417,
      "rilor": 3418,
      "Ġzako": 3419,
      "Ġبالٹ": 3420,
      "ĠWarren": 3421,
      "Ġvym": 3422,
      "ensos": 3423,
      "inental": 3424,
      "ulti": 3425,
      "ĠDetermin": 3426,
      "Ġbutadiene": 3427,
      "Ġforeign": 3428,
      "ĠAkin": 3429,
      "ĠVidy": 3430,
      "Ġtane": 3431,
      "Ġlimb": 3432,
      "FhirExtension": 3433,
      "ạp": 3434,
      "Ġvakkh": 3435,
      "Ġkimi": 3436,
      "Ġjaun": 3437,
      "othic": 3438,
      "ĠWalpole": 3439,
      "Ġacre": 3440,
      "dw": 3441,
      "Ġehe": 3442,
      "dwRetJpegLen": 3443,
      "Ġunver": 3444,
      "вери": 3445,
      "ĠCinem": 3446,
      "ĠCullen": 3447,
      "rivation": 3448,
      "ibase": 3449,
      "Phe": 3450,
      "ĠRoya": 3451,
      "ĠRichter": 3452,
      "Ġреали": 3453,
      "ubility": 3454,
      "Ġnef": 3455,
      "Ġхвата": 3456,
      "zień": 3457,
      "fm": 3458,
      "Ġнулю": 3459,
      "Ġтечение": 3460,
      "ĠPAX": 3461,
      "ĠToggle": 3462,
      "Percentages": 3463,
      "сного": 3464,
      "roth": 3465,
      "ionage": 3466,
      "raught": 3467,
      "Ġvalet": 3468,
      "Ġtantalum": 3469,
      "おすすめ": 3470,
      "ĠBHK": 3471,
      "THREAD": 3472,
      "Ġminist": 3473,
      "Ġilleg": 3474,
      "ámicas": 3475,
      "Ġtraduc": 3476,
      "usha": 3477,
      "ĠSpence": 3478,
      "modern": 3479,
      "Design": 3480,
      "Ġотста": 3481,
      "ــــ": 3482,
      "icuously": 3483,
      "Ġunderwriters": 3484,
      "ĠTuch": 3485,
      "ĠTuchel": 3486,
      "DEST": 3487,
      "ĠShaf": 3488,
      "Ġspraying": 3489,
      "Ġegyik": 3490,
      "Ġaste": 3491,
      "inputValue": 3492,
      "Month": 3493,
      "ingdom": 3494,
      "olecule": 3495,
      "τροπ": 3496,
      "Ġpreterm": 3497,
      "يمان": 3498,
      "genheim": 3499,
      "所有": 3500,
      "ĠRun": 3501,
      "bottomMargin": 3502,
      "ہائی": 3503,
      "ĠОксана": 3504,
      "inare": 3505,
      "Ġstimmen": 3506,
      "ĠgetUsersBy": 3507,
      "Ġprinces": 3508,
      "findIndex": 3509,
      "PRE": 3510,
      "uyente": 3511,
      "Ġcholin": 3512,
      "Ġcholinergic": 3513,
      "Ġtule": 3514,
      "сіб": 3515,
      "larında": 3516,
      "ĠToolbar": 3517,
      "proliferation": 3518,
      "ทย": 3519,
      "ĠGrö": 3520,
      "chitz": 3521,
      "ĠUrs": 3522,
      "ĠUrsula": 3523,
      "abt": 3524,
      "atsapp": 3525,
      "ĠNoronha": 3526,
      "ременно": 3527,
      "kfollowers": 3528,
      "کتر": 3529,
      "ĠMiser": 3530,
      "Ġcrois": 3531,
      "Ġdesperate": 3532,
      "Ġsniping": 3533,
      "ьому": 3534,
      "agara": 3535,
      "Ġمخت": 3536,
      "finex": 3537,
      "Ġoverhang": 3538,
      "Ġrepeats": 3539,
      "ultaneous": 3540,
      "URES": 3541,
      "álně": 3542,
      "Ġpodstaw": 3543,
      "που": 3544,
      "Ġvipp": 3545,
      "ipline": 3546,
      "페이지": 3547,
      "гает": 3548,
      "MAR": 3549,
      "changes": 3550,
      "Ġyatha": 3551,
      "Ġمتعلقه": 3552,
      "Ġdje": 3553,
      "ように": 3554,
      "ĠEmber": 3555,
      "RGBA": 3556,
      "abit": 3557,
      "чному": 3558,
      "шими": 3559,
      "DependentUpon": 3560,
      "Ġherk": 3561,
      "ngt": 3562,
      "Ġtiled": 3563,
      "impul": 3564,
      "Ġskr": 3565,
      "Ġtriglycer": 3566,
      "Ġדער": 3567,
      "Ġkonfl": 3568,
      "jax": 3569,
      "ĠDab": 3570,
      "пили": 3571,
      "Ġdoodle": 3572,
      "mao": 3573,
      "สดง": 3574,
      "uvos": 3575,
      "ócio": 3576,
      "Ġبالا": 3577,
      "Ġборь": 3578,
      "elung": 3579,
      "ĠHers": 3580,
      "ReturnType": 3581,
      "Ġtornare": 3582,
      "Bed": 3583,
      "Ġотмети": 3584,
      "atherapy": 3585,
      "Ġmoeil": 3586,
      "adhar": 3587,
      "Ġporoz": 3588,
      "שות": 3589,
      "ciaux": 3590,
      "Ġидеа": 3591,
      "Ġجیت": 3592,
      "rophiles": 3593,
      "atown": 3594,
      "Ġrecommend": 3595,
      "Ġpomen": 3596,
      "Ġоде": 3597,
      "Ġتک": 3598,
      "ĠWhite": 3599,
      "ĠconfigFile": 3600,
      "ĠIcon": 3601,
      "ולד": 3602,
      "ĠGibbons": 3603,
      "iposa": 3604,
      "Collegamenti": 3605,
      "ĠPLN": 3606,
      "Ġcontradict": 3607,
      "socIndex": 3608,
      "unsubscribe": 3609,
      "Ġcasual": 3610,
      "Ġmenschen": 3611,
      "ственную": 3612,
      "SIAN": 3613,
      "ĠVan": 3614,
      "ckså": 3615,
      "derd": 3616,
      "renc": 3617,
      "ĠAPPRO": 3618,
      "Ġvaikut": 3619,
      "ĠFRG": 3620,
      "Ġsacrificing": 3621,
      "Ġউপন": 3622,
      "reasing": 3623,
      "Ġrepellat": 3624,
      "kie": 3625,
      "icza": 3626,
      "ĠHudson": 3627,
      "Ġerricht": 3628,
      "Ġشام": 3629,
      "Ġcortic": 3630,
      "Ġspawn": 3631,
      "Ġtasteless": 3632,
      "Ġbodega": 3633,
      "ĠЮлия": 3634,
      "headless": 3635,
      "oston": 3636,
      "Quadr": 3637,
      "acamole": 3638,
      "cko": 3639,
      "Ġheinous": 3640,
      "Ġlemma": 3641,
      "igr": 3642,
      "romes": 3643,
      "Ġhurt": 3644,
      "Ġconfer": 3645,
      "Ġcontrib": 3646,
      "iterate": 3647,
      "Ġpię": 3648,
      "Ġrépét": 3649,
      "ắm": 3650,
      "apura": 3651,
      "upart": 3652,
      "Ġtwelve": 3653,
      "Ġfollow": 3654,
      "ĠPala": 3655,
      "upati": 3656,
      "Ġplexus": 3657,
      "isseurs": 3658,
      "Ġобяза": 3659,
      "Ġእንኳ": 3660,
      "ranspose": 3661,
      "Finish": 3662,
      "Ġdress": 3663,
      "obiography": 3664,
      "かっ": 3665,
      "Ġпита": 3666,
      "Ġالموس": 3667,
      "レスレット": 3668,
      "noe": 3669,
      "ĠDrav": 3670,
      "ĠDrake": 3671,
      "oblasts": 3672,
      "aia": 3673,
      "woch": 3674,
      "itchTo": 3675,
      "ชา": 3676,
      "ĠEconom": 3677,
      "Ġpromen": 3678,
      "τητας": 3679,
      "ประชา": 3680,
      "τί": 3681,
      "čných": 3682,
      "Ġבאמצעות": 3683,
      "Liga": 3684,
      "Between": 3685,
      "Ġwhat": 3686,
      "ĠRandomized": 3687,
      "พลาด": 3688,
      "Ġنظر": 3689,
      "ánicos": 3690,
      "ĠREQUIRE": 3691,
      "ĠbyteArray": 3692,
      "issances": 3693,
      "ĠSora": 3694,
      "dfsonic": 3695,
      "rases": 3696,
      "ĠEdmund": 3697,
      "Ġهن": 3698,
      "MathOperator": 3699,
      "Ġناخذ": 3700,
      "ffield": 3701,
      "indan": 3702,
      "Ġhandover": 3703,
      "ピア": 3704,
      "Ġdoul": 3705,
      "Ġdivalent": 3706,
      "ĠHrvats": 3707,
      "ĠcomponentDid": 3708,
      "eword": 3709,
      "かけ": 3710,
      "っかけ": 3711,
      "pike": 3712,
      "риди": 3713,
      "Ġscouting": 3714,
      "рованное": 3715,
      "ĠBella": 3716,
      "iería": 3717,
      "Ġпосы": 3718,
      "Ġbottom": 3719,
      "ĠEE": 3720,
      "uiden": 3721,
      "gus": 3722,
      "eyiz": 3723,
      "Ġmicrow": 3724,
      "ĠWinch": 3725,
      "ĠINTEG": 3726,
      "ĠCongr": 3727,
      "ĠWinchester": 3728,
      "Ġtiga": 3729,
      "ĠMinden": 3730,
      "ostasis": 3731,
      "Ġperil": 3732,
      "olução": 3733,
      "BackendAuth": 3734,
      "בור": 3735,
      "preneurs": 3736,
      "Ġ다": 3737,
      "ĠAydın": 3738,
      "tcpUniqueID": 3739,
      "Ġприз": 3740,
      "ateness": 3741,
      "DOUT": 3742,
      "iglio": 3743,
      "armafit": 3744,
      "Ġایر": 3745,
      "вший": 3746,
      "ologique": 3747,
      "ĠNLR": 3748,
      "になると": 3749,
      "ジタル": 3750,
      "arxiv": 3751,
      "WIS": 3752,
      "Ġadolesc": 3753,
      "craft": 3754,
      "ρου": 3755,
      "Ġcnt": 3756,
      "Ġrys": 3757,
      "Ġбукмекеры": 3758,
      "ĠSylvester": 3759,
      "Ġmännis": 3760,
      "Ġкок": 3761,
      "Ġsej": 3762,
      "KEYDOWN": 3763,
      "Ġrazlik": 3764,
      "ipede": 3765,
      "ĠUnidas": 3766,
      "ĠBrookhaven": 3767,
      "pkt": 3768,
      "ĠRetValue": 3769,
      "ißler": 3770,
      "ĠSRL": 3771,
      "DataAccess": 3772,
      "Ġfemen": 3773,
      "gdockdict": 3774,
      "ulado": 3775,
      "ĠRomain": 3776,
      "Ġaikana": 3777,
      "ĠLapl": 3778,
      "Ġpreprocess": 3779,
      "iculum": 3780,
      "Ġfurtherance": 3781,
      "ués": 3782,
      "leu": 3783,
      "ölf": 3784,
      "irected": 3785,
      "шина": 3786,
      "Ġoxígeno": 3787,
      "ĠKran": 3788,
      "Ġcollectiv": 3789,
      "Ġclung": 3790,
      "nostic": 3791,
      "ĠBhi": 3792,
      "ynt": 3793,
      "ĠWenger": 3794,
      "Ġمللي": 3795,
      "lera": 3796,
      "uxxxx": 3797,
      "Ġуско": 3798,
      "Ġпрофесси": 3799,
      "Ġarqué": 3800,
      "alanine": 3801,
      "Werk": 3802,
      "لطان": 3803,
      "Ġسلطان": 3804,
      "CLES": 3805,
      "Ġlivelihood": 3806,
      "Ġtaz": 3807,
      "Ġtrajet": 3808,
      "атра": 3809,
      "angerous": 3810,
      "isEmpty": 3811,
      "Ġjost": 3812,
      "ĠAndreev": 3813,
      "ĠAchilles": 3814,
      "ĠSartre": 3815,
      "azes": 3816,
      "Ġscritt": 3817,
      "official": 3818,
      "ĠBryn": 3819,
      "ĠSAMP": 3820,
      "rset": 3821,
      "peh": 3822,
      "Declared": 3823,
      "lbrakk": 3824,
      "CHCl": 3825,
      "Ġcurt": 3826,
      "ĠPetri": 3827,
      "getUser": 3828,
      "embra": 3829,
      "Ġtermite": 3830,
      "Ġsetw": 3831,
      "includ": 3832,
      "opens": 3833,
      "iyasi": 3834,
      "ĠAdriana": 3835,
      "Ġاکت": 3836,
      "ĠIncludeField": 3837,
      "tainment": 3838,
      "Ttest": 3839,
      "Ġالاشت": 3840,
      "ریض": 3841,
      "Ġsurpr": 3842,
      "ĠRockwell": 3843,
      "erçe": 3844,
      "Ġمشين": 3845,
      "ĠKaduna": 3846,
      "achusetts": 3847,
      "othek": 3848,
      "elight": 3849,
      "Torpedo": 3850,
      "erina": 3851,
      "Ġshare": 3852,
      "ĠindexBuffer": 3853,
      "ĠBAF": 3854,
      "ĠXiong": 3855,
      "ĠBAFTA": 3856,
      "łego": 3857,
      "ançaise": 3858,
      "iatica": 3859,
      "ergency": 3860,
      "Ġrepos": 3861,
      "Ġvolcano": 3862,
      "nętr": 3863,
      "AGMENT": 3864,
      "Ġٹوٹ": 3865,
      "Ġډاونلوډ": 3866,
      "κών": 3867,
      "Ġمحر": 3868,
      "Ġترکی": 3869,
      "πων": 3870,
      "Ġparall": 3871,
      "wärt": 3872,
      "Ġобы": 3873,
      "Fitz": 3874,
      "ĠMacy": 3875,
      "Ġplot": 3876,
      "uyến": 3877,
      "Ġarrhyth": 3878,
      "ĠItemStack": 3879,
      "reducible": 3880,
      "lective": 3881,
      "Scene": 3882,
      "Ġargent": 3883,
      "Ġpousser": 3884,
      "Ġосигурање": 3885,
      "ĠAppCompatTheme": 3886,
      "IFF": 3887,
      "Ġигра": 3888,
      "Ġdruž": 3889,
      "tsprec": 3890,
      "phys": 3891,
      "Ġprati": 3892,
      "Ġszüks": 3893,
      "एशन": 3894,
      "Ġwagg": 3895,
      "affeine": 3896,
      "Ġপরও": 3897,
      "ĠBrownian": 3898,
      "вшего": 3899,
      "هاز": 3900,
      "Ġmás": 3901,
      "quist": 3902,
      "Ġprotrusion": 3903,
      "Ġunsp": 3904,
      "rägt": 3905,
      "Ġrelev": 3906,
      "rée": 3907,
      "Ġآفس": 3908,
      "んですよ": 3909,
      "Ġπροϊ": 3910,
      "писок": 3911,
      "Ġnáz": 3912,
      "Ġcentimet": 3913,
      "middot": 3914,
      "Ġfrapp": 3915,
      "urchase": 3916,
      "Ġнедоста": 3917,
      "Duncan": 3918,
      "mprj": 3919,
      "fromJson": 3920,
      "Ġкеңсеси": 3921,
      "ĠThunderbird": 3922,
      "ksc": 3923,
      "CPksc": 3924,
      "CBCPksc": 3925,
      "ynchronous": 3926,
      "ïque": 3927,
      "ĠUwe": 3928,
      "pinephrine": 3929,
      "DeferredGroup": 3930,
      "Ġscheming": 3931,
      "Ġhemolytic": 3932,
      "Ġpembang": 3933,
      "ategies": 3934,
      "cings": 3935,
      "Ġrostrum": 3936,
      "uscany": 3937,
      "ĠobjectAtIndex": 3938,
      "Ġdios": 3939,
      "Ġglu": 3940,
      "mpeg": 3941,
      "ĠTess": 3942,
      "жуть": 3943,
      "Ġfalleció": 3944,
      "джи": 3945,
      "เสน": 3946,
      "Ġpays": 3947,
      "robin": 3948,
      "ofd": 3949,
      "ropolitan": 3950,
      "Ġplantel": 3951,
      "Cav": 3952,
      "arno": 3953,
      "ĠYangzhou": 3954,
      "ĠROW": 3955,
      "Ġtrot": 3956,
      "άνει": 3957,
      "Ġmuh": 3958,
      "ecimiento": 3959,
      "ferenz": 3960,
      "ĠAnsch": 3961,
      "Ġвнеш": 3962,
      "ĠWale": 3963,
      "zynarod": 3964,
      "Ġsottop": 3965,
      "ceries": 3966,
      "avidin": 3967,
      "Ġtrưởng": 3968,
      "жат": 3969,
      "pgamma": 3970,
      "Ġgrinder": 3971,
      "Ġобслужи": 3972,
      "Ġgrammatical": 3973,
      "imala": 3974,
      "вере": 3975,
      "智能": 3976,
      "annung": 3977,
      "utlich": 3978,
      "ódio": 3979,
      "Ġвызва": 3980,
      "Ġвызвать": 3981,
      "ĠHunting": 3982,
      "Compile": 3983,
      "Ġmonopol": 3984,
      "Ġجناب": 3985,
      "Ġevitar": 3986,
      "fos": 3987,
      "ĠSpoiler": 3988,
      "Ġmenger": 3989,
      "WholeProgram": 3990,
      "roscopy": 3991,
      "ypter": 3992,
      "Ġrév": 3993,
      "Ġiphdr": 3994,
      "Bern": 3995,
      "Ġchom": 3996,
      "ĠOnt": 3997,
      "ĠGiordano": 3998,
      "Ġshafts": 3999,
      "umboldt": 4000,
      "Ġidxf": 4001,
      "ĠautoComplete": 4002,
      "ĠWebster": 4003,
      "Ġdémar": 4004,
      "IUpdate": 4005,
      "Ġgamanam": 4006,
      "ĠBess": 4007,
      "Ġআস": 4008,
      "Ġphotocurrent": 4009,
      "macro": 4010,
      "parenmacro": 4011,
      "RELATED": 4012,
      "IGNORE": 4013,
      "Ġआइक": 4014,
      "isphere": 4015,
      "Ġzostał": 4016,
      "ĠPartial": 4017,
      "LIS": 4018,
      "قبال": 4019,
      "Ġevoc": 4020,
      "Ġberken": 4021,
      "ĠMartina": 4022,
      "Ġerab": 4023,
      "ĠDeloitte": 4024,
      "ĠАнтон": 4025,
      "ンロップ": 4026,
      "ĠHHS": 4027,
      "Ġdelight": 4028,
      "Ġダンロップ": 4029,
      "Ġdivul": 4030,
      "Ġنثر": 4031,
      "Ġimshow": 4032,
      "hera": 4033,
      "Ġداع": 4034,
      "Ġdificult": 4035,
      "ĠHarm": 4036,
      "ĠZen": 4037,
      "woods": 4038,
      "ĠAlgun": 4039,
      "ĠFIC": 4040,
      "spacing": 4041,
      "ĠLGA": 4042,
      "eux": 4043,
      "ĠTinker": 4044,
      "Ġchills": 4045,
      "ĠAstros": 4046,
      "ĠSaunders": 4047,
      "الك": 4048,
      "Ġadunay": 4049,
      "olda": 4050,
      "acrylic": 4051,
      "Ġcorneal": 4052,
      "inox": 4053,
      "Ġpair": 4054,
      "ĠSokol": 4055,
      "ĠAdirond": 4056,
      "Ġknockout": 4057,
      "Ġsebe": 4058,
      "destructive": 4059,
      "MainNavShow": 4060,
      "ĠZucker": 4061,
      "ĠOrdered": 4062,
      "atile": 4063,
      "туа": 4064,
      "ĠTallinn": 4065,
      "エロー": 4066,
      "ĠRutland": 4067,
      "usep": 4068,
      "Ġreempl": 4069,
      "Ġالترم": 4070,
      "ڈیو": 4071,
      "ILABLE": 4072,
      "perly": 4073,
      "Ġpowd": 4074,
      "ĠEnlight": 4075,
      "rizio": 4076,
      "uski": 4077,
      "ALLE": 4078,
      "Ġanuv": 4079,
      "ĠReverso": 4080,
      "Ġthreat": 4081,
      "关键": 4082,
      "Ġhemi": 4083,
      "ĠIDA": 4084,
      "inputSet": 4085,
      "StarSXmlBody": 4086,
      "ĠUSAF": 4087,
      "SystemService": 4088,
      "Ġfoli": 4089,
      "outine": 4090,
      "numer": 4091,
      "زند": 4092,
      "ちろ": 4093,
      "もちろ": 4094,
      "もちろん": 4095,
      "Dock": 4096,
      "ját": 4097,
      "Ġالتجار": 4098,
      "Pearson": 4099,
      "ENSATION": 4100,
      "ĠBretagne": 4101,
      "rbrakk": 4102,
      "agio": 4103,
      "ardonnay": 4104,
      "ltr": 4105,
      "etherlands": 4106,
      "ĠMinerva": 4107,
      "Ġжела": 4108,
      "ĠGaines": 4109,
      "RxDocumentBase": 4110,
      "GAMMA": 4111,
      "Ġاتارنا": 4112,
      "alé": 4113,
      "Ġscrim": 4114,
      "τρέ": 4115,
      "SPT": 4116,
      "Ġdivaricatis": 4117,
      "prints": 4118,
      "QUEUE": 4119,
      "Ġüret": 4120,
      "NLP": 4121,
      "気になる": 4122,
      "Ġmne": 4123,
      "ĠBursa": 4124,
      "лед": 4125,
      "ĠEmoji": 4126,
      "ĠGazi": 4127,
      "лас": 4128,
      "еся": 4129,
      "ĠChristus": 4130,
      "Sen": 4131,
      "wagon": 4132,
      "اغ": 4133,
      "imismo": 4134,
      "Ġпосвя": 4135,
      "Ġbisque": 4136,
      "ĠRosh": 4137,
      "Ġaead": 4138,
      "Ġjwt": 4139,
      "quisitions": 4140,
      "rise": 4141,
      "Ġplante": 4142,
      "gina": 4143,
      "Ġвере": 4144,
      "Ġbrah": 4145,
      "ĠACA": 4146,
      "azgo": 4147,
      "WebServlet": 4148,
      "oliberal": 4149,
      "üğünüz": 4150,
      "propertyName": 4151,
      "aac": 4152,
      "alade": 4153,
      "ايات": 4154,
      "locationY": 4155,
      "Ġregularization": 4156,
      "kün": 4157,
      "ĠSCD": 4158,
      "Ġagrad": 4159,
      "Ġpran": 4160,
      "mera": 4161,
      "Ġquadrat": 4162,
      "ocalyptic": 4163,
      "lika": 4164,
      "Ġnieruch": 4165,
      "ĠLoew": 4166,
      "лку": 4167,
      "Arm": 4168,
      "Ġamist": 4169,
      "umetric": 4170,
      "Ġレ": 4171,
      "exy": 4172,
      "Ġwww": 4173,
      "ĠБукмекерская": 4174,
      "odenum": 4175,
      "сам": 4176,
      "ĠFairbanks": 4177,
      "ucar": 4178,
      "inations": 4179,
      "Ġchauff": 4180,
      "unächst": 4181,
      "HDRProcessor": 4182,
      "وسک": 4183,
      "DaysGE": 4184,
      "Ġبالإ": 4185,
      "wap": 4186,
      "axanthin": 4187,
      "getFocus": 4188,
      "ĠLaSalle": 4189,
      "ĠCash": 4190,
      "Ġдана": 4191,
      "Ġcaustic": 4192,
      "ĠjsonData": 4193,
      "გრ": 4194,
      "გრამ": 4195,
      "Issledovatel": 4196,
      "Jasper": 4197,
      "eis": 4198,
      "тус": 4199,
      "fé": 4200,
      "érapie": 4201,
      "Ġnervioso": 4202,
      "нди": 4203,
      "Ġxml": 4204,
      "vanje": 4205,
      "Ġдвор": 4206,
      "Ġedecek": 4207,
      "amers": 4208,
      "сат": 4209,
      "aisseur": 4210,
      "มาช": 4211,
      "elenggarakan": 4212,
      "ĠИнтер": 4213,
      "Ġrudhad": 4214,
      "amay": 4215,
      "Ġpakas": 4216,
      "ĠHenrik": 4217,
      "ĠNXT": 4218,
      "ონი": 4219,
      "ĠWarp": 4220,
      "ĠinitWith": 4221,
      "گذاری": 4222,
      "friends": 4223,
      "bolinks": 4224,
      "Ġپرویز": 4225,
      "Ġплохо": 4226,
      "шений": 4227,
      "ometown": 4228,
      "Ġfirmer": 4229,
      "newcommand": 4230,
      "bieter": 4231,
      "ĠMaldon": 4232,
      "tyn": 4233,
      "ĠValle": 4234,
      "Ġfoil": 4235,
      "ליך": 4236,
      "чната": 4237,
      "کرد": 4238,
      "rivit": 4239,
      "dice": 4240,
      "aredPreferences": 4241,
      "ĠEros": 4242,
      "らかな": 4243,
      "Exerc": 4244,
      "UTF": 4245,
      "اهرة": 4246,
      "IntVar": 4247,
      "èrement": 4248,
      "Ġyathasambhavam": 4249,
      "ĠNase": 4250,
      "Ġвызывает": 4251,
      "Ġvacanam": 4252,
      "ĠDodgers": 4253,
      "ĠNVARCHAR": 4254,
      "ĠDamascus": 4255,
      "Ġlocomotion": 4256,
      "strong": 4257,
      "Ġeffettu": 4258,
      "Ġmiếng": 4259,
      "immen": 4260,
      "hmC": 4261,
      "ĠsearchQuery": 4262,
      "ĠNOC": 4263,
      "psie": 4264,
      "ĠBenef": 4265,
      "ĠTDC": 4266,
      "pector": 4267,
      "ĠSargent": 4268,
      "ília": 4269,
      "ĠHeer": 4270,
      "ĠObst": 4271,
      "ĠMILLER": 4272,
      "ómo": 4273,
      "ための": 4274,
      "ĠChow": 4275,
      "aggia": 4276,
      "Ġétale": 4277,
      "Ġquenched": 4278,
      "Ġrepetir": 4279,
      "ĠICF": 4280,
      "Ġsajana": 4281,
      "ĠПере": 4282,
      "قیه": 4283,
      "itance": 4284,
      "asih": 4285,
      "ttu": 4286,
      "uego": 4287,
      "ĠFlyn": 4288,
      "ĠFlynn": 4289,
      "GetAsyncKeyState": 4290,
      "ĠVoc": 4291,
      "auce": 4292,
      "ĠBarbados": 4293,
      "letscher": 4294,
      "ĠВале": 4295,
      "ikaner": 4296,
      "routeName": 4297,
      "opers": 4298,
      "ĠІ": 4299,
      "рию": 4300,
      "ĠІнтэр": 4301,
      "ĠMETHOD": 4302,
      "ructor": 4303,
      "Ġpuj": 4304,
      "Ġgray": 4305,
      "ĠÁlv": 4306,
      "Ġcontag": 4307,
      "сред": 4308,
      "ジェクト": 4309,
      "が通販": 4310,
      "ĠTutt": 4311,
      "ouvoir": 4312,
      "identified": 4313,
      "пени": 4314,
      "Ġháb": 4315,
      "rsp": 4316,
      "ĠArcadia": 4317,
      "ernt": 4318,
      "clamps": 4319,
      "ĠMBE": 4320,
      "vans": 4321,
      "Original": 4322,
      "ĠflowerTotal": 4323,
      "antib": 4324,
      "ĠinputArray": 4325,
      "Ġкраёва": 4326,
      "строва": 4327,
      "Ġparten": 4328,
      "ControlEvents": 4329,
      "Ġ원": 4330,
      "verture": 4331,
      "Ġelectro": 4332,
      "ĠCMOS": 4333,
      "Ġ원하는": 4334,
      "ĠKick": 4335,
      "arran": 4336,
      "ochlor": 4337,
      "ayev": 4338,
      "Ġolacak": 4339,
      "Ġwebbrowser": 4340,
      "issi": 4341,
      "geolocation": 4342,
      "ĠHuskies": 4343,
      "Ġînd": 4344,
      "取締": 4345,
      "ammans": 4346,
      "取締役": 4347,
      "ючи": 4348,
      "rescott": 4349,
      "Ġstatut": 4350,
      "Ġleaching": 4351,
      "Ġmerch": 4352,
      "ĠFergus": 4353,
      "HCR": 4354,
      "urro": 4355,
      "OMIC": 4356,
      "ĠUlrich": 4357,
      "Ġrepudiandae": 4358,
      "Ġretard": 4359,
      "Ġamet": 4360,
      "vival": 4361,
      "beq": 4362,
      "Ġcancell": 4363,
      "ĠVerg": 4364,
      "clerc": 4365,
      "culation": 4366,
      "ĠATF": 4367,
      "ĠEber": 4368,
      "Ġinterchange": 4369,
      "sticks": 4370,
      "Ġprogn": 4371,
      "Ġnews": 4372,
      "triangleright": 4373,
      "nashvillehousing": 4374,
      "ämm": 4375,
      "ResultMessage": 4376,
      "анд": 4377,
      "ĠAdvoc": 4378,
      "iteli": 4379,
      "ervisor": 4380,
      "Ġœ": 4381,
      "Ġcapita": 4382,
      "Ġкир": 4383,
      "ĠfieldContext": 4384,
      "μορφ": 4385,
      "Ġfé": 4386,
      "Ġvener": 4387,
      "Ġimg": 4388,
      "oarima": 4389,
      "Ġscut": 4390,
      "autoarima": 4391,
      "Ġchief": 4392,
      "Intent": 4393,
      "Ġصعبه": 4394,
      "ואר": 4395,
      "lük": 4396,
      "tracking": 4397,
      "ĠPoE": 4398,
      "Ġdeposit": 4399,
      "женный": 4400,
      "aspect": 4401,
      "Ġlitt": 4402,
      "dır": 4403,
      "Ġmeis": 4404,
      "Ġboast": 4405,
      "ĠYamada": 4406,
      "PropertyList": 4407,
      "ErrorReport": 4408,
      "нические": 4409,
      "ĠEspí": 4410,
      "ционной": 4411,
      "Ġwyst": 4412,
      "問題": 4413,
      "ρον": 4414,
      "θρω": 4415,
      "MenuList": 4416,
      "下さい": 4417,
      "iezan": 4418,
      "ewal": 4419,
      "ĠVersch": 4420,
      "Ġdwa": 4421,
      "Attk": 4422,
      "Ġجوس": 4423,
      "ISION": 4424,
      "odiazep": 4425,
      "ĠTrev": 4426,
      "jär": 4427,
      "Ġjeder": 4428,
      "lebot": 4429,
      "Ġnasal": 4430,
      "Ġaesthetics": 4431,
      "InsertInt": 4432,
      "uhnya": 4433,
      "ĠMura": 4434,
      "ĠTou": 4435,
      "ĠEricks": 4436,
      "ĠMurakami": 4437,
      "ĠErickson": 4438,
      "ĠMhm": 4439,
      "ĠAguirre": 4440,
      "وبا": 4441,
      "Ġpercents": 4442,
      "ruč": 4443,
      "Ġtheat": 4444,
      "Ġhiệp": 4445,
      "Ġفاطمه": 4446,
      "Ġwei": 4447,
      "Ġdistinct": 4448,
      "ajati": 4449,
      "Ġmegawatts": 4450,
      "éld": 4451,
      "নগর": 4452,
      "Ġpéld": 4453,
      "apeutics": 4454,
      "PosX": 4455,
      "Ġbeserta": 4456,
      "Ġcheeky": 4457,
      "ĠNutz": 4458,
      "Ġpasaj": 4459,
      "ĠStockton": 4460,
      "cephal": 4461,
      "Ġtog": 4462,
      "ĠBau": 4463,
      "ĠBLM": 4464,
      "مود": 4465,
      "ĠCora": 4466,
      "ĠEel": 4467,
      "legenheit": 4468,
      "ĠJOptionPane": 4469,
      "elben": 4470,
      "IMPORT": 4471,
      "mdi": 4472,
      "čním": 4473,
      "Ġребен": 4474,
      "ĠAit": 4475,
      "ĠJorg": 4476,
      "ĠCarn": 4477,
      "Ġheg": 4478,
      "мые": 4479,
      "olone": 4480,
      "god": 4481,
      "ĠPlastic": 4482,
      "Ġbombard": 4483,
      "uttgart": 4484,
      "ĠLUMPUR": 4485,
      "engel": 4486,
      "Ġmicrofilm": 4487,
      "hass": 4488,
      "Ġwers": 4489,
      "centric": 4490,
      "orsi": 4491,
      "ĠSabha": 4492,
      "Ġvych": 4493,
      "Ġjaki": 4494,
      "ằm": 4495,
      "ĠBec": 4496,
      "aternity": 4497,
      "Ġgewe": 4498,
      "quelle": 4499,
      "ĠBlynk": 4500,
      "جاتا": 4501,
      "Ġpronouns": 4502,
      "ვლი": 4503,
      "ческая": 4504,
      "pei": 4505,
      "fireFlower": 4506,
      "яти": 4507,
      "intaan": 4508,
      "Agar": 4509,
      "ĠBSP": 4510,
      "ĠMarlene": 4511,
      "Ġvii": 4512,
      "ĠRapt": 4513,
      "Ġkèo": 4514,
      "cona": 4515,
      "ámica": 4516,
      "ĠUSO": 4517,
      "ĠscreenSize": 4518,
      "IsNullOrEmpty": 4519,
      "Wak": 4520,
      "ffected": 4521,
      "ĠAdj": 4522,
      "anteen": 4523,
      "ĠBypass": 4524,
      "Ġrameaux": 4525,
      "ispecies": 4526,
      "ĠWikispecies": 4527,
      "ispiels": 4528,
      "Ġencom": 4529,
      "Ġsponsors": 4530,
      "trrecl": 4531,
      "atering": 4532,
      "ĠWey": 4533,
      "CAO": 4534,
      "Ġfprintf": 4535,
      "Ġlangu": 4536,
      "ĠRandall": 4537,
      "Ġexplicabo": 4538,
      "ionalità": 4539,
      "ellus": 4540,
      "マト": 4541,
      "ĠSNMP": 4542,
      "cutaneous": 4543,
      "Mass": 4544,
      "entrySet": 4545,
      "foregroundColor": 4546,
      "Ġmanoeuvre": 4547,
      "ĠSaito": 4548,
      "Ġلين": 4549,
      "Ġکاک": 4550,
      "Ġکاکروچ": 4551,
      "ленные": 4552,
      "Ġsuất": 4553,
      "reeze": 4554,
      "ĠCAP": 4555,
      "Ġgreenhouse": 4556,
      "Ġbapt": 4557,
      "Riley": 4558,
      "一方面": 4559,
      "Ġail": 4560,
      "tenberg": 4561,
      "ιση": 4562,
      "ĠGober": 4563,
      "ĠBridget": 4564,
      "änge": 4565,
      "searchInput": 4566,
      "ĠGideon": 4567,
      "innon": 4568,
      "Ġpliers": 4569,
      "Incrementor": 4570,
      "jede": 4571,
      "Ġдва": 4572,
      "Ġالموافق": 4573,
      "Ġбет": 4574,
      "Ġслож": 4575,
      "Seqlist": 4576,
      "imization": 4577,
      "Ġcốc": 4578,
      "Ġlemn": 4579,
      "PHP": 4580,
      "Ġопределя": 4581,
      "ziert": 4582,
      "Ġhypnot": 4583,
      "Ġتبدی": 4584,
      "ĠDeleg": 4585,
      "Ġcurrant": 4586,
      "implement": 4587,
      "noduch": 4588,
      "aratus": 4589,
      "omeric": 4590,
      "普通": 4591,
      "autop": 4592,
      "ámara": 4593,
      "établir": 4594,
      "Ġzá": 4595,
      "Ġпохо": 4596,
      "ĠUtrecht": 4597,
      "Ġبولی": 4598,
      "ĠMehta": 4599,
      "Ġحقی": 4600,
      "ElementsBy": 4601,
      "Ġprodig": 4602,
      "Ġauguri": 4603,
      "uniti": 4604,
      "Ġtani": 4605,
      "sbom": 4606,
      "ξει": 4607,
      "Ġмеждународ": 4608,
      "Ġлютого": 4609,
      "SdkVersion": 4610,
      "bark": 4611,
      "isia": 4612,
      "Ġparlato": 4613,
      "Ġspores": 4614,
      "alee": 4615,
      "ocl": 4616,
      "Ġانگری": 4617,
      "ichannel": 4618,
      "ĠColomb": 4619,
      "Ġbolt": 4620,
      "ĠVCO": 4621,
      "Ġopus": 4622,
      "ĠLeid": 4623,
      "rmsg": 4624,
      "ĠChair": 4625,
      "ovskii": 4626,
      "rikt": 4627,
      "ĠPaterson": 4628,
      "στό": 4629,
      "ĠUSDA": 4630,
      "nership": 4631,
      "Ġsonda": 4632,
      "торов": 4633,
      "ównie": 4634,
      "Ġsporad": 4635,
      "ας": 4636,
      "ĠHollande": 4637,
      "ĠVenezia": 4638,
      "izaciones": 4639,
      "Ġродите": 4640,
      "の子": 4641,
      "Ġcua": 4642,
      "airo": 4643,
      "дуа": 4644,
      "Ġpowied": 4645,
      "enteric": 4646,
      "ĠOEM": 4647,
      "Ġflatt": 4648,
      "Ġал": 4649,
      "anyol": 4650,
      "joyed": 4651,
      "ĠCSU": 4652,
      "CRM": 4653,
      "RIC": 4654,
      "Ġدرس": 4655,
      "ĠBurbank": 4656,
      "ყო": 4657,
      "obank": 4658,
      "Ġarşiv": 4659,
      "Ġzit": 4660,
      "aiian": 4661,
      "бота": 4662,
      "forEach": 4663,
      "destroyEach": 4664,
      "emian": 4665,
      "ĠLucie": 4666,
      "ĠFuk": 4667,
      "ида": 4668,
      "Ġინ": 4669,
      "ラップ": 4670,
      "RESSION": 4671,
      "ĠAirtel": 4672,
      "ონ": 4673,
      "Ġказино": 4674,
      "Ġwsk": 4675,
      "SRPBinBuf": 4676,
      "Ġрекоменду": 4677,
      "Monica": 4678,
      "FOLD": 4679,
      "Ġsuperviv": 4680,
      "errick": 4681,
      "ParkingSpot": 4682,
      "toISO": 4683,
      "Ġadjour": 4684,
      "MERS": 4685,
      "Ġcorners": 4686,
      "HEL": 4687,
      "Ġاوف": 4688,
      "Ġatta": 4689,
      "арма": 4690,
      "élix": 4691,
      "Ġvudd": 4692,
      "Ġsvět": 4693,
      "Ġahuv": 4694,
      "Ġpformat": 4695,
      "Ġdeluge": 4696,
      "hör": 4697,
      "eltree": 4698,
      "ĠthePack": 4699,
      "labeltree": 4700,
      "igence": 4701,
      "ĠJade": 4702,
      "Ġmention": 4703,
      "LabelTool": 4704,
      "اردوشاعری": 4705,
      "Ġjana": 4706,
      "Ġ만들어": 4707,
      "hrPercent": 4708,
      "BuildAction": 4709,
      "ラックス": 4710,
      "Ġyours": 4711,
      "ĠAld": 4712,
      "Ġcorrugated": 4713,
      "velopper": 4714,
      "Ġازيكم": 4715,
      "nuts": 4716,
      "Ġdag": 4717,
      "Ġلي": 4718,
      "Ġимен": 4719,
      "urlString": 4720,
      "rester": 4721,
      "Ġπαι": 4722,
      "どうか": 4723,
      "Ġtuk": 4724,
      "ecocond": 4725,
      "Ġcoef": 4726,
      "Ġadsor": 4727,
      "ĠRally": 4728,
      "icola": 4729,
      "ugía": 4730,
      "我也是": 4731,
      "Ġcmdlet": 4732,
      "ĠDuan": 4733,
      "hipi": 4734,
      "ĠCavendish": 4735,
      "éricos": 4736,
      "Digit": 4737,
      "Ġstaking": 4738,
      "Ġpedi": 4739,
      "isection": 4740,
      "вости": 4741,
      "Ġlymphocytic": 4742,
      "iston": 4743,
      "KeyboardMarkup": 4744,
      "lis": 4745,
      "random": 4746,
      "Ġдзе": 4747,
      "ĠETF": 4748,
      "ιού": 4749,
      "dream": 4750,
      "ĠSalazar": 4751,
      "ĠELLE": 4752,
      "ĠMiner": 4753,
      "ibers": 4754,
      "ijal": 4755,
      "fromCharCode": 4756,
      "μοί": 4757,
      "runOnUiThread": 4758,
      "ahal": 4759,
      "Govern": 4760,
      "AdType": 4761,
      "Ġrefrained": 4762,
      "Ġbrim": 4763,
      "Ġprofit": 4764,
      "Ġمحافظ": 4765,
      "roda": 4766,
      "nym": 4767,
      "Ġpim": 4768,
      "ĠEust": 4769,
      "ĠUnity": 4770,
      "Ġgini": 4771,
      "Ġdensément": 4772,
      "ĠRuhr": 4773,
      "Repos": 4774,
      "ĠRecommend": 4775,
      "ĠKarlsruhe": 4776,
      "Ġphenol": 4777,
      "iversary": 4778,
      "テー": 4779,
      "ĠAccount": 4780,
      "amanya": 4781,
      "Ġpihak": 4782,
      "RACT": 4783,
      "ĠSPE": 4784,
      "Ġkompon": 4785,
      "ĠMaximilian": 4786,
      "Oste": 4787,
      "Ġpergunt": 4788,
      "Ġimmig": 4789,
      "ĠCornelia": 4790,
      "Ġauthoritarian": 4791,
      "omatically": 4792,
      "Ġþis": 4793,
      "mobil": 4794,
      "liye": 4795,
      "ĠEIA": 4796,
      "нга": 4797,
      "imah": 4798,
      "Appending": 4799,
      "दत": 4800,
      "holtz": 4801,
      "ĠDim": 4802,
      "Ġfech": 4803,
      "ĠUnit": 4804,
      "assadors": 4805,
      "ilever": 4806,
      "ністю": 4807,
      "ĠArroyo": 4808,
      "Ġsucces": 4809,
      "Ġμεγαλ": 4810,
      "ĠIndians": 4811,
      "ĠToot": 4812,
      "ĠFlora": 4813,
      "ĠAntio": 4814,
      "ĠDorset": 4815,
      "Ġنیرو": 4816,
      "ĠOpenAI": 4817,
      "Ġэкспери": 4818,
      "Ġsomme": 4819,
      "ovir": 4820,
      "vertine": 4821,
      "ĠComte": 4822,
      "ĠLạt": 4823,
      "Ġمطم": 4824,
      "ItemLayout": 4825,
      "бит": 4826,
      "ĠZoll": 4827,
      "版本": 4828,
      "ĠitemView": 4829,
      "reinterpret": 4830,
      "ĠCMR": 4831,
      "ĠxhrObj": 4832,
      "Ġdors": 4833,
      "Ġgonf": 4834,
      "Ġtiter": 4835,
      "ĠRwanda": 4836,
      "ĠGTEST": 4837,
      "Ġwacht": 4838,
      "echo": 4839,
      "monary": 4840,
      "Parker": 4841,
      "এস": 4842,
      "Ġindict": 4843,
      "TextInput": 4844,
      "Ġbağ": 4845,
      "Ġühe": 4846,
      "iprop": 4847,
      "Ġuff": 4848,
      "Ġобраща": 4849,
      "ĠCSR": 4850,
      "ĠWhelan": 4851,
      "CharPtr": 4852,
      "ataire": 4853,
      "agements": 4854,
      "шуу": 4855,
      "elij": 4856,
      "startX": 4857,
      "ĠNIS": 4858,
      "eppo": 4859,
      "ούς": 4860,
      "ĠJackman": 4861,
      "Ġsaludos": 4862,
      "Ġcytochrome": 4863,
      "ĠUIK": 4864,
      "Ġkürz": 4865,
      "ĠUIKit": 4866,
      "ienze": 4867,
      "Ġдописавши": 4868,
      "Jeh": 4869,
      "уре": 4870,
      "Ġнес": 4871,
      "ĠAnnette": 4872,
      "NgramModel": 4873,
      "ولوج": 4874,
      "epik": 4875,
      "Batis": 4876,
      "ומ": 4877,
      "Anchor": 4878,
      "Ġanalges": 4879,
      "ומר": 4880,
      "IME": 4881,
      "Ġwil": 4882,
      "rivi": 4883,
      "itorios": 4884,
      "Ġrepetitions": 4885,
      "WithObjects": 4886,
      "ganos": 4887,
      "Ġvisceral": 4888,
      "Ġchitin": 4889,
      "ĠSpare": 4890,
      "feito": 4891,
      "Ġbcrypt": 4892,
      "Physical": 4893,
      "Ġحضرتك": 4894,
      "ดย": 4895,
      "ĠWol": 4896,
      "ittam": 4897,
      "FlashValue": 4898,
      "Ġbied": 4899,
      "Ġseam": 4900,
      "ĠCTRL": 4901,
      "主持": 4902,
      "ĠParisi": 4903,
      "主持人": 4904,
      "gestellt": 4905,
      "Ġsyl": 4906,
      "Pat": 4907,
      "zęd": 4908,
      "Ġpoziom": 4909,
      "Ġconfigur": 4910,
      "ρέπει": 4911,
      "ĠŞ": 4912,
      "ĠINumber": 4913,
      "Ġmno": 4914,
      "ĠCVE": 4915,
      "atlantic": 4916,
      "Ġdespl": 4917,
      "ĠMiyazaki": 4918,
      "Ġلیں": 4919,
      "application": 4920,
      "Standard": 4921,
      "itaria": 4922,
      "scraper": 4923,
      "ĠСою": 4924,
      "Ġкерек": 4925,
      "Ġdrywall": 4926,
      "ĠSia": 4927,
      "ĠBomb": 4928,
      "Ġbezier": 4929,
      "soir": 4930,
      "стика": 4931,
      "Ġالوطن": 4932,
      "Ġkorišten": 4933,
      "ĠSich": 4934,
      "ramiento": 4935,
      "Ġlayak": 4936,
      "Ġразобраться": 4937,
      "WMNMDA": 4938,
      "ĠBestand": 4939,
      "ارك": 4940,
      "Ġécl": 4941,
      "ĠOmni": 4942,
      "ĠKoch": 4943,
      "Ġопа": 4944,
      "ĠDudley": 4945,
      "ĠtoString": 4946,
      "ophan": 4947,
      "java": 4948,
      "ลาคม": 4949,
      "invasionMobs": 4950,
      "gridLayout": 4951,
      "Ġbeden": 4952,
      "Ġneuro": 4953,
      "Ġвозник": 4954,
      "ρίου": 4955,
      "faster": 4956,
      "Ġbirl": 4957,
      "воды": 4958,
      "erger": 4959,
      "ĠPandey": 4960,
      "ρος": 4961,
      "Ġfromi": 4962,
      "cary": 4963,
      "Ġуен": 4964,
      "ĠHatton": 4965,
      "codingPath": 4966,
      "question": 4967,
      "ĠStam": 4968,
      "Alder": 4969,
      "exposure": 4970,
      "ってる": 4971,
      "ерка": 4972,
      "ĠStrec": 4973,
      "ĠStrecke": 4974,
      "Ġpraising": 4975,
      "ĠAfghans": 4976,
      "cision": 4977,
      "设计": 4978,
      "Ġhomogen": 4979,
      "ĠIndus": 4980,
      "ĠSMITH": 4981,
      "STAT": 4982,
      "пления": 4983,
      "Ġgetline": 4984,
      "さんの": 4985,
      "etok": 4986,
      "ĠEdson": 4987,
      "ობა": 4988,
      "ĠPawan": 4989,
      "UTCTime": 4990,
      "Ġcoloquei": 4991,
      "tum": 4992,
      "ĠVCS": 4993,
      "Ġpelota": 4994,
      "Ġото": 4995,
      "μία": 4996,
      "eveer": 4997,
      "Ġongeveer": 4998,
      "doğan": 4999,
      "agination": 5000,
      "Ġdea": 5001,
      "Ġcrev": 5002,
      "icksburg": 5003,
      "Ġconcess": 5004,
      "omel": 5005,
      "Ġرپور": 5006,
      "мум": 5007,
      "ĠHerzeg": 5008,
      "rustic": 5009,
      "Ġhill": 5010,
      "Ġمرت": 5011,
      "Ġwilling": 5012,
      "Ġpaprika": 5013,
      "يره": 5014,
      "ĠRECE": 5015,
      "Ġvane": 5016,
      "ĠDutta": 5017,
      "laint": 5018,
      "ĠCapricorn": 5019,
      "Ġناقابل": 5020,
      "Ġunic": 5021,
      "Ġgau": 5022,
      "Ġзах": 5023,
      "CONN": 5024,
      "CHK": 5025,
      "зон": 5026,
      "Ġsve": 5027,
      "Ġнефте": 5028,
      "Ġvoluptates": 5029,
      "dataPath": 5030,
      "rinsic": 5031,
      "ouk": 5032,
      "ĠHelmut": 5033,
      "rinth": 5034,
      "ermost": 5035,
      "RowFilter": 5036,
      "econdary": 5037,
      "Ġбиблиоте": 5038,
      "Ġطب": 5039,
      "цыяна": 5040,
      "irana": 5041,
      "ácil": 5042,
      "liques": 5043,
      "クロ": 5044,
      "ĠDMA": 5045,
      "ĠSchro": 5046,
      "ĠCeline": 5047,
      "ĠMelo": 5048,
      "人気": 5049,
      "ынша": 5050,
      "interview": 5051,
      "Ġشغله": 5052,
      "Ġtuples": 5053,
      "ĠJOUR": 5054,
      "vents": 5055,
      "FRE": 5056,
      "zers": 5057,
      "生ま": 5058,
      "spě": 5059,
      "DCTask": 5060,
      "Downward": 5061,
      "oweit": 5062,
      "зидент": 5063,
      "ĠAlbania": 5064,
      "xpath": 5065,
      "Ġмоду": 5066,
      "Ġpăr": 5067,
      "shirt": 5068,
      "ĠDSO": 5069,
      "isão": 5070,
      "ipers": 5071,
      "fullName": 5072,
      "Ġfleshy": 5073,
      "şey": 5074,
      "isers": 5075,
      "ĠFian": 5076,
      "ĠGerman": 5077,
      "snakeCubeSize": 5078,
      "Ġprzedsi": 5079,
      "Ġnoy": 5080,
      "unicipal": 5081,
      "ĠAubrey": 5082,
      "رسة": 5083,
      "IMAL": 5084,
      "Ġلار": 5085,
      "Ġporcentaje": 5086,
      "jetas": 5087,
      "aparikkh": 5088,
      "artifactId": 5089,
      "ĠMAGNET": 5090,
      "upuncture": 5091,
      "ĠSchneider": 5092,
      "bidden": 5093,
      "ApiResponse": 5094,
      "Ġresol": 5095,
      "ensement": 5096,
      "Ġrecensement": 5097,
      "Ġerop": 5098,
      "documentclass": 5099,
      "esam": 5100,
      "ĠSatt": 5101,
      "Ġpenguin": 5102,
      "ibhav": 5103,
      "ĠBlond": 5104,
      "Ġpotenci": 5105,
      "Ġkie": 5106,
      "ĠHaci": 5107,
      "rabbit": 5108,
      "ĠJaneiro": 5109,
      "PathOf": 5110,
      "Ġمحس": 5111,
      "ĠGartner": 5112,
      "Ġplata": 5113,
      "inoceros": 5114,
      "tie": 5115,
      "Ġcoaxial": 5116,
      "ĠPMID": 5117,
      "Ġbothered": 5118,
      "otur": 5119,
      "rinho": 5120,
      "Ġорганиза": 5121,
      "ecoexpr": 5122,
      "ueta": 5123,
      "baik": 5124,
      "ĠdwRes": 5125,
      "PWM": 5126,
      "bben": 5127,
      "peace": 5128,
      "Ġidam": 5129,
      "Ġpung": 5130,
      "ucidation": 5131,
      "cciones": 5132,
      "FBSDKBridge": 5133,
      "ĠinputValue": 5134,
      "jskich": 5135,
      "CEPTION": 5136,
      "Ġመጠን": 5137,
      "ĠAccra": 5138,
      "Ġwavelet": 5139,
      "NIK": 5140,
      "ĠBüh": 5141,
      "ĠVasco": 5142,
      "ĠCess": 5143,
      "Ġfloss": 5144,
      "ĠCONN": 5145,
      "Ġبیان": 5146,
      "Ġswipes": 5147,
      "mAb": 5148,
      "Ġheaven": 5149,
      "kowo": 5150,
      "trag": 5151,
      "urée": 5152,
      "Ġdisintegr": 5153,
      "convolveMaterial": 5154,
      "Ġعال": 5155,
      "Ġartic": 5156,
      "พา": 5157,
      "พาะ": 5158,
      "ያዎች": 5159,
      "ainting": 5160,
      "Ġtemer": 5161,
      "Ġcinereo": 5162,
      "からも": 5163,
      "دخل": 5164,
      "Ġگستر": 5165,
      "black": 5166,
      "VerFile": 5167,
      "iziert": 5168,
      "efeller": 5169,
      "Ġобъек": 5170,
      "Ġرضی": 5171,
      "एच": 5172,
      "एचओ": 5173,
      "ĠSVP": 5174,
      "Ġdecommissioning": 5175,
      "もので": 5176,
      "Tod": 5177,
      "ĠInputDecoration": 5178,
      "Ġgial": 5179,
      "ĠLast": 5180,
      "Ġtariff": 5181,
      "Ġseptembre": 5182,
      "niac": 5183,
      "munds": 5184,
      "ĠEdmunds": 5185,
      "Ġáng": 5186,
      "lder": 5187,
      "kop": 5188,
      "Ġصفحۀ": 5189,
      "Celeron": 5190,
      "Ġretre": 5191,
      "ستگی": 5192,
      "ĠAuguste": 5193,
      "ĠHana": 5194,
      "Ġтрав": 5195,
      "Ġფ": 5196,
      "Ġunitar": 5197,
      "ائز": 5198,
      "Ġunitarity": 5199,
      "pulse": 5200,
      "enaire": 5201,
      "Ġsemic": 5202,
      "ĠSzym": 5203,
      "рование": 5204,
      "Shut": 5205,
      "Ġдета": 5206,
      "Ġimpasse": 5207,
      "Ġolsun": 5208,
      "Ġδεί": 5209,
      "ĠLockheed": 5210,
      "Ġrallying": 5211,
      "messe": 5212,
      "ირო": 5213,
      "nost": 5214,
      "Ġtriệu": 5215,
      "edere": 5216,
      "ァン": 5217,
      "ヴァン": 5218,
      "COME": 5219,
      "Ġpály": 5220,
      "iberg": 5221,
      "вав": 5222,
      "اتے": 5223,
      "ĠBBS": 5224,
      "ĠCait": 5225,
      "ibold": 5226,
      "abinieri": 5227,
      "クトル": 5228,
      "ĠscrollBody": 5229,
      "incy": 5230,
      "ĠNIH": 5231,
      "Ġresuspended": 5232,
      "خول": 5233,
      "ienst": 5234,
      "marsh": 5235,
      "Ġpariatur": 5236,
      "aaS": 5237,
      "Ġअल": 5238,
      "Ġventric": 5239,
      "Ġtattooed": 5240,
      "ĠStrath": 5241,
      "Ġgyr": 5242,
      "getFrom": 5243,
      "ĠArach": 5244,
      "apply": 5245,
      "Ġбухгал": 5246,
      "ĠYue": 5247,
      "Ġнеда": 5248,
      "findpost": 5249,
      "Ġbodys": 5250,
      "ToFile": 5251,
      "ĠparamInt": 5252,
      "Ġhyg": 5253,
      "Ġوالإ": 5254,
      "Ġиспыты": 5255,
      "Ġпопула": 5256,
      "ouml": 5257,
      "ĠTsch": 5258,
      "ĠTilly": 5259,
      "Ġورک": 5260,
      "ĠHain": 5261,
      "ilege": 5262,
      "ManagerPortal": 5263,
      "ĠNeem": 5264,
      "ĠWent": 5265,
      "illator": 5266,
      "enuation": 5267,
      "Ġfoncé": 5268,
      "eaa": 5269,
      "スマス": 5270,
      "splitLength": 5271,
      "PlatformVersion": 5272,
      "acd": 5273,
      "ĠFerd": 5274,
      "Ġпит": 5275,
      "Ġcommunaut": 5276,
      "Ġubic": 5277,
      "ĠTrain": 5278,
      "ĠJawaharlal": 5279,
      "encils": 5280,
      "RICAL": 5281,
      "ịnh": 5282,
      "ĠClyde": 5283,
      "FU": 5284,
      "callowcounter": 5285,
      "ilish": 5286,
      "ANCIS": 5287,
      "Ġfunktion": 5288,
      "Ġхарактери": 5289,
      "Ġmagma": 5290,
      "Contacts": 5291,
      "elace": 5292,
      "Ġduke": 5293,
      "Ġverme": 5294,
      "ucers": 5295,
      "ĠJok": 5296,
      "Ġοποί": 5297,
      "ĠUnterstüt": 5298,
      "mass": 5299,
      "طاء": 5300,
      "하겠습니다": 5301,
      "ceptual": 5302,
      "Ġflamb": 5303,
      "Ġmunicipal": 5304,
      "いつ": 5305,
      "Manifest": 5306,
      "ĠBaud": 5307,
      "zeuge": 5308,
      "elleen": 5309,
      "cribable": 5310,
      "ĠPrat": 5311,
      "ixi": 5312,
      "datei": 5313,
      "wani": 5314,
      "Ġslotted": 5315,
      "cols": 5316,
      "Ġtäht": 5317,
      "ĠHough": 5318,
      "intendo": 5319,
      "Ġmoat": 5320,
      "ĠOSError": 5321,
      "ValueLayout": 5322,
      "стую": 5323,
      "bracelet": 5324,
      "lished": 5325,
      "Ġуправля": 5326,
      "iserum": 5327,
      "ilé": 5328,
      "PSS": 5329,
      "ĠРосії": 5330,
      "äts": 5331,
      "ĠCYAN": 5332,
      "Ġolu": 5333,
      "ĠSebastian": 5334,
      "Ġодной": 5335,
      "Ġstair": 5336,
      "LAB": 5337,
      "Ġبتایا": 5338,
      "ĠBranche": 5339,
      "자들이": 5340,
      "uttaa": 5341,
      "Ġمنی": 5342,
      "Esc": 5343,
      "ĠKotlin": 5344,
      "Escol": 5345,
      "Grade": 5346,
      "msub": 5347,
      "ipit": 5348,
      "руу": 5349,
      "Ġcaout": 5350,
      "Ġاجمع": 5351,
      "Ġsuscipit": 5352,
      "ĠGrow": 5353,
      "Ġvadama": 5354,
      "hyst": 5355,
      "tų": 5356,
      "ėtų": 5357,
      "icznego": 5358,
      "acane": 5359,
      "tug": 5360,
      "Ġپروف": 5361,
      "Ġretirer": 5362,
      "ĠlocationManager": 5363,
      "ĠMTA": 5364,
      "ĠClayton": 5365,
      "быз": 5366,
      "ĠPrabh": 5367,
      "IBAction": 5368,
      "Ġsofá": 5369,
      "Ġсловами": 5370,
      "épendant": 5371,
      "ĠPlan": 5372,
      "Ġвече": 5373,
      "ĠAmbrose": 5374,
      "Ġcompét": 5375,
      "ĠTeg": 5376,
      "ĠHyatt": 5377,
      "ĠStap": 5378,
      "ĠSpit": 5379,
      "oterapia": 5380,
      "чку": 5381,
      "Ġتوج": 5382,
      "Ġjurid": 5383,
      "σταν": 5384,
      "İR": 5385,
      "ĠVorte": 5386,
      "Ġskul": 5387,
      "enedor": 5388,
      "ĠGug": 5389,
      "Ġmurm": 5390,
      "ĠVag": 5391,
      "Ġinciner": 5392,
      "diction": 5393,
      "venor": 5394,
      "ProjectGuid": 5395,
      "ĠAssertion": 5396,
      "adecimal": 5397,
      "Ġeius": 5398,
      "Ġzaś": 5399,
      "jeron": 5400,
      "pek": 5401,
      "ĠObj": 5402,
      "ĠFIX": 5403,
      "ĠgetNodeId": 5404,
      "bev": 5405,
      "ilio": 5406,
      "ποτε": 5407,
      "geving": 5408,
      "avimo": 5409,
      "Ġordinaire": 5410,
      "awesi": 5411,
      "ссер": 5412,
      "mathml": 5413,
      "numberOf": 5414,
      "пле": 5415,
      "anía": 5416,
      "Ġfai": 5417,
      "ichtung": 5418,
      "Ġcounc": 5419,
      "Ġcommon": 5420,
      "ategori": 5421,
      "SourceIP": 5422,
      "Ġкрепо": 5423,
      "itchfield": 5424,
      "Ġhiz": 5425,
      "rupts": 5426,
      "Ġcapric": 5427,
      "ĠMilne": 5428,
      "Ġwarmer": 5429,
      "ĠhandleDelete": 5430,
      "Ġಅವ": 5431,
      "ĠMAL": 5432,
      "untamiento": 5433,
      "Ġבי": 5434,
      "ĠMALDI": 5435,
      "Ġdope": 5436,
      "onActivityResult": 5437,
      "uaje": 5438,
      "weni": 5439,
      "renn": 5440,
      "JsonProperty": 5441,
      "ĠViitattu": 5442,
      "Ġspoon": 5443,
      "ĠBrooks": 5444,
      "ewalk": 5445,
      "mlx": 5446,
      "ĠNSF": 5447,
      "Ġorale": 5448,
      "Ġშეუ": 5449,
      "шою": 5450,
      "iever": 5451,
      "Ġpedag": 5452,
      "ĠFDI": 5453,
      "Encom": 5454,
      "ĠEdel": 5455,
      "ĠSchoen": 5456,
      "Ġthorium": 5457,
      "Ġseroton": 5458,
      "ĠMund": 5459,
      "ĠUNDP": 5460,
      "thrown": 5461,
      "ĠGDPPC": 5462,
      "ième": 5463,
      "Ġgelang": 5464,
      "Ġion": 5465,
      "Ġjdbc": 5466,
      "Ġappelle": 5467,
      "ĠMilford": 5468,
      "Ġbunt": 5469,
      "Ġchag": 5470,
      "nina": 5471,
      "Ġالمرح": 5472,
      "自分": 5473,
      "ترام": 5474,
      "ĠTama": 5475,
      "Ġkelu": 5476,
      "ourent": 5477,
      "ĠMissy": 5478,
      "Ġfiledialog": 5479,
      "jero": 5480,
      "ChessBot": 5481,
      "Ġスタ": 5482,
      "Ġбума": 5483,
      "ッティング": 5484,
      "각형": 5485,
      "ĠVLC": 5486,
      "ytte": 5487,
      "ĠHerod": 5488,
      "pubmed": 5489,
      "ĠPaston": 5490,
      "Ġmöj": 5491,
      "ĠRepeat": 5492,
      "ĠKavan": 5493,
      "ادث": 5494,
      "warts": 5495,
      "ĠNONCLUSTERED": 5496,
      "Elvis": 5497,
      "stdint": 5498,
      "Ġpercentage": 5499,
      "Autow": 5500,
      "ッジ": 5501,
      "リッジ": 5502,
      "USTR": 5503,
      "ĠDISPLAYSURF": 5504,
      "adine": 5505,
      "ofu": 5506,
      "Ġajal": 5507,
      "Ġtariffs": 5508,
      "Ġcysteine": 5509,
      "typicode": 5510,
      "peč": 5511,
      "ĠIncorpor": 5512,
      "RestController": 5513,
      "πους": 5514,
      "querySelector": 5515,
      "mios": 5516,
      "ĠCharlton": 5517,
      "Essex": 5518,
      "ĠTaş": 5519,
      "Ġbevy": 5520,
      "Ġnoqa": 5521,
      "aday": 5522,
      "ĠFir": 5523,
      "ご確認": 5524,
      "Ġsatt": 5525,
      "Adapt": 5526,
      "Ġeten": 5527,
      "لیک": 5528,
      "unzione": 5529,
      "iggers": 5530,
      "mesi": 5531,
      "Ġfave": 5532,
      "oua": 5533,
      "ukk": 5534,
      "iddi": 5535,
      "TableCell": 5536,
      "ĠAgung": 5537,
      "derick": 5538,
      "flowLayoutPanel": 5539,
      "ĠLombardi": 5540,
      "CHS": 5541,
      "Ġwoll": 5542,
      "uali": 5543,
      "convert": 5544,
      "ĠChad": 5545,
      "Ġamin": 5546,
      "getCustomer": 5547,
      "okane": 5548,
      "Ġjesus": 5549,
      "cido": 5550,
      "arbeit": 5551,
      "Ġhotspots": 5552,
      "άλ": 5553,
      "ورش": 5554,
      "abilir": 5555,
      "Await": 5556,
      "accharide": 5557,
      "Ġcongenital": 5558,
      "uriken": 5559,
      "ĠNanjing": 5560,
      "éments": 5561,
      "ECD": 5562,
      "дного": 5563,
      "Ġکھی": 5564,
      "Transc": 5565,
      "дии": 5566,
      "Ġmisdeme": 5567,
      "ĠActiveRecord": 5568,
      "ĠHabana": 5569,
      "ĠVere": 5570,
      "etrics": 5571,
      "TWI": 5572,
      "ĠOtto": 5573,
      "Ġausges": 5574,
      "гности": 5575,
      "ในสนาม": 5576,
      "Ġpourcentage": 5577,
      "ہوں": 5578,
      "Ġسلاٹس": 5579,
      "Ви": 5580,
      "วง": 5581,
      "Ġpostfix": 5582,
      "ĠRaquel": 5583,
      "lobin": 5584,
      "φορά": 5585,
      "ORDER": 5586,
      "uciones": 5587,
      "ĠPERC": 5588,
      "ĠPERCENT": 5589,
      "Ġsend": 5590,
      "Ġالاش": 5591,
      "jahter": 5592,
      "âns": 5593,
      "Ġاتح": 5594,
      "Ġбра": 5595,
      "constexpr": 5596,
      "ologie": 5597,
      "ياته": 5598,
      "frage": 5599,
      "vient": 5600,
      "ĠBoucher": 5601,
      "ozzi": 5602,
      "Ġrapide": 5603,
      "ĠStateless": 5604,
      "Ġginseng": 5605,
      "Ġلفظ": 5606,
      "alus": 5607,
      "addTarget": 5608,
      "ierarchy": 5609,
      "nyt": 5610,
      "Ġмного": 5611,
      "Ġdiodes": 5612,
      "ĠCONTRIB": 5613,
      "ocardi": 5614,
      "Ġestrem": 5615,
      "хран": 5616,
      "نهار": 5617,
      "Ġuniver": 5618,
      "Ġamyl": 5619,
      "imbulkan": 5620,
      "Ġsamoglas": 5621,
      "Cipher": 5622,
      "ocera": 5623,
      "ĠHald": 5624,
      "ĠHIF": 5625,
      "ĠYud": 5626,
      "LOCAL": 5627,
      "Ġучили": 5628,
      "Sheila": 5629,
      "Ġতফস": 5630,
      "Ġмашина": 5631,
      "colorControl": 5632,
      "ĠKongo": 5633,
      "lobe": 5634,
      "ссу": 5635,
      "anud": 5636,
      "Ġfellow": 5637,
      "ITATE": 5638,
      "Ġtiu": 5639,
      "iovas": 5640,
      "ĠglPopMatrix": 5641,
      "Ġالماده": 5642,
      "Phys": 5643,
      "leger": 5644,
      "ĠNIT": 5645,
      "Ġdarb": 5646,
      "yilda": 5647,
      "ĠLap": 5648,
      "Ġeee": 5649,
      "ياه": 5650,
      "nuxtjs": 5651,
      "Ġентите": 5652,
      "dml": 5653,
      "lede": 5654,
      "ĠSabb": 5655,
      "juč": 5656,
      "bsite": 5657,
      "Ġlut": 5658,
      "的人": 5659,
      "ĠGriechen": 5660,
      "IFO": 5661,
      "nije": 5662,
      "Ġhuyền": 5663,
      "uding": 5664,
      "otherapist": 5665,
      "ramine": 5666,
      "ніка": 5667,
      "ĠHeide": 5668,
      "гістра": 5669,
      "éter": 5670,
      "менование": 5671,
      "unak": 5672,
      "Ġcoron": 5673,
      "actional": 5674,
      "Ġры": 5675,
      "FBSDKSettings": 5676,
      "ineries": 5677,
      "ustes": 5678,
      "edom": 5679,
      "Ġdever": 5680,
      "arlene": 5681,
      "ĠBapt": 5682,
      "nione": 5683,
      "дования": 5684,
      "Ġtrest": 5685,
      "times": 5686,
      "AHN": 5687,
      "ĠBxb": 5688,
      "rxjs": 5689,
      "Callbacks": 5690,
      "Ġchắn": 5691,
      "aude": 5692,
      "Claude": 5693,
      "ڑھ": 5694,
      "Ġالإن": 5695,
      "ĠKonz": 5696,
      "Ġapport": 5697,
      "saa": 5698,
      "ؤال": 5699,
      "imia": 5700,
      "ĠMitochond": 5701,
      "ĠAdS": 5702,
      "UNDS": 5703,
      "時計": 5704,
      "腕時計": 5705,
      "ĠChim": 5706,
      "bibfield": 5707,
      "Ġmoth": 5708,
      "Ġуслу": 5709,
      "intermedi": 5710,
      "Ġmartin": 5711,
      "ลอด": 5712,
      "Ġشمار": 5713,
      "adigan": 5714,
      "sembl": 5715,
      "ĠDol": 5716,
      "Ġteor": 5717,
      "SpacerItem": 5718,
      "Ġacont": 5719,
      "Ġintermitt": 5720,
      "ĠHCI": 5721,
      "Ġdoğr": 5722,
      "ĠGespräch": 5723,
      "ĠIris": 5724,
      "asitriangular": 5725,
      "ĠinternalType": 5726,
      "adino": 5727,
      "Ġbitterly": 5728,
      "ĠBautista": 5729,
      "ĠWITH": 5730,
      "сах": 5731,
      "mettre": 5732,
      "arris": 5733,
      "vigor": 5734,
      "Ġsaud": 5735,
      "Ġdiscretionary": 5736,
      "Ġcyn": 5737,
      "ĠBux": 5738,
      "ĠBuxton": 5739,
      "ilta": 5740,
      "Ġgoo": 5741,
      "Ġmolé": 5742,
      "ĠpTM": 5743,
      "CHE": 5744,
      "Ġsear": 5745,
      "미암": 5746,
      "autions": 5747,
      "Ġgrud": 5748,
      "Ġвелоси": 5749,
      "Ġ말미암": 5750,
      "imli": 5751,
      "Ġvmax": 5752,
      "ĠClint": 5753,
      "ĠMDC": 5754,
      "Ġچکی": 5755,
      "Ġtratt": 5756,
      "atics": 5757,
      "ĠCao": 5758,
      "azines": 5759,
      "Ġکیس": 5760,
      "Ġurm": 5761,
      "Ġстоле": 5762,
      "intellij": 5763,
      "ĠUni": 5764,
      "skich": 5765,
      "ĠPlato": 5766,
      "Ġöl": 5767,
      "isPrime": 5768,
      "ĠChongqing": 5769,
      "tida": 5770,
      "paredStatement": 5771,
      "ĠIkat": 5772,
      "Ġposet": 5773,
      "CacheV": 5774,
      "reiche": 5775,
      "Ġditem": 5776,
      "Ġawọn": 5777,
      "sof": 5778,
      "idiendo": 5779,
      "Ġmolest": 5780,
      "echanism": 5781,
      "private": 5782,
      "Ġoed": 5783,
      "Ġdeuteron": 5784,
      "Ġtroub": 5785,
      "ĠpublicKey": 5786,
      "ĠSchmitt": 5787,
      "чними": 5788,
      "ĠCadastro": 5789,
      "ĠnewInputBtn": 5790,
      "Ġzáb": 5791,
      "lum": 5792,
      "otine": 5793,
      "ydney": 5794,
      "ĠMcClellan": 5795,
      "غاية": 5796,
      "lya": 5797,
      "ĠUID": 5798,
      "етра": 5799,
      "innest": 5800,
      "ĠDCHECK": 5801,
      "ĠVentura": 5802,
      "Ġdédi": 5803,
      "ĠAristotle": 5804,
      "assador": 5805,
      "ĠDham": 5806,
      "actively": 5807,
      "Ġconcursos": 5808,
      "elty": 5809,
      "Przypisy": 5810,
      "ENES": 5811,
      "ridate": 5812,
      "Ġprzew": 5813,
      "CMI": 5814,
      "ĠModelAndView": 5815,
      "ouni": 5816,
      "onica": 5817,
      "ĠBHP": 5818,
      "Ġinsert": 5819,
      "ĠNeumann": 5820,
      "inergic": 5821,
      "Ġcriter": 5822,
      "フォン": 5823,
      "asian": 5824,
      "Ġخیر": 5825,
      "Ġnargs": 5826,
      "InSection": 5827,
      "ĠLOT": 5828,
      "okens": 5829,
      "níky": 5830,
      "ĠAmitabh": 5831,
      "Ġdiaper": 5832,
      "ĠSLA": 5833,
      "Ġsic": 5834,
      "Ġबरत": 5835,
      "ĠCCL": 5836,
      "faulseAns": 5837,
      "âni": 5838,
      "ĠViên": 5839,
      "IGH": 5840,
      "inska": 5841,
      "ısının": 5842,
      "ĠTCM": 5843,
      "uhu": 5844,
      "Ġcpt": 5845,
      "ĠMBP": 5846,
      "Ġพระ": 5847,
      "ĠGhosh": 5848,
      "widet": 5849,
      "oue": 5850,
      "Ġпроцент": 5851,
      "andelion": 5852,
      "ĠAriana": 5853,
      "bong": 5854,
      "нной": 5855,
      "ĠSutter": 5856,
      "module": 5857,
      "acetamol": 5858,
      "ĠStrength": 5859,
      "ordes": 5860,
      "Ġandando": 5861,
      "Ġcommens": 5862,
      "Sym": 5863,
      "Ġхло": 5864,
      "dihydro": 5865,
      "reson": 5866,
      "Ġتط": 5867,
      "Ġуста": 5868,
      "tod": 5869,
      "чного": 5870,
      "Ġchunky": 5871,
      "ĠPSE": 5872,
      "Ġakka": 5873,
      "alh": 5874,
      "Ġyanı": 5875,
      "Ġformul": 5876,
      "Ital": 5877,
      "ĠAccum": 5878,
      "Ġdhatussa": 5879,
      "ISAM": 5880,
      "urum": 5881,
      "idamente": 5882,
      "ompok": 5883,
      "Ġswirling": 5884,
      "ĠTGC": 5885,
      "jdk": 5886,
      "popular": 5887,
      "ære": 5888,
      "Ġқара": 5889,
      "ĠCramer": 5890,
      "MITank": 5891,
      "ĠRBS": 5892,
      "Ġarquitect": 5893,
      "Ġmethyl": 5894,
      "banipi": 5895,
      "werben": 5896,
      "СТЕ": 5897,
      "ĠElsa": 5898,
      "iams": 5899,
      "ĠBelinda": 5900,
      "aredo": 5901,
      "ĠBorderLayout": 5902,
      "ったり": 5903,
      "Ġadsorbed": 5904,
      "OUTH": 5905,
      "aturday": 5906,
      "aulay": 5907,
      "OPENJDK": 5908,
      "ĠPoa": 5909,
      "ĠFAR": 5910,
      "Ġremod": 5911,
      "ignore": 5912,
      "sac": 5913,
      "簡単": 5914,
      "sterne": 5915,
      "fut": 5916,
      "ĠKishan": 5917,
      "Ġrevenir": 5918,
      "posium": 5919,
      "razil": 5920,
      "érons": 5921,
      "RestorePolicy": 5922,
      "Ġtoon": 5923,
      "ĠeSIM": 5924,
      "Ġنحكي": 5925,
      "immersive": 5926,
      "ToObject": 5927,
      "Determ": 5928,
      "ĠPlugin": 5929,
      "amarca": 5930,
      "Ġktór": 5931,
      "нды": 5932,
      "ĠGerrard": 5933,
      "ĠPerg": 5934,
      "Ġознача": 5935,
      "roep": 5936,
      "evis": 5937,
      "нім": 5938,
      "ĠPATENT": 5939,
      "anlage": 5940,
      "Ġkalangan": 5941,
      "drawiam": 5942,
      "داث": 5943,
      "ĠLeighton": 5944,
      "ĠCamus": 5945,
      "štění": 5946,
      "Ġبيد": 5947,
      "ĠNTT": 5948,
      "Ġużyt": 5949,
      "Ġinescap": 5950,
      "ĠFarley": 5951,
      "Ġشادی": 5952,
      "Ġلگے": 5953,
      "eced": 5954,
      "ologue": 5955,
      "ianic": 5956,
      "ریس": 5957,
      "Ġskup": 5958,
      "Ġmostr": 5959,
      "ĠPWMA": 5960,
      "ρεί": 5961,
      "ĠRach": 5962,
      "ClFN": 5963,
      "ivati": 5964,
      "Ġअदर": 5965,
      "ogu": 5966,
      "ഘട": 5967,
      "asList": 5968,
      "ToString": 5969,
      "ഘടന": 5970,
      "Ġning": 5971,
      "ĠSalmon": 5972,
      "Ġالأه": 5973,
      "ITEM": 5974,
      "Ġpobre": 5975,
      "pere": 5976,
      "immobil": 5977,
      "ĠPun": 5978,
      "ĠPointer": 5979,
      "ĠYamaguchi": 5980,
      "Ġفارسی": 5981,
      "Ġscl": 5982,
      "ĠPisc": 5983,
      "Ġформу": 5984,
      "ĠKlopp": 5985,
      "hill": 5986,
      "แรง": 5987,
      "aughton": 5988,
      "Ġyoung": 5989,
      "ĠPBL": 5990,
      "чних": 5991,
      "ĠDuf": 5992,
      "ĠStell": 5993,
      "Ġpund": 5994,
      "rogenic": 5995,
      "дыду": 5996,
      "Ġodnosu": 5997,
      "uyoruz": 5998,
      "Ġbyg": 5999,
      "Ġtruck": 6000,
      "Ġpoužív": 6001,
      "fromString": 6002,
      "mDatas": 6003,
      "getHost": 6004,
      "ائية": 6005,
      "ärsk": 6006,
      "Pharm": 6007,
      "vykor": 6008,
      "ITTLE": 6009,
      "Royce": 6010,
      "Ġwłaś": 6011,
      "Ġобору": 6012,
      "ĠCochin": 6013,
      "Susp": 6014,
      "netHex": 6015,
      "არი": 6016,
      "ucu": 6017,
      "Ġпроцентов": 6018,
      "عرف": 6019,
      "ĠClancy": 6020,
      "Ġsababu": 6021,
      "âmica": 6022,
      "Ġreç": 6023,
      "ĠBakın": 6024,
      "Benzoimidazole": 6025,
      "ĠSoma": 6026,
      "Ġата": 6027,
      "ちょう": 6028,
      "Ġphir": 6029,
      "oshop": 6030,
      "Snapped": 6031,
      "Ġwidth": 6032,
      "ueses": 6033,
      "ĠPiers": 6034,
      "Ġالده": 6035,
      "бята": 6036,
      "Ġdaj": 6037,
      "合わせた": 6038,
      "ĠAyers": 6039,
      "ĠCostello": 6040,
      "órc": 6041,
      "Ġпарни": 6042,
      "ĠSexual": 6043,
      "примеча": 6044,
      "ĠCummins": 6045,
      "Ġmence": 6046,
      "raid": 6047,
      "ĠUpl": 6048,
      "simpleType": 6049,
      "ĠSicher": 6050,
      "теше": 6051,
      "OTH": 6052,
      "Ġsno": 6053,
      "pav": 6054,
      "ギフト": 6055,
      "Ġultrast": 6056,
      "ジング": 6057,
      "neho": 6058,
      "Ġبالس": 6059,
      "ĠGoethe": 6060,
      "Ġallongé": 6061,
      "шему": 6062,
      "Ġsolder": 6063,
      "ozems": 6064,
      "genden": 6065,
      "avian": 6066,
      "UpdatedAt": 6067,
      "meyen": 6068,
      "волю": 6069,
      "рін": 6070,
      "Ġsœurs": 6071,
      "Ġслучи": 6072,
      "ປະ": 6073,
      "ньої": 6074,
      "ĠPercentage": 6075,
      "ປະກ": 6076,
      "ッキング": 6077,
      "けで": 6078,
      "わけで": 6079,
      "estimated": 6080,
      "Cit": 6081,
      "لقة": 6082,
      "ĠKline": 6083,
      "kenalkan": 6084,
      "Matic": 6085,
      "Ġalfab": 6086,
      "соеди": 6087,
      "ücke": 6088,
      "ĠSAF": 6089,
      "weiler": 6090,
      "monds": 6091,
      "CSharp": 6092,
      "Ġdün": 6093,
      "ĠKare": 6094,
      "Ġдово": 6095,
      "ComponentModel": 6096,
      "Ġpokrač": 6097,
      "Ġbodybuilding": 6098,
      "ebabkan": 6099,
      "ĠQuentin": 6100,
      "Ġtremend": 6101,
      "Ivo": 6102,
      "rlig": 6103,
      "ĠstudentLVector": 6104,
      "круг": 6105,
      "cadherin": 6106,
      "IKI": 6107,
      "ittance": 6108,
      "igel": 6109,
      "opened": 6110,
      "Ġmald": 6111,
      "ĠREM": 6112,
      "ĠREMOTE": 6113,
      "MktCap": 6114,
      "inities": 6115,
      "Ġodred": 6116,
      "isent": 6117,
      "Ġrequer": 6118,
      "Ġincroy": 6119,
      "dField": 6120,
      "jdField": 6121,
      "SRPSrvGroup": 6122,
      "Ġsht": 6123,
      "Ġباذ": 6124,
      "Ġباذن": 6125,
      "GEST": 6126,
      "setPosition": 6127,
      "Ġencontrar": 6128,
      "teau": 6129,
      "Ġсин": 6130,
      "ĠRICO": 6131,
      "ĠPointe": 6132,
      "aretro": 6133,
      "Ġnastav": 6134,
      "ĠqueryObject": 6135,
      "Ġboz": 6136,
      "Ġphas": 6137,
      "fillText": 6138,
      "nus": 6139,
      "ÔNG": 6140,
      "ĠEugen": 6141,
      "っては": 6142,
      "δου": 6143,
      "Ġrunway": 6144,
      "gara": 6145,
      "ĠBuch": 6146,
      "ĠTucker": 6147,
      "ĠGas": 6148,
      "espaces": 6149,
      "Ġkapsamında": 6150,
      "ScriptBuf": 6151,
      "ĠDobson": 6152,
      "アルバ": 6153,
      "avam": 6154,
      "лон": 6155,
      "miot": 6156,
      "Cntr": 6157,
      "anesha": 6158,
      "iziModal": 6159,
      "āda": 6160,
      "قيم": 6161,
      "Ġвлия": 6162,
      "reason": 6163,
      "ĠBailey": 6164,
      "ĠtheseKeys": 6165,
      "Ġالحمد": 6166,
      "fallback": 6167,
      "چال": 6168,
      "ススメ": 6169,
      "GORITH": 6170,
      "Ġergibt": 6171,
      "owned": 6172,
      "IfNeeded": 6173,
      "ĠMHD": 6174,
      "ĠEropa": 6175,
      "Ġmandamus": 6176,
      "ebundle": 6177,
      "ĠMoist": 6178,
      "imh": 6179,
      "Ġfrüher": 6180,
      "Ġfortr": 6181,
      "GetMapping": 6182,
      "ĠBlackwell": 6183,
      "Ġmattis": 6184,
      "roof": 6185,
      "ERSION": 6186,
      "rological": 6187,
      "carp": 6188,
      "Ġوالج": 6189,
      "Ġinsurg": 6190,
      "Ġområ": 6191,
      "anyaan": 6192,
      "uvian": 6193,
      "Ġmismanagement": 6194,
      "Ġويع": 6195,
      "fledged": 6196,
      "Ġbalkon": 6197,
      "eble": 6198,
      "Ġfeeble": 6199,
      "ubj": 6200,
      "Ġужа": 6201,
      "containsKey": 6202,
      "Ġiccadini": 6203,
      "ocally": 6204,
      "Ġzis": 6205,
      "KeyEvent": 6206,
      "ĠDubrovnik": 6207,
      "Ġلگانے": 6208,
      "Ġtěž": 6209,
      "alena": 6210,
      "Ġacum": 6211,
      "ĠSimSun": 6212,
      "Ġbilmi": 6213,
      "ĠPAV": 6214,
      "Ġocta": 6215,
      "ĠkeyCode": 6216,
      "Ġuczni": 6217,
      "Ġبخ": 6218,
      "Ġآمریک": 6219,
      "خواست": 6220,
      "ĠTelem": 6221,
      "alış": 6222,
      "prest": 6223,
      "Ġremaster": 6224,
      "IVITY": 6225,
      "ĠReformed": 6226,
      "owymi": 6227,
      "ĠLemb": 6228,
      "Ġspaw": 6229,
      "Ġbee": 6230,
      "Ġprieš": 6231,
      "ĠLogger": 6232,
      "Ġplastique": 6233,
      "ĠSébastien": 6234,
      "uramente": 6235,
      "notch": 6236,
      "Ġracem": 6237,
      "IRCONIUM": 6238,
      "тение": 6239,
      "ĠHous": 6240,
      "ĠLask": 6241,
      "ĠAruba": 6242,
      "Basic": 6243,
      "Ġfiel": 6244,
      "upaten": 6245,
      "Ġμεγάλη": 6246,
      "ধর": 6247,
      "Ġsemisimple": 6248,
      "APDS": 6249,
      "Ġkhoan": 6250,
      "VII": 6251,
      "aterina": 6252,
      "ĠDiakses": 6253,
      "Ġsymplectic": 6254,
      "ĠHolloway": 6255,
      "ĠSend": 6256,
      "ĠQuart": 6257,
      "وفيق": 6258,
      "Philip": 6259,
      "Ġanomal": 6260,
      "Ġпідпри": 6261,
      "nn": 6262,
      "wiredElems": 6263,
      "Ġаб": 6264,
      "abra": 6265,
      "Ġconsensual": 6266,
      "yi": 6267,
      "Ġክ": 6268,
      "ፍል": 6269,
      "JSONArray": 6270,
      "Ġክፍል": 6271,
      "Ġnajman": 6272,
      "ңыз": 6273,
      "opi": 6274,
      "ĠGSH": 6275,
      "Ġqueso": 6276,
      "Ġfamilien": 6277,
      "lds": 6278,
      "ĠRxh": 6279,
      "uria": 6280,
      "afers": 6281,
      "aarrggbb": 6282,
      "exa": 6283,
      "Ġустро": 6284,
      "Ġktorý": 6285,
      "пон": 6286,
      "Ġpercentile": 6287,
      "ĠHoffnung": 6288,
      "ĠNullam": 6289,
      "bene": 6290,
      "zaw": 6291,
      "Ġआईएएस": 6292,
      "ĠNez": 6293,
      "tone": 6294,
      "MZ": 6295,
      "ĠTMZ": 6296,
      "ĠRex": 6297,
      "Ġlowly": 6298,
      "getList": 6299,
      "ĠHorm": 6300,
      "Ġsegi": 6301,
      "Ġuzav": 6302,
      "Ġstall": 6303,
      "Ġasesin": 6304,
      "Ġtrasl": 6305,
      "ĠAnur": 6306,
      "ınt": 6307,
      "ĠAnch": 6308,
      "áló": 6309,
      "powers": 6310,
      "Ġmason": 6311,
      "unches": 6312,
      "ĠcontractName": 6313,
      "צוני": 6314,
      "Ġunavoid": 6315,
      "commodity": 6316,
      "zter": 6317,
      "toCharArray": 6318,
      "ULF": 6319,
      "Ġmicrobi": 6320,
      "Ġnahm": 6321,
      "ستانی": 6322,
      "brenner": 6323,
      "ylar": 6324,
      "blasts": 6325,
      "ĠKnox": 6326,
      "žiť": 6327,
      "ofa": 6328,
      "asiswa": 6329,
      "Direction": 6330,
      "ĠEGR": 6331,
      "منى": 6332,
      "ició": 6333,
      "iputi": 6334,
      "awatan": 6335,
      "řízení": 6336,
      "Ġsinnvoll": 6337,
      "уро": 6338,
      "ĠMord": 6339,
      "ĠBahn": 6340,
      "ikon": 6341,
      "Ġvýrob": 6342,
      "ĠFiren": 6343,
      "ĠFirenze": 6344,
      "Ġsiste": 6345,
      "Obes": 6346,
      "kład": 6347,
      "Ġvolta": 6348,
      "ĠTenn": 6349,
      "Ġmycorrh": 6350,
      "ĠGranville": 6351,
      "Ġpepper": 6352,
      "erland": 6353,
      "Ġپہن": 6354,
      "ĠEnoch": 6355,
      "stånd": 6356,
      "depart": 6357,
      "Ġ发": 6358,
      "表于": 6359,
      "lebnis": 6360,
      "Ġkońca": 6361,
      "Ġ发表于": 6362,
      "Ġexpt": 6363,
      "SCUS": 6364,
      "Ġdispatch": 6365,
      "opters": 6366,
      "ĠKelley": 6367,
      "ĠFala": 6368,
      "startZielPanel": 6369,
      "Ġkontinu": 6370,
      "ман": 6371,
      "inius": 6372,
      "appiness": 6373,
      "コンパクト": 6374,
      "κό": 6375,
      "νια": 6376,
      "ximo": 6377,
      "ĠmSwisTrackCore": 6378,
      "ĠNPP": 6379,
      "sehen": 6380,
      "фера": 6381,
      "Ġmocker": 6382,
      "ĠMoff": 6383,
      "Ġricord": 6384,
      "ĠBullet": 6385,
      "clidean": 6386,
      "Ġgiust": 6387,
      "hnen": 6388,
      "Ġführ": 6389,
      "spiracy": 6390,
      "abez": 6391,
      "AutoComplete": 6392,
      "ĠBurch": 6393,
      "jä": 6394,
      "äjä": 6395,
      "скую": 6396,
      "цтва": 6397,
      "getInstance": 6398,
      "vä": 6399,
      "okan": 6400,
      "ĠMindanao": 6401,
      "Ġللج": 6402,
      "Decorator": 6403,
      "льной": 6404,
      "ĠRepub": 6405,
      "ujukan": 6406,
      "Ġrelinqu": 6407,
      "Ġسيد": 6408,
      "творе": 6409,
      "Ġlumped": 6410,
      "neck": 6411,
      "captcha": 6412,
      "ĠHenning": 6413,
      "šao": 6414,
      "noxious": 6415,
      "Ġremon": 6416,
      "IDTH": 6417,
      "ობს": 6418,
      "hit": 6419,
      "ĠCerro": 6420,
      "ziła": 6421,
      "adang": 6422,
      "ecker": 6423,
      "SHA": 6424,
      "ĠOSHA": 6425,
      "UserDetails": 6426,
      "ullah": 6427,
      "ĠRoth": 6428,
      "Ġprosent": 6429,
      "ĠDessous": 6430,
      "urist": 6431,
      "Ġerő": 6432,
      "χεία": 6433,
      "Ġconund": 6434,
      "gesetz": 6435,
      "rp": 6436,
      "Ġcuc": 6437,
      "minIndex": 6438,
      "Ġllrp": 6439,
      "आईओएस": 6440,
      "Ġvod": 6441,
      "กระท": 6442,
      "Ġgobier": 6443,
      "Ġشناخت": 6444,
      "idik": 6445,
      "ujen": 6446,
      "ĠLucien": 6447,
      "ignez": 6448,
      "ichel": 6449,
      "ddot": 6450,
      "Pose": 6451,
      "unwrap": 6452,
      "Ġexceeding": 6453,
      "ĠRein": 6454,
      "Ġstents": 6455,
      "incial": 6456,
      "adelphia": 6457,
      "макраты": 6458,
      "Ġлитера": 6459,
      "rophysical": 6460,
      "testGetPopup": 6461,
      "ĠPei": 6462,
      "Ġjuillet": 6463,
      "review": 6464,
      "Ġfpr": 6465,
      "Ġالنها": 6466,
      "Ġquisquam": 6467,
      "Ġgimmick": 6468,
      "isFullscreen": 6469,
      "manuel": 6470,
      "welling": 6471,
      "dispatcher": 6472,
      "ĠIrma": 6473,
      "UserInput": 6474,
      "ynit": 6475,
      "umbent": 6476,
      "Ġblackboard": 6477,
      "ereza": 6478,
      "Ġluct": 6479,
      "Ġluctus": 6480,
      "Ġоснова": 6481,
      "dometer": 6482,
      "Ġirritable": 6483,
      "ĠLieben": 6484,
      "GoObjectAllRef": 6485,
      "ĠMARK": 6486,
      "Ġwhack": 6487,
      "amines": 6488,
      "Zeneca": 6489,
      "ĠSchach": 6490,
      "ĠClippers": 6491,
      "더라도": 6492,
      "ющее": 6493,
      "mostat": 6494,
      "getPort": 6495,
      "лето": 6496,
      "ĠsecondNumber": 6497,
      "strel": 6498,
      "ScriptInterface": 6499,
      "iply": 6500,
      "спеди": 6501,
      "umnal": 6502,
      "Ġmelod": 6503,
      "nit": 6504,
      "olig": 6505,
      "ittel": 6506,
      "Ġsales": 6507,
      "JPY": 6508,
      "zonego": 6509,
      "ĠLulu": 6510,
      "ieros": 6511,
      "Ġsustain": 6512,
      "ethy": 6513,
      "dds": 6514,
      "یوں": 6515,
      "JO": 6516,
      "Ġmini": 6517,
      "ĠMaked": 6518,
      "ĠGalvan": 6519,
      "OREM": 6520,
      "ərd": 6521,
      "ĠGert": 6522,
      "ĠACL": 6523,
      "Ġзаг": 6524,
      "ĠSonny": 6525,
      "ającą": 6526,
      "לות": 6527,
      "Ġaand": 6528,
      "Ġstamm": 6529,
      "Ġstammt": 6530,
      "yny": 6531,
      "ieson": 6532,
      "Ġotten": 6533,
      "ĠaddButton": 6534,
      "ĠEgi": 6535,
      "achem": 6536,
      "Ġhabl": 6537,
      "wor": 6538,
      "exercitos": 6539,
      "ĠBNF": 6540,
      "ĠWALTER": 6541,
      "Ġfish": 6542,
      "uchte": 6543,
      "uaries": 6544,
      "ästä": 6545,
      "Ġpase": 6546,
      "oretto": 6547,
      "VISIBLE": 6548,
      "Ġফ": 6549,
      "ĠDemi": 6550,
      "zecz": 6551,
      "ĠSilverstone": 6552,
      "Ġľ": 6553,
      "CodeableConcept": 6554,
      "ليا": 6555,
      "cdZ": 6556,
      "Ġľud": 6557,
      "thy": 6558,
      "Ġpoczą": 6559,
      "Ġжал": 6560,
      "Ġsash": 6561,
      "Ġالحلو": 6562,
      "ĠAGS": 6563,
      "NewLine": 6564,
      "ĠHumphrey": 6565,
      "Ġsagittis": 6566,
      "jPanel": 6567,
      "Ġfilial": 6568,
      "sendKeyDown": 6569,
      "Ġcorporis": 6570,
      "inna": 6571,
      "ĠSkid": 6572,
      "ĠTade": 6573,
      "ranial": 6574,
      "Ġudě": 6575,
      "Ġlingk": 6576,
      "opod": 6577,
      "Ġambient": 6578,
      "ärast": 6579,
      "hiddenMap": 6580,
      "ajem": 6581,
      "Ġscrubs": 6582,
      "METHOD": 6583,
      "NCH": 6584,
      "Ġsàn": 6585,
      "ĠvalidInput": 6586,
      "Ġprzech": 6587,
      "Ġفعال": 6588,
      "roidery": 6589,
      "pora": 6590,
      "دين": 6591,
      "چی": 6592,
      "член": 6593,
      "ĠPTC": 6594,
      "oport": 6595,
      "нняя": 6596,
      "made": 6597,
      "ĠWrang": 6598,
      "favicon": 6599,
      "ListenAnd": 6600,
      "お願いします": 6601,
      "toc": 6602,
      "skirts": 6603,
      "itism": 6604,
      "Ġтерми": 6605,
      "ínsula": 6606,
      "zak": 6607,
      "драт": 6608,
      "Drinks": 6609,
      "ĠOll": 6610,
      "Ġvermiş": 6611,
      "ĠHodgson": 6612,
      "ĠMALL": 6613,
      "ĠWedgwood": 6614,
      "жна": 6615,
      "ĠГру": 6616,
      "ĠMcPherson": 6617,
      "식으로": 6618,
      "irió": 6619,
      "steiner": 6620,
      "ĠPubMed": 6621,
      "ĠToner": 6622,
      "ĠRyd": 6623,
      "Ġlär": 6624,
      "listItem": 6625,
      "gbm": 6626,
      "タリー": 6627,
      "Ġdilap": 6628,
      "TryGetValue": 6629,
      "ĠGuido": 6630,
      "Antaeotricha": 6631,
      "ĠAbbe": 6632,
      "는데요": 6633,
      "Hum": 6634,
      "жий": 6635,
      "див": 6636,
      "TypeText": 6637,
      "Ġisot": 6638,
      "Ġberapa": 6639,
      "Ġnegro": 6640,
      "Ġhighlight": 6641,
      "ĠDart": 6642,
      "ĠNxh": 6643,
      "statusBar": 6644,
      "ĠStéphane": 6645,
      "Ġsatiety": 6646,
      "Ġdung": 6647,
      "Ġpolyg": 6648,
      "Ġevident": 6649,
      "ĠHoek": 6650,
      "Ġcramped": 6651,
      "ronidazole": 6652,
      "ĠHost": 6653,
      "につき": 6654,
      "withstanding": 6655,
      "heme": 6656,
      "azze": 6657,
      "PathComponent": 6658,
      "cane": 6659,
      "PERCENT": 6660,
      "байд": 6661,
      "Ġanonym": 6662,
      "Ġnatoque": 6663,
      "Ġscape": 6664,
      "Ġpredators": 6665,
      "kkue": 6666,
      "iawan": 6667,
      "ادرة": 6668,
      "toLowerCase": 6669,
      "ĠЕвге": 6670,
      "Ġمصنوع": 6671,
      "Ġتتح": 6672,
      "Ġswag": 6673,
      "Ġwyd": 6674,
      "Ġretval": 6675,
      "Ġالقلب": 6676,
      "ensä": 6677,
      "Ġtaget": 6678,
      "jeuner": 6679,
      "Ġrisp": 6680,
      "Cluster": 6681,
      "echolog": 6682,
      "良い": 6683,
      "ulc": 6684,
      "ĠOw": 6685,
      "Ġgeeignet": 6686,
      "Ġblow": 6687,
      "Ġindividual": 6688,
      "Ġsift": 6689,
      "ContentAlignment": 6690,
      "otr": 6691,
      "ōng": 6692,
      "icularis": 6693,
      "Ġkarşı": 6694,
      "uento": 6695,
      "Packet": 6696,
      "otherapeutic": 6697,
      "сля": 6698,
      "ĠNAV": 6699,
      "ĠWins": 6700,
      "ดวก": 6701,
      "Ġrevitalize": 6702,
      "Ġimpactful": 6703,
      "ĠOppen": 6704,
      "ĠDorey": 6705,
      "Ġმიმ": 6706,
      "لیفون": 6707,
      "ĠHausdorff": 6708,
      "Ġმიმო": 6709,
      "Ġrack": 6710,
      "علی": 6711,
      "ĠGayle": 6712,
      "ĠOcho": 6713,
      "ĠСаша": 6714,
      "brella": 6715,
      "ivité": 6716,
      "бры": 6717,
      "ĠCradle": 6718,
      "onnées": 6719,
      "ksz": 6720,
      "Ġdiplom": 6721,
      "регистри": 6722,
      "Ġресур": 6723,
      "Ġszám": 6724,
      "شرين": 6725,
      "Ġruhig": 6726,
      "ıy": 6727,
      "lanelet": 6728,
      "Cancelar": 6729,
      "Ġaloft": 6730,
      "brauch": 6731,
      "Ġautomó": 6732,
      "Rig": 6733,
      "Ġamas": 6734,
      "ĠRough": 6735,
      "ĠIFS": 6736,
      "Ġانتخاب": 6737,
      "Ġstateless": 6738,
      "Ġhuo": 6739,
      "rities": 6740,
      "Ġcelebrities": 6741,
      "ĠAppe": 6742,
      "зня": 6743,
      "الس": 6744,
      "الحضور": 6745,
      "Ġincubating": 6746,
      "비스": 6747,
      "서비스": 6748,
      "ĠBork": 6749,
      "othesis": 6750,
      "uncia": 6751,
      "Ġبیاکت": 6752,
      "DESCRIPTOR": 6753,
      "equalsIgnoreCase": 6754,
      "ĠKod": 6755,
      "ĠSax": 6756,
      "ĠgetConfig": 6757,
      "мок": 6758,
      "Ġdisappeared": 6759,
      "ĠLafayette": 6760,
      "PTH": 6761,
      "ertid": 6762,
      "TAP": 6763,
      "Ġempir": 6764,
      "report": 6765,
      "iyoruz": 6766,
      "צוע": 6767,
      "ĠTend": 6768,
      "licer": 6769,
      "ĠManip": 6770,
      "szak": 6771,
      "コーチ": 6772,
      "ært": 6773,
      "Ġlewis": 6774,
      "Ġnai": 6775,
      "tnie": 6776,
      "ĠBona": 6777,
      "ĠWebDriverWait": 6778,
      "Elevation": 6779,
      "jar": 6780,
      "Ġamma": 6781,
      "ACS": 6782,
      "ドレス": 6783,
      "ĠHarb": 6784,
      "ĠUBC": 6785,
      "CJK": 6786,
      "Ġquas": 6787,
      "ĠsignOut": 6788,
      "ających": 6789,
      "Ġجاء": 6790,
      "носи": 6791,
      "Ġиздели": 6792,
      "Ġdiken": 6793,
      "ayangkan": 6794,
      "Ġخرید": 6795,
      "stackoverflow": 6796,
      "Ġдолла": 6797,
      "abby": 6798,
      "Ġpropagator": 6799,
      "Ġkidd": 6800,
      "isph": 6801,
      "wy": 6802,
      "ylob": 6803,
      "Ġseguire": 6804,
      "aço": 6805,
      "anglement": 6806,
      "Tare": 6807,
      "Ġappear": 6808,
      "Ġlarga": 6809,
      "esn": 6810,
      "Ġodit": 6811,
      "ιουργ": 6812,
      "verg": 6813,
      "Ġምክንያት": 6814,
      "ibilidade": 6815,
      "staticfiles": 6816,
      "kennung": 6817,
      "Ralph": 6818,
      "convex": 6819,
      "ĠPennington": 6820,
      "Ġfény": 6821,
      "чатку": 6822,
      "服務": 6823,
      "ĠSDN": 6824,
      "sei": 6825,
      "филлер": 6826,
      "繁忙時間服務": 6827,
      "Dictionary": 6828,
      "Ġhugged": 6829,
      "эн": 6830,
      "Ġประกอบ": 6831,
      "ĠBelgi": 6832,
      "estre": 6833,
      "Ġdüğ": 6834,
      "Tween": 6835,
      "хол": 6836,
      "ĠAeg": 6837,
      "mitz": 6838,
      "Ġdeft": 6839,
      "Ġсна": 6840,
      "ĠviewDidLoad": 6841,
      "ĠChia": 6842,
      "ッピー": 6843,
      "attam": 6844,
      "genius": 6845,
      "multline": 6846,
      "Ġgrupp": 6847,
      "AppCompat": 6848,
      "ácter": 6849,
      "Ġwedstrij": 6850,
      "Ġбайгаа": 6851,
      "ĠBruck": 6852,
      "ĠBerat": 6853,
      "noticed": 6854,
      "ギュ": 6855,
      "lles": 6856,
      "loess": 6857,
      "splice": 6858,
      "ĠKauff": 6859,
      "ĠLPS": 6860,
      "ĠAMO": 6861,
      "Invalid": 6862,
      "wir": 6863,
      "Ġdosing": 6864,
      "Ġwhole": 6865,
      "ليف": 6866,
      "tops": 6867,
      "ография": 6868,
      "ĠNEP": 6869,
      "anese": 6870,
      "ĠCone": 6871,
      "ClientSize": 6872,
      "ĠBernardino": 6873,
      "imbatore": 6874,
      "GTEST": 6875,
      "ĠSylvia": 6876,
      "Sequential": 6877,
      "Ġfrail": 6878,
      "Ġwales": 6879,
      "Ġentropy": 6880,
      "fections": 6881,
      "ellik": 6882,
      "tLogRow": 6883,
      "ოვნ": 6884,
      "uchs": 6885,
      "もある": 6886,
      "dylib": 6887,
      "ĠBOR": 6888,
      "ვანი": 6889,
      "ოვანი": 6890,
      "Ġkond": 6891,
      "VITY": 6892,
      "Ġradeon": 6893,
      "ĠPeshawar": 6894,
      "Ġтяжё": 6895,
      "Ġkemen": 6896,
      "methylsulfanyl": 6897,
      "Ġkemenangan": 6898,
      "okus": 6899,
      "ĠZden": 6900,
      "Ġdie": 6901,
      "vstack": 6902,
      "ophthal": 6903,
      "ĠJamaican": 6904,
      "roger": 6905,
      "Ġfingertips": 6906,
      "MainActivityTest": 6907,
      "Ġpanor": 6908,
      "Ġприсут": 6909,
      "DateFormat": 6910,
      "ponden": 6911,
      "ubishi": 6912,
      "Ġscur": 6913,
      "ĠTania": 6914,
      "Ġздоров": 6915,
      "ércoles": 6916,
      "야기": 6917,
      "Ġinev": 6918,
      "ĠComanche": 6919,
      "Ġ이야기": 6920,
      "Ġмолоды": 6921,
      "ieh": 6922,
      "ĠHuman": 6923,
      "Pars": 6924,
      "ANC": 6925,
      "Ġmilion": 6926,
      "ĠPAH": 6927,
      "insula": 6928,
      "ĠBrest": 6929,
      "uterine": 6930,
      "NES": 6931,
      "laden": 6932,
      "ĠPalau": 6933,
      "今天": 6934,
      "ارى": 6935,
      "ETING": 6936,
      "jsonplaceholder": 6937,
      "Ġwie": 6938,
      "oyang": 6939,
      "ĠZusch": 6940,
      "fwlink": 6941,
      "itori": 6942,
      "ordion": 6943,
      "Tac": 6944,
      "ramed": 6945,
      "Ġmożli": 6946,
      "četně": 6947,
      "ĠDwar": 6948,
      "StringTo": 6949,
      "вре": 6950,
      "Ġdriv": 6951,
      "ĠDecodingError": 6952,
      "accompanied": 6953,
      "emuan": 6954,
      "Ġpral": 6955,
      "ĠTSP": 6956,
      "olem": 6957,
      "ĠBrentwood": 6958,
      "ĠVeh": 6959,
      "apport": 6960,
      "Ġдроб": 6961,
      "вета": 6962,
      "Ġcyb": 6963,
      "utherland": 6964,
      "hely": 6965,
      "arlier": 6966,
      "Ġauthentic": 6967,
      "ennom": 6968,
      "ĠCristó": 6969,
      "Ġmöglich": 6970,
      "Ġhashed": 6971,
      "chatID": 6972,
      "urri": 6973,
      "ĠEuro": 6974,
      "rupción": 6975,
      "Spencer": 6976,
      "емых": 6977,
      "ítico": 6978,
      "ĠRenderTexture": 6979,
      "рани": 6980,
      "AsFactors": 6981,
      "Ġperin": 6982,
      "ếp": 6983,
      "Ġvoltar": 6984,
      "lerle": 6985,
      "ytail": 6986,
      "Ġpancre": 6987,
      "Ġcopp": 6988,
      "ましい": 6989,
      "Ġcuddle": 6990,
      "Ġmilliam": 6991,
      "thorpe": 6992,
      "Mve": 6993,
      "ĠKai": 6994,
      "enuine": 6995,
      "pageSize": 6996,
      "ției": 6997,
      "говари": 6998,
      "Ġgriff": 6999,
      "LONDON": 7000,
      "ĠDru": 7001,
      "шед": 7002,
      "Ġpís": 7003,
      "piper": 7004,
      "eroy": 7005,
      "Ġcigar": 7006,
      "很多": 7007,
      "ستم": 7008,
      "Ġfren": 7009,
      "immed": 7010,
      "Ġהר": 7011,
      "Ġсобы": 7012,
      "FFECT": 7013,
      "nabi": 7014,
      "acey": 7015,
      "чув": 7016,
      "Ġleeft": 7017,
      "Ġacry": 7018,
      "eração": 7019,
      "ĠSwami": 7020,
      "ĠGrizzlies": 7021,
      "ĠHog": 7022,
      "olesale": 7023,
      "sthresh": 7024,
      "isna": 7025,
      "Ġwọn": 7026,
      "cupertino": 7027,
      "cedores": 7028,
      "ĠWadd": 7029,
      "ecta": 7030,
      "били": 7031,
      "ucía": 7032,
      "thoughtId": 7033,
      "ĠCarvalho": 7034,
      "Ġmetall": 7035,
      "ĠRobin": 7036,
      "GAGEmoji": 7037,
      "ĠLGAGEmoji": 7038,
      "otham": 7039,
      "ĠDinas": 7040,
      "azza": 7041,
      "ĠStrept": 7042,
      "otherArchive": 7043,
      "offsetHeight": 7044,
      "ĠUPSC": 7045,
      "ĠKui": 7046,
      "Ġthread": 7047,
      "цыі": 7048,
      "Ġoverdraft": 7049,
      "كام": 7050,
      "Ġchecksum": 7051,
      "Ġblush": 7052,
      "Ġакт": 7053,
      "Ġالأح": 7054,
      "ĠАмери": 7055,
      "Ġچکا": 7056,
      "branched": 7057,
      "Ġхоло": 7058,
      "ĠTOW": 7059,
      "racial": 7060,
      "lectual": 7061,
      "ราะ": 7062,
      "Ġbrides": 7063,
      "InCategory": 7064,
      "горе": 7065,
      "nim": 7066,
      "xspace": 7067,
      "lovens": 7068,
      "Ġregenerating": 7069,
      "boundingBox": 7070,
      "ашње": 7071,
      "љашње": 7072,
      "Ġlaun": 7073,
      "йной": 7074,
      "Ġойной": 7075,
      "Ġсмы": 7076,
      "Rele": 7077,
      "iatr": 7078,
      "ĠPIB": 7079,
      "Ġverv": 7080,
      "czą": 7081,
      "determ": 7082,
      "ĠPaf": 7083,
      "ĠisEqualTo": 7084,
      "ĠisEqualToString": 7085,
      "UpdateRequest": 7086,
      "ypeł": 7087,
      "Ġpilgrim": 7088,
      "BufferSize": 7089,
      "Ġforem": 7090,
      "ĠQxa": 7091,
      "Ġtoilet": 7092,
      "ĠGost": 7093,
      "coholic": 7094,
      "klärung": 7095,
      "rnd": 7096,
      "ĠBoxDecoration": 7097,
      "ĠKas": 7098,
      "iau": 7099,
      "ĠMorley": 7100,
      "iség": 7101,
      "ĠrowIndex": 7102,
      "Ġالداخل": 7103,
      "Ġразъ": 7104,
      "OrderFlightDto": 7105,
      "Ġایڈ": 7106,
      "型的": 7107,
      "ıkları": 7108,
      "Ġazon": 7109,
      "Ġcerebellum": 7110,
      "اسي": 7111,
      "omber": 7112,
      "enthalt": 7113,
      "opharm": 7114,
      "rocin": 7115,
      "Ġbě": 7116,
      "treat": 7117,
      "Ġprostatitis": 7118,
      "listed": 7119,
      "Ġpayogo": 7120,
      "ĠTRS": 7121,
      "Ġчере": 7122,
      "ĠVerb": 7123,
      "ії": 7124,
      "ניין": 7125,
      "Ġआपस": 7126,
      "Ġувиде": 7127,
      "Ġаль": 7128,
      "ĠPercy": 7129,
      "ĠJeff": 7130,
      "ینک": 7131,
      "Ġdục": 7132,
      "terase": 7133,
      "Ġisotropic": 7134,
      "terweight": 7135,
      "Ġrechercher": 7136,
      "atism": 7137,
      "ĠHOT": 7138,
      "cury": 7139,
      "λου": 7140,
      "Ġساف": 7141,
      "ловой": 7142,
      "гло": 7143,
      "Ġwoorden": 7144,
      "unek": 7145,
      "ĠAhn": 7146,
      "ştik": 7147,
      "ersburg": 7148,
      "ĠdisplayText": 7149,
      "Ġconnex": 7150,
      "Scient": 7151,
      "rupo": 7152,
      "וני": 7153,
      "ческий": 7154,
      "ĠPep": 7155,
      "Ġlitig": 7156,
      "BOR": 7157,
      "Ġکیل": 7158,
      "dpy": 7159,
      "äär": 7160,
      "Ġstag": 7161,
      "Ġbetek": 7162,
      "mux": 7163,
      "ĠYang": 7164,
      "christian": 7165,
      "анг": 7166,
      "Ġmitophagy": 7167,
      "ĠMAG": 7168,
      "Ġseconded": 7169,
      "ленных": 7170,
      "Ġditches": 7171,
      "ĠPaper": 7172,
      "cest": 7173,
      "Ġhtons": 7174,
      "Ġalken": 7175,
      "cier": 7176,
      "Checkout": 7177,
      "Ġsneeze": 7178,
      "Ġdomen": 7179,
      "Ġpersen": 7180,
      "şen": 7181,
      "ijing": 7182,
      "vu": 7183,
      "uwe": 7184,
      "STON": 7185,
      "provid": 7186,
      "icoes": 7187,
      "Ġzewnętr": 7188,
      "Ġالمختلف": 7189,
      "면은": 7190,
      "BeerItem": 7191,
      "Ġshrug": 7192,
      "ettore": 7193,
      "Ġپاس": 7194,
      "ĠБлаго": 7195,
      "MDET": 7196,
      "Ġdocile": 7197,
      "قدس": 7198,
      "Vater": 7199,
      "DAAR": 7200,
      "onload": 7201,
      "ĠMcDonnell": 7202,
      "ĠElat": 7203,
      "Ġκαλ": 7204,
      "ぞれ": 7205,
      "ĠParl": 7206,
      "Ġجاس": 7207,
      "それぞれ": 7208,
      "alach": 7209,
      "yntax": 7210,
      "Ġfürs": 7211,
      "Ġhét": 7212,
      "akha": 7213,
      "udz": 7214,
      "ĠEmmett": 7215,
      "Ġporcent": 7216,
      "stoß": 7217,
      "ओवर": 7218,
      "emaakt": 7219,
      "ĠGrenoble": 7220,
      "Ġmiliardi": 7221,
      "Hint": 7222,
      "ĠTamara": 7223,
      "ĠBenz": 7224,
      "ĠKendra": 7225,
      "Ġintertw": 7226,
      "Ġoración": 7227,
      "Ġdara": 7228,
      "Setpoint": 7229,
      "ανά": 7230,
      "Ġsól": 7231,
      "halter": 7232,
      "Ġشہید": 7233,
      "Ġtoro": 7234,
      "ĠEnzo": 7235,
      "ayana": 7236,
      "Ġcogniz": 7237,
      "Ġكلمه": 7238,
      "Ġscrib": 7239,
      "ĠHem": 7240,
      "batis": 7241,
      "iterable": 7242,
      "なければ": 7243,
      "ĠTad": 7244,
      "ĠJog": 7245,
      "SelectSingle": 7246,
      "ataan": 7247,
      "ĠObjectTemp": 7248,
      "émica": 7249,
      "odb": 7250,
      "Ġglam": 7251,
      "Ġschist": 7252,
      "Ġκά": 7253,
      "Comparable": 7254,
      "שט": 7255,
      "ottest": 7256,
      "Ġנישט": 7257,
      "transfer": 7258,
      "Ġεπι": 7259,
      "issed": 7260,
      "variant": 7261,
      "Ġcảnh": 7262,
      "Ġovary": 7263,
      "ĠLato": 7264,
      "Ġejempl": 7265,
      "Buy": 7266,
      "Ġobstruct": 7267,
      "đer": 7268,
      "iguity": 7269,
      "фро": 7270,
      "Ġziem": 7271,
      "Ġberpeng": 7272,
      "ĠBremen": 7273,
      "Ġstrip": 7274,
      "History": 7275,
      "hato": 7276,
      "ĠLinden": 7277,
      "ículas": 7278,
      "Ġbrasile": 7279,
      "ceding": 7280,
      "Ġفونبیٹ": 7281,
      "Ġorbit": 7282,
      "BDA": 7283,
      "Ġparser": 7284,
      "adat": 7285,
      "brug": 7286,
      "ASDAQ": 7287,
      "Ġbesonder": 7288,
      "Ġwiser": 7289,
      "Ġприо": 7290,
      "یکم": 7291,
      "فيف": 7292,
      "Ġбур": 7293,
      "Ġknack": 7294,
      "Ġfenced": 7295,
      "ĠOffline": 7296,
      "ĠMänner": 7297,
      "cies": 7298,
      "Ġveröffent": 7299,
      "TAINS": 7300,
      "рн": 7301,
      "ĠVries": 7302,
      "Ġгрн": 7303,
      "Append": 7304,
      "TTLE": 7305,
      "Ġسين": 7306,
      "ĠthisStudent": 7307,
      "Ġdispersive": 7308,
      "iraz": 7309,
      "ĠPriscilla": 7310,
      "hatian": 7311,
      "Ġdredge": 7312,
      "mapsto": 7313,
      "urdupo": 7314,
      "sadurdupo": 7315,
      "sadurdupoetry": 7316,
      "ĠprincipalTable": 7317,
      "easeInOut": 7318,
      "ĠPER": 7319,
      "ĠLưu": 7320,
      "Ġquaer": 7321,
      "смотреть": 7322,
      "Ġquaerat": 7323,
      "doa": 7324,
      "ĠcurrentUser": 7325,
      "ologi": 7326,
      "agery": 7327,
      "ĠGiri": 7328,
      "Ġimparted": 7329,
      "WaitingTime": 7330,
      "Ġmeteor": 7331,
      "Niger": 7332,
      "Ġmaximising": 7333,
      "ĠThous": 7334,
      "тана": 7335,
      "ĠДержавний": 7336,
      "yship": 7337,
      "ĠNut": 7338,
      "ĠOrton": 7339,
      "Ġmiatt": 7340,
      "Ġmesothelioma": 7341,
      "ULTURAL": 7342,
      "ocaust": 7343,
      "opause": 7344,
      "supports": 7345,
      "ĠPrison": 7346,
      "стрі": 7347,
      "Ġmilled": 7348,
      "rowadz": 7349,
      "Ġмощ": 7350,
      "Ġکامیاب": 7351,
      "Ġimmobile": 7352,
      "aeus": 7353,
      "Iranian": 7354,
      "Ġremixes": 7355,
      "getClass": 7356,
      "жени": 7357,
      "Iterable": 7358,
      "ĠalignItems": 7359,
      "ёма": 7360,
      "readValue": 7361,
      "していて": 7362,
      "Ġplucked": 7363,
      "yspace": 7364,
      "łac": 7365,
      "Ġretour": 7366,
      "Ġparagon": 7367,
      "ĠforState": 7368,
      "Ġsofas": 7369,
      "jamin": 7370,
      "Ġlint": 7371,
      "Ġunsubstituted": 7372,
      "Ġअवगत": 7373,
      "orca": 7374,
      "otime": 7375,
      "ĠEgyptian": 7376,
      "árny": 7377,
      "ĠParmesan": 7378,
      "owness": 7379,
      "initialize": 7380,
      "ococcal": 7381,
      "esthetic": 7382,
      "Ġaparth": 7383,
      "Ġapartheid": 7384,
      "ilyen": 7385,
      "Ġpronouncing": 7386,
      "Ġbrind": 7387,
      "ĠSilverman": 7388,
      "Ġseben": 7389,
      "perluan": 7390,
      "roduced": 7391,
      "Ġzio": 7392,
      "ĠGallup": 7393,
      "Ġrique": 7394,
      "GameObject": 7395,
      "łoż": 7396,
      "ĠDhaka": 7397,
      "umptive": 7398,
      "Ġmould": 7399,
      "ĠFAIR": 7400,
      "Ġطبی": 7401,
      "ĠHackney": 7402,
      "зор": 7403,
      "ĠSadie": 7404,
      "Ġarsen": 7405,
      "ApiParam": 7406,
      "ĠDGP": 7407,
      "ĠLabrenzia": 7408,
      "Ġlont": 7409,
      "ohydro": 7410,
      "وما": 7411,
      "Ġوتن": 7412,
      "estro": 7413,
      "icii": 7414,
      "Encycl": 7415,
      "ĠMotley": 7416,
      "UFF": 7417,
      "Ġpostcode": 7418,
      "مرين": 7419,
      "moy": 7420,
      "십시오": 7421,
      "hele": 7422,
      "structured": 7423,
      "众号": 7424,
      "公众号": 7425,
      "ĠMontoya": 7426,
      "usus": 7427,
      "Ġcheerio": 7428,
      "ĠNbd": 7429,
      "ACTIVE": 7430,
      "Ġпрода": 7431,
      "Ġdesg": 7432,
      "Ġmenang": 7433,
      "ERNAL": 7434,
      "UIColor": 7435,
      "Namespace": 7436,
      "urés": 7437,
      "ĠKomb": 7438,
      "Simulator": 7439,
      "plied": 7440,
      "Scope": 7441,
      "Ġmezzan": 7442,
      "Ġmezzanine": 7443,
      "Electric": 7444,
      "ĠHertz": 7445,
      "Hasher": 7446,
      "шон": 7447,
      "iday": 7448,
      "Ġhoch": 7449,
      "Ġgüz": 7450,
      "сибо": 7451,
      "Ġpertenec": 7452,
      "Ġpumped": 7453,
      "itlement": 7454,
      "abhavam": 7455,
      "Ġkitu": 7456,
      "Ġnymphs": 7457,
      "Ġours": 7458,
      "Neh": 7459,
      "neyland": 7460,
      "Neha": 7461,
      "oworld": 7462,
      "Ġhollow": 7463,
      "sement": 7464,
      "Ġbơm": 7465,
      "ollower": 7466,
      "Ġcalm": 7467,
      "opilot": 7468,
      "ĠIraq": 7469,
      "CHU": 7470,
      "Aub": 7471,
      "rolet": 7472,
      "ichlor": 7473,
      "Ġváll": 7474,
      "termine": 7475,
      "embourg": 7476,
      "ίζ": 7477,
      "agory": 7478,
      "oculars": 7479,
      "Ġsuction": 7480,
      "ĠWinters": 7481,
      "ĠEmery": 7482,
      "Ġczyn": 7483,
      "snowman": 7484,
      "Ġundes": 7485,
      "wehr": 7486,
      "Ġdivination": 7487,
      "ĠAllahabad": 7488,
      "onsored": 7489,
      "Ġpeep": 7490,
      "actories": 7491,
      "Ġござい": 7492,
      "spirational": 7493,
      "ĠBeyer": 7494,
      "elit": 7495,
      "ボタン": 7496,
      "роў": 7497,
      "Ġkaraoke": 7498,
      "عار": 7499,
      "iehen": 7500,
      "Ġoneness": 7501,
      "ĠCavan": 7502,
      "ĠChristian": 7503,
      "weds": 7504,
      "TEXT": 7505,
      "Exponent": 7506,
      "broken": 7507,
      "ições": 7508,
      "Ġejecut": 7509,
      "Ġنظ": 7510,
      "وجوان": 7511,
      "Ġdéplacer": 7512,
      "رز": 7513,
      "Ġдея": 7514,
      "Ġポ": 7515,
      "يله": 7516,
      "GameBoard": 7517,
      "Ġkehnd": 7518,
      "Ġpessim": 7519,
      "Ġhinzuge": 7520,
      "erala": 7521,
      "FormParams": 7522,
      "zhi": 7523,
      "unos": 7524,
      "Ġزی": 7525,
      "ulam": 7526,
      "חים": 7527,
      "Ġgraf": 7528,
      "Ġsci": 7529,
      "Ġlupus": 7530,
      "ĠTail": 7531,
      "Ġcole": 7532,
      "Ġscrub": 7533,
      "роид": 7534,
      "Ġimpover": 7535,
      "くなる": 7536,
      "Ġhau": 7537,
      "oia": 7538,
      "ĠSequoia": 7539,
      "一般": 7540,
      "atkar": 7541,
      "Ġamphib": 7542,
      "Ġrefug": 7543,
      "ĠFremont": 7544,
      "Ġcharred": 7545,
      "super": 7546,
      "localinstrList": 7547,
      "róleo": 7548,
      "において": 7549,
      "atology": 7550,
      "chien": 7551,
      "alice": 7552,
      "Ġminced": 7553,
      "Ġaños": 7554,
      "enaar": 7555,
      "zv": 7556,
      "AutoGen": 7557,
      "Ġmín": 7558,
      "を使用": 7559,
      "ĠAldo": 7560,
      "ĠICM": 7561,
      "Ġبع": 7562,
      "Ġمدر": 7563,
      "Ġтребова": 7564,
      "Ġоконча": 7565,
      "bih": 7566,
      "Ġdul": 7567,
      "ורך": 7568,
      "ilient": 7569,
      "ĠNeedham": 7570,
      "Ġjäl": 7571,
      "Ġlal": 7572,
      "Ġausge": 7573,
      "Ġکہہ": 7574,
      "Ġtrusty": 7575,
      "PAF": 7576,
      "Ġgusts": 7577,
      "economic": 7578,
      "Ġchanges": 7579,
      "ĠTrevelyan": 7580,
      "ĠDBE": 7581,
      "гая": 7582,
      "enchymal": 7583,
      "adiganam": 7584,
      "setKeepCallback": 7585,
      "prach": 7586,
      "adoras": 7587,
      "Ġstriées": 7588,
      "ĠРоссию": 7589,
      "ĠfillColorSpace": 7590,
      "Ġjad": 7591,
      "Ġkıl": 7592,
      "Ġdecreto": 7593,
      "yfikacja": 7594,
      "Ġeben": 7595,
      "ĠGis": 7596,
      "ometrically": 7597,
      "ĠmessageFields": 7598,
      "ĠUIStoryboard": 7599,
      "Ġvache": 7600,
      "setStyle": 7601,
      "шаем": 7602,
      "ustan": 7603,
      "iteur": 7604,
      "uldade": 7605,
      "Monty": 7606,
      "ورة": 7607,
      "дован": 7608,
      "DELAY": 7609,
      "Bang": 7610,
      "わりに": 7611,
      "јан": 7612,
      "ški": 7613,
      "Ġremin": 7614,
      "ĠAgatha": 7615,
      "ilang": 7616,
      "Ġmigraines": 7617,
      "GLAND": 7618,
      "Ġarranc": 7619,
      "Ġسير": 7620,
      "icznej": 7621,
      "uencia": 7622,
      "Ġjabatan": 7623,
      "ignent": 7624,
      "nja": 7625,
      "गमन": 7626,
      "нак": 7627,
      "Ġvorhand": 7628,
      "λεί": 7629,
      "tien": 7630,
      "ĠtestHDR": 7631,
      "Ġ사용할": 7632,
      "انو": 7633,
      "Ġtetanus": 7634,
      "sadpost": 7635,
      "ĠDNS": 7636,
      "kking": 7637,
      "ywid": 7638,
      "πηρε": 7639,
      "товый": 7640,
      "ywidual": 7641,
      "<UNK>": 7642
    },
    "old_vocab": {
      "!": 0,
      "\"": 1,
      "#": 2,
      "$": 3,
      "%": 4,
      "&": 5,
      "'": 6,
      "(": 7,
      ")": 8,
      "*": 9,
      "+": 10,
      ",": 11,
      "-": 12,
      ".": 13,
      "/": 14,
      "0": 15,
      "1": 16,
      "2": 17,
      "3": 18,
      "4": 19,
      "5": 20,
      "6": 21,
      "7": 22,
      "8": 23,
      "9": 24,
      ":": 25,
      ";": 26,
      "<": 27,
      "=": 28,
      ">": 29,
      "?": 30,
      "@": 31,
      "A": 32,
      "B": 33,
      "C": 34,
      "D": 35,
      "E": 36,
      "F": 37,
      "G": 38,
      "H": 39,
      "I": 40,
      "J": 41,
      "K": 42,
      "L": 43,
      "M": 44,
      "N": 45,
      "O": 46,
      "P": 47,
      "Q": 48,
      "R": 49,
      "S": 50,
      "T": 51,
      "U": 52,
      "V": 53,
      "W": 54,
      "X": 55,
      "Y": 56,
      "Z": 57,
      "[": 58,
      "\\": 59,
      "]": 60,
      "^": 61,
      "_": 62,
      "`": 63,
      "a": 64,
      "b": 65,
      "c": 66,
      "d": 67,
      "e": 68,
      "f": 69,
      "g": 70,
      "h": 71,
      "i": 72,
      "j": 73,
      "k": 74,
      "l": 75,
      "m": 76,
      "n": 77,
      "o": 78,
      "p": 79,
      "q": 80,
      "r": 81,
      "s": 82,
      "t": 83,
      "u": 84,
      "v": 85,
      "w": 86,
      "x": 87,
      "y": 88,
      "z": 89,
      "{": 90,
      "|": 91,
      "}": 92,
      "~": 93,
      "¡": 94,
      "¢": 95,
      "£": 96,
      "¤": 97,
      "¥": 98,
      "¦": 99,
      "§": 100,
      "¨": 101,
      "©": 102,
      "ª": 103,
      "«": 104,
      "¬": 105,
      "®": 106,
      "¯": 107,
      "°": 108,
      "±": 109,
      "²": 110,
      "³": 111,
      "´": 112,
      "µ": 113,
      "¶": 114,
      "·": 115,
      "¸": 116,
      "¹": 117,
      "º": 118,
      "»": 119,
      "¼": 120,
      "½": 121,
      "¾": 122,
      "¿": 123,
      "À": 124,
      "Á": 125,
      "Â": 126,
      "Ã": 127,
      "Ä": 128,
      "Å": 129,
      "Æ": 130,
      "Ç": 131,
      "È": 132,
      "É": 133,
      "Ê": 134,
      "Ë": 135,
      "Ì": 136,
      "Í": 137,
      "Î": 138,
      "Ï": 139,
      "Ð": 140,
      "Ñ": 141,
      "Ò": 142,
      "Ó": 143,
      "Ô": 144,
      "Õ": 145,
      "Ö": 146,
      "×": 147,
      "Ø": 148,
      "Ù": 149,
      "Ú": 150,
      "Û": 151,
      "Ü": 152,
      "Ý": 153,
      "Þ": 154,
      "ß": 155,
      "à": 156,
      "á": 157,
      "â": 158,
      "ã": 159,
      "ä": 160,
      "å": 161,
      "æ": 162,
      "ç": 163,
      "è": 164,
      "é": 165,
      "ê": 166,
      "ë": 167,
      "ì": 168,
      "í": 169,
      "î": 170,
      "ï": 171,
      "ð": 172,
      "ñ": 173,
      "ò": 174,
      "ó": 175,
      "ô": 176,
      "õ": 177,
      "ö": 178,
      "÷": 179,
      "ø": 180,
      "ù": 181,
      "ú": 182,
      "û": 183,
      "ü": 184,
      "ý": 185,
      "þ": 186,
      "ÿ": 187,
      "Ā": 188,
      "ā": 189,
      "Ă": 190,
      "ă": 191,
      "Ą": 192,
      "ą": 193,
      "Ć": 194,
      "ć": 195,
      "Ĉ": 196,
      "ĉ": 197,
      "Ċ": 198,
      "ċ": 199,
      "Č": 200,
      "č": 201,
      "Ď": 202,
      "ď": 203,
      "Đ": 204,
      "đ": 205,
      "Ē": 206,
      "ē": 207,
      "Ĕ": 208,
      "ĕ": 209,
      "Ė": 210,
      "ė": 211,
      "Ę": 212,
      "ę": 213,
      "Ě": 214,
      "ě": 215,
      "Ĝ": 216,
      "ĝ": 217,
      "Ğ": 218,
      "ğ": 219,
      "Ġ": 220,
      "ġ": 221,
      "Ģ": 222,
      "ģ": 223,
      "Ĥ": 224,
      "ĥ": 225,
      "Ħ": 226,
      "ħ": 227,
      "Ĩ": 228,
      "ĩ": 229,
      "Ī": 230,
      "ī": 231,
      "Ĭ": 232,
      "ĭ": 233,
      "Į": 234,
      "į": 235,
      "İ": 236,
      "ı": 237,
      "Ĳ": 238,
      "ĳ": 239,
      "Ĵ": 240,
      "ĵ": 241,
      "Ķ": 242,
      "ķ": 243,
      "ĸ": 244,
      "Ĺ": 245,
      "ĺ": 246,
      "Ļ": 247,
      "ļ": 248,
      "Ľ": 249,
      "ľ": 250,
      "Ŀ": 251,
      "ŀ": 252,
      "Ł": 253,
      "ł": 254,
      "Ń": 255,
      "ń": 256,
      "ņ": 257,
      "ň": 258,
      "ō": 259,
      "ő": 260,
      "œ": 261,
      "ř": 262,
      "Ś": 263,
      "ś": 264,
      "Ş": 265,
      "ş": 266,
      "Š": 267,
      "š": 268,
      "ţ": 269,
      "ť": 270,
      "ũ": 271,
      "ū": 272,
      "ŭ": 273,
      "ů": 274,
      "ű": 275,
      "ų": 276,
      "ź": 277,
      "ż": 278,
      "ž": 279,
      "ſ": 280,
      "ơ": 281,
      "Ư": 282,
      "ư": 283,
      "ǎ": 284,
      "ǒ": 285,
      "ș": 286,
      "ț": 287,
      "ə": 288,
      "Α": 289,
      "Γ": 290,
      "Δ": 291,
      "Ε": 292,
      "Κ": 293,
      "Μ": 294,
      "Π": 295,
      "Σ": 296,
      "ά": 297,
      "έ": 298,
      "ή": 299,
      "ί": 300,
      "α": 301,
      "β": 302,
      "γ": 303,
      "δ": 304,
      "ε": 305,
      "ζ": 306,
      "η": 307,
      "θ": 308,
      "ι": 309,
      "κ": 310,
      "λ": 311,
      "μ": 312,
      "ν": 313,
      "ξ": 314,
      "ο": 315,
      "π": 316,
      "ρ": 317,
      "ς": 318,
      "σ": 319,
      "τ": 320,
      "υ": 321,
      "φ": 322,
      "χ": 323,
      "ψ": 324,
      "ω": 325,
      "ϊ": 326,
      "ό": 327,
      "ύ": 328,
      "ώ": 329,
      "Є": 330,
      "І": 331,
      "А": 332,
      "Б": 333,
      "В": 334,
      "Г": 335,
      "Д": 336,
      "Е": 337,
      "Ж": 338,
      "З": 339,
      "И": 340,
      "К": 341,
      "Л": 342,
      "М": 343,
      "Н": 344,
      "О": 345,
      "П": 346,
      "Р": 347,
      "С": 348,
      "Т": 349,
      "У": 350,
      "Ф": 351,
      "Х": 352,
      "Ц": 353,
      "Ч": 354,
      "Ш": 355,
      "Ь": 356,
      "Э": 357,
      "Ю": 358,
      "Я": 359,
      "а": 360,
      "б": 361,
      "в": 362,
      "г": 363,
      "д": 364,
      "е": 365,
      "ж": 366,
      "з": 367,
      "и": 368,
      "й": 369,
      "к": 370,
      "л": 371,
      "м": 372,
      "н": 373,
      "о": 374,
      "п": 375,
      "р": 376,
      "с": 377,
      "т": 378,
      "у": 379,
      "ф": 380,
      "х": 381,
      "ц": 382,
      "ч": 383,
      "ш": 384,
      "щ": 385,
      "ъ": 386,
      "ы": 387,
      "ь": 388,
      "э": 389,
      "ю": 390,
      "я": 391,
      "ё": 392,
      "ђ": 393,
      "є": 394,
      "і": 395,
      "ї": 396,
      "ј": 397,
      "љ": 398,
      "њ": 399,
      "ћ": 400,
      "ў": 401,
      "ғ": 402,
      "җ": 403,
      "қ": 404,
      "ң": 405,
      "ү": 406,
      "ҳ": 407,
      "һ": 408,
      "Ӏ": 409,
      "ә": 410,
      "ө": 411,
      "ա": 412,
      "գ": 413,
      "դ": 414,
      "ե": 415,
      "զ": 416,
      "է": 417,
      "ը": 418,
      "թ": 419,
      "ի": 420,
      "լ": 421,
      "ծ": 422,
      "կ": 423,
      "հ": 424,
      "մ": 425,
      "յ": 426,
      "ն": 427,
      "ո": 428,
      "չ": 429,
      "պ": 430,
      "ջ": 431,
      "ռ": 432,
      "ս": 433,
      "վ": 434,
      "տ": 435,
      "ր": 436,
      "ց": 437,
      "ւ": 438,
      "ք": 439,
      "א": 440,
      "ב": 441,
      "ג": 442,
      "ד": 443,
      "ה": 444,
      "ו": 445,
      "ז": 446,
      "ח": 447,
      "ט": 448,
      "י": 449,
      "ך": 450,
      "כ": 451,
      "ל": 452,
      "ם": 453,
      "מ": 454,
      "ן": 455,
      "נ": 456,
      "ס": 457,
      "ע": 458,
      "פ": 459,
      "צ": 460,
      "ק": 461,
      "ר": 462,
      "ש": 463,
      "ת": 464,
      "ء": 465,
      "آ": 466,
      "أ": 467,
      "ؤ": 468,
      "إ": 469,
      "ئ": 470,
      "ا": 471,
      "ب": 472,
      "ة": 473,
      "ت": 474,
      "ث": 475,
      "ج": 476,
      "ح": 477,
      "خ": 478,
      "د": 479,
      "ذ": 480,
      "ر": 481,
      "ز": 482,
      "س": 483,
      "ش": 484,
      "ص": 485,
      "ض": 486,
      "ط": 487,
      "ظ": 488,
      "ع": 489,
      "غ": 490,
      "ـ": 491,
      "ف": 492,
      "ق": 493,
      "ك": 494,
      "ل": 495,
      "م": 496,
      "ن": 497,
      "ه": 498,
      "و": 499,
      "ى": 500,
      "ي": 501,
      "ٹ": 502,
      "ټ": 503,
      "پ": 504,
      "ځ": 505,
      "څ": 506,
      "چ": 507,
      "ڈ": 508,
      "ډ": 509,
      "ڑ": 510,
      "ړ": 511,
      "ږ": 512,
      "ژ": 513,
      "ک": 514,
      "ڪ": 515,
      "ګ": 516,
      "ڭ": 517,
      "گ": 518,
      "ں": 519,
      "ڻ": 520,
      "ھ": 521,
      "ۀ": 522,
      "ہ": 523,
      "ی": 524,
      "ۍ": 525,
      "ێ": 526,
      "ې": 527,
      "ے": 528,
      "ە": 529,
      "अ": 530,
      "आ": 531,
      "इ": 532,
      "ई": 533,
      "उ": 534,
      "ऊ": 535,
      "ऋ": 536,
      "ए": 537,
      "ऑ": 538,
      "ओ": 539,
      "औ": 540,
      "क": 541,
      "ख": 542,
      "ग": 543,
      "घ": 544,
      "च": 545,
      "ज": 546,
      "झ": 547,
      "ट": 548,
      "ठ": 549,
      "ड": 550,
      "ढ": 551,
      "ण": 552,
      "त": 553,
      "थ": 554,
      "द": 555,
      "ध": 556,
      "न": 557,
      "प": 558,
      "फ": 559,
      "ब": 560,
      "भ": 561,
      "म": 562,
      "य": 563,
      "र": 564,
      "ल": 565,
      "ळ": 566,
      "व": 567,
      "श": 568,
      "ष": 569,
      "स": 570,
      "ह": 571,
      "ज़": 572,
      "ड़": 573,
      "অ": 574,
      "আ": 575,
      "ই": 576,
      "উ": 577,
      "এ": 578,
      "ও": 579,
      "ঔ": 580,
      "ক": 581,
      "খ": 582,
      "গ": 583,
      "ঘ": 584,
      "চ": 585,
      "ছ": 586,
      "জ": 587,
      "ট": 588,
      "ঠ": 589,
      "ণ": 590,
      "ত": 591,
      "থ": 592,
      "দ": 593,
      "ধ": 594,
      "ন": 595,
      "প": 596,
      "ফ": 597,
      "ব": 598,
      "ভ": 599,
      "ম": 600,
      "য": 601,
      "র": 602,
      "ল": 603,
      "শ": 604,
      "ষ": 605,
      "স": 606,
      "হ": 607,
      "ৎ": 608,
      "ড়": 609,
      "য়": 610,
      "ਆ": 611,
      "ਕ": 612,
      "ਣ": 613,
      "ਨ": 614,
      "ਪ": 615,
      "ਰ": 616,
      "અ": 617,
      "આ": 618,
      "ઉ": 619,
      "ક": 620,
      "ખ": 621,
      "ગ": 622,
      "જ": 623,
      "ણ": 624,
      "ત": 625,
      "દ": 626,
      "ન": 627,
      "પ": 628,
      "ફ": 629,
      "ભ": 630,
      "મ": 631,
      "ય": 632,
      "ર": 633,
      "લ": 634,
      "ળ": 635,
      "વ": 636,
      "સ": 637,
      "அ": 638,
      "ஆ": 639,
      "இ": 640,
      "உ": 641,
      "க": 642,
      "ச": 643,
      "ட": 644,
      "ண": 645,
      "த": 646,
      "ந": 647,
      "ன": 648,
      "ப": 649,
      "ம": 650,
      "ய": 651,
      "ர": 652,
      "ற": 653,
      "ல": 654,
      "ழ": 655,
      "வ": 656,
      "ఆ": 657,
      "ఇ": 658,
      "క": 659,
      "ఘ": 660,
      "చ": 661,
      "ట": 662,
      "డ": 663,
      "ణ": 664,
      "త": 665,
      "న": 666,
      "య": 667,
      "ర": 668,
      "ల": 669,
      "వ": 670,
      "ಅ": 671,
      "ಇ": 672,
      "ಎ": 673,
      "ಒ": 674,
      "ಔ": 675,
      "ಕ": 676,
      "ಗ": 677,
      "ಜ": 678,
      "ಡ": 679,
      "ಣ": 680,
      "ತ": 681,
      "ದ": 682,
      "ಧ": 683,
      "ನ": 684,
      "ಬ": 685,
      "ಮ": 686,
      "ಯ": 687,
      "ರ": 688,
      "ಲ": 689,
      "ಳ": 690,
      "ವ": 691,
      "ಷ": 692,
      "ಸ": 693,
      "ಹ": 694,
      "അ": 695,
      "ആ": 696,
      "ഉ": 697,
      "ക": 698,
      "ഘ": 699,
      "ട": 700,
      "ണ": 701,
      "ത": 702,
      "ന": 703,
      "പ": 704,
      "ഭ": 705,
      "മ": 706,
      "യ": 707,
      "ര": 708,
      "റ": 709,
      "ഴ": 710,
      "വ": 711,
      "ശ": 712,
      "ഷ": 713,
      "സ": 714,
      "ൻ": 715,
      "ർ": 716,
      "ൽ": 717,
      "අ": 718,
      "ඔ": 719,
      "ක": 720,
      "ඟ": 721,
      "ට": 722,
      "ණ": 723,
      "ත": 724,
      "න": 725,
      "ප": 726,
      "බ": 727,
      "ම": 728,
      "ර": 729,
      "ස": 730,
      "ก": 731,
      "ข": 732,
      "ค": 733,
      "ง": 734,
      "จ": 735,
      "ฉ": 736,
      "ช": 737,
      "ซ": 738,
      "ญ": 739,
      "ฐ": 740,
      "ณ": 741,
      "ด": 742,
      "ต": 743,
      "ถ": 744,
      "ท": 745,
      "ธ": 746,
      "น": 747,
      "บ": 748,
      "ป": 749,
      "ผ": 750,
      "พ": 751,
      "ฟ": 752,
      "ภ": 753,
      "ม": 754,
      "ย": 755,
      "ร": 756,
      "ล": 757,
      "ว": 758,
      "ศ": 759,
      "ษ": 760,
      "ส": 761,
      "ห": 762,
      "อ": 763,
      "ะ": 764,
      "า": 765,
      "ำ": 766,
      "เ": 767,
      "แ": 768,
      "โ": 769,
      "ใ": 770,
      "ไ": 771,
      "ๆ": 772,
      "ກ": 773,
      "ຂ": 774,
      "ຄ": 775,
      "ງ": 776,
      "ຈ": 777,
      "ຍ": 778,
      "ດ": 779,
      "ຕ": 780,
      "ຖ": 781,
      "ທ": 782,
      "ນ": 783,
      "ບ": 784,
      "ປ": 785,
      "ຜ": 786,
      "ພ": 787,
      "ມ": 788,
      "ລ": 789,
      "ວ": 790,
      "ສ": 791,
      "ຫ": 792,
      "ອ": 793,
      "ຮ": 794,
      "ະ": 795,
      "າ": 796,
      "ເ": 797,
      "ແ": 798,
      "ໂ": 799,
      "ໜ": 800,
      "ა": 801,
      "ბ": 802,
      "გ": 803,
      "დ": 804,
      "ე": 805,
      "ვ": 806,
      "ზ": 807,
      "თ": 808,
      "ი": 809,
      "კ": 810,
      "ლ": 811,
      "მ": 812,
      "ნ": 813,
      "ო": 814,
      "პ": 815,
      "რ": 816,
      "ს": 817,
      "ტ": 818,
      "უ": 819,
      "ფ": 820,
      "ქ": 821,
      "ღ": 822,
      "ყ": 823,
      "შ": 824,
      "ჩ": 825,
      "ც": 826,
      "ძ": 827,
      "წ": 828,
      "ჭ": 829,
      "ხ": 830,
      "ჯ": 831,
      "ሁ": 832,
      "ሂ": 833,
      "ሃ": 834,
      "ህ": 835,
      "ሆ": 836,
      "ለ": 837,
      "ሉ": 838,
      "ላ": 839,
      "ሌ": 840,
      "ል": 841,
      "ሎ": 842,
      "መ": 843,
      "ሚ": 844,
      "ማ": 845,
      "ም": 846,
      "ረ": 847,
      "ሪ": 848,
      "ራ": 849,
      "ር": 850,
      "ሮ": 851,
      "ሰ": 852,
      "ሱ": 853,
      "ሳ": 854,
      "ሴ": 855,
      "ስ": 856,
      "ሽ": 857,
      "ቀ": 858,
      "ቃ": 859,
      "ቅ": 860,
      "በ": 861,
      "ባ": 862,
      "ብ": 863,
      "ተ": 864,
      "ታ": 865,
      "ት": 866,
      "ቶ": 867,
      "ቸ": 868,
      "ች": 869,
      "ኋ": 870,
      "ነ": 871,
      "ኒ": 872,
      "ና": 873,
      "ኔ": 874,
      "ን": 875,
      "ኘ": 876,
      "ኛ": 877,
      "ኝ": 878,
      "አ": 879,
      "እ": 880,
      "ከ": 881,
      "ካ": 882,
      "ክ": 883,
      "ኳ": 884,
      "ወ": 885,
      "ው": 886,
      "ዎ": 887,
      "ዐ": 888,
      "ዓ": 889,
      "ዙ": 890,
      "ዚ": 891,
      "የ": 892,
      "ዩ": 893,
      "ያ": 894,
      "ይ": 895,
      "ደ": 896,
      "ዱ": 897,
      "ዲ": 898,
      "ዳ": 899,
      "ዴ": 900,
      "ድ": 901,
      "ጀ": 902,
      "ጃ": 903,
      "ገ": 904,
      "ጊ": 905,
      "ጋ": 906,
      "ግ": 907,
      "ጠ": 908,
      "ጣ": 909,
      "ጥ": 910,
      "ጨ": 911,
      "ፈ": 912,
      "ፊ": 913,
      "ፋ": 914,
      "ፍ": 915,
      "ṇ": 916,
      "ạ": 917,
      "Ả": 918,
      "ả": 919,
      "ấ": 920,
      "ầ": 921,
      "ẩ": 922,
      "ẫ": 923,
      "ậ": 924,
      "ắ": 925,
      "ằ": 926,
      "ẳ": 927,
      "ẵ": 928,
      "ặ": 929,
      "ẹ": 930,
      "ẻ": 931,
      "ế": 932,
      "ề": 933,
      "ể": 934,
      "ễ": 935,
      "ệ": 936,
      "ỉ": 937,
      "ị": 938,
      "ọ": 939,
      "ỏ": 940,
      "ố": 941,
      "ồ": 942,
      "ổ": 943,
      "ỗ": 944,
      "ộ": 945,
      "ớ": 946,
      "ờ": 947,
      "ở": 948,
      "ỡ": 949,
      "ợ": 950,
      "ụ": 951,
      "ủ": 952,
      "ứ": 953,
      "ừ": 954,
      "ử": 955,
      "ữ": 956,
      "ự": 957,
      "ỳ": 958,
      "ỹ": 959,
      "ὴ": 960,
      "ὶ": 961,
      "ὸ": 962,
      "ῦ": 963,
      "ῶ": 964,
      "々": 965,
      "あ": 966,
      "い": 967,
      "う": 968,
      "え": 969,
      "お": 970,
      "か": 971,
      "が": 972,
      "き": 973,
      "ぎ": 974,
      "く": 975,
      "ぐ": 976,
      "け": 977,
      "げ": 978,
      "こ": 979,
      "ご": 980,
      "さ": 981,
      "ざ": 982,
      "し": 983,
      "じ": 984,
      "す": 985,
      "ず": 986,
      "せ": 987,
      "そ": 988,
      "ぞ": 989,
      "た": 990,
      "だ": 991,
      "ち": 992,
      "っ": 993,
      "つ": 994,
      "づ": 995,
      "て": 996,
      "で": 997,
      "と": 998,
      "ど": 999,
      "な": 1000,
      "に": 1001,
      "ぬ": 1002,
      "ね": 1003,
      "の": 1004,
      "は": 1005,
      "ば": 1006,
      "ぱ": 1007,
      "ひ": 1008,
      "び": 1009,
      "ぴ": 1010,
      "ぶ": 1011,
      "ぷ": 1012,
      "べ": 1013,
      "ほ": 1014,
      "ぽ": 1015,
      "ま": 1016,
      "み": 1017,
      "む": 1018,
      "め": 1019,
      "も": 1020,
      "ゃ": 1021,
      "や": 1022,
      "ゆ": 1023,
      "ょ": 1024,
      "よ": 1025,
      "ら": 1026,
      "り": 1027,
      "る": 1028,
      "れ": 1029,
      "ろ": 1030,
      "わ": 1031,
      "を": 1032,
      "ん": 1033,
      "ァ": 1034,
      "ア": 1035,
      "ィ": 1036,
      "イ": 1037,
      "ゥ": 1038,
      "ウ": 1039,
      "ェ": 1040,
      "エ": 1041,
      "ォ": 1042,
      "オ": 1043,
      "カ": 1044,
      "ガ": 1045,
      "キ": 1046,
      "ギ": 1047,
      "ク": 1048,
      "グ": 1049,
      "ケ": 1050,
      "ゲ": 1051,
      "コ": 1052,
      "ゴ": 1053,
      "サ": 1054,
      "ザ": 1055,
      "シ": 1056,
      "ジ": 1057,
      "ス": 1058,
      "ズ": 1059,
      "セ": 1060,
      "ゼ": 1061,
      "ソ": 1062,
      "ゾ": 1063,
      "タ": 1064,
      "ダ": 1065,
      "チ": 1066,
      "ヂ": 1067,
      "ッ": 1068,
      "ツ": 1069,
      "テ": 1070,
      "デ": 1071,
      "ト": 1072,
      "ド": 1073,
      "ナ": 1074,
      "ニ": 1075,
      "ネ": 1076,
      "ノ": 1077,
      "ハ": 1078,
      "バ": 1079,
      "パ": 1080,
      "ヒ": 1081,
      "ビ": 1082,
      "ピ": 1083,
      "フ": 1084,
      "ブ": 1085,
      "プ": 1086,
      "ヘ": 1087,
      "ベ": 1088,
      "ペ": 1089,
      "ホ": 1090,
      "ボ": 1091,
      "ポ": 1092,
      "マ": 1093,
      "ミ": 1094,
      "ム": 1095,
      "メ": 1096,
      "モ": 1097,
      "ャ": 1098,
      "ヤ": 1099,
      "ュ": 1100,
      "ユ": 1101,
      "ョ": 1102,
      "ヨ": 1103,
      "ラ": 1104,
      "リ": 1105,
      "ル": 1106,
      "レ": 1107,
      "ロ": 1108,
      "ワ": 1109,
      "ン": 1110,
      "ヴ": 1111,
      "ー": 1112,
      "ㅋ": 1113,
      "一": 1114,
      "丁": 1115,
      "七": 1116,
      "万": 1117,
      "丈": 1118,
      "三": 1119,
      "上": 1120,
      "下": 1121,
      "不": 1122,
      "与": 1123,
      "专": 1124,
      "世": 1125,
      "业": 1126,
      "东": 1127,
      "两": 1128,
      "严": 1129,
      "並": 1130,
      "个": 1131,
      "中": 1132,
      "丰": 1133,
      "串": 1134,
      "为": 1135,
      "主": 1136,
      "丽": 1137,
      "么": 1138,
      "义": 1139,
      "之": 1140,
      "乐": 1141,
      "九": 1142,
      "也": 1143,
      "习": 1144,
      "书": 1145,
      "了": 1146,
      "争": 1147,
      "事": 1148,
      "二": 1149,
      "于": 1150,
      "云": 1151,
      "互": 1152,
      "五": 1153,
      "亚": 1154,
      "些": 1155,
      "交": 1156,
      "产": 1157,
      "京": 1158,
      "亮": 1159,
      "人": 1160,
      "亿": 1161,
      "什": 1162,
      "仅": 1163,
      "今": 1164,
      "介": 1165,
      "仕": 1166,
      "他": 1167,
      "付": 1168,
      "代": 1169,
      "令": 1170,
      "以": 1171,
      "们": 1172,
      "件": 1173,
      "价": 1174,
      "任": 1175,
      "份": 1176,
      "企": 1177,
      "伍": 1178,
      "众": 1179,
      "优": 1180,
      "伙": 1181,
      "会": 1182,
      "伝": 1183,
      "传": 1184,
      "伯": 1185,
      "伴": 1186,
      "似": 1187,
      "但": 1188,
      "位": 1189,
      "住": 1190,
      "体": 1191,
      "何": 1192,
      "作": 1193,
      "你": 1194,
      "佳": 1195,
      "使": 1196,
      "來": 1197,
      "例": 1198,
      "供": 1199,
      "便": 1200,
      "係": 1201,
      "俄": 1202,
      "保": 1203,
      "信": 1204,
      "俱": 1205,
      "個": 1206,
      "們": 1207,
      "候": 1208,
      "値": 1209,
      "值": 1210,
      "做": 1211,
      "停": 1212,
      "健": 1213,
      "備": 1214,
      "催": 1215,
      "像": 1216,
      "優": 1217,
      "儿": 1218,
      "允": 1219,
      "元": 1220,
      "充": 1221,
      "先": 1222,
      "克": 1223,
      "児": 1224,
      "党": 1225,
      "入": 1226,
      "全": 1227,
      "八": 1228,
      "公": 1229,
      "六": 1230,
      "共": 1231,
      "关": 1232,
      "兴": 1233,
      "其": 1234,
      "具": 1235,
      "典": 1236,
      "内": 1237,
      "円": 1238,
      "再": 1239,
      "写": 1240,
      "冲": 1241,
      "决": 1242,
      "况": 1243,
      "准": 1244,
      "凝": 1245,
      "出": 1246,
      "函": 1247,
      "分": 1248,
      "切": 1249,
      "列": 1250,
      "则": 1251,
      "创": 1252,
      "初": 1253,
      "別": 1254,
      "利": 1255,
      "别": 1256,
      "到": 1257,
      "制": 1258,
      "券": 1259,
      "前": 1260,
      "剧": 1261,
      "剩": 1262,
      "副": 1263,
      "劇": 1264,
      "力": 1265,
      "办": 1266,
      "功": 1267,
      "加": 1268,
      "务": 1269,
      "动": 1270,
      "助": 1271,
      "効": 1272,
      "動": 1273,
      "務": 1274,
      "募": 1275,
      "包": 1276,
      "化": 1277,
      "北": 1278,
      "区": 1279,
      "十": 1280,
      "午": 1281,
      "半": 1282,
      "华": 1283,
      "协": 1284,
      "单": 1285,
      "南": 1286,
      "単": 1287,
      "博": 1288,
      "卡": 1289,
      "却": 1290,
      "历": 1291,
      "原": 1292,
      "厳": 1293,
      "去": 1294,
      "叁": 1295,
      "参": 1296,
      "及": 1297,
      "友": 1298,
      "収": 1299,
      "发": 1300,
      "取": 1301,
      "受": 1302,
      "变": 1303,
      "口": 1304,
      "古": 1305,
      "句": 1306,
      "另": 1307,
      "只": 1308,
      "可": 1309,
      "台": 1310,
      "史": 1311,
      "右": 1312,
      "号": 1313,
      "司": 1314,
      "各": 1315,
      "合": 1316,
      "同": 1317,
      "名": 1318,
      "后": 1319,
      "向": 1320,
      "否": 1321,
      "含": 1322,
      "听": 1323,
      "告": 1324,
      "员": 1325,
      "周": 1326,
      "味": 1327,
      "呼": 1328,
      "命": 1329,
      "和": 1330,
      "品": 1331,
      "哈": 1332,
      "响": 1333,
      "員": 1334,
      "哥": 1335,
      "哪": 1336,
      "唯": 1337,
      "商": 1338,
      "問": 1339,
      "喜": 1340,
      "営": 1341,
      "器": 1342,
      "四": 1343,
      "回": 1344,
      "因": 1345,
      "园": 1346,
      "囲": 1347,
      "図": 1348,
      "围": 1349,
      "国": 1350,
      "图": 1351,
      "圈": 1352,
      "園": 1353,
      "土": 1354,
      "在": 1355,
      "地": 1356,
      "圳": 1357,
      "场": 1358,
      "块": 1359,
      "坡": 1360,
      "型": 1361,
      "城": 1362,
      "域": 1363,
      "基": 1364,
      "埼": 1365,
      "報": 1366,
      "場": 1367,
      "塔": 1368,
      "境": 1369,
      "增": 1370,
      "墨": 1371,
      "士": 1372,
      "声": 1373,
      "売": 1374,
      "壹": 1375,
      "处": 1376,
      "备": 1377,
      "変": 1378,
      "复": 1379,
      "外": 1380,
      "多": 1381,
      "够": 1382,
      "大": 1383,
      "天": 1384,
      "太": 1385,
      "夫": 1386,
      "失": 1387,
      "头": 1388,
      "夹": 1389,
      "奈": 1390,
      "女": 1391,
      "好": 1392,
      "如": 1393,
      "始": 1394,
      "委": 1395,
      "娱": 1396,
      "嬉": 1397,
      "子": 1398,
      "字": 1399,
      "存": 1400,
      "学": 1401,
      "孩": 1402,
      "學": 1403,
      "它": 1404,
      "安": 1405,
      "完": 1406,
      "定": 1407,
      "宝": 1408,
      "实": 1409,
      "実": 1410,
      "客": 1411,
      "室": 1412,
      "宮": 1413,
      "家": 1414,
      "容": 1415,
      "寄": 1416,
      "富": 1417,
      "實": 1418,
      "寧": 1419,
      "对": 1420,
      "导": 1421,
      "対": 1422,
      "専": 1423,
      "将": 1424,
      "小": 1425,
      "少": 1426,
      "尔": 1427,
      "尤": 1428,
      "就": 1429,
      "尼": 1430,
      "尽": 1431,
      "尿": 1432,
      "局": 1433,
      "层": 1434,
      "届": 1435,
      "屋": 1436,
      "展": 1437,
      "属": 1438,
      "層": 1439,
      "島": 1440,
      "川": 1441,
      "工": 1442,
      "巧": 1443,
      "巨": 1444,
      "差": 1445,
      "己": 1446,
      "已": 1447,
      "巴": 1448,
      "币": 1449,
      "市": 1450,
      "布": 1451,
      "师": 1452,
      "希": 1453,
      "带": 1454,
      "帳": 1455,
      "常": 1456,
      "幅": 1457,
      "平": 1458,
      "年": 1459,
      "并": 1460,
      "幼": 1461,
      "广": 1462,
      "庁": 1463,
      "広": 1464,
      "序": 1465,
      "库": 1466,
      "应": 1467,
      "底": 1468,
      "店": 1469,
      "府": 1470,
      "度": 1471,
      "康": 1472,
      "建": 1473,
      "开": 1474,
      "式": 1475,
      "引": 1476,
      "强": 1477,
      "当": 1478,
      "录": 1479,
      "形": 1480,
      "影": 1481,
      "役": 1482,
      "待": 1483,
      "很": 1484,
      "律": 1485,
      "後": 1486,
      "従": 1487,
      "得": 1488,
      "微": 1489,
      "徴": 1490,
      "心": 1491,
      "必": 1492,
      "忍": 1493,
      "志": 1494,
      "忙": 1495,
      "応": 1496,
      "念": 1497,
      "态": 1498,
      "怎": 1499,
      "思": 1500,
      "性": 1501,
      "总": 1502,
      "息": 1503,
      "悉": 1504,
      "您": 1505,
      "情": 1506,
      "想": 1507,
      "意": 1508,
      "愛": 1509,
      "感": 1510,
      "愿": 1511,
      "態": 1512,
      "戏": 1513,
      "成": 1514,
      "我": 1515,
      "或": 1516,
      "戲": 1517,
      "户": 1518,
      "房": 1519,
      "所": 1520,
      "手": 1521,
      "才": 1522,
      "打": 1523,
      "払": 1524,
      "找": 1525,
      "承": 1526,
      "技": 1527,
      "把": 1528,
      "投": 1529,
      "択": 1530,
      "护": 1531,
      "担": 1532,
      "拉": 1533,
      "招": 1534,
      "拟": 1535,
      "拡": 1536,
      "择": 1537,
      "括": 1538,
      "拿": 1539,
      "持": 1540,
      "指": 1541,
      "振": 1542,
      "捌": 1543,
      "换": 1544,
      "据": 1545,
      "排": 1546,
      "採": 1547,
      "接": 1548,
      "控": 1549,
      "推": 1550,
      "提": 1551,
      "搜": 1552,
      "摄": 1553,
      "撒": 1554,
      "操": 1555,
      "擎": 1556,
      "支": 1557,
      "改": 1558,
      "政": 1559,
      "故": 1560,
      "效": 1561,
      "教": 1562,
      "散": 1563,
      "数": 1564,
      "整": 1565,
      "敵": 1566,
      "數": 1567,
      "文": 1568,
      "料": 1569,
      "断": 1570,
      "斯": 1571,
      "新": 1572,
      "方": 1573,
      "施": 1574,
      "无": 1575,
      "日": 1576,
      "时": 1577,
      "明": 1578,
      "易": 1579,
      "是": 1580,
      "显": 1581,
      "時": 1582,
      "普": 1583,
      "晴": 1584,
      "智": 1585,
      "暖": 1586,
      "暮": 1587,
      "曲": 1588,
      "更": 1589,
      "書": 1590,
      "最": 1591,
      "會": 1592,
      "月": 1593,
      "有": 1594,
      "朋": 1595,
      "服": 1596,
      "朗": 1597,
      "望": 1598,
      "期": 1599,
      "未": 1600,
      "本": 1601,
      "术": 1602,
      "机": 1603,
      "杂": 1604,
      "材": 1605,
      "束": 1606,
      "条": 1607,
      "来": 1608,
      "杯": 1609,
      "東": 1610,
      "构": 1611,
      "果": 1612,
      "柒": 1613,
      "染": 1614,
      "柔": 1615,
      "标": 1616,
      "校": 1617,
      "株": 1618,
      "样": 1619,
      "核": 1620,
      "格": 1621,
      "案": 1622,
      "档": 1623,
      "梅": 1624,
      "森": 1625,
      "業": 1626,
      "極": 1627,
      "楽": 1628,
      "概": 1629,
      "榜": 1630,
      "様": 1631,
      "模": 1632,
      "樣": 1633,
      "権": 1634,
      "機": 1635,
      "次": 1636,
      "欢": 1637,
      "欲": 1638,
      "款": 1639,
      "正": 1640,
      "此": 1641,
      "步": 1642,
      "殊": 1643,
      "段": 1644,
      "每": 1645,
      "比": 1646,
      "毕": 1647,
      "民": 1648,
      "気": 1649,
      "氧": 1650,
      "求": 1651,
      "污": 1652,
      "決": 1653,
      "沒": 1654,
      "没": 1655,
      "河": 1656,
      "治": 1657,
      "況": 1658,
      "法": 1659,
      "波": 1660,
      "注": 1661,
      "洋": 1662,
      "活": 1663,
      "流": 1664,
      "浏": 1665,
      "海": 1666,
      "消": 1667,
      "涉": 1668,
      "深": 1669,
      "混": 1670,
      "添": 1671,
      "游": 1672,
      "源": 1673,
      "满": 1674,
      "滤": 1675,
      "漂": 1676,
      "潛": 1677,
      "澳": 1678,
      "炉": 1679,
      "点": 1680,
      "為": 1681,
      "無": 1682,
      "然": 1683,
      "照": 1684,
      "熟": 1685,
      "爱": 1686,
      "片": 1687,
      "版": 1688,
      "牌": 1689,
      "牙": 1690,
      "物": 1691,
      "特": 1692,
      "状": 1693,
      "独": 1694,
      "献": 1695,
      "獲": 1696,
      "率": 1697,
      "玉": 1698,
      "玖": 1699,
      "环": 1700,
      "现": 1701,
      "班": 1702,
      "現": 1703,
      "球": 1704,
      "理": 1705,
      "甚": 1706,
      "生": 1707,
      "用": 1708,
      "由": 1709,
      "申": 1710,
      "电": 1711,
      "男": 1712,
      "画": 1713,
      "界": 1714,
      "異": 1715,
      "疫": 1716,
      "病": 1717,
      "発": 1718,
      "登": 1719,
      "白": 1720,
      "百": 1721,
      "的": 1722,
      "皆": 1723,
      "监": 1724,
      "目": 1725,
      "直": 1726,
      "相": 1727,
      "省": 1728,
      "看": 1729,
      "県": 1730,
      "真": 1731,
      "眼": 1732,
      "着": 1733,
      "督": 1734,
      "知": 1735,
      "石": 1736,
      "码": 1737,
      "研": 1738,
      "础": 1739,
      "确": 1740,
      "確": 1741,
      "示": 1742,
      "社": 1743,
      "神": 1744,
      "离": 1745,
      "秀": 1746,
      "私": 1747,
      "种": 1748,
      "科": 1749,
      "称": 1750,
      "程": 1751,
      "稚": 1752,
      "種": 1753,
      "稳": 1754,
      "積": 1755,
      "究": 1756,
      "空": 1757,
      "立": 1758,
      "竞": 1759,
      "章": 1760,
      "端": 1761,
      "笔": 1762,
      "符": 1763,
      "第": 1764,
      "等": 1765,
      "筑": 1766,
      "简": 1767,
      "算": 1768,
      "管": 1769,
      "篇": 1770,
      "簡": 1771,
      "簽": 1772,
      "米": 1773,
      "类": 1774,
      "精": 1775,
      "糖": 1776,
      "系": 1777,
      "素": 1778,
      "索": 1779,
      "紫": 1780,
      "細": 1781,
      "紹": 1782,
      "終": 1783,
      "組": 1784,
      "経": 1785,
      "結": 1786,
      "絡": 1787,
      "給": 1788,
      "絶": 1789,
      "続": 1790,
      "綺": 1791,
      "緒": 1792,
      "線": 1793,
      "締": 1794,
      "繁": 1795,
      "繋": 1796,
      "繰": 1797,
      "级": 1798,
      "线": 1799,
      "组": 1800,
      "织": 1801,
      "绍": 1802,
      "经": 1803,
      "结": 1804,
      "给": 1805,
      "络": 1806,
      "统": 1807,
      "继": 1808,
      "续": 1809,
      "维": 1810,
      "缓": 1811,
      "编": 1812,
      "网": 1813,
      "罗": 1814,
      "置": 1815,
      "美": 1816,
      "考": 1817,
      "者": 1818,
      "而": 1819,
      "耶": 1820,
      "联": 1821,
      "聞": 1822,
      "肆": 1823,
      "股": 1824,
      "肯": 1825,
      "育": 1826,
      "能": 1827,
      "腕": 1828,
      "自": 1829,
      "至": 1830,
      "致": 1831,
      "航": 1832,
      "般": 1833,
      "良": 1834,
      "色": 1835,
      "艺": 1836,
      "节": 1837,
      "英": 1838,
      "范": 1839,
      "获": 1840,
      "萄": 1841,
      "营": 1842,
      "落": 1843,
      "著": 1844,
      "葡": 1845,
      "董": 1846,
      "虑": 1847,
      "虚": 1848,
      "蛋": 1849,
      "行": 1850,
      "術": 1851,
      "衣": 1852,
      "表": 1853,
      "被": 1854,
      "裙": 1855,
      "裡": 1856,
      "製": 1857,
      "複": 1858,
      "西": 1859,
      "要": 1860,
      "見": 1861,
      "規": 1862,
      "視": 1863,
      "覚": 1864,
      "覧": 1865,
      "覺": 1866,
      "见": 1867,
      "观": 1868,
      "规": 1869,
      "视": 1870,
      "览": 1871,
      "觉": 1872,
      "角": 1873,
      "解": 1874,
      "言": 1875,
      "計": 1876,
      "記": 1877,
      "設": 1878,
      "許": 1879,
      "詳": 1880,
      "認": 1881,
      "誕": 1882,
      "語": 1883,
      "說": 1884,
      "説": 1885,
      "読": 1886,
      "調": 1887,
      "講": 1888,
      "謝": 1889,
      "證": 1890,
      "議": 1891,
      "讓": 1892,
      "计": 1893,
      "认": 1894,
      "让": 1895,
      "记": 1896,
      "许": 1897,
      "论": 1898,
      "设": 1899,
      "访": 1900,
      "证": 1901,
      "识": 1902,
      "诉": 1903,
      "词": 1904,
      "译": 1905,
      "话": 1906,
      "该": 1907,
      "误": 1908,
      "说": 1909,
      "请": 1910,
      "读": 1911,
      "谓": 1912,
      "豊": 1913,
      "象": 1914,
      "財": 1915,
      "販": 1916,
      "買": 1917,
      "費": 1918,
      "質": 1919,
      "購": 1920,
      "贈": 1921,
[...]
