{
  "version": "1.0",
  "truncation": null,
  "padding": null,
  "added_tokens": [
    {
      "id": 2518,
      "content": "<UNK>",
      "single_word": false,
      "lstrip": false,
      "rstrip": false,
      "normalized": true,
      "special": true
    },
    {
      "id": 2519,
      "content": "<｜end▁of▁sentence｜>",
      "single_word": false,
      "lstrip": false,
      "rstrip": false,
      "normalized": true,
      "special": true
    },
    {
      "id": 2520,
      "content": "<｜pad｜>",
      "single_word": false,
      "lstrip": false,
      "rstrip": false,
      "normalized": true,
      "special": true
    },
    {
      "id": 2521,
      "content": "<｜begin▁of▁sentence｜>",
      "single_word": false,
      "lstrip": false,
      "rstrip": false,
      "normalized": true,
      "special": true
    }
  ],
  "normalizer": {
    "type": "Sequence",
    "normalizers": []
  },
  "pre_tokenizer": {
    "type": "Sequence",
    "pretokenizers": [
      {
        "type": "Split",
        "pattern": {
          "Regex": "[\\r\\n]"
        },
        "behavior": "Isolated",
        "invert": false
      },
      {
        "type": "Split",
        "pattern": {
          "Regex": "\\s?[A-Za-zµÀ-ÖØ-öø-ƺƼ-ƿǄ-ʓʕ-ʯͰ-ͳͶͷͻ-ͽͿΆΈ-ΊΌΎ-ΡΣ-ϵϷ-ҁҊ-ԯԱ-ՖႠ-ჅᎠ-Ᏽᏸ-ᏽᲐ-ᲺᲽ-Ჿᴀ-ᴫᵫ-ᵷᵹ-ᶚḀ-ἕἘ-Ἕἠ-ὅὈ-Ὅὐ-ὗὙὛὝὟ-ώᾀ-ᾴᾶ-ᾼιῂ-ῄῆ-ῌῐ-ΐῖ-Ίῠ-Ῥῲ-ῴῶ-ῼℂℇℊ-ℓℕℙ-ℝℤΩℨK-ℭℯ-ℴℹℼ-ℿⅅ-ⅉⅎↃↄⰀ-ⱻⱾ-ⳤⳫ-ⳮⳲⳳꙀ-ꙭꚀ-ꚛꜢ-ꝯꝱ-ꞇꞋ-ꞎꭰ-ꮿﬀ-ﬆﬓ-ﬗＡ-Ｚａ-ｚ𐐀-𐑏𐒰-𐓓𐓘-𐓻𐲀-𐲲𐳀-𐳲𑢠-𑣟𞤀-𞥃]+"
        },
        "behavior": "Isolated",
        "invert": false
      },
      {
        "type": "Split",
        "pattern": {
          "Regex": "\\s?[!-/:-~！-／：-～‘-‟　-。]+"
        },
        "behavior": "Isolated",
        "invert": false
      },
      {
        "type": "Split",
        "pattern": {
          "Regex": "\\s+$"
        },
        "behavior": "Isolated",
        "invert": false
      },
      {
        "type": "Split",
        "pattern": {
          "Regex": "[一-龥ࠀ-一가-퟿]+"
        },
        "behavior": "Isolated",
        "invert": false
      },
      {
        "type": "Digits",
        "individual_digits": true
      },
      {
        "type": "ByteLevel",
        "add_prefix_space": false,
        "trim_offsets": true,
        "use_regex": false
      }
    ]
  },
  "post_processor": {
    "type": "ByteLevel",
    "add_prefix_space": true,
    "trim_offsets": false,
    "use_regex": true
  },
  "decoder": {
    "type": "ByteLevel",
    "add_prefix_space": true,
    "trim_offsets": true,
    "use_regex": true
  },
  "model": {
    "type": "BPE",
    "dropout": null,
    "unk_token": "<UNK>",
    "continuing_subword_prefix": null,
    "end_of_word_suffix": null,
    "fuse_unk": false,
    "byte_fallback": false,
    "ignore_merges": false,
    "bMax_frequency": true,
    "max_frequency": 254107538,
    "vocab": {
      "eleg": 0,
      "ibil": 1,
      "utto": 2,
      "сты": 3,
      "iger": 4,
      "nect": 5,
      "oser": 6,
      "Ġoccup": 7,
      "сно": 8,
      "Dir": 9,
      "ĠRet": 10,
      "Pk": 11,
      "Ġnas": 12,
      "ĠRx": 13,
      "Ġunt": 14,
      "Ġча": 15,
      "ĠRed": 16,
      "Ġord": 17,
      "Parameter": 18,
      "ánd": 19,
      "しい": 20,
      "amily": 21,
      "Ġkur": 22,
      "ást": 23,
      "ulu": 24,
      "pc": 25,
      "ulfanyl": 26,
      "URN": 27,
      "Ġphosph": 28,
      "εί": 29,
      "pet": 30,
      "kn": 31,
      "ър": 32,
      "íst": 33,
      "uds": 34,
      "aja": 35,
      "rained": 36,
      "stone": 37,
      "ĠIr": 38,
      "IAL": 39,
      "قت": 40,
      "hm": 41,
      "Ġस": 42,
      "Ġذ": 43,
      "agger": 44,
      "atures": 45,
      "oner": 46,
      "ĠMal": 47,
      "atives": 48,
      "rate": 49,
      "ially": 50,
      "SX": 51,
      "empt": 52,
      "ondition": 53,
      "ĠMark": 54,
      "rote": 55,
      "Provider": 56,
      "rir": 57,
      "ped": 58,
      "isting": 59,
      "erno": 60,
      "ĠAv": 61,
      "Ġview": 62,
      "ını": 63,
      "ĠCan": 64,
      "ukt": 65,
      "hem": 66,
      "esses": 67,
      "rash": 68,
      "RC": 69,
      "Ġland": 70,
      "ĠPre": 71,
      "Ġку": 72,
      "Ġکر": 73,
      "Ġtet": 74,
      "ytic": 75,
      "uml": 76,
      "isms": 77,
      "ws": 78,
      "OA": 79,
      "дов": 80,
      "ride": 81,
      "ĠSom": 82,
      "Ġtwe": 83,
      "bur": 84,
      "sup": 85,
      "ARE": 86,
      "ottom": 87,
      "andal": 88,
      "iale": 89,
      "rank": 90,
      "apse": 91,
      "ĠStr": 92,
      "ported": 93,
      "ĠDon": 94,
      "Ġaj": 95,
      "Ġž": 96,
      "ление": 97,
      "ryl": 98,
      "Ġvit": 99,
      "esta": 100,
      "dom": 101,
      "apped": 102,
      "станов": 103,
      "ень": 104,
      "مان": 105,
      "ĠMcD": 106,
      "oned": 107,
      "ieg": 108,
      "OG": 109,
      "Nav": 110,
      "ườ": 111,
      "escript": 112,
      "aha": 113,
      "Ġمد": 114,
      "zym": 115,
      "iko": 116,
      "ĠHum": 117,
      "erme": 118,
      "VC": 119,
      "Ġdir": 120,
      "oting": 121,
      "rant": 122,
      "oji": 123,
      "ĠCam": 124,
      "asing": 125,
      "nem": 126,
      "SON": 127,
      "pose": 128,
      "zia": 129,
      "IRE": 130,
      "Case": 131,
      "rica": 132,
      "elli": 133,
      "ình": 134,
      "imation": 135,
      "kar": 136,
      "Ġგ": 137,
      "Ġsat": 138,
      "oja": 139,
      "Ġსა": 140,
      "Part": 141,
      "Ġtend": 142,
      "รร": 143,
      "asy": 144,
      "Ġwith": 145,
      "ĠDo": 146,
      "Ġnu": 147,
      "ispatch": 148,
      "Navig": 149,
      "eman": 150,
      "olicy": 151,
      "atched": 152,
      "ück": 153,
      "ити": 154,
      "oton": 155,
      "ünd": 156,
      "loat": 157,
      "Ġair": 158,
      "ounc": 159,
      "ㅋㅋ": 160,
      "ĠPat": 161,
      "iat": 162,
      "Ġdib": 163,
      "Ġcount": 164,
      "Ġş": 165,
      "Ġспо": 166,
      "illy": 167,
      "acion": 168,
      "ого": 169,
      "ères": 170,
      "Ġস": 171,
      "وي": 172,
      "writ": 173,
      "รง": 174,
      "ĠDep": 175,
      "Ġแ": 176,
      "Ġpil": 177,
      "nia": 178,
      "ixed": 179,
      "Components": 180,
      "Ġpró": 181,
      "onduct": 182,
      "Ġبی": 183,
      "ĠCro": 184,
      "oped": 185,
      "enced": 186,
      "ted": 187,
      "ewer": 188,
      "ĠCB": 189,
      "ferred": 190,
      "fr": 191,
      "ournal": 192,
      "Ġdirect": 193,
      "idal": 194,
      "RS": 195,
      "Ġold": 196,
      "oked": 197,
      "Ġbook": 198,
      "Ġज": 199,
      "Ġplac": 200,
      "iga": 201,
      "Point": 202,
      "Ġko": 203,
      "Ġак": 204,
      "plant": 205,
      "pend": 206,
      "ícul": 207,
      "Sal": 208,
      "enger": 209,
      "Ġsing": 210,
      "Ġide": 211,
      "Mov": 212,
      "Ġcycl": 213,
      "دم": 214,
      "stock": 215,
      "Ġcanc": 216,
      "Post": 217,
      "Ġkil": 218,
      "ako": 219,
      "Ġmark": 220,
      "Ġmac": 221,
      "iego": 222,
      "ある": 223,
      "Ġther": 224,
      "Ġब": 225,
      "cad": 226,
      "Ġمر": 227,
      "imer": 228,
      "aching": 229,
      "ĠDes": 230,
      "гово": 231,
      "Ġparticip": 232,
      "the": 233,
      "Ġfut": 234,
      "ву": 235,
      "rik": 236,
      "lab": 237,
      "uten": 238,
      "Types": 239,
      "Ġconstit": 240,
      "atches": 241,
      "VID": 242,
      "Ġhot": 243,
      "essed": 244,
      "ĠRaj": 245,
      "Ġfile": 246,
      "Ġchrom": 247,
      "ensor": 248,
      "Record": 249,
      "Ġالص": 250,
      "adem": 251,
      "Scroll": 252,
      "Ġالف": 253,
      "Ġвер": 254,
      "MD": 255,
      "ways": 256,
      "Equal": 257,
      "Screen": 258,
      "code": 259,
      "ено": 260,
      "ισ": 261,
      "Ġty": 262,
      "Column": 263,
      "otes": 264,
      "racy": 265,
      "Ġvac": 266,
      "mn": 267,
      "نے": 268,
      "eno": 269,
      "htt": 270,
      "ון": 271,
      "rating": 272,
      "Ġcamb": 273,
      "Ġtherm": 274,
      "gal": 275,
      "قی": 276,
      "wo": 277,
      "ympt": 278,
      "richt": 279,
      "Full": 280,
      "áz": 281,
      "Over": 282,
      "abled": 283,
      "amps": 284,
      "utable": 285,
      "AMP": 286,
      "ristian": 287,
      "sg": 288,
      "чески": 289,
      "arded": 290,
      "Cor": 291,
      "Tree": 292,
      "bour": 293,
      "Ġфа": 294,
      "uno": 295,
      "allback": 296,
      "ije": 297,
      "aba": 298,
      "基金": 299,
      "ĠРо": 300,
      "base": 301,
      "Mar": 302,
      "ении": 303,
      "ĠSam": 304,
      "Ġtit": 305,
      "VA": 306,
      "وت": 307,
      "هر": 308,
      "Ġunw": 309,
      "ич": 310,
      "asta": 311,
      "öt": 312,
      "ilde": 313,
      "Wh": 314,
      "Ġutiliz": 315,
      "oggle": 316,
      "DT": 317,
      "áng": 318,
      "ĠAN": 319,
      "Ġshe": 320,
      "Vertex": 321,
      "Temp": 322,
      "ĠSil": 323,
      "ière": 324,
      "nah": 325,
      "ĠCr": 326,
      "alg": 327,
      "ondo": 328,
      "esto": 329,
      "Ġess": 330,
      "abe": 331,
      "lä": 332,
      "ĠFe": 333,
      "UE": 334,
      "ła": 335,
      "etty": 336,
      "ĠBO": 337,
      "Ġpas": 338,
      "Check": 339,
      "ICAL": 340,
      "ĠAsh": 341,
      "Ġau": 342,
      "და": 343,
      "fs": 344,
      "Position": 345,
      "ĠLa": 346,
      "rough": 347,
      "Ġmeny": 348,
      "רי": 349,
      "anç": 350,
      "зе": 351,
      "Ġpu": 352,
      "àng": 353,
      "iyor": 354,
      "Ġphys": 355,
      "azz": 356,
      "Font": 357,
      "ĠCre": 358,
      "Ġpa": 359,
      "lood": 360,
      "ership": 361,
      "ĠRock": 362,
      "oret": 363,
      "formed": 364,
      "IES": 365,
      "ubs": 366,
      "Ġprod": 367,
      "ラン": 368,
      "üş": 369,
      "Ġcir": 370,
      "Que": 371,
      "Drop": 372,
      "rach": 373,
      "Ġvan": 374,
      "Ġsou": 375,
      "icha": 376,
      "üz": 377,
      "Ġmerc": 378,
      "acher": 379,
      "uma": 380,
      "Ġsé": 381,
      "ehr": 382,
      "jud": 383,
      "Ġsuff": 384,
      "Ġhydro": 385,
      "tha": 386,
      "ĠLie": 387,
      "Ġvas": 388,
      "ungan": 389,
      "новни": 390,
      "Ġисполь": 391,
      "pers": 392,
      "auer": 393,
      "Ġتح": 394,
      "фе": 395,
      "odo": 396,
      "mouse": 397,
      "ĠLo": 398,
      "Ġএ": 399,
      "ĠLor": 400,
      "Ġalle": 401,
      "ursor": 402,
      "Ġالك": 403,
      "anne": 404,
      "ına": 405,
      "screen": 406,
      "itable": 407,
      "Ġwarm": 408,
      "isa": 409,
      "pping": 410,
      "μο": 411,
      "сп": 412,
      "check": 413,
      "Ġfur": 414,
      "unicip": 415,
      "opol": 416,
      "Ġsy": 417,
      "ĠCap": 418,
      "System": 419,
      "Ġchem": 420,
      "емы": 421,
      "yor": 422,
      "اعد": 423,
      "Ġrealiz": 424,
      "ром": 425,
      "eles": 426,
      "Ġmol": 427,
      "Min": 428,
      "kk": 429,
      "ĠOut": 430,
      "ozz": 431,
      "ĠBern": 432,
      "oga": 433,
      "ーク": 434,
      "ĠBerg": 435,
      "Base": 436,
      "Marks": 437,
      "ánh": 438,
      "imin": 439,
      "ULT": 440,
      "нт": 441,
      "apar": 442,
      "ース": 443,
      "rend": 444,
      "select": 445,
      "etta": 446,
      "Ġphen": 447,
      "Ġتر": 448,
      "Ġrés": 449,
      "apsed": 450,
      "kit": 451,
      "هم": 452,
      "Ġاس": 453,
      "سه": 454,
      "ebo": 455,
      "Ġeth": 456,
      "Ġслу": 457,
      "ται": 458,
      "Ġfol": 459,
      "ργ": 460,
      "grad": 461,
      "atement": 462,
      "IK": 463,
      "ubb": 464,
      "Ġappl": 465,
      "cles": 466,
      "otype": 467,
      "Right": 468,
      "Ġregist": 469,
      "adig": 470,
      "oca": 471,
      "Str": 472,
      "encias": 473,
      "ymmet": 474,
      "Main": 475,
      "ASE": 476,
      "öl": 477,
      "Na": 478,
      "Activity": 479,
      "akar": 480,
      "apat": 481,
      "build": 482,
      "resp": 483,
      "Ġemph": 484,
      "ĠMer": 485,
      "ycz": 486,
      "FC": 487,
      "عب": 488,
      "Read": 489,
      "ĠOff": 490,
      "gener": 491,
      "inity": 492,
      "ró": 493,
      "Ġident": 494,
      "Ġاست": 495,
      "ĠId": 496,
      "ád": 497,
      "Cap": 498,
      "клю": 499,
      "ysis": 500,
      "ĠSk": 501,
      "Ġli": 502,
      "さい": 503,
      "レス": 504,
      "Ab": 505,
      "äch": 506,
      "Ġlabor": 507,
      "earing": 508,
      "irus": 509,
      "pat": 510,
      "imple": 511,
      "quier": 512,
      "heit": 513,
      "Core": 514,
      "Ġtent": 515,
      "Ġnam": 516,
      "expl": 517,
      "ĠĐ": 518,
      "ifications": 519,
      "ниц": 520,
      "orf": 521,
      "でき": 522,
      "izont": 523,
      "igs": 524,
      "Ġtermin": 525,
      "osition": 526,
      "Ġspecial": 527,
      "ĠDE": 528,
      "stru": 529,
      "aix": 530,
      "idden": 531,
      "Ġkomp": 532,
      "obac": 533,
      "omorph": 534,
      "asts": 535,
      "Did": 536,
      "Now": 537,
      "rated": 538,
      "inte": 539,
      "hot": 540,
      "rics": 541,
      "жд": 542,
      "ischen": 543,
      "Ġconfig": 544,
      "ĠEM": 545,
      "Keys": 546,
      "Ġfen": 547,
      "Plugin": 548,
      "ashi": 549,
      "anas": 550,
      "ELL": 551,
      "unte": 552,
      "дар": 553,
      "onucle": 554,
      "Ġrece": 555,
      "flu": 556,
      "نت": 557,
      "BO": 558,
      "onte": 559,
      "Settings": 560,
      "せん": 561,
      "ません": 562,
      "ummy": 563,
      "Ġsph": 564,
      "Ġمس": 565,
      "Ġप": 566,
      "Photo": 567,
      "otrop": 568,
      "itted": 569,
      "もの": 570,
      "mult": 571,
      "ogs": 572,
      "ĠTim": 573,
      "ской": 574,
      "typ": 575,
      "OCK": 576,
      "ię": 577,
      "arah": 578,
      "Stack": 579,
      "LP": 580,
      "Ġrend": 581,
      "ého": 582,
      "ems": 583,
      "Ġmicro": 584,
      "Ġbest": 585,
      "oking": 586,
      "stand": 587,
      "eron": 588,
      "Ġparam": 589,
      "ĠAut": 590,
      "ĠMil": 591,
      "Ġम": 592,
      "лар": 593,
      "cas": 594,
      "uven": 595,
      "idation": 596,
      "ány": 597,
      "vy": 598,
      "anning": 599,
      "ών": 600,
      "Args": 601,
      "Ġprob": 602,
      "LC": 603,
      "ahu": 604,
      "pay": 605,
      "Ġfab": 606,
      "iot": 607,
      "Te": 608,
      "ANT": 609,
      "ORM": 610,
      "Ġmov": 611,
      "ობ": 612,
      "পর": 613,
      "ĠEnd": 614,
      "UID": 615,
      "으로": 616,
      "vet": 617,
      "ĠNo": 618,
      "hu": 619,
      "ცი": 620,
      "Ġнов": 621,
      "uted": 622,
      "oman": 623,
      "Ġih": 624,
      "ĠSy": 625,
      "Ġfun": 626,
      "ilos": 627,
      "нк": 628,
      "τικ": 629,
      "Ġfast": 630,
      "dd": 631,
      "ステ": 632,
      "ĠGl": 633,
      "ulture": 634,
      "rett": 635,
      "ちゃ": 636,
      "ikk": 637,
      "ongs": 638,
      "Ġспе": 639,
      "Ġdiffer": 640,
      "вши": 641,
      "Ġpropos": 642,
      "Sql": 643,
      "λλ": 644,
      "acity": 645,
      "Ġexpos": 646,
      "agi": 647,
      "ommen": 648,
      "pring": 649,
      "Ġrepe": 650,
      "ент": 651,
      "anza": 652,
      "тори": 653,
      "Ġalg": 654,
      "Ġrelig": 655,
      "ermal": 656,
      "еди": 657,
      "UP": 658,
      "YPE": 659,
      "Ġgri": 660,
      "RES": 661,
      "fa": 662,
      "Parser": 663,
      "ĠAug": 664,
      "ارد": 665,
      "Background": 666,
      "eln": 667,
      "Ġক": 668,
      "Ġtar": 669,
      "disc": 670,
      "от": 671,
      "Ġson": 672,
      "aneous": 673,
      "ĠCorn": 674,
      "Empty": 675,
      "Ġrapp": 676,
      "inqu": 677,
      "ского": 678,
      "Ġmath": 679,
      "HD": 680,
      "inen": 681,
      "Device": 682,
      "Ġsev": 683,
      "Ġmig": 684,
      "Active": 685,
      "пера": 686,
      "entic": 687,
      "gh": 688,
      "oria": 689,
      "oration": 690,
      "aye": 691,
      "ĠRad": 692,
      "Ġutilis": 693,
      "Ġполу": 694,
      "plement": 695,
      "imiento": 696,
      "Ġsoft": 697,
      "escence": 698,
      "Ġliv": 699,
      "Ġউ": 700,
      "ôn": 701,
      "ichen": 702,
      "ört": 703,
      "úc": 704,
      "вед": 705,
      "лә": 706,
      "Ġpy": 707,
      "ĠHor": 708,
      "okes": 709,
      "Ġउ": 710,
      "Ġic": 711,
      "Ġitem": 712,
      "elo": 713,
      "active": 714,
      "ĠNot": 715,
      "leton": 716,
      "nov": 717,
      "AST": 718,
      "dy": 719,
      "inning": 720,
      "cop": 721,
      "Ġvirt": 722,
      "eground": 723,
      "ritt": 724,
      "Ġnaj": 725,
      "ится": 726,
      "Ġnie": 727,
      "bin": 728,
      "Ġlat": 729,
      "Ġenf": 730,
      "Ġالز": 731,
      "ĠImm": 732,
      "stract": 733,
      "ska": 734,
      "vén": 735,
      "Ġква": 736,
      "Ġرکھ": 737,
      "ĠBad": 738,
      "いう": 739,
      "Ins": 740,
      "ремен": 741,
      "anded": 742,
      "Ġaug": 743,
      "brevi": 744,
      "ĠAR": 745,
      "Ġprev": 746,
      "Ġextr": 747,
      "elig": 748,
      "isse": 749,
      "Connection": 750,
      "pad": 751,
      "ĠHaw": 752,
      "vision": 753,
      "ić": 754,
      "Ġsig": 755,
      "ulator": 756,
      "IONS": 757,
      "Files": 758,
      "Ġfib": 759,
      "overs": 760,
      "Widget": 761,
      "keit": 762,
      "cie": 763,
      "なく": 764,
      "iu": 765,
      "clos": 766,
      "しく": 767,
      "ĠEsp": 768,
      "spir": 769,
      "ISE": 770,
      "ئی": 771,
      "Ġц": 772,
      "Found": 773,
      "اين": 774,
      "Callback": 775,
      "Grid": 776,
      "iniz": 777,
      "Archive": 778,
      "ivos": 779,
      "Ġkor": 780,
      "olph": 781,
      "ocol": 782,
      "Ġmorph": 783,
      "enge": 784,
      "ellig": 785,
      "Ġcro": 786,
      "enzo": 787,
      "Ġbez": 788,
      "Ġμ": 789,
      "μέν": 790,
      "cod": 791,
      "рта": 792,
      "acute": 793,
      "ĠНа": 794,
      "rival": 795,
      "ustain": 796,
      "ifica": 797,
      "ными": 798,
      "rish": 799,
      "бол": 800,
      "Ġread": 801,
      "loud": 802,
      "ĠPort": 803,
      "ebru": 804,
      "IE": 805,
      "ĠVen": 806,
      "ratic": 807,
      "ND": 808,
      "Unit": 809,
      "assa": 810,
      "anos": 811,
      "uta": 812,
      "Ġselect": 813,
      "áb": 814,
      "Ġdraw": 815,
      "ъл": 816,
      "Root": 817,
      "рово": 818,
      "ashing": 819,
      "Ġencont": 820,
      "ッド": 821,
      "ĠForm": 822,
      "GS": 823,
      "antic": 824,
      "Ġhair": 825,
      "Ġimmun": 826,
      "Ġcit": 827,
      "иться": 828,
      "Ġکن": 829,
      "Ġtemper": 830,
      "Ġauthor": 831,
      "GP": 832,
      "ety": 833,
      "ĠShe": 834,
      "Ġአ": 835,
      "Writer": 836,
      "Ġpersonal": 837,
      "ลา": 838,
      "Ġاع": 839,
      "akh": 840,
      "itors": 841,
      "Ġcounter": 842,
      "ĠPay": 843,
      "Ġpec": 844,
      "Ġha": 845,
      "erve": 846,
      "ysc": 847,
      "roke": 848,
      "apkan": 849,
      "ensions": 850,
      "Pane": 851,
      "Ġhu": 852,
      "schaft": 853,
      "Ġorig": 854,
      "ето": 855,
      "igns": 856,
      "lung": 857,
      "umen": 858,
      "Ġsel": 859,
      "MR": 860,
      "size": 861,
      "ehyd": 862,
      "OUT": 863,
      "ĠLuc": 864,
      "owe": 865,
      "Adapter": 866,
      "Ġakt": 867,
      "чни": 868,
      "iox": 869,
      "Ġlect": 870,
      "Ġχ": 871,
      "Ġej": 872,
      "arı": 873,
      "лекса": 874,
      "wend": 875,
      "Ġmost": 876,
      "Ġstand": 877,
      "Ġbal": 878,
      "Ġiss": 879,
      "ño": 880,
      "Ġتج": 881,
      "Character": 882,
      "گی": 883,
      "Ġef": 884,
      "Ang": 885,
      "Ġunf": 886,
      "Ġpou": 887,
      "Ġhyper": 888,
      "Ġпи": 889,
      "стре": 890,
      "ène": 891,
      "asure": 892,
      "aily": 893,
      "utz": 894,
      "imiz": 895,
      "ités": 896,
      "cha": 897,
      "ете": 898,
      "ieren": 899,
      "wait": 900,
      "と思": 901,
      "utsch": 902,
      "ლებ": 903,
      "pped": 904,
      "erts": 905,
      "Ġcod": 906,
      "ARCH": 907,
      "azar": 908,
      "asan": 909,
      "ooks": 910,
      "allel": 911,
      "Ġمل": 912,
      "ĠZe": 913,
      "icia": 914,
      "abl": 915,
      "Details": 916,
      "arker": 917,
      "Push": 918,
      "ĠAk": 919,
      "ractor": 920,
      "anks": 921,
      "Ġalt": 922,
      "rison": 923,
      "די": 924,
      "lav": 925,
      "ĠDet": 926,
      "ĠNorth": 927,
      "VP": 928,
      "ĠSand": 929,
      "atiti": 930,
      "Ġmant": 931,
      "使用": 932,
      "alla": 933,
      "Ġgod": 934,
      "valid": 935,
      "ĠOs": 936,
      "uez": 937,
      "unj": 938,
      "dam": 939,
      "Ġsed": 940,
      "Ġtec": 941,
      "iced": 942,
      "ning": 943,
      "antly": 944,
      "Ġالر": 945,
      "rove": 946,
      "icted": 947,
      "リア": 948,
      "бра": 949,
      "eden": 950,
      "efont": 951,
      "دی": 952,
      "ague": 953,
      "Eng": 954,
      "ĠKey": 955,
      "Ġtotal": 956,
      "ĠNav": 957,
      "ომ": 958,
      "iano": 959,
      "ích": 960,
      "Kind": 961,
      "Ġenerg": 962,
      "ред": 963,
      "MT": 964,
      "My": 965,
      "Queue": 966,
      "кти": 967,
      "Ġanim": 968,
      "Level": 969,
      "имо": 970,
      "verse": 971,
      "Ġvatt": 972,
      "ней": 973,
      "Ġcapt": 974,
      "クト": 975,
      "ĠInf": 976,
      "acks": 977,
      "ipping": 978,
      "edy": 979,
      "ental": 980,
      "opping": 981,
      "xis": 982,
      "ojo": 983,
      "angen": 984,
      "ashed": 985,
      "Ġfund": 986,
      "ilon": 987,
      "arted": 988,
      "elic": 989,
      "ĠEth": 990,
      "pop": 991,
      "ías": 992,
      "ĠMax": 993,
      "eza": 994,
      "agne": 995,
      "ност": 996,
      "dr": 997,
      "mak": 998,
      "ĠMath": 999,
      "Ġsecret": 1000,
      "ril": 1001,
      "Ġda": 1002,
      "ming": 1003,
      "ayam": 1004,
      "omo": 1005,
      "ymp": 1006,
      "Ġreb": 1007,
      "Ġrefer": 1008,
      "ält": 1009,
      "Ġoct": 1010,
      "urer": 1011,
      "alling": 1012,
      "Non": 1013,
      "gul": 1014,
      "Ġconform": 1015,
      "Ġca": 1016,
      "ურ": 1017,
      "ublish": 1018,
      "appe": 1019,
      "inha": 1020,
      "aches": 1021,
      "sulfanyl": 1022,
      "форма": 1023,
      "erta": 1024,
      "Ġweb": 1025,
      "Ġlig": 1026,
      "Ġkont": 1027,
      "escent": 1028,
      "Wait": 1029,
      "Dict": 1030,
      "oku": 1031,
      "acts": 1032,
      "ramework": 1033,
      "uler": 1034,
      "Ġobject": 1035,
      "ffen": 1036,
      "ogene": 1037,
      "ĠSab": 1038,
      "Ġlab": 1039,
      "Ġcomment": 1040,
      "iod": 1041,
      "ĠGall": 1042,
      "ensa": 1043,
      "Ġни": 1044,
      "Ġobserv": 1045,
      "êt": 1046,
      "zech": 1047,
      "eco": 1048,
      "VIC": 1049,
      "Ġappre": 1050,
      "icing": 1051,
      "Ġelev": 1052,
      "ссий": 1053,
      "Ġпла": 1054,
      "Ġsen": 1055,
      "ĠSeb": 1056,
      "BUR": 1057,
      "ITH": 1058,
      "Props": 1059,
      "Ġfont": 1060,
      "Operation": 1061,
      "DM": 1062,
      "emen": 1063,
      "uri": 1064,
      "Ġampl": 1065,
      "می": 1066,
      "utta": 1067,
      "Ġbic": 1068,
      "Ġrib": 1069,
      "etry": 1070,
      "Ġpes": 1071,
      "可以": 1072,
      "ết": 1073,
      "Ġbase": 1074,
      "Ġmart": 1075,
      "opath": 1076,
      "joy": 1077,
      "anjut": 1078,
      "issions": 1079,
      "лова": 1080,
      "inos": 1081,
      "raven": 1082,
      "uci": 1083,
      "ίν": 1084,
      "raul": 1085,
      "icol": 1086,
      "ĠCav": 1087,
      "Ġpier": 1088,
      "rian": 1089,
      "чита": 1090,
      "Ġcollect": 1091,
      "Ġacqu": 1092,
      "Ġلگ": 1093,
      "Ġjug": 1094,
      "ại": 1095,
      "قل": 1096,
      "czy": 1097,
      "aldo": 1098,
      "ài": 1099,
      "dir": 1100,
      "àn": 1101,
      "ło": 1102,
      "lectic": 1103,
      "phal": 1104,
      "isk": 1105,
      "illi": 1106,
      "reib": 1107,
      "zione": 1108,
      "Ġlay": 1109,
      "Ġproble": 1110,
      "arden": 1111,
      "Ġپی": 1112,
      "Reader": 1113,
      "heat": 1114,
      "Ġradi": 1115,
      "apeut": 1116,
      "Coll": 1117,
      "تے": 1118,
      "Vector": 1119,
      "рий": 1120,
      "spl": 1121,
      "ĠBal": 1122,
      "ijn": 1123,
      "ĠRen": 1124,
      "ør": 1125,
      "اط": 1126,
      "wrap": 1127,
      "rä": 1128,
      "ühr": 1129,
      "alis": 1130,
      "ĠAf": 1131,
      "isted": 1132,
      "BR": 1133,
      "Ġrap": 1134,
      "ariable": 1135,
      "duced": 1136,
      "std": 1137,
      "Ġcoment": 1138,
      "ене": 1139,
      "rizz": 1140,
      "asser": 1141,
      "umble": 1142,
      "äll": 1143,
      "Pkg": 1144,
      "ELE": 1145,
      "ĠJac": 1146,
      "sche": 1147,
      "ounded": 1148,
      "phone": 1149,
      "oje": 1150,
      "zes": 1151,
      "йно": 1152,
      "orage": 1153,
      "No": 1154,
      "оло": 1155,
      "Preview": 1156,
      "obl": 1157,
      "ranch": 1158,
      "Ġsuccess": 1159,
      "Ġуча": 1160,
      "ento": 1161,
      "Fil": 1162,
      "Ġαν": 1163,
      "ARY": 1164,
      "Ġpros": 1165,
      "ĠMot": 1166,
      "ieron": 1167,
      "ardo": 1168,
      "icking": 1169,
      "oning": 1170,
      "Ġgar": 1171,
      "NAM": 1172,
      "Ġcarb": 1173,
      "emi": 1174,
      "riction": 1175,
      "ordan": 1176,
      "Ptr": 1177,
      "レー": 1178,
      "Ġtyp": 1179,
      "opes": 1180,
      "Ġactiv": 1181,
      "nej": 1182,
      "ometer": 1183,
      "ĠKx": 1184,
      "Ġasc": 1185,
      "ują": 1186,
      "ĠPad": 1187,
      "oks": 1188,
      "مار": 1189,
      "irection": 1190,
      "imos": 1191,
      "Sch": 1192,
      "weise": 1193,
      "Policy": 1194,
      "ayed": 1195,
      "hy": 1196,
      "Last": 1197,
      "ょう": 1198,
      "Ġfunc": 1199,
      "oud": 1200,
      "illion": 1201,
      "Ġmul": 1202,
      "лим": 1203,
      "цион": 1204,
      "ению": 1205,
      "fen": 1206,
      "Ġpet": 1207,
      "unsch": 1208,
      "Ġnecess": 1209,
      "Ġnum": 1210,
      "Ġcommun": 1211,
      "aras": 1212,
      "Ġгра": 1213,
      "NA": 1214,
      "encial": 1215,
      "aisse": 1216,
      "Touch": 1217,
      "raction": 1218,
      "oter": 1219,
      "oplas": 1220,
      "Ġš": 1221,
      "One": 1222,
      "ingham": 1223,
      "uous": 1224,
      "oney": 1225,
      "amiento": 1226,
      "chiev": 1227,
      "Ġdign": 1228,
      "orno": 1229,
      "ダー": 1230,
      "Ġarm": 1231,
      "bind": 1232,
      "ĠMain": 1233,
      "Ġded": 1234,
      "ORE": 1235,
      "ritic": 1236,
      "osi": 1237,
      "uled": 1238,
      "uke": 1239,
      "Ġrot": 1240,
      "thal": 1241,
      "Ġwel": 1242,
      "Ġig": 1243,
      "ergic": 1244,
      "ĠSn": 1245,
      "utes": 1246,
      "ließ": 1247,
      "Ġung": 1248,
      "halt": 1249,
      "Asset": 1250,
      "ково": 1251,
      "Ġign": 1252,
      "aterial": 1253,
      "adam": 1254,
      "anor": 1255,
      "Ġcul": 1256,
      "ème": 1257,
      "ему": 1258,
      "apa": 1259,
      "ĠProm": 1260,
      "enna": 1261,
      "Ġprodu": 1262,
      "Btn": 1263,
      "ASS": 1264,
      "ober": 1265,
      "oved": 1266,
      "getS": 1267,
      "entlich": 1268,
      "Ġspect": 1269,
      "arkan": 1270,
      "Ġchi": 1271,
      "WE": 1272,
      "Ġja": 1273,
      "idazole": 1274,
      "Counter": 1275,
      "OB": 1276,
      "Ġdham": 1277,
      "ĠVers": 1278,
      "real": 1279,
      "иту": 1280,
      "rek": 1281,
      "ван": 1282,
      "Folder": 1283,
      "dev": 1284,
      "onna": 1285,
      "Ġpunct": 1286,
      "Rest": 1287,
      "amen": 1288,
      "Ġно": 1289,
      "ocker": 1290,
      "وری": 1291,
      "tal": 1292,
      "Ġgrav": 1293,
      "ĠFile": 1294,
      "اده": 1295,
      "Pix": 1296,
      "ალ": 1297,
      "ACE": 1298,
      "info": 1299,
      "atto": 1300,
      "ço": 1301,
      "uir": 1302,
      "abbam": 1303,
      "obs": 1304,
      "áp": 1305,
      "late": 1306,
      "Ġcell": 1307,
      "اص": 1308,
      "LED": 1309,
      "udar": 1310,
      "arbon": 1311,
      "Document": 1312,
      "ention": 1313,
      "bul": 1314,
      "Ġfire": 1315,
      "igning": 1316,
      "Ġont": 1317,
      "Ġक": 1318,
      "Ġanth": 1319,
      "Concept": 1320,
      "EP": 1321,
      "مت": 1322,
      "الب": 1323,
      "Tr": 1324,
      "epar": 1325,
      "ussian": 1326,
      "дно": 1327,
      "нова": 1328,
      "itrile": 1329,
      "Fit": 1330,
      "كم": 1331,
      "evo": 1332,
      "Make": 1333,
      "Ġcorrespond": 1334,
      "atable": 1335,
      "ვე": 1336,
      "Ġmort": 1337,
      "Ġmid": 1338,
      "است": 1339,
      "мя": 1340,
      "aron": 1341,
      "гре": 1342,
      "istent": 1343,
      "Ġthis": 1344,
      "ряд": 1345,
      "Ġasp": 1346,
      "inin": 1347,
      "agu": 1348,
      "ابل": 1349,
      "Sample": 1350,
      "ulum": 1351,
      "ần": 1352,
      "ٹر": 1353,
      "EA": 1354,
      "ifies": 1355,
      "mad": 1356,
      "uplic": 1357,
      "Ġlie": 1358,
      "yster": 1359,
      "rand": 1360,
      "bel": 1361,
      "ParaPkg": 1362,
      "ĠRUT": 1363,
      "ĠPers": 1364,
      "lymp": 1365,
      "Ġпров": 1366,
      "elu": 1367,
      "arga": 1368,
      "ĠGh": 1369,
      "Di": 1370,
      "Ġрабо": 1371,
      "avigation": 1372,
      "ĠGreen": 1373,
      "avour": 1374,
      "alty": 1375,
      "ılı": 1376,
      "Ġэк": 1377,
      "ются": 1378,
      "بت": 1379,
      "Ġле": 1380,
      "XY": 1381,
      "ea": 1382,
      "charg": 1383,
      "gel": 1384,
      "ilan": 1385,
      "Wall": 1386,
      "Ġeffect": 1387,
      "orie": 1388,
      "but": 1389,
      "Ġσυ": 1390,
      "ibly": 1391,
      "Byte": 1392,
      "Ġfamil": 1393,
      "تع": 1394,
      "zej": 1395,
      "Ġmast": 1396,
      "ibles": 1397,
      "сла": 1398,
      "AU": 1399,
      "anya": 1400,
      "wen": 1401,
      "Frame": 1402,
      "itro": 1403,
      "loc": 1404,
      "next": 1405,
      "uccess": 1406,
      "jen": 1407,
      "حت": 1408,
      "над": 1409,
      "illo": 1410,
      "cien": 1411,
      "Radius": 1412,
      "Ġорга": 1413,
      "нии": 1414,
      "Ġprogram": 1415,
      "param": 1416,
      "Store": 1417,
      "لف": 1418,
      "game": 1419,
      "omot": 1420,
      "Ġlleg": 1421,
      "Ġcross": 1422,
      "jav": 1423,
      "соб": 1424,
      "fab": 1425,
      "Ġép": 1426,
      "Ġالو": 1427,
      "ske": 1428,
      "eding": 1429,
      "Ġبت": 1430,
      "anim": 1431,
      "uman": 1432,
      "Ġviol": 1433,
      "Ġstart": 1434,
      "ირ": 1435,
      "gly": 1436,
      "uras": 1437,
      "apan": 1438,
      "Ġфор": 1439,
      "edge": 1440,
      "arak": 1441,
      "ocked": 1442,
      "ền": 1443,
      "Ġric": 1444,
      "ін": 1445,
      "équ": 1446,
      "isters": 1447,
      "рук": 1448,
      "сов": 1449,
      "Ġجم": 1450,
      "ĠNov": 1451,
      "eca": 1452,
      "ativa": 1453,
      "Ġمی": 1454,
      "capt": 1455,
      "Ġpoll": 1456,
      "ymbol": 1457,
      "access": 1458,
      "عه": 1459,
      "quest": 1460,
      "emente": 1461,
      "Ġκα": 1462,
      "くだ": 1463,
      "Ġcompet": 1464,
      "Ġbut": 1465,
      "ĠMerc": 1466,
      "overed": 1467,
      "racht": 1468,
      "cia": 1469,
      "estell": 1470,
      "KEY": 1471,
      "esus": 1472,
      "Theme": 1473,
      "adores": 1474,
      "trl": 1475,
      "RAM": 1476,
      "ahn": 1477,
      "มา": 1478,
      "wind": 1479,
      "dl": 1480,
      "JECT": 1481,
      "вро": 1482,
      "ák": 1483,
      "Ġnost": 1484,
      "ĠProp": 1485,
      "wt": 1486,
      "width": 1487,
      "Ġprepar": 1488,
      "fill": 1489,
      "ĠDal": 1490,
      "uku": 1491,
      "ading": 1492,
      "اں": 1493,
      "alph": 1494,
      "ĠHa": 1495,
      "iesz": 1496,
      "Ġtel": 1497,
      "Ġproced": 1498,
      "Ġbah": 1499,
      "ĠMaj": 1500,
      "cm": 1501,
      "uple": 1502,
      "ĠSa": 1503,
      "Choice": 1504,
      "angkan": 1505,
      "ئے": 1506,
      "GRAM": 1507,
      "agram": 1508,
      "tera": 1509,
      "Ġcustom": 1510,
      "ought": 1511,
      "Platform": 1512,
      "Ġpour": 1513,
      "aric": 1514,
      "olution": 1515,
      "ĠBas": 1516,
      "อบ": 1517,
      "follow": 1518,
      "Ġdar": 1519,
      "enny": 1520,
      "EMENT": 1521,
      "Ġclear": 1522,
      "LU": 1523,
      "getC": 1524,
      "alur": 1525,
      "Ġsitu": 1526,
      "arding": 1527,
      "method": 1528,
      "offset": 1529,
      "Ġalk": 1530,
      "rive": 1531,
      "lide": 1532,
      "king": 1533,
      "gun": 1534,
      "Ġсем": 1535,
      "Ġο": 1536,
      "ĠColl": 1537,
      "ĠБу": 1538,
      "Ġvalid": 1539,
      "Ġغ": 1540,
      "Ġsan": 1541,
      "Ġmatch": 1542,
      "Ġфу": 1543,
      "pg": 1544,
      "icts": 1545,
      "Ġгру": 1546,
      "Ġtemp": 1547,
      "atts": 1548,
      "angers": 1549,
      "Ġcard": 1550,
      "シャ": 1551,
      "undle": 1552,
      "Ġah": 1553,
      "Ġcad": 1554,
      "IND": 1555,
      "Ġلوب": 1556,
      "ups": 1557,
      "يف": 1558,
      "Ġالط": 1559,
      "Ġll": 1560,
      "kap": 1561,
      "کن": 1562,
      "Ġdeğ": 1563,
      "Ġafter": 1564,
      "éric": 1565,
      "avel": 1566,
      "時間": 1567,
      "ennes": 1568,
      "ĠUs": 1569,
      "Ġvor": 1570,
      "ections": 1571,
      "ulin": 1572,
      "ustomer": 1573,
      "Ġgy": 1574,
      "Spec": 1575,
      "unit": 1576,
      "ertain": 1577,
      "dig": 1578,
      "anced": 1579,
      "Pressed": 1580,
      "aret": 1581,
      "Ġbomb": 1582,
      "Ġhas": 1583,
      "uting": 1584,
      "Ext": 1585,
      "Order": 1586,
      "Direct": 1587,
      "BP": 1588,
      "aku": 1589,
      "iliar": 1590,
      "erior": 1591,
      "ĠSL": 1592,
      "ĠЗ": 1593,
      "ateur": 1594,
      "рь": 1595,
      "ĠAS": 1596,
      "cion": 1597,
      "Ġinsc": 1598,
      "Route": 1599,
      "イヤ": 1600,
      "Ġglob": 1601,
      "ĠGes": 1602,
      "Strip": 1603,
      "ĠAle": 1604,
      "Ġdrag": 1605,
      "apy": 1606,
      "Options": 1607,
      "CF": 1608,
      "FO": 1609,
      "atten": 1610,
      "hang": 1611,
      "рон": 1612,
      "Ġrag": 1613,
      "romo": 1614,
      "Ġpens": 1615,
      "ველ": 1616,
      "Ġче": 1617,
      "Password": 1618,
      "atar": 1619,
      "Ġbarb": 1620,
      "Ġbud": 1621,
      "Take": 1622,
      "osk": 1623,
      "Ġshort": 1624,
      "viron": 1625,
      "istan": 1626,
      "rief": 1627,
      "quir": 1628,
      "Ġeconom": 1629,
      "ży": 1630,
      "usted": 1631,
      "ĠGir": 1632,
      "чу": 1633,
      "prim": 1634,
      "ĠDist": 1635,
      "ავ": 1636,
      "ocs": 1637,
      "olly": 1638,
      "Media": 1639,
      "Ġrid": 1640,
      "oten": 1641,
      "ench": 1642,
      "Ġimpro": 1643,
      "cn": 1644,
      "イル": 1645,
      "Ġul": 1646,
      "ibb": 1647,
      "Ġsof": 1648,
      "Display": 1649,
      "σι": 1650,
      "Ġdetermin": 1651,
      "iso": 1652,
      "อก": 1653,
      "ĠSRP": 1654,
      "with": 1655,
      "akk": 1656,
      "anna": 1657,
      "ocking": 1658,
      "strument": 1659,
      "omas": 1660,
      "alled": 1661,
      "etti": 1662,
      "Ġkull": 1663,
      "sun": 1664,
      "atern": 1665,
      "fér": 1666,
      "ós": 1667,
      "umps": 1668,
      "کی": 1669,
      "Package": 1670,
      "ĠDr": 1671,
      "Ġrich": 1672,
      "Ġболь": 1673,
      "ھی": 1674,
      "さん": 1675,
      "Pop": 1676,
      "Serial": 1677,
      "ật": 1678,
      "Ġobs": 1679,
      "anted": 1680,
      "cut": 1681,
      "orsch": 1682,
      "ĠPack": 1683,
      "Ġconsequ": 1684,
      "ression": 1685,
      "Factory": 1686,
      "ĠBoy": 1687,
      "ült": 1688,
      "ĠNS": 1689,
      "Ġدر": 1690,
      "وین": 1691,
      "ĠSH": 1692,
      "emin": 1693,
      "ĠCas": 1694,
      "vant": 1695,
      "Ġvy": 1696,
      "roly": 1697,
      "ĠBrid": 1698,
      "ĠHay": 1699,
      "index": 1700,
      "iform": 1701,
      "ceğ": 1702,
      "ĠFil": 1703,
      "icture": 1704,
      "ĠFeder": 1705,
      "aikum": 1706,
      "ribution": 1707,
      "uran": 1708,
      "Ġnan": 1709,
      "BU": 1710,
      "orate": 1711,
      "olding": 1712,
      "ulg": 1713,
      "лови": 1714,
      "firm": 1715,
      "case": 1716,
      "ĠResp": 1717,
      "Ġду": 1718,
      "мента": 1719,
      "ĠВа": 1720,
      "Ġru": 1721,
      "ashes": 1722,
      "Ġci": 1723,
      "ილ": 1724,
      "hatt": 1725,
      "Ġkal": 1726,
      "れる": 1727,
      "Ġminim": 1728,
      "Graph": 1729,
      "Ġhigh": 1730,
      "gre": 1731,
      "Ġje": 1732,
      "ushing": 1733,
      "arily": 1734,
      "shal": 1735,
      "Ġστ": 1736,
      "ERN": 1737,
      "íd": 1738,
      "Category": 1739,
      "util": 1740,
      "شر": 1741,
      "ORY": 1742,
      "sim": 1743,
      "Can": 1744,
      "ĠExp": 1745,
      "hyd": 1746,
      "ოს": 1747,
      "ayo": 1748,
      "agement": 1749,
      "NO": 1750,
      "Dep": 1751,
      "edding": 1752,
      "Ġraz": 1753,
      "Ġdeclar": 1754,
      "Ġvul": 1755,
      "teen": 1756,
      "ĠHand": 1757,
      "кло": 1758,
      "Ġinterview": 1759,
      "Loc": 1760,
      "Ġshow": 1761,
      "Ġharm": 1762,
      "Ġmane": 1763,
      "Ġerg": 1764,
      "emper": 1765,
      "Ġabh": 1766,
      "ocon": 1767,
      "това": 1768,
      "aug": 1769,
      "ří": 1770,
      "ده": 1771,
      "ushroom": 1772,
      "ĠThe": 1773,
      "annel": 1774,
      "ĠWat": 1775,
      "prend": 1776,
      "Ġвысо": 1777,
      "Ġاخ": 1778,
      "بار": 1779,
      "فت": 1780,
      "Delete": 1781,
      "тно": 1782,
      "uba": 1783,
      "Used": 1784,
      "Ġúlt": 1785,
      "ĠSac": 1786,
      "formation": 1787,
      "Ġoptim": 1788,
      "otre": 1789,
      "Ġdr": 1790,
      "зда": 1791,
      "clusion": 1792,
      "лось": 1793,
      "pres": 1794,
      "ieder": 1795,
      "λε": 1796,
      "prise": 1797,
      "Ġdess": 1798,
      "Ġquad": 1799,
      "First": 1800,
      "Ġball": 1801,
      "ержа": 1802,
      "Ġrespect": 1803,
      "дь": 1804,
      "Cle": 1805,
      "tered": 1806,
      "wan": 1807,
      "osta": 1808,
      "зва": 1809,
      "आई": 1810,
      "Ġatth": 1811,
      "Ġsumm": 1812,
      "cek": 1813,
      "omatic": 1814,
      "Ġlu": 1815,
      "eres": 1816,
      "aine": 1817,
      "ounds": 1818,
      "acing": 1819,
      "Ġби": 1820,
      "ancing": 1821,
      "dest": 1822,
      "ects": 1823,
      "Flight": 1824,
      "মন": 1825,
      "graph": 1826,
      "rang": 1827,
      "Ġgrand": 1828,
      "hole": 1829,
      "uits": 1830,
      "ERT": 1831,
      "Utils": 1832,
      "Ġud": 1833,
      "Ġრ": 1834,
      "Ġzn": 1835,
      "stitution": 1836,
      "aty": 1837,
      "clude": 1838,
      "ervation": 1839,
      "azi": 1840,
      "Ġañ": 1841,
      "bas": 1842,
      "group": 1843,
      "ĠRah": 1844,
      "ßer": 1845,
      "Ġrespons": 1846,
      "erein": 1847,
      "DO": 1848,
      "itness": 1849,
      "Print": 1850,
      "rene": 1851,
      "ラス": 1852,
      "ogy": 1853,
      "رة": 1854,
      "iels": 1855,
      "clusive": 1856,
      "Ġбукмекер": 1857,
      "esar": 1858,
      "Ġtow": 1859,
      "ファ": 1860,
      "otyp": 1861,
      "rying": 1862,
      "body": 1863,
      "nav": 1864,
      "Ġdik": 1865,
      "Ġgan": 1866,
      "idity": 1867,
      "ĠWik": 1868,
      "asse": 1869,
      "Ġgö": 1870,
      "ποι": 1871,
      "гі": 1872,
      "Ġadapt": 1873,
      "then": 1874,
      "Ġnorm": 1875,
      "argo": 1876,
      "SXml": 1877,
      "ставля": 1878,
      "ĠMull": 1879,
      "Ġcerc": 1880,
      "onz": 1881,
      "чения": 1882,
      "orrh": 1883,
      "Ġrecom": 1884,
      "Ġmach": 1885,
      "шу": 1886,
      "Ġforg": 1887,
      "élé": 1888,
      "sad": 1889,
      "ĠBow": 1890,
      "Ġroll": 1891,
      "DU": 1892,
      "Ġital": 1893,
      "coll": 1894,
      "Ġdoub": 1895,
      "olu": 1896,
      "ĠFair": 1897,
      "Ġtok": 1898,
      "TI": 1899,
      "ĠMel": 1900,
      "ĠEt": 1901,
      "cript": 1902,
      "Ġpag": 1903,
      "ipper": 1904,
      "peg": 1905,
      "uesta": 1906,
      "Ġnut": 1907,
      "osin": 1908,
      "ilation": 1909,
      "ieve": 1910,
      "Ġug": 1911,
      "abet": 1912,
      "fall": 1913,
      "iast": 1914,
      "Ġindivid": 1915,
      "Ġdivers": 1916,
      "olut": 1917,
      "коно": 1918,
      "ĠOB": 1919,
      "imon": 1920,
      "Matrix": 1921,
      "ución": 1922,
      "Ġpend": 1923,
      "position": 1924,
      "Reference": 1925,
      "stack": 1926,
      "публи": 1927,
      "Ġgal": 1928,
      "нее": 1929,
      "IX": 1930,
      "ensity": 1931,
      "äft": 1932,
      "asted": 1933,
      "ĠOp": 1934,
      "Popup": 1935,
      "ロー": 1936,
      "inguish": 1937,
      "ecer": 1938,
      "فس": 1939,
      "rington": 1940,
      "Ġproc": 1941,
      "oval": 1942,
      "child": 1943,
      "STR": 1944,
      "Offset": 1945,
      "baj": 1946,
      "sign": 1947,
      "ęp": 1948,
      "вання": 1949,
      "icion": 1950,
      "eming": 1951,
      "Match": 1952,
      "uddh": 1953,
      "ĠHttp": 1954,
      "unity": 1955,
      "лександ": 1956,
      "Ġmenj": 1957,
      "mos": 1958,
      "ześ": 1959,
      "Thread": 1960,
      "Ġdata": 1961,
      "Ġconsider": 1962,
      "top": 1963,
      "nic": 1964,
      "Ġтре": 1965,
      "Hel": 1966,
      "Ġreflect": 1967,
      "Ġindic": 1968,
      "Ġए": 1969,
      "La": 1970,
      "ذا": 1971,
      "Ġtrat": 1972,
      "ĠWest": 1973,
      "ĠMy": 1974,
      "osing": 1975,
      "If": 1976,
      "leb": 1977,
      "orks": 1978,
      "ĠInput": 1979,
      "öglich": 1980,
      "Ġsequ": 1981,
      "тери": 1982,
      "ĠList": 1983,
      "asket": 1984,
      "ropy": 1985,
      "itten": 1986,
      "urry": 1987,
      "esk": 1988,
      "Hash": 1989,
      "iendo": 1990,
      "Ġም": 1991,
      "Integer": 1992,
      "rock": 1993,
      "Center": 1994,
      "akukan": 1995,
      "Ġaust": 1996,
      "Ġpropag": 1997,
      "erry": 1998,
      "Ġllev": 1999,
      "Ġпол": 2000,
      "Ġovert": 2001,
      "izi": 2002,
      "Ġce": 2003,
      "Ġmens": 2004,
      "という": 2005,
      "امی": 2006,
      "Ġobt": 2007,
      "נו": 2008,
      "Ġsek": 2009,
      "йд": 2010,
      "Ġspo": 2011,
      "ĠIT": 2012,
      "ận": 2013,
      "ohl": 2014,
      "цы": 2015,
      "ogenic": 2016,
      "aping": 2017,
      "ellular": 2018,
      "LAG": 2019,
      "Ġsum": 2020,
      "Ġpract": 2021,
      "olom": 2022,
      "mal": 2023,
      "Ġstra": 2024,
      "OLL": 2025,
      "aving": 2026,
      "Ver": 2027,
      "racted": 2028,
      "كي": 2029,
      "ĠFig": 2030,
      "ất": 2031,
      "ented": 2032,
      "arian": 2033,
      "šen": 2034,
      "itel": 2035,
      "プレ": 2036,
      "ocia": 2037,
      "Ġmanip": 2038,
      "ICT": 2039,
      "Ġplayer": 2040,
      "Ġwors": 2041,
      "Net": 2042,
      "ĠSign": 2043,
      "rodu": 2044,
      "ragment": 2045,
      "iful": 2046,
      "ĠBeg": 2047,
      "TON": 2048,
      "aju": 2049,
      "Ġconvers": 2050,
      "cr": 2051,
      "come": 2052,
      "Ġdom": 2053,
      "кси": 2054,
      "kes": 2055,
      "uate": 2056,
      "itone": 2057,
      "Ġrein": 2058,
      "aceut": 2059,
      "Ġ그": 2060,
      "ĠBang": 2061,
      "acle": 2062,
      "ĠUser": 2063,
      "Ġየ": 2064,
      "Ġcontin": 2065,
      "Ġдол": 2066,
      "jected": 2067,
      "Ġgroup": 2068,
      "Ġrecip": 2069,
      "show": 2070,
      "Ġchamp": 2071,
      "ikh": 2072,
      "astro": 2073,
      "ĠAugust": 2074,
      "vil": 2075,
      "Ġfig": 2076,
      "eph": 2077,
      "encing": 2078,
      "Shape": 2079,
      "uments": 2080,
      "pearance": 2081,
      "Ġжа": 2082,
      "Ġluc": 2083,
      "esz": 2084,
      "Ġcred": 2085,
      "avid": 2086,
      "icals": 2087,
      "anny": 2088,
      "óc": 2089,
      "ĠObject": 2090,
      "ORK": 2091,
      "ucht": 2092,
      "Ġaument": 2093,
      "Ġmog": 2094,
      "Ġbull": 2095,
      "ukh": 2096,
      "onia": 2097,
      "sv": 2098,
      "artz": 2099,
      "uč": 2100,
      "Ġbenef": 2101,
      "Ġmess": 2102,
      "Ġtek": 2103,
      "ĠChrist": 2104,
      "inya": 2105,
      "stell": 2106,
      "Ġconduct": 2107,
      "Work": 2108,
      "isan": 2109,
      "Ġнеоб": 2110,
      "ferences": 2111,
      "lef": 2112,
      "Ġス": 2113,
      "Ġпоз": 2114,
      "Changed": 2115,
      "Ġкаж": 2116,
      "Ġoblig": 2117,
      "Ġcalcul": 2118,
      "カー": 2119,
      "ople": 2120,
      "თი": 2121,
      "utation": 2122,
      "Ġث": 2123,
      "Op": 2124,
      "elijk": 2125,
      "heim": 2126,
      "нг": 2127,
      "orde": 2128,
      "idence": 2129,
      "ruch": 2130,
      "Ġdeter": 2131,
      "Ġip": 2132,
      "Ġመ": 2133,
      "ogged": 2134,
      "ographic": 2135,
      "emic": 2136,
      "left": 2137,
      "ugs": 2138,
      "Ġmyc": 2139,
      "Ġdefault": 2140,
      "ĠDh": 2141,
      "ının": 2142,
      "lag": 2143,
      "ición": 2144,
      "ransp": 2145,
      "Ġfinal": 2146,
      "igne": 2147,
      "Scale": 2148,
      "istance": 2149,
      "Ġrandom": 2150,
      "inters": 2151,
      "صف": 2152,
      "ください": 2153,
      "orption": 2154,
      "arde": 2155,
      "Ġhost": 2156,
      "rium": 2157,
      "Ġhalf": 2158,
      "qtt": 2159,
      "Leg": 2160,
      "Ġکرد": 2161,
      "Ġmain": 2162,
      "ານ": 2163,
      "foot": 2164,
      "Ġдоб": 2165,
      "ĠDun": 2166,
      "Ġriv": 2167,
      "sql": 2168,
      "agre": 2169,
      "строй": 2170,
      "Ġfield": 2171,
      "ARR": 2172,
      "orted": 2173,
      "ricult": 2174,
      "Ġобъ": 2175,
      "тя": 2176,
      "SrvGroup": 2177,
      "AI": 2178,
      "asti": 2179,
      "اور": 2180,
      "âm": 2181,
      "Ġaqu": 2182,
      "posed": 2183,
      "mont": 2184,
      "ად": 2185,
      "aning": 2186,
      "uffered": 2187,
      "לי": 2188,
      "Ġש": 2189,
      "ーツ": 2190,
      "ualaikum": 2191,
      "Ġश": 2192,
      "espace": 2193,
      "ĠLak": 2194,
      "лько": 2195,
      "Ġcorrect": 2196,
      "uber": 2197,
      "pon": 2198,
      "aters": 2199,
      "orne": 2200,
      "ĠLib": 2201,
      "mus": 2202,
      "ĠLy": 2203,
      "omial": 2204,
      "しょう": 2205,
      "Ġرو": 2206,
      "Ġlem": 2207,
      "コン": 2208,
      "Ġmá": 2209,
      "using": 2210,
      "asar": 2211,
      "ĠMas": 2212,
      "รรม": 2213,
      "CU": 2214,
      "ĠEug": 2215,
      "Ġadh": 2216,
      "quo": 2217,
      "vach": 2218,
      "eba": 2219,
      "Ġincomp": 2220,
      "かった": 2221,
      "Ġส": 2222,
      "regn": 2223,
      "ophor": 2224,
      "iao": 2225,
      "ρί": 2226,
      "ĠFab": 2227,
      "mid": 2228,
      "ĠMort": 2229,
      "inite": 2230,
      "лары": 2231,
      "west": 2232,
      "érieur": 2233,
      "poss": 2234,
      "ĠLog": 2235,
      "Ġкан": 2236,
      "tto": 2237,
      "ührt": 2238,
      "akespe": 2239,
      "чет": 2240,
      "ریک": 2241,
      "ounding": 2242,
      "Ġload": 2243,
      "Ġاج": 2244,
      "ucker": 2245,
      "âtre": 2246,
      "Ġcontinu": 2247,
      "ると": 2248,
      "Ġcust": 2249,
      "ĠPand": 2250,
      "вно": 2251,
      "atural": 2252,
      "oso": 2253,
      "Local": 2254,
      "into": 2255,
      "Ġecon": 2256,
      "Ġbek": 2257,
      "Ġсер": 2258,
      "raper": 2259,
      "oping": 2260,
      "ĠQU": 2261,
      "خص": 2262,
      "ĠEnc": 2263,
      "izable": 2264,
      "charge": 2265,
      "orig": 2266,
      "Ġlaw": 2267,
      "Selector": 2268,
      "ahkan": 2269,
      "Ġcaus": 2270,
      "Ġstock": 2271,
      "VCT": 2272,
      "стан": 2273,
      "ĠAuth": 2274,
      "شن": 2275,
      "ĠEss": 2276,
      "arca": 2277,
      "iek": 2278,
      "Ġmarch": 2279,
      "Ġsecond": 2280,
      "Ġtart": 2281,
      "rave": 2282,
      "CV": 2283,
      "orp": 2284,
      "JSON": 2285,
      "Ġsmooth": 2286,
      "ective": 2287,
      "rament": 2288,
      "isch": 2289,
      "Ġcircum": 2290,
      "Ġincl": 2291,
      "arge": 2292,
      "Ġvig": 2293,
      "apol": 2294,
      "ĠRES": 2295,
      "sem": 2296,
      "ruit": 2297,
      "obacter": 2298,
      "GT": 2299,
      "การ": 2300,
      "Async": 2301,
      "ĠКа": 2302,
      "ustic": 2303,
      "ĠRob": 2304,
      "Pe": 2305,
      "Ġmodern": 2306,
      "ICATION": 2307,
      "curs": 2308,
      "лада": 2309,
      "νο": 2310,
      "Ġku": 2311,
      "oods": 2312,
      "бле": 2313,
      "úbl": 2314,
      "Ġات": 2315,
      "cover": 2316,
      "Ġlin": 2317,
      "ĠData": 2318,
      "berry": 2319,
      "Math": 2320,
      "ARG": 2321,
      "brack": 2322,
      "Ġtant": 2323,
      "ắn": 2324,
      "Ġacet": 2325,
      "inth": 2326,
      "GL": 2327,
      "Flag": 2328,
      "ilda": 2329,
      "Ġwid": 2330,
      "Ġktó": 2331,
      "ادی": 2332,
      "Ġcall": 2333,
      "olean": 2334,
      "слу": 2335,
      "TERN": 2336,
      "ecu": 2337,
      "ları": 2338,
      "obe": 2339,
      "Ġχρ": 2340,
      "Ġwild": 2341,
      "ĠЧ": 2342,
      "ĠDav": 2343,
      "abbo": 2344,
      "ĠPass": 2345,
      "投资": 2346,
      "եր": 2347,
      "гля": 2348,
      "Ġdu": 2349,
      "apon": 2350,
      "Ġneigh": 2351,
      "мат": 2352,
      "exec": 2353,
      "Detail": 2354,
      "afe": 2355,
      "ĠВай": 2356,
      "Ġbot": 2357,
      "ĠPop": 2358,
      "direct": 2359,
      "bow": 2360,
      "udan": 2361,
      "Ġduk": 2362,
      "ascular": 2363,
      "Ġnek": 2364,
      "athe": 2365,
      "Ġис": 2366,
      "neh": 2367,
      "леду": 2368,
      "Host": 2369,
      "Ġпослед": 2370,
      "ENTS": 2371,
      "бря": 2372,
      "Ġquot": 2373,
      "Mutability": 2374,
      "Com": 2375,
      "гла": 2376,
      "lat": 2377,
      "Ġfert": 2378,
      "inta": 2379,
      "Ġзем": 2380,
      "atos": 2381,
      "erview": 2382,
      "Ġmass": 2383,
      "Ġresc": 2384,
      "йти": 2385,
      "Ġprés": 2386,
      "Ġsadd": 2387,
      "eded": 2388,
      "рат": 2389,
      "ĠTH": 2390,
      "Ġvic": 2391,
      "fetch": 2392,
      "ĠNP": 2393,
      "lid": 2394,
      "ween": 2395,
      "dep": 2396,
      "Ġbod": 2397,
      "Ġparab": 2398,
      "ĠLev": 2399,
      "Ġprem": 2400,
      "Ġmaxim": 2401,
      "resses": 2402,
      "дела": 2403,
      "akath": 2404,
      "Ġtransform": 2405,
      "ewn": 2406,
      "eping": 2407,
      "mission": 2408,
      "lest": 2409,
      "zz": 2410,
      "ifs": 2411,
      "AIL": 2412,
      "ĠElect": 2413,
      "Ġble": 2414,
      "igan": 2415,
      "Prim": 2416,
      "pression": 2417,
      "ilian": 2418,
      "ĠÁ": 2419,
      "Ġア": 2420,
      "Animation": 2421,
      "Ġauth": 2422,
      "Ġsau": 2423,
      "Ġbit": 2424,
      "XXXX": 2425,
      "Ġlymph": 2426,
      "Ġmotiv": 2427,
      "عد": 2428,
      "anca": 2429,
      "oline": 2430,
      "طلا": 2431,
      "SK": 2432,
      "orz": 2433,
      "emo": 2434,
      "margin": 2435,
      "пер": 2436,
      "ettes": 2437,
      "Ġfavor": 2438,
      "iration": 2439,
      "Ġling": 2440,
      "amed": 2441,
      "riage": 2442,
      "Ġimport": 2443,
      "frame": 2444,
      "iere": 2445,
      "rites": 2446,
      "בר": 2447,
      "away": 2448,
      "mitted": 2449,
      "Ġвід": 2450,
      "ionally": 2451,
      "ships": 2452,
      "ican": 2453,
      "termin": 2454,
      "Ġinvestig": 2455,
      "ĠMann": 2456,
      "click": 2457,
      "ean": 2458,
      "ija": 2459,
      "osto": 2460,
      "Unary": 2461,
      "Ġsuit": 2462,
      "egas": 2463,
      "Ġně": 2464,
      "teenth": 2465,
      "Ġsold": 2466,
      "ĠOrd": 2467,
      "ocity": 2468,
      "inas": 2469,
      "omat": 2470,
      "ishes": 2471,
      "Ġcort": 2472,
      "orrow": 2473,
      "Bad": 2474,
      "Navigator": 2475,
      "Ġcoinc": 2476,
      "าง": 2477,
      "olves": 2478,
      "EAR": 2479,
      "ład": 2480,
      "OLD": 2481,
      "íf": 2482,
      "Ġhaz": 2483,
      "том": 2484,
      "ثر": 2485,
      "tw": 2486,
      "Ġcharg": 2487,
      "bib": 2488,
      "ائی": 2489,
      "Ġgeh": 2490,
      "Ġrun": 2491,
      "知道": 2492,
      "ccion": 2493,
      "ĠMcKin": 2494,
      "ogue": 2495,
      "Ġoverc": 2496,
      "aled": 2497,
      "ĠDar": 2498,
      "Ġpep": 2499,
      "anı": 2500,
      "kol": 2501,
      "Rew": 2502,
      "них": 2503,
      "ping": 2504,
      "ሪያ": 2505,
      "Ġdifer": 2506,
      "lyn": 2507,
      "Each": 2508,
      "Ġsolic": 2509,
      "Ġuit": 2510,
      "Ġtang": 2511,
      "oving": 2512,
      "ĠKh": 2513,
      "emble": 2514,
      "ナー": 2515,
      "alo": 2516,
      "sson": 2517,
      "<UNK>": 2518
    },
    "old_vocab": {
      "!": 0,
      "\"": 1,
      "#": 2,
      "$": 3,
      "%": 4,
      "&": 5,
      "'": 6,
      "(": 7,
      ")": 8,
      "*": 9,
      "+": 10,
      ",": 11,
      "-": 12,
      ".": 13,
      "/": 14,
      "0": 15,
      "1": 16,
      "2": 17,
      "3": 18,
      "4": 19,
      "5": 20,
      "6": 21,
      "7": 22,
      "8": 23,
      "9": 24,
      ":": 25,
      ";": 26,
      "<": 27,
      "=": 28,
      ">": 29,
      "?": 30,
      "@": 31,
      "A": 32,
      "B": 33,
      "C": 34,
      "D": 35,
      "E": 36,
      "F": 37,
      "G": 38,
      "H": 39,
      "I": 40,
      "J": 41,
      "K": 42,
      "L": 43,
      "M": 44,
      "N": 45,
      "O": 46,
      "P": 47,
      "Q": 48,
      "R": 49,
      "S": 50,
      "T": 51,
      "U": 52,
      "V": 53,
      "W": 54,
      "X": 55,
      "Y": 56,
      "Z": 57,
      "[": 58,
      "\\": 59,
      "]": 60,
      "^": 61,
      "_": 62,
      "`": 63,
      "a": 64,
      "b": 65,
      "c": 66,
      "d": 67,
      "e": 68,
      "f": 69,
      "g": 70,
      "h": 71,
      "i": 72,
      "j": 73,
      "k": 74,
      "l": 75,
      "m": 76,
      "n": 77,
      "o": 78,
      "p": 79,
      "q": 80,
      "r": 81,
      "s": 82,
      "t": 83,
      "u": 84,
      "v": 85,
      "w": 86,
      "x": 87,
      "y": 88,
      "z": 89,
      "{": 90,
      "|": 91,
      "}": 92,
      "~": 93,
      "¡": 94,
      "¢": 95,
      "£": 96,
      "¤": 97,
      "¥": 98,
      "¦": 99,
      "§": 100,
      "¨": 101,
      "©": 102,
      "ª": 103,
      "«": 104,
      "¬": 105,
      "®": 106,
      "¯": 107,
      "°": 108,
      "±": 109,
      "²": 110,
      "³": 111,
      "´": 112,
      "µ": 113,
      "¶": 114,
      "·": 115,
      "¸": 116,
      "¹": 117,
      "º": 118,
      "»": 119,
      "¼": 120,
      "½": 121,
      "¾": 122,
      "¿": 123,
      "À": 124,
      "Á": 125,
      "Â": 126,
      "Ã": 127,
      "Ä": 128,
      "Å": 129,
      "Æ": 130,
      "Ç": 131,
      "È": 132,
      "É": 133,
      "Ê": 134,
      "Ë": 135,
      "Ì": 136,
      "Í": 137,
      "Î": 138,
      "Ï": 139,
      "Ð": 140,
      "Ñ": 141,
      "Ò": 142,
      "Ó": 143,
      "Ô": 144,
      "Õ": 145,
      "Ö": 146,
      "×": 147,
      "Ø": 148,
      "Ù": 149,
      "Ú": 150,
      "Û": 151,
      "Ü": 152,
      "Ý": 153,
      "Þ": 154,
      "ß": 155,
      "à": 156,
      "á": 157,
      "â": 158,
      "ã": 159,
      "ä": 160,
      "å": 161,
      "æ": 162,
      "ç": 163,
      "è": 164,
      "é": 165,
      "ê": 166,
      "ë": 167,
      "ì": 168,
      "í": 169,
      "î": 170,
      "ï": 171,
      "ð": 172,
      "ñ": 173,
      "ò": 174,
      "ó": 175,
      "ô": 176,
      "õ": 177,
      "ö": 178,
      "÷": 179,
      "ø": 180,
      "ù": 181,
      "ú": 182,
      "û": 183,
      "ü": 184,
      "ý": 185,
      "þ": 186,
      "ÿ": 187,
      "Ā": 188,
      "ā": 189,
      "Ă": 190,
      "ă": 191,
      "Ą": 192,
      "ą": 193,
      "Ć": 194,
      "ć": 195,
      "Ĉ": 196,
      "ĉ": 197,
      "Ċ": 198,
      "ċ": 199,
      "Č": 200,
      "č": 201,
      "Ď": 202,
      "ď": 203,
      "Đ": 204,
      "đ": 205,
      "Ē": 206,
      "ē": 207,
      "Ĕ": 208,
      "ĕ": 209,
      "Ė": 210,
      "ė": 211,
      "Ę": 212,
      "ę": 213,
      "Ě": 214,
      "ě": 215,
      "Ĝ": 216,
      "ĝ": 217,
      "Ğ": 218,
      "ğ": 219,
      "Ġ": 220,
      "ġ": 221,
      "Ģ": 222,
      "ģ": 223,
      "Ĥ": 224,
      "ĥ": 225,
      "Ħ": 226,
      "ħ": 227,
      "Ĩ": 228,
      "ĩ": 229,
      "Ī": 230,
      "ī": 231,
      "Ĭ": 232,
      "ĭ": 233,
      "Į": 234,
      "į": 235,
      "İ": 236,
      "ı": 237,
      "Ĳ": 238,
      "ĳ": 239,
      "Ĵ": 240,
      "ĵ": 241,
      "Ķ": 242,
      "ķ": 243,
      "ĸ": 244,
      "Ĺ": 245,
      "ĺ": 246,
      "Ļ": 247,
      "ļ": 248,
      "Ľ": 249,
      "ľ": 250,
      "Ŀ": 251,
      "ŀ": 252,
      "Ł": 253,
      "ł": 254,
      "Ń": 255,
      "ń": 256,
      "ņ": 257,
      "ň": 258,
      "ō": 259,
      "ő": 260,
      "œ": 261,
      "ř": 262,
      "Ś": 263,
      "ś": 264,
      "Ş": 265,
      "ş": 266,
      "Š": 267,
      "š": 268,
      "ţ": 269,
      "ť": 270,
      "ũ": 271,
      "ū": 272,
      "ŭ": 273,
      "ů": 274,
      "ű": 275,
      "ų": 276,
      "ź": 277,
      "ż": 278,
      "ž": 279,
      "ſ": 280,
      "ơ": 281,
      "Ư": 282,
      "ư": 283,
      "ǎ": 284,
      "ǒ": 285,
      "ș": 286,
      "ț": 287,
      "ə": 288,
      "Α": 289,
      "Γ": 290,
      "Δ": 291,
      "Ε": 292,
      "Κ": 293,
      "Μ": 294,
      "Π": 295,
      "Σ": 296,
      "ά": 297,
      "έ": 298,
      "ή": 299,
      "ί": 300,
      "α": 301,
      "β": 302,
      "γ": 303,
      "δ": 304,
      "ε": 305,
      "ζ": 306,
      "η": 307,
      "θ": 308,
      "ι": 309,
      "κ": 310,
      "λ": 311,
      "μ": 312,
      "ν": 313,
      "ξ": 314,
      "ο": 315,
      "π": 316,
      "ρ": 317,
      "ς": 318,
      "σ": 319,
      "τ": 320,
      "υ": 321,
      "φ": 322,
      "χ": 323,
      "ψ": 324,
      "ω": 325,
      "ϊ": 326,
      "ό": 327,
      "ύ": 328,
      "ώ": 329,
      "Є": 330,
      "І": 331,
      "А": 332,
      "Б": 333,
      "В": 334,
      "Г": 335,
      "Д": 336,
      "Е": 337,
      "Ж": 338,
      "З": 339,
      "И": 340,
      "К": 341,
      "Л": 342,
      "М": 343,
      "Н": 344,
      "О": 345,
      "П": 346,
      "Р": 347,
      "С": 348,
      "Т": 349,
      "У": 350,
      "Ф": 351,
      "Х": 352,
      "Ц": 353,
      "Ч": 354,
      "Ш": 355,
      "Ь": 356,
      "Э": 357,
      "Ю": 358,
      "Я": 359,
      "а": 360,
      "б": 361,
      "в": 362,
      "г": 363,
      "д": 364,
      "е": 365,
      "ж": 366,
      "з": 367,
      "и": 368,
      "й": 369,
      "к": 370,
      "л": 371,
      "м": 372,
      "н": 373,
      "о": 374,
      "п": 375,
      "р": 376,
      "с": 377,
      "т": 378,
      "у": 379,
      "ф": 380,
      "х": 381,
      "ц": 382,
      "ч": 383,
      "ш": 384,
      "щ": 385,
      "ъ": 386,
      "ы": 387,
      "ь": 388,
      "э": 389,
      "ю": 390,
      "я": 391,
      "ё": 392,
      "ђ": 393,
      "є": 394,
      "і": 395,
      "ї": 396,
      "ј": 397,
      "љ": 398,
      "њ": 399,
      "ћ": 400,
      "ў": 401,
      "ғ": 402,
      "җ": 403,
      "қ": 404,
      "ң": 405,
      "ү": 406,
      "ҳ": 407,
      "һ": 408,
      "Ӏ": 409,
      "ә": 410,
      "ө": 411,
      "ա": 412,
      "գ": 413,
      "դ": 414,
      "ե": 415,
      "զ": 416,
      "է": 417,
      "ը": 418,
      "թ": 419,
      "ի": 420,
      "լ": 421,
      "ծ": 422,
      "կ": 423,
      "հ": 424,
      "մ": 425,
      "յ": 426,
      "ն": 427,
      "ո": 428,
      "չ": 429,
      "պ": 430,
      "ջ": 431,
      "ռ": 432,
      "ս": 433,
      "վ": 434,
      "տ": 435,
      "ր": 436,
      "ց": 437,
      "ւ": 438,
      "ք": 439,
      "א": 440,
      "ב": 441,
      "ג": 442,
      "ד": 443,
      "ה": 444,
      "ו": 445,
      "ז": 446,
      "ח": 447,
      "ט": 448,
      "י": 449,
      "ך": 450,
      "כ": 451,
      "ל": 452,
      "ם": 453,
      "מ": 454,
      "ן": 455,
      "נ": 456,
      "ס": 457,
      "ע": 458,
      "פ": 459,
      "צ": 460,
      "ק": 461,
      "ר": 462,
      "ש": 463,
      "ת": 464,
      "ء": 465,
      "آ": 466,
      "أ": 467,
      "ؤ": 468,
      "إ": 469,
      "ئ": 470,
      "ا": 471,
      "ب": 472,
      "ة": 473,
      "ت": 474,
      "ث": 475,
      "ج": 476,
      "ح": 477,
      "خ": 478,
      "د": 479,
      "ذ": 480,
      "ر": 481,
      "ز": 482,
      "س": 483,
      "ش": 484,
      "ص": 485,
      "ض": 486,
      "ط": 487,
      "ظ": 488,
      "ع": 489,
      "غ": 490,
      "ـ": 491,
      "ف": 492,
      "ق": 493,
      "ك": 494,
      "ل": 495,
      "م": 496,
      "ن": 497,
      "ه": 498,
      "و": 499,
      "ى": 500,
      "ي": 501,
      "ٹ": 502,
      "ټ": 503,
      "پ": 504,
      "ځ": 505,
      "څ": 506,
      "چ": 507,
      "ڈ": 508,
      "ډ": 509,
      "ڑ": 510,
      "ړ": 511,
      "ږ": 512,
      "ژ": 513,
      "ک": 514,
      "ڪ": 515,
      "ګ": 516,
      "ڭ": 517,
      "گ": 518,
      "ں": 519,
      "ڻ": 520,
      "ھ": 521,
      "ۀ": 522,
      "ہ": 523,
      "ی": 524,
      "ۍ": 525,
      "ێ": 526,
      "ې": 527,
      "ے": 528,
      "ە": 529,
      "अ": 530,
      "आ": 531,
      "इ": 532,
      "ई": 533,
      "उ": 534,
      "ऊ": 535,
      "ऋ": 536,
      "ए": 537,
      "ऑ": 538,
      "ओ": 539,
      "औ": 540,
      "क": 541,
      "ख": 542,
      "ग": 543,
      "घ": 544,
      "च": 545,
      "ज": 546,
      "झ": 547,
      "ट": 548,
      "ठ": 549,
      "ड": 550,
      "ढ": 551,
      "ण": 552,
      "त": 553,
      "थ": 554,
      "द": 555,
      "ध": 556,
      "न": 557,
      "प": 558,
      "फ": 559,
      "ब": 560,
      "भ": 561,
      "म": 562,
      "य": 563,
      "र": 564,
      "ल": 565,
      "ळ": 566,
      "व": 567,
      "श": 568,
      "ष": 569,
      "स": 570,
      "ह": 571,
      "ज़": 572,
      "ड़": 573,
      "অ": 574,
      "আ": 575,
      "ই": 576,
      "উ": 577,
      "এ": 578,
      "ও": 579,
      "ঔ": 580,
      "ক": 581,
      "খ": 582,
      "গ": 583,
      "ঘ": 584,
      "চ": 585,
      "ছ": 586,
      "জ": 587,
      "ট": 588,
      "ঠ": 589,
      "ণ": 590,
      "ত": 591,
      "থ": 592,
      "দ": 593,
      "ধ": 594,
      "ন": 595,
      "প": 596,
      "ফ": 597,
      "ব": 598,
      "ভ": 599,
      "ম": 600,
      "য": 601,
      "র": 602,
      "ল": 603,
      "শ": 604,
      "ষ": 605,
      "স": 606,
      "হ": 607,
      "ৎ": 608,
      "ড়": 609,
      "য়": 610,
      "ਆ": 611,
      "ਕ": 612,
      "ਣ": 613,
      "ਨ": 614,
      "ਪ": 615,
      "ਰ": 616,
      "અ": 617,
      "આ": 618,
      "ઉ": 619,
      "ક": 620,
      "ખ": 621,
      "ગ": 622,
      "જ": 623,
      "ણ": 624,
      "ત": 625,
      "દ": 626,
      "ન": 627,
      "પ": 628,
      "ફ": 629,
      "ભ": 630,
      "મ": 631,
      "ય": 632,
      "ર": 633,
      "લ": 634,
      "ળ": 635,
      "વ": 636,
      "સ": 637,
      "அ": 638,
      "ஆ": 639,
      "இ": 640,
      "உ": 641,
      "க": 642,
      "ச": 643,
      "ட": 644,
      "ண": 645,
      "த": 646,
      "ந": 647,
      "ன": 648,
      "ப": 649,
      "ம": 650,
      "ய": 651,
      "ர": 652,
      "ற": 653,
      "ல": 654,
      "ழ": 655,
      "வ": 656,
      "ఆ": 657,
      "ఇ": 658,
      "క": 659,
      "ఘ": 660,
      "చ": 661,
      "ట": 662,
      "డ": 663,
      "ణ": 664,
      "త": 665,
      "న": 666,
      "య": 667,
      "ర": 668,
      "ల": 669,
      "వ": 670,
      "ಅ": 671,
      "ಇ": 672,
      "ಎ": 673,
      "ಒ": 674,
      "ಔ": 675,
      "ಕ": 676,
      "ಗ": 677,
      "ಜ": 678,
      "ಡ": 679,
      "ಣ": 680,
      "ತ": 681,
      "ದ": 682,
      "ಧ": 683,
      "ನ": 684,
      "ಬ": 685,
      "ಮ": 686,
      "ಯ": 687,
      "ರ": 688,
      "ಲ": 689,
      "ಳ": 690,
      "ವ": 691,
      "ಷ": 692,
      "ಸ": 693,
      "ಹ": 694,
      "അ": 695,
      "ആ": 696,
      "ഉ": 697,
      "ക": 698,
      "ഘ": 699,
      "ട": 700,
      "ണ": 701,
      "ത": 702,
      "ന": 703,
      "പ": 704,
      "ഭ": 705,
      "മ": 706,
      "യ": 707,
      "ര": 708,
      "റ": 709,
      "ഴ": 710,
      "വ": 711,
      "ശ": 712,
      "ഷ": 713,
      "സ": 714,
      "ൻ": 715,
      "ർ": 716,
      "ൽ": 717,
      "අ": 718,
      "ඔ": 719,
      "ක": 720,
      "ඟ": 721,
      "ට": 722,
      "ණ": 723,
      "ත": 724,
      "න": 725,
      "ප": 726,
      "බ": 727,
      "ම": 728,
      "ර": 729,
      "ස": 730,
      "ก": 731,
      "ข": 732,
      "ค": 733,
      "ง": 734,
      "จ": 735,
      "ฉ": 736,
      "ช": 737,
      "ซ": 738,
      "ญ": 739,
      "ฐ": 740,
      "ณ": 741,
      "ด": 742,
      "ต": 743,
      "ถ": 744,
      "ท": 745,
      "ธ": 746,
      "น": 747,
      "บ": 748,
      "ป": 749,
      "ผ": 750,
      "พ": 751,
      "ฟ": 752,
      "ภ": 753,
      "ม": 754,
      "ย": 755,
      "ร": 756,
      "ล": 757,
      "ว": 758,
      "ศ": 759,
      "ษ": 760,
      "ส": 761,
      "ห": 762,
      "อ": 763,
      "ะ": 764,
      "า": 765,
      "ำ": 766,
      "เ": 767,
      "แ": 768,
      "โ": 769,
      "ใ": 770,
      "ไ": 771,
      "ๆ": 772,
      "ກ": 773,
      "ຂ": 774,
      "ຄ": 775,
      "ງ": 776,
      "ຈ": 777,
      "ຍ": 778,
      "ດ": 779,
      "ຕ": 780,
      "ຖ": 781,
      "ທ": 782,
      "ນ": 783,
      "ບ": 784,
      "ປ": 785,
      "ຜ": 786,
      "ພ": 787,
      "ມ": 788,
      "ລ": 789,
      "ວ": 790,
      "ສ": 791,
      "ຫ": 792,
      "ອ": 793,
      "ຮ": 794,
      "ະ": 795,
      "າ": 796,
      "ເ": 797,
      "ແ": 798,
      "ໂ": 799,
      "ໜ": 800,
      "ა": 801,
      "ბ": 802,
      "გ": 803,
      "დ": 804,
      "ე": 805,
      "ვ": 806,
      "ზ": 807,
      "თ": 808,
      "ი": 809,
      "კ": 810,
      "ლ": 811,
      "მ": 812,
      "ნ": 813,
      "ო": 814,
      "პ": 815,
      "რ": 816,
      "ს": 817,
      "ტ": 818,
      "უ": 819,
      "ფ": 820,
      "ქ": 821,
      "ღ": 822,
      "ყ": 823,
      "შ": 824,
      "ჩ": 825,
      "ც": 826,
      "ძ": 827,
      "წ": 828,
      "ჭ": 829,
      "ხ": 830,
      "ჯ": 831,
      "ሁ": 832,
      "ሂ": 833,
      "ሃ": 834,
      "ህ": 835,
      "ሆ": 836,
      "ለ": 837,
      "ሉ": 838,
      "ላ": 839,
      "ሌ": 840,
      "ል": 841,
      "ሎ": 842,
      "መ": 843,
      "ሚ": 844,
      "ማ": 845,
      "ም": 846,
      "ረ": 847,
      "ሪ": 848,
      "ራ": 849,
      "ር": 850,
      "ሮ": 851,
      "ሰ": 852,
      "ሱ": 853,
      "ሳ": 854,
      "ሴ": 855,
      "ስ": 856,
      "ሽ": 857,
      "ቀ": 858,
      "ቃ": 859,
      "ቅ": 860,
      "በ": 861,
      "ባ": 862,
      "ብ": 863,
      "ተ": 864,
      "ታ": 865,
      "ት": 866,
      "ቶ": 867,
      "ቸ": 868,
      "ች": 869,
      "ኋ": 870,
      "ነ": 871,
      "ኒ": 872,
      "ና": 873,
      "ኔ": 874,
      "ን": 875,
      "ኘ": 876,
      "ኛ": 877,
      "ኝ": 878,
      "አ": 879,
      "እ": 880,
      "ከ": 881,
      "ካ": 882,
      "ክ": 883,
      "ኳ": 884,
      "ወ": 885,
      "ው": 886,
      "ዎ": 887,
      "ዐ": 888,
      "ዓ": 889,
      "ዙ": 890,
      "ዚ": 891,
      "የ": 892,
      "ዩ": 893,
      "ያ": 894,
      "ይ": 895,
      "ደ": 896,
      "ዱ": 897,
      "ዲ": 898,
      "ዳ": 899,
      "ዴ": 900,
      "ድ": 901,
      "ጀ": 902,
      "ጃ": 903,
      "ገ": 904,
      "ጊ": 905,
      "ጋ": 906,
      "ግ": 907,
      "ጠ": 908,
      "ጣ": 909,
      "ጥ": 910,
      "ጨ": 911,
      "ፈ": 912,
      "ፊ": 913,
      "ፋ": 914,
      "ፍ": 915,
      "ṇ": 916,
      "ạ": 917,
      "Ả": 918,
      "ả": 919,
      "ấ": 920,
      "ầ": 921,
      "ẩ": 922,
      "ẫ": 923,
      "ậ": 924,
      "ắ": 925,
      "ằ": 926,
      "ẳ": 927,
      "ẵ": 928,
      "ặ": 929,
      "ẹ": 930,
      "ẻ": 931,
      "ế": 932,
      "ề": 933,
      "ể": 934,
      "ễ": 935,
      "ệ": 936,
      "ỉ": 937,
      "ị": 938,
      "ọ": 939,
      "ỏ": 940,
      "ố": 941,
      "ồ": 942,
      "ổ": 943,
      "ỗ": 944,
      "ộ": 945,
      "ớ": 946,
      "ờ": 947,
      "ở": 948,
      "ỡ": 949,
      "ợ": 950,
      "ụ": 951,
      "ủ": 952,
      "ứ": 953,
      "ừ": 954,
      "ử": 955,
      "ữ": 956,
      "ự": 957,
      "ỳ": 958,
      "ỹ": 959,
      "ὴ": 960,
      "ὶ": 961,
      "ὸ": 962,
      "ῦ": 963,
      "ῶ": 964,
      "々": 965,
      "あ": 966,
      "い": 967,
      "う": 968,
      "え": 969,
      "お": 970,
      "か": 971,
      "が": 972,
      "き": 973,
      "ぎ": 974,
      "く": 975,
      "ぐ": 976,
      "け": 977,
      "げ": 978,
      "こ": 979,
      "ご": 980,
      "さ": 981,
      "ざ": 982,
      "し": 983,
      "じ": 984,
      "す": 985,
      "ず": 986,
      "せ": 987,
      "そ": 988,
      "ぞ": 989,
      "た": 990,
      "だ": 991,
      "ち": 992,
      "っ": 993,
      "つ": 994,
      "づ": 995,
      "て": 996,
      "で": 997,
      "と": 998,
      "ど": 999,
      "な": 1000,
      "に": 1001,
      "ぬ": 1002,
      "ね": 1003,
      "の": 1004,
      "は": 1005,
      "ば": 1006,
      "ぱ": 1007,
      "ひ": 1008,
      "び": 1009,
      "ぴ": 1010,
      "ぶ": 1011,
      "ぷ": 1012,
      "べ": 1013,
      "ほ": 1014,
      "ぽ": 1015,
      "ま": 1016,
      "み": 1017,
      "む": 1018,
      "め": 1019,
      "も": 1020,
      "ゃ": 1021,
      "や": 1022,
      "ゆ": 1023,
      "ょ": 1024,
      "よ": 1025,
      "ら": 1026,
      "り": 1027,
      "る": 1028,
      "れ": 1029,
      "ろ": 1030,
      "わ": 1031,
      "を": 1032,
      "ん": 1033,
      "ァ": 1034,
      "ア": 1035,
      "ィ": 1036,
      "イ": 1037,
      "ゥ": 1038,
      "ウ": 1039,
      "ェ": 1040,
      "エ": 1041,
      "ォ": 1042,
      "オ": 1043,
      "カ": 1044,
      "ガ": 1045,
      "キ": 1046,
      "ギ": 1047,
      "ク": 1048,
      "グ": 1049,
      "ケ": 1050,
      "ゲ": 1051,
      "コ": 1052,
      "ゴ": 1053,
      "サ": 1054,
      "ザ": 1055,
      "シ": 1056,
      "ジ": 1057,
      "ス": 1058,
      "ズ": 1059,
      "セ": 1060,
      "ゼ": 1061,
      "ソ": 1062,
      "ゾ": 1063,
      "タ": 1064,
      "ダ": 1065,
      "チ": 1066,
      "ヂ": 1067,
      "ッ": 1068,
      "ツ": 1069,
      "テ": 1070,
      "デ": 1071,
      "ト": 1072,
      "ド": 1073,
      "ナ": 1074,
      "ニ": 1075,
      "ネ": 1076,
      "ノ": 1077,
      "ハ": 1078,
      "バ": 1079,
      "パ": 1080,
      "ヒ": 1081,
      "ビ": 1082,
      "ピ": 1083,
      "フ": 1084,
      "ブ": 1085,
      "プ": 1086,
      "ヘ": 1087,
      "ベ": 1088,
      "ペ": 1089,
      "ホ": 1090,
      "ボ": 1091,
      "ポ": 1092,
      "マ": 1093,
      "ミ": 1094,
      "ム": 1095,
      "メ": 1096,
      "モ": 1097,
      "ャ": 1098,
      "ヤ": 1099,
      "ュ": 1100,
      "ユ": 1101,
      "ョ": 1102,
      "ヨ": 1103,
      "ラ": 1104,
      "リ": 1105,
      "ル": 1106,
      "レ": 1107,
      "ロ": 1108,
      "ワ": 1109,
      "ン": 1110,
      "ヴ": 1111,
      "ー": 1112,
      "ㅋ": 1113,
      "一": 1114,
      "丁": 1115,
      "七": 1116,
      "万": 1117,
      "丈": 1118,
      "三": 1119,
      "上": 1120,
      "下": 1121,
      "不": 1122,
      "与": 1123,
      "专": 1124,
      "世": 1125,
      "业": 1126,
      "东": 1127,
      "两": 1128,
      "严": 1129,
      "並": 1130,
      "个": 1131,
      "中": 1132,
      "丰": 1133,
      "串": 1134,
      "为": 1135,
      "主": 1136,
      "丽": 1137,
      "么": 1138,
      "义": 1139,
      "之": 1140,
      "乐": 1141,
      "九": 1142,
      "也": 1143,
      "习": 1144,
      "书": 1145,
      "了": 1146,
      "争": 1147,
      "事": 1148,
      "二": 1149,
      "于": 1150,
      "云": 1151,
      "互": 1152,
      "五": 1153,
      "亚": 1154,
      "些": 1155,
      "交": 1156,
      "产": 1157,
      "京": 1158,
      "亮": 1159,
      "人": 1160,
      "亿": 1161,
      "什": 1162,
      "仅": 1163,
      "今": 1164,
      "介": 1165,
      "仕": 1166,
      "他": 1167,
      "付": 1168,
      "代": 1169,
      "令": 1170,
      "以": 1171,
      "们": 1172,
      "件": 1173,
      "价": 1174,
      "任": 1175,
      "份": 1176,
      "企": 1177,
      "伍": 1178,
      "众": 1179,
      "优": 1180,
      "伙": 1181,
      "会": 1182,
      "伝": 1183,
      "传": 1184,
      "伯": 1185,
      "伴": 1186,
      "似": 1187,
      "但": 1188,
      "位": 1189,
      "住": 1190,
      "体": 1191,
      "何": 1192,
      "作": 1193,
      "你": 1194,
      "佳": 1195,
      "使": 1196,
      "來": 1197,
      "例": 1198,
      "供": 1199,
      "便": 1200,
      "係": 1201,
      "俄": 1202,
      "保": 1203,
      "信": 1204,
      "俱": 1205,
      "個": 1206,
      "們": 1207,
      "候": 1208,
      "値": 1209,
      "值": 1210,
      "做": 1211,
      "停": 1212,
      "健": 1213,
      "備": 1214,
      "催": 1215,
      "像": 1216,
      "優": 1217,
      "儿": 1218,
      "允": 1219,
      "元": 1220,
      "充": 1221,
      "先": 1222,
      "克": 1223,
      "児": 1224,
      "党": 1225,
      "入": 1226,
      "全": 1227,
      "八": 1228,
      "公": 1229,
      "六": 1230,
      "共": 1231,
      "关": 1232,
      "兴": 1233,
      "其": 1234,
      "具": 1235,
      "典": 1236,
      "内": 1237,
      "円": 1238,
      "再": 1239,
      "写": 1240,
      "冲": 1241,
      "决": 1242,
      "况": 1243,
      "准": 1244,
      "凝": 1245,
      "出": 1246,
      "函": 1247,
      "分": 1248,
      "切": 1249,
      "列": 1250,
      "则": 1251,
      "创": 1252,
      "初": 1253,
      "別": 1254,
      "利": 1255,
      "别": 1256,
      "到": 1257,
      "制": 1258,
      "券": 1259,
      "前": 1260,
      "剧": 1261,
      "剩": 1262,
      "副": 1263,
      "劇": 1264,
      "力": 1265,
      "办": 1266,
      "功": 1267,
      "加": 1268,
      "务": 1269,
      "动": 1270,
      "助": 1271,
      "効": 1272,
      "動": 1273,
      "務": 1274,
      "募": 1275,
      "包": 1276,
      "化": 1277,
      "北": 1278,
      "区": 1279,
      "十": 1280,
      "午": 1281,
      "半": 1282,
      "华": 1283,
      "协": 1284,
      "单": 1285,
      "南": 1286,
      "単": 1287,
      "博": 1288,
      "卡": 1289,
      "却": 1290,
      "历": 1291,
      "原": 1292,
      "厳": 1293,
      "去": 1294,
      "叁": 1295,
      "参": 1296,
      "及": 1297,
      "友": 1298,
      "収": 1299,
      "发": 1300,
      "取": 1301,
      "受": 1302,
      "变": 1303,
      "口": 1304,
      "古": 1305,
      "句": 1306,
      "另": 1307,
      "只": 1308,
      "可": 1309,
      "台": 1310,
      "史": 1311,
      "右": 1312,
      "号": 1313,
      "司": 1314,
      "各": 1315,
      "合": 1316,
      "同": 1317,
      "名": 1318,
      "后": 1319,
      "向": 1320,
      "否": 1321,
      "含": 1322,
      "听": 1323,
      "告": 1324,
      "员": 1325,
      "周": 1326,
      "味": 1327,
      "呼": 1328,
      "命": 1329,
      "和": 1330,
      "品": 1331,
      "哈": 1332,
      "响": 1333,
      "員": 1334,
      "哥": 1335,
      "哪": 1336,
      "唯": 1337,
      "商": 1338,
      "問": 1339,
      "喜": 1340,
      "営": 1341,
      "器": 1342,
      "四": 1343,
      "回": 1344,
      "因": 1345,
      "园": 1346,
      "囲": 1347,
      "図": 1348,
      "围": 1349,
      "国": 1350,
      "图": 1351,
      "圈": 1352,
      "園": 1353,
      "土": 1354,
      "在": 1355,
      "地": 1356,
      "圳": 1357,
      "场": 1358,
      "块": 1359,
      "坡": 1360,
      "型": 1361,
      "城": 1362,
      "域": 1363,
      "基": 1364,
      "埼": 1365,
      "報": 1366,
      "場": 1367,
      "塔": 1368,
      "境": 1369,
      "增": 1370,
      "墨": 1371,
      "士": 1372,
      "声": 1373,
      "売": 1374,
      "壹": 1375,
      "处": 1376,
      "备": 1377,
      "変": 1378,
      "复": 1379,
      "外": 1380,
      "多": 1381,
      "够": 1382,
      "大": 1383,
      "天": 1384,
      "太": 1385,
      "夫": 1386,
      "失": 1387,
      "头": 1388,
      "夹": 1389,
      "奈": 1390,
      "女": 1391,
      "好": 1392,
      "如": 1393,
      "始": 1394,
      "委": 1395,
      "娱": 1396,
      "嬉": 1397,
      "子": 1398,
      "字": 1399,
      "存": 1400,
      "学": 1401,
      "孩": 1402,
      "學": 1403,
      "它": 1404,
      "安": 1405,
      "完": 1406,
      "定": 1407,
      "宝": 1408,
      "实": 1409,
      "実": 1410,
      "客": 1411,
      "室": 1412,
      "宮": 1413,
      "家": 1414,
      "容": 1415,
      "寄": 1416,
      "富": 1417,
      "實": 1418,
      "寧": 1419,
      "对": 1420,
      "导": 1421,
      "対": 1422,
      "専": 1423,
      "将": 1424,
      "小": 1425,
      "少": 1426,
      "尔": 1427,
      "尤": 1428,
      "就": 1429,
      "尼": 1430,
      "尽": 1431,
      "尿": 1432,
      "局": 1433,
      "层": 1434,
      "届": 1435,
      "屋": 1436,
      "展": 1437,
      "属": 1438,
      "層": 1439,
      "島": 1440,
      "川": 1441,
      "工": 1442,
      "巧": 1443,
      "巨": 1444,
      "差": 1445,
      "己": 1446,
      "已": 1447,
      "巴": 1448,
      "币": 1449,
      "市": 1450,
      "布": 1451,
      "师": 1452,
      "希": 1453,
      "带": 1454,
      "帳": 1455,
      "常": 1456,
      "幅": 1457,
      "平": 1458,
      "年": 1459,
      "并": 1460,
      "幼": 1461,
      "广": 1462,
      "庁": 1463,
      "広": 1464,
      "序": 1465,
      "库": 1466,
      "应": 1467,
      "底": 1468,
      "店": 1469,
      "府": 1470,
      "度": 1471,
      "康": 1472,
      "建": 1473,
      "开": 1474,
      "式": 1475,
      "引": 1476,
      "强": 1477,
      "当": 1478,
      "录": 1479,
      "形": 1480,
      "影": 1481,
      "役": 1482,
      "待": 1483,
      "很": 1484,
      "律": 1485,
      "後": 1486,
      "従": 1487,
      "得": 1488,
      "微": 1489,
      "徴": 1490,
      "心": 1491,
      "必": 1492,
      "忍": 1493,
      "志": 1494,
      "忙": 1495,
      "応": 1496,
      "念": 1497,
      "态": 1498,
      "怎": 1499,
      "思": 1500,
      "性": 1501,
      "总": 1502,
      "息": 1503,
      "悉": 1504,
      "您": 1505,
      "情": 1506,
      "想": 1507,
      "意": 1508,
      "愛": 1509,
      "感": 1510,
      "愿": 1511,
      "態": 1512,
      "戏": 1513,
      "成": 1514,
      "我": 1515,
      "或": 1516,
      "戲": 1517,
      "户": 1518,
      "房": 1519,
      "所": 1520,
      "手": 1521,
      "才": 1522,
      "打": 1523,
      "払": 1524,
      "找": 1525,
      "承": 1526,
      "技": 1527,
      "把": 1528,
      "投": 1529,
      "択": 1530,
      "护": 1531,
      "担": 1532,
      "拉": 1533,
      "招": 1534,
      "拟": 1535,
      "拡": 1536,
      "择": 1537,
      "括": 1538,
      "拿": 1539,
      "持": 1540,
      "指": 1541,
      "振": 1542,
      "捌": 1543,
      "换": 1544,
      "据": 1545,
      "排": 1546,
      "採": 1547,
      "接": 1548,
      "控": 1549,
      "推": 1550,
      "提": 1551,
      "搜": 1552,
      "摄": 1553,
      "撒": 1554,
      "操": 1555,
      "擎": 1556,
      "支": 1557,
      "改": 1558,
      "政": 1559,
      "故": 1560,
      "效": 1561,
      "教": 1562,
      "散": 1563,
      "数": 1564,
      "整": 1565,
      "敵": 1566,
      "數": 1567,
      "文": 1568,
      "料": 1569,
      "断": 1570,
      "斯": 1571,
      "新": 1572,
      "方": 1573,
      "施": 1574,
      "无": 1575,
      "日": 1576,
      "时": 1577,
      "明": 1578,
      "易": 1579,
      "是": 1580,
      "显": 1581,
      "時": 1582,
      "普": 1583,
      "晴": 1584,
      "智": 1585,
      "暖": 1586,
      "暮": 1587,
      "曲": 1588,
      "更": 1589,
      "書": 1590,
      "最": 1591,
      "會": 1592,
      "月": 1593,
      "有": 1594,
      "朋": 1595,
      "服": 1596,
      "朗": 1597,
      "望": 1598,
      "期": 1599,
      "未": 1600,
      "本": 1601,
      "术": 1602,
      "机": 1603,
      "杂": 1604,
      "材": 1605,
      "束": 1606,
      "条": 1607,
      "来": 1608,
      "杯": 1609,
      "東": 1610,
      "构": 1611,
      "果": 1612,
      "柒": 1613,
      "染": 1614,
      "柔": 1615,
      "标": 1616,
      "校": 1617,
      "株": 1618,
      "样": 1619,
      "核": 1620,
      "格": 1621,
      "案": 1622,
      "档": 1623,
      "梅": 1624,
      "森": 1625,
      "業": 1626,
      "極": 1627,
      "楽": 1628,
      "概": 1629,
      "榜": 1630,
      "様": 1631,
      "模": 1632,
      "樣": 1633,
      "権": 1634,
      "機": 1635,
      "次": 1636,
      "欢": 1637,
      "欲": 1638,
      "款": 1639,
      "正": 1640,
      "此": 1641,
      "步": 1642,
      "殊": 1643,
      "段": 1644,
      "每": 1645,
      "比": 1646,
      "毕": 1647,
      "民": 1648,
      "気": 1649,
      "氧": 1650,
      "求": 1651,
      "污": 1652,
      "決": 1653,
      "沒": 1654,
      "没": 1655,
      "河": 1656,
      "治": 1657,
      "況": 1658,
      "法": 1659,
      "波": 1660,
      "注": 1661,
      "洋": 1662,
      "活": 1663,
      "流": 1664,
      "浏": 1665,
      "海": 1666,
      "消": 1667,
      "涉": 1668,
      "深": 1669,
      "混": 1670,
      "添": 1671,
      "游": 1672,
      "源": 1673,
      "满": 1674,
      "滤": 1675,
      "漂": 1676,
      "潛": 1677,
      "澳": 1678,
      "炉": 1679,
      "点": 1680,
      "為": 1681,
      "無": 1682,
      "然": 1683,
      "照": 1684,
      "熟": 1685,
      "爱": 1686,
      "片": 1687,
      "版": 1688,
      "牌": 1689,
      "牙": 1690,
      "物": 1691,
      "特": 1692,
      "状": 1693,
      "独": 1694,
      "献": 1695,
      "獲": 1696,
      "率": 1697,
      "玉": 1698,
      "玖": 1699,
      "环": 1700,
      "现": 1701,
      "班": 1702,
      "現": 1703,
      "球": 1704,
      "理": 1705,
      "甚": 1706,
      "生": 1707,
      "用": 1708,
      "由": 1709,
      "申": 1710,
      "电": 1711,
      "男": 1712,
      "画": 1713,
      "界": 1714,
      "異": 1715,
      "疫": 1716,
      "病": 1717,
      "発": 1718,
      "登": 1719,
      "白": 1720,
      "百": 1721,
      "的": 1722,
      "皆": 1723,
      "监": 1724,
      "目": 1725,
      "直": 1726,
      "相": 1727,
      "省": 1728,
      "看": 1729,
      "県": 1730,
      "真": 1731,
      "眼": 1732,
      "着": 1733,
      "督": 1734,
      "知": 1735,
      "石": 1736,
      "码": 1737,
      "研": 1738,
      "础": 1739,
      "确": 1740,
      "確": 1741,
      "示": 1742,
      "社": 1743,
      "神": 1744,
      "离": 1745,
      "秀": 1746,
      "私": 1747,
      "种": 1748,
      "科": 1749,
      "称": 1750,
      "程": 1751,
      "稚": 1752,
      "種": 1753,
      "稳": 1754,
      "積": 1755,
      "究": 1756,
      "空": 1757,
      "立": 1758,
      "竞": 1759,
      "章": 1760,
      "端": 1761,
      "笔": 1762,
      "符": 1763,
      "第": 1764,
      "等": 1765,
      "筑": 1766,
      "简": 1767,
      "算": 1768,
      "管": 1769,
      "篇": 1770,
      "簡": 1771,
      "簽": 1772,
      "米": 1773,
      "类": 1774,
      "精": 1775,
      "糖": 1776,
      "系": 1777,
      "素": 1778,
      "索": 1779,
      "紫": 1780,
      "細": 1781,
      "紹": 1782,
      "終": 1783,
      "組": 1784,
      "経": 1785,
      "結": 1786,
      "絡": 1787,
      "給": 1788,
      "絶": 1789,
      "続": 1790,
      "綺": 1791,
      "緒": 1792,
      "線": 1793,
      "締": 1794,
      "繁": 1795,
      "繋": 1796,
      "繰": 1797,
      "级": 1798,
      "线": 1799,
      "组": 1800,
      "织": 1801,
      "绍": 1802,
      "经": 1803,
      "结": 1804,
      "给": 1805,
      "络": 1806,
      "统": 1807,
      "继": 1808,
      "续": 1809,
      "维": 1810,
      "缓": 1811,
      "编": 1812,
      "网": 1813,
      "罗": 1814,
      "置": 1815,
      "美": 1816,
      "考": 1817,
      "者": 1818,
      "而": 1819,
      "耶": 1820,
      "联": 1821,
      "聞": 1822,
      "肆": 1823,
      "股": 1824,
      "肯": 1825,
      "育": 1826,
      "能": 1827,
      "腕": 1828,
      "自": 1829,
      "至": 1830,
      "致": 1831,
      "航": 1832,
      "般": 1833,
      "良": 1834,
      "色": 1835,
      "艺": 1836,
      "节": 1837,
      "英": 1838,
      "范": 1839,
      "获": 1840,
      "萄": 1841,
      "营": 1842,
      "落": 1843,
      "著": 1844,
      "葡": 1845,
      "董": 1846,
      "虑": 1847,
      "虚": 1848,
      "蛋": 1849,
      "行": 1850,
      "術": 1851,
      "衣": 1852,
      "表": 1853,
      "被": 1854,
      "裙": 1855,
      "裡": 1856,
      "製": 1857,
      "複": 1858,
      "西": 1859,
      "要": 1860,
      "見": 1861,
      "規": 1862,
      "視": 1863,
      "覚": 1864,
      "覧": 1865,
      "覺": 1866,
      "见": 1867,
      "观": 1868,
      "规": 1869,
      "视": 1870,
      "览": 1871,
      "觉": 1872,
      "角": 1873,
      "解": 1874,
      "言": 1875,
      "計": 1876,
      "記": 1877,
      "設": 1878,
      "許": 1879,
      "詳": 1880,
      "認": 1881,
      "誕": 1882,
      "語": 1883,
      "說": 1884,
      "説": 1885,
      "読": 1886,
      "調": 1887,
      "講": 1888,
      "謝": 1889,
      "證": 1890,
      "議": 1891,
      "讓": 1892,
      "计": 1893,
      "认": 1894,
      "让": 1895,
      "记": 1896,
      "许": 1897,
      "论": 1898,
      "设": 1899,
      "访": 1900,
      "证": 1901,
      "识": 1902,
      "诉": 1903,
      "词": 1904,
      "译": 1905,
      "话": 1906,
      "该": 1907,
      "误": 1908,
      "说": 1909,
      "请": 1910,
      "读": 1911,
      "谓": 1912,
      "豊": 1913,
      "象": 1914,
      "財": 1915,
      "販": 1916,
      "買": 1917,
      "費": 1918,
      "質": 1919,
      "購": 1920,
      "贈": 1921,
      "负": 1922,
      "责": 1923,
      "质": 1924,
      "购": 1925,
      "费": 1926,
      "资": 1927,
      "赤": 1928,
      "起": 1929,
      "超": 1930,
      "越": 1931,
      "趣": 1932,
      "足": 1933,
      "跟": 1934,
      "路": 1935,
      "身": 1936,
      "車": 1937,
      "転": 1938,
      "軽": 1939,
      "較": 1940,
      "輸": 1941,
      "车": 1942,
      "转": 1943,
      "软": 1944,
      "轻": 1945,
      "较": 1946,
      "辑": 1947,
      "输": 1948,
      "辨": 1949,
      "込": 1950,
      "达": 1951,
      "过": 1952,
      "迎": 1953,
      "运": 1954,
      "近": 1955,
      "返": 1956,
      "还": 1957,
      "这": 1958,
      "进": 1959,
      "连": 1960,
      "迪": 1961,
      "追": 1962,
      "送": 1963,
      "适": 1964,
      "选": 1965,
      "逊": 1966,
      "這": 1967,
      "通": 1968,
      "速": 1969,
      "造": 1970,
      "連": 1971,
      "遇": 1972,
      "遊": 1973,
      "過": 1974,
      "道": 1975,
      "違": 1976,
      "適": 1977,
      "選": 1978,
      "還": 1979,
      "那": 1980,
      "邮": 1981,
      "部": 1982,
      "都": 1983,
      "配": 1984,
      "酒": 1985,
      "采": 1986,
      "里": 1987,
      "重": 1988,
      "量": 1989,
      "金": 1990,
      "録": 1991,
      "链": 1992,
      "销": 1993,
      "错": 1994,
      "键": 1995,
      "長": 1996,
      "长": 1997,
      "門": 1998,
      "開": 1999,
      "間": 2000,
      "関": 2001,
      "閲": 2002,
      "關": 2003,
      "门": 2004,
      "问": 2005,
      "间": 2006,
      "阅": 2007,
      "防": 2008,
      "阿": 2009,
      "附": 2010,
      "际": 2011,
      "限": 2012,
      "院": 2013,
      "除": 2014,
      "隐": 2015,
      "際": 2016,
      "雅": 2017,
      "集": 2018,
      "難": 2019,
      "雰": 2020,
      "零": 2021,
      "電": 2022,
      "需": 2023,
      "青": 2024,
      "非": 2025,
      "面": 2026,
      "音": 2027,
      "響": 2028,
      "頂": 2029,
      "項": 2030,
      "頭": 2031,
      "題": 2032,
      "願": 2033,
      "類": 2034,
      "页": 2035,
      "项": 2036,
      "须": 2037,
      "领": 2038,
      "题": 2039,
      "额": 2040,
      "食": 2041,
      "飲": 2042,
      "館": 2043,
      "馆": 2044,
      "駅": 2045,
      "駐": 2046,
      "马": 2047,
      "验": 2048,
      "高": 2049,
      "鹿": 2050,
      "麗": 2051,
      "麼": 2052,
      "黑": 2053,
      "가": 2054,
      "각": 2055,
      "간": 2056,
      "감": 2057,
      "갑": 2058,
      "같": 2059,
      "개": 2060,
      "갤": 2061,
      "거": 2062,
      "건": 2063,
      "겁": 2064,
      "것": 2065,
      "게": 2066,
      "겠": 2067,
      "결": 2068,
      "경": 2069,
      "계": 2070,
      "고": 2071,
      "곱": 2072,
      "공": 2073,
      "과": 2074,
      "관": 2075,
      "광": 2076,
      "굉": 2077,
      "교": 2078,
      "구": 2079,
      "국": 2080,
      "그": 2081,
      "글": 2082,
      "금": 2083,
      "기": 2084,
      "길": 2085,
      "까": 2086,
      "나": 2087,
      "난": 2088,
      "내": 2089,
      "너": 2090,
      "네": 2091,
      "넷": 2092,
      "년": 2093,
      "녕": 2094,
      "노": 2095,
      "는": 2096,
      "늘": 2097,
      "능": 2098,
      "니": 2099,
      "님": 2100,
      "다": 2101,
      "단": 2102,
      "답": 2103,
      "당": 2104,
      "대": 2105,
      "더": 2106,
      "데": 2107,
      "도": 2108,
      "동": 2109,
      "되": 2110,
      "된": 2111,
      "됩": 2112,
      "드": 2113,
      "든": 2114,
      "들": 2115,
      "등": 2116,
      "디": 2117,
      "따": 2118,
      "때": 2119,
      "떻": 2120,
      "라": 2121,
      "람": 2122,
      "랍": 2123,
      "래": 2124,
      "랜": 2125,
      "램": 2126,
      "랫": 2127,
      "러": 2128,
      "럭": 2129,
      "런": 2130,
      "럼": 2131,
      "렇": 2132,
      "레": 2133,
      "려": 2134,
      "련": 2135,
      "령": 2136,
      "로": 2137,
      "록": 2138,
      "롤": 2139,
      "르": 2140,
      "른": 2141,
      "를": 2142,
      "름": 2143,
      "리": 2144,
      "릭": 2145,
      "린": 2146,
      "립": 2147,
      "마": 2148,
      "막": 2149,
      "만": 2150,
      "말": 2151,
      "머": 2152,
      "메": 2153,
      "며": 2154,
      "면": 2155,
      "명": 2156,
      "모": 2157,
      "무": 2158,
      "문": 2159,
      "뭐": 2160,
      "미": 2161,
      "민": 2162,
      "바": 2163,
      "반": 2164,
      "발": 2165,
      "밝": 2166,
      "방": 2167,
      "버": 2168,
      "벌": 2169,
      "법": 2170,
      "베": 2171,
      "벤": 2172,
      "변": 2173,
      "별": 2174,
      "보": 2175,
      "본": 2176,
      "볼": 2177,
      "봅": 2178,
      "부": 2179,
      "북": 2180,
      "분": 2181,
      "불": 2182,
      "브": 2183,
      "블": 2184,
      "비": 2185,
      "빠": 2186,
      "사": 2187,
      "산": 2188,
      "살": 2189,
      "삼": 2190,
      "삽": 2191,
      "상": 2192,
      "새": 2193,
      "생": 2194,
      "서": 2195,
      "선": 2196,
      "설": 2197,
      "세": 2198,
      "션": 2199,
      "소": 2200,
      "수": 2201,
      "순": 2202,
      "스": 2203,
      "습": 2204,
      "슷": 2205,
      "시": 2206,
      "식": 2207,
      "신": 2208,
      "실": 2209,
      "심": 2210,
      "십": 2211,
      "써": 2212,
      "씀": 2213,
      "아": 2214,
      "안": 2215,
      "않": 2216,
      "알": 2217,
      "암": 2218,
      "았": 2219,
      "앞": 2220,
      "야": 2221,
      "양": 2222,
      "얘": 2223,
      "어": 2224,
      "언": 2225,
      "얼": 2226,
      "업": 2227,
      "없": 2228,
      "었": 2229,
      "에": 2230,
      "여": 2231,
      "역": 2232,
      "열": 2233,
      "였": 2234,
      "영": 2235,
      "예": 2236,
      "오": 2237,
      "온": 2238,
      "와": 2239,
      "완": 2240,
      "요": 2241,
      "용": 2242,
      "우": 2243,
      "운": 2244,
      "울": 2245,
      "움": 2246,
      "워": 2247,
      "원": 2248,
      "위": 2249,
      "유": 2250,
      "으": 2251,
      "은": 2252,
      "을": 2253,
      "음": 2254,
      "의": 2255,
      "이": 2256,
      "인": 2257,
      "일": 2258,
      "입": 2259,
      "있": 2260,
      "자": 2261,
      "작": 2262,
      "잖": 2263,
      "장": 2264,
      "재": 2265,
      "적": 2266,
      "전": 2267,
      "점": 2268,
      "정": 2269,
      "제": 2270,
      "젝": 2271,
      "조": 2272,
      "존": 2273,
      "좋": 2274,
      "죠": 2275,
      "주": 2276,
      "준": 2277,
      "줍": 2278,
      "중": 2279,
      "즈": 2280,
      "지": 2281,
      "진": 2282,
      "쪽": 2283,
      "차": 2284,
      "찬": 2285,
      "처": 2286,
      "체": 2287,
      "최": 2288,
      "츠": 2289,
      "카": 2290,
      "캐": 2291,
      "컨": 2292,
      "컴": 2293,
      "코": 2294,
      "콘": 2295,
      "크": 2296,
      "키": 2297,
      "타": 2298,
      "탄": 2299,
      "태": 2300,
      "터": 2301,
      "털": 2302,
      "테": 2303,
      "텐": 2304,
      "템": 2305,
      "토": 2306,
      "통": 2307,
      "튜": 2308,
      "트": 2309,
      "특": 2310,
      "파": 2311,
      "페": 2312,
      "펴": 2313,
      "포": 2314,
      "폼": 2315,
      "퓨": 2316,
      "프": 2317,
      "플": 2318,
      "필": 2319,
      "하": 2320,
      "학": 2321,
      "한": 2322,
      "할": 2323,
      "함": 2324,
      "합": 2325,
      "해": 2326,
      "했": 2327,
      "향": 2328,
      "혔": 2329,
      "형": 2330,
      "홈": 2331,
      "확": 2332,
      "회": 2333,
      "히": 2334,
      "Ａ": 2335,
      "Ｅ": 2336,
      "Ｎ": 2337,
      "Ｐ": 2338,
      "er": 2339,
      "in": 2340,
      "en": 2341,
      "on": 2342,
      "an": 2343,
      "es": 2344,
      "at": 2345,
      "ar": 2346,
      "al": 2347,
      "or": 2348,
      "ed": 2349,
      "st": 2350,
      "it": 2351,
      "ic": 2352,
      "re": 2353,
      "Ġc": 2354,
      "Ġp": 2355,
      "Ġs": 2356,
      "le": 2357,
      "ing": 2358,
      "ro": 2359,
      "et": 2360,
      "is": 2361,
      "el": 2362,
      "ent": 2363,
      "ion": 2364,
      "ra": 2365,
      "Ġd": 2366,
      "ch": 2367,
      "as": 2368,
      "un": 2369,
      "am": 2370,
      "il": 2371,
      "Ġm": 2372,
      "Ġt": 2373,
      "ol": 2374,
      "ad": 2375,
      "ĠS": 2376,
      "ur": 2377,
      "om": 2378,
      "ut": 2379,
      "ĠC": 2380,
      "ac": 2381,
      "Ġb": 2382,
      "id": 2383,
      "us": 2384,
      "em": 2385,
      "os": 2386,
      "im": 2387,
      "ul": 2388,
      "ĠM": 2389,
      "Ġf": 2390,
      "ig": 2391,
      "ct": 2392,
      "ĠP": 2393,
      "ĠA": 2394,
      "ĠB": 2395,
      "ab": 2396,
      "ag": 2397,
      "ot": 2398,
      "ri": 2399,
      "Ġg": 2400,
      "um": 2401,
      "ap": 2402,
      "Ġh": 2403,
      "iv": 2404,
      "ers": 2405,
      "od": 2406,
      "Ġv": 2407,
      "ir": 2408,
      "qu": 2409,
      "ation": 2410,
      "Ġn": 2411,
      "ĠD": 2412,
      "est": 2413,
      "ĠT": 2414,
      "Ġl": 2415,
      "ĠR": 2416,
      "oc": 2417,
      "Ġin": 2418,
      "Ġre": 2419,
      "ie": 2420,
      "op": 2421,
      "ex": 2422,
      "ce": 2423,
      "Ġk": 2424,
      "ak": 2425,
      "ant": 2426,
      "ĠG": 2427,
      "ist": 2428,
      "and": 2429,
      "ĠH": 2430,
      "ال": 2431,
      "ĠE": 2432,
      "ess": 2433,
      "ec": 2434,
      "ow": 2435,
      "ter": 2436,
      "ay": 2437,
      "ĠF": 2438,
      "og": 2439,
      "ĠL": 2440,
      "ly": 2441,
      "ia": 2442,
      "ate": 2443,
      "iz": 2444,
      "ст": 2445,
      "Ġr": 2446,
      "av": 2447,
      "if": 2448,
      "end": 2449,
      "ov": 2450,
      "Ġw": 2451,
      "ip": 2452,
      "ĠN": 2453,
      "Ġcon": 2454,
      "up": 2455,
      "Ġп": 2456,
      "ub": 2457,
      "ang": 2458,
      "ĠK": 2459,
      "th": 2460,
      "eg": 2461,
      "In": 2462,
      "ен": 2463,
      "ud": 2464,
      "ib": 2465,
      "ik": 2466,
      "ра": 2467,
      "ĠW": 2468,
      "Ġال": 2469,
      "te": 2470,
      "ob": 2471,
      "ect": 2472,
      "ine": 2473,
      "ff": 2474,
      "pl": 2475,
      "ah": 2476,
      "Ġa": 2477,
      "Ġst": 2478,
      "ов": 2479,
      "ert": 2480,
      "art": 2481,
      "ug": 2482,
      "ep": 2483,
      "ens": 2484,
      "ell": 2485,
      "ĠV": 2486,
      "ph": 2487,
      "ast": 2488,
      "ard": 2489,
      "ok": 2490,
      "io": 2491,
      "ill": 2492,
      "ass": 2493,
      "ont": 2494,
      "ev": 2495,
      "ort": 2496,
      "uc": 2497,
      "und": 2498,
      "Ġpro": 2499,
      "ies": 2500,
      "ht": 2501,
      "pt": 2502,
      "ment": 2503,
      "ity": 2504,
      "ial": 2505,
      "all": 2506,
      "Ġj": 2507,
      "но": 2508,
      "на": 2509,
      "ian": 2510,
      "Ġch": 2511,
      "ef": 2512,
      "eb": 2513,
      "Ġс": 2514,
      "ne": 2515,
      "able": 2516,
      "ath": 2517,
      "ер": 2518,
      "ĠO": 2519,
      "ĠI": 2520,
      "ind": 2521,
      "St": 2522,
      "ive": 2523,
      "ĠJ": 2524,
      "omp": 2525,
      "ung": 2526,
      "ро": 2527,
      "ran": 2528,
      "age": 2529,
      "se": 2530,
      "ord": 2531,
      "ко": 2532,
      "int": 2533,
      "pe": 2534,
      "Ġex": 2535,
      "cl": 2536,
      "he": 2537,
      "res": 2538,
      "ng": 2539,
      "our": 2540,
      "Ġم": 2541,
      "ust": 2542,
      "Ġun": 2543,
      "get": 2544,
      "Ġe": 2545,
      "ost": 2546,
      "ult": 2547,
      "orm": 2548,
      "ure": 2549,
      "ek": 2550,
      "ric": 2551,
      "yl": 2552,
      "enc": 2553,
      "ка": 2554,
      "erm": 2555,
      "out": 2556,
      "ни": 2557,
      "ire": 2558,
      "ри": 2559,
      "ER": 2560,
      "ated": 2561,
      "Ġв": 2562,
      "ue": 2563,
      "ach": 2564,
      "ack": 2565,
      "Ġо": 2566,
      "ll": 2567,
      "ier": 2568,
      "ان": 2569,
      "az": 2570,
      "ey": 2571,
      "Ġz": 2572,
      "ĠU": 2573,
      "ors": 2574,
      "ре": 2575,
      "ain": 2576,
      "ли": 2577,
      "ou": 2578,
      "Ġsp": 2579,
      "ile": 2580,
      "ew": 2581,
      "att": 2582,
      "ous": 2583,
      "ла": 2584,
      "ry": 2585,
      "ions": 2586,
      "sp": 2587,
      "ond": 2588,
      "aw": 2589,
      "ox": 2590,
      "ons": 2591,
      "ON": 2592,
      "act": 2593,
      "uk": 2594,
      "per": 2595,
      "ich": 2596,
      "aj": 2597,
      "erv": 2598,
      "Ġdis": 2599,
      "ет": 2600,
      "ann": 2601,
      "ار": 2602,
      "rit": 2603,
      "ele": 2604,
      "ical": 2605,
      "nd": 2606,
      "Ġب": 2607,
      "ci": 2608,
      "Ġpr": 2609,
      "ĠCh": 2610,
      "ern": 2611,
      "ext": 2612,
      "ish": 2613,
      "Ġпо": 2614,
      "ru": 2615,
      "ign": 2616,
      "ick": 2617,
      "eng": 2618,
      "sh": 2619,
      "ym": 2620,
      "ль": 2621,
      "Ġth": 2622,
      "ock": 2623,
      "unt": 2624,
      "au": 2625,
      "are": 2626,
      "lo": 2627,
      "Ġad": 2628,
      "ss": 2629,
      "ит": 2630,
      "ton": 2631,
      "Ġا": 2632,
      "omm": 2633,
      "ight": 2634,
      "rad": 2635,
      "да": 2636,
      "ata": 2637,
      "ary": 2638,
      "Ġو": 2639,
      "rop": 2640,
      "ame": 2641,
      "го": 2642,
      "yn": 2643,
      "Ġap": 2644,
      "то": 2645,
      "ere": 2646,
      "Ġim": 2647,
      "ва": 2648,
      "IN": 2649,
      "iss": 2650,
      "ient": 2651,
      "Ġal": 2652,
      "pr": 2653,
      "ber": 2654,
      "ĠIn": 2655,
      "ón": 2656,
      "ong": 2657,
      "ft": 2658,
      "Ġqu": 2659,
      "EN": 2660,
      "Ġle": 2661,
      "ore": 2662,
      "sc": 2663,
      "Ġac": 2664,
      "set": 2665,
      "ram": 2666,
      "ide": 2667,
      "tt": 2668,
      "за": 2669,
      "iel": 2670,
      "ement": 2671,
      "ence": 2672,
      "ge": 2673,
      "ij": 2674,
      "Ġм": 2675,
      "Ġд": 2676,
      "sk": 2677,
      "que": 2678,
      "не": 2679,
      "ны": 2680,
      "ya": 2681,
      "anc": 2682,
      "ES": 2683,
      "iew": 2684,
      "ject": 2685,
      "ark": 2686,
      "ти": 2687,
      "eh": 2688,
      "ĠSt": 2689,
      "ez": 2690,
      "Ġsh": 2691,
      "OR": 2692,
      "to": 2693,
      "rom": 2694,
      "та": 2695,
      "co": 2696,
      "ax": 2697,
      "ins": 2698,
      "ite": 2699,
      "ode": 2700,
      "les": 2701,
      "ail": 2702,
      "AR": 2703,
      "ations": 2704,
      "AN": 2705,
      "ys": 2706,
      "Ġar": 2707,
      "ле": 2708,
      "pp": 2709,
      "Ġت": 2710,
      "ator": 2711,
      "oll": 2712,
      "ash": 2713,
      "ari": 2714,
      "ver": 2715,
      "Ġpl": 2716,
      "Ġsc": 2717,
      "AT": 2718,
      "ron": 2719,
      "ice": 2720,
      "ale": 2721,
      "ло": 2722,
      "ance": 2723,
      "na": 2724,
      "old": 2725,
      "oy": 2726,
      "row": 2727,
      "Ch": 2728,
      "Ġб": 2729,
      "Ġpre": 2730,
      "her": 2731,
      "emb": 2732,
      "ени": 2733,
      "ring": 2734,
      "Ġy": 2735,
      "те": 2736,
      "Ġres": 2737,
      "AL": 2738,
      "ize": 2739,
      "IC": 2740,
      "itt": 2741,
      "ction": 2742,
      "ett": 2743,
      "ST": 2744,
      "li": 2745,
      "ai": 2746,
      "own": 2747,
      "amp": 2748,
      "ime": 2749,
      "ane": 2750,
      "ica": 2751,
      "IT": 2752,
      "fer": 2753,
      "Ġcomp": 2754,
      "ype": 2755,
      "let": 2756,
      "one": 2757,
      "ado": 2758,
      "ings": 2759,
      "Ġan": 2760,
      "ild": 2761,
      "rib": 2762,
      "we": 2763,
      "во": 2764,
      "Ġrec": 2765,
      "Ġل": 2766,
      "ма": 2767,
      "erc": 2768,
      "ink": 2769,
      "ات": 2770,
      "ise": 2771,
      "oh": 2772,
      "ual": 2773,
      "Ġس": 2774,
      "Ġcl": 2775,
      "Ġу": 2776,
      "ĠSh": 2777,
      "ки": 2778,
      "Ġcont": 2779,
      "Ġen": 2780,
      "pro": 2781,
      "LE": 2782,
      "rac": 2783,
      "ien": 2784,
      "ull": 2785,
      "rat": 2786,
      "esc": 2787,
      "Ġab": 2788,
      "Ġro": 2789,
      "fl": 2790,
      "ith": 2791,
      "man": 2792,
      "arg": 2793,
      "form": 2794,
      "ix": 2795,
      "ho": 2796,
      "add": 2797,
      "ми": 2798,
      "ase": 2799,
      "UR": 2800,
      "red": 2801,
      "ve": 2802,
      "ans": 2803,
      "Ar": 2804,
      "bo": 2805,
      "ру": 2806,
      "ana": 2807,
      "eth": 2808,
      "ars": 2809,
      "over": 2810,
      "Ġsub": 2811,
      "ina": 2812,
      "Ġco": 2813,
      "ren": 2814,
      "ace": 2815,
      "rans": 2816,
      "Ġко": 2817,
      "ام": 2818,
      "erg": 2819,
      "és": 2820,
      "ict": 2821,
      "ĠZ": 2822,
      "put": 2823,
      "amb": 2824,
      "air": 2825,
      "nt": 2826,
      "ely": 2827,
      "urs": 2828,
      "Cont": 2829,
      "ди": 2830,
      "ID": 2831,
      "ied": 2832,
      "Ġph": 2833,
      "Cl": 2834,
      "To": 2835,
      "Ġи": 2836,
      "ati": 2837,
      "ión": 2838,
      "ma": 2839,
      "ress": 2840,
      "ть": 2841,
      "CT": 2842,
      "als": 2843,
      "olog": 2844,
      "ics": 2845,
      "по": 2846,
      "Ġن": 2847,
      "ĠY": 2848,
      "af": 2849,
      "yd": 2850,
      "ова": 2851,
      "Ġo": 2852,
      "ks": 2853,
      "ament": 2854,
      "Ġpar": 2855,
      "Ġper": 2856,
      "ста": 2857,
      "du": 2858,
      "cept": 2859,
      "che": 2860,
      "Ex": 2861,
      "ler": 2862,
      "oj": 2863,
      "IS": 2864,
      "ating": 2865,
      "Ġob": 2866,
      "ور": 2867,
      "Ġна": 2868,
      "pos": 2869,
      "Ġinter": 2870,
      "Ġза": 2871,
      "led": 2872,
      "ield": 2873,
      "Pro": 2874,
      "uff": 2875,
      "ade": 2876,
      "orn": 2877,
      "ĠAr": 2878,
      "con": 2879,
      "ear": 2880,
      "ray": 2881,
      "ون": 2882,
      "Ġد": 2883,
      "ura": 2884,
      "ism": 2885,
      "esp": 2886,
      "ret": 2887,
      "ĠMc": 2888,
      "ene": 2889,
      "ole": 2890,
      "Ġک": 2891,
      "ition": 2892,
      "Ġcom": 2893,
      "мо": 2894,
      "son": 2895,
      "app": 2896,
      "ся": 2897,
      "ead": 2898,
      "Con": 2899,
      "ча": 2900,
      "tr": 2901,
      "ze": 2902,
      "rav": 2903,
      "View": 2904,
      "ates": 2905,
      "gen": 2906,
      "ific": 2907,
      "ĠQ": 2908,
      "atch": 2909,
      "Val": 2910,
      "Ġtr": 2911,
      "lect": 2912,
      "га": 2913,
      "ory": 2914,
      "ium": 2915,
      "ão": 2916,
      "yp": 2917,
      "RE": 2918,
      "arm": 2919,
      "ater": 2920,
      "ada": 2921,
      "ION": 2922,
      "ood": 2923,
      "ین": 2924,
      "Ġé": 2925,
      "ци": 2926,
      "no": 2927,
      "ato": 2928,
      "Ġк": 2929,
      "ular": 2930,
      "ka": 2931,
      "Ġind": 2932,
      "Ġint": 2933,
      "Ġra": 2934,
      "Ġam": 2935,
      "iy": 2936,
      "Ob": 2937,
      "Id": 2938,
      "port": 2939,
      "ем": 2940,
      "си": 2941,
      "ér": 2942,
      "Ġالم": 2943,
      "oz": 2944,
      "ви": 2945,
      "Ġbl": 2946,
      "Ġer": 2947,
      "eter": 2948,
      "Ġfl": 2949,
      "cc": 2950,
      "uj": 2951,
      "Type": 2952,
      "AM": 2953,
      "aut": 2954,
      "Ġа": 2955,
      "inc": 2956,
      "oth": 2957,
      "ner": 2958,
      "tem": 2959,
      "ĠAl": 2960,
      "ke": 2961,
      "uf": 2962,
      "Ġem": 2963,
      "ня": 2964,
      "де": 2965,
      "equ": 2966,
      "yt": 2967,
      "List": 2968,
      "vent": 2969,
      "ech": 2970,
      "its": 2971,
      "lement": 2972,
      "ser": 2973,
      "raph": 2974,
      "Ġent": 2975,
      "Ġر": 2976,
      "Name": 2977,
      "riv": 2978,
      "la": 2979,
      "ih": 2980,
      "ĠSch": 2981,
      "ush": 2982,
      "ست": 2983,
      "ara": 2984,
      "ets": 2985,
      "alt": 2986,
      "yst": 2987,
      "me": 2988,
      "uss": 2989,
      "Ġop": 2990,
      "be": 2991,
      "kan": 2992,
      "ott": 2993,
      "Ġра": 2994,
      "CH": 2995,
      "SE": 2996,
      "ract": 2997,
      "اب": 2998,
      "rid": 2999,
      "Ġج": 3000,
      "ee": 3001,
      "хо": 3002,
      "olor": 3003,
      "ized": 3004,
      "bl": 3005,
      "land": 3006,
      "ni": 3007,
      "ery": 3008,
      "Ġsl": 3009,
      "اد": 3010,
      "Ġف": 3011,
      "Ġcons": 3012,
      "uy": 3013,
      "els": 3014,
      "ork": 3015,
      "sch": 3016,
      "Object": 3017,
      "reg": 3018,
      "ror": 3019,
      "kt": 3020,
      "Ġпро": 3021,
      "Ġest": 3022,
      "án": 3023,
      "min": 3024,
      "ros": 3025,
      "Comp": 3026,
      "ha": 3027,
      "ais": 3028,
      "Ġant": 3029,
      "ents": 3030,
      "ول": 3031,
      "Ġع": 3032,
      "par": 3033,
      "ional": 3034,
      "ED": 3035,
      "Ġdec": 3036,
      "ля": 3037,
      "roll": 3038,
      "Ġas": 3039,
      "ound": 3040,
      "of": 3041,
      "об": 3042,
      "ux": 3043,
      "Ġver": 3044,
      "ank": 3045,
      "rent": 3046,
      "Ġsup": 3047,
      "ps": 3048,
      "za": 3049,
      "ley": 3050,
      "raw": 3051,
      "Ġdes": 3052,
      "oss": 3053,
      "ugh": 3054,
      "ious": 3055,
      "ats": 3056,
      "ini": 3057,
      "ĠPro": 3058,
      "gl": 3059,
      "org": 3060,
      "po": 3061,
      "ری": 3062,
      "ered": 3063,
      "Im": 3064,
      "UT": 3065,
      "Value": 3066,
      "Ġinc": 3067,
      "Data": 3068,
      "enn": 3069,
      "ility": 3070,
      "ENT": 3071,
      "isc": 3072,
      "de": 3073,
      "نا": 3074,
      "ener": 3075,
      "ку": 3076,
      "ruct": 3077,
      "ute": 3078,
      "ts": 3079,
      "umb": 3080,
      "ham": 3081,
      "сти": 3082,
      "ible": 3083,
      "uch": 3084,
      "IL": 3085,
      "iti": 3086,
      "urn": 3087,
      "Ġacc": 3088,
      "Ġپ": 3089,
      "unc": 3090,
      "iter": 3091,
      "ĠTh": 3092,
      "val": 3093,
      "AS": 3094,
      "rim": 3095,
      "CC": 3096,
      "ger": 3097,
      "ico": 3098,
      "сто": 3099,
      "ĠCon": 3100,
      "чи": 3101,
      "ative": 3102,
      "oph": 3103,
      "ét": 3104,
      "igh": 3105,
      "Sc": 3106,
      "ake": 3107,
      "Ġне": 3108,
      "utton": 3109,
      "OM": 3110,
      "uz": 3111,
      "Ġка": 3112,
      "omb": 3113,
      "Ġcar": 3114,
      "ose": 3115,
      "uck": 3116,
      "ме": 3117,
      "Path": 3118,
      "Ġtra": 3119,
      "Text": 3120,
      "Item": 3121,
      "UN": 3122,
      "бо": 3123,
      "ĠAn": 3124,
      "use": 3125,
      "eck": 3126,
      "ры": 3127,
      "Ġag": 3128,
      "ĠEx": 3129,
      "ript": 3130,
      "ств": 3131,
      "och": 3132,
      "ures": 3133,
      "uit": 3134,
      "rt": 3135,
      "до": 3136,
      "mer": 3137,
      "ione": 3138,
      "arn": 3139,
      "iff": 3140,
      "Ġaut": 3141,
      "Res": 3142,
      "Ġde": 3143,
      "ĠSp": 3144,
      "men": 3145,
      "لا": 3146,
      "Ġخ": 3147,
      "AD": 3148,
      "uv": 3149,
      "را": 3150,
      "inn": 3151,
      "ling": 3152,
      "ios": 3153,
      "ores": 3154,
      "ait": 3155,
      "ines": 3156,
      "ities": 3157,
      "ald": 3158,
      "lic": 3159,
      "RO": 3160,
      "Ġund": 3161,
      "Ġпри": 3162,
      "ну": 3163,
      "па": 3164,
      "нов": 3165,
      "Ġimp": 3166,
      "Key": 3167,
      "ção": 3168,
      "ally": 3169,
      "ama": 3170,
      "ĠAd": 3171,
      "ena": 3172,
      "жа": 3173,
      "Par": 3174,
      "Ġsk": 3175,
      "fo": 3176,
      "мен": 3177,
      "ET": 3178,
      "Ġcor": 3179,
      "era": 3180,
      "cul": 3181,
      "ере": 3182,
      "AC": 3183,
      "cess": 3184,
      "agn": 3185,
      "cz": 3186,
      "ين": 3187,
      "Ġat": 3188,
      "ación": 3189,
      "lar": 3190,
      "ful": 3191,
      "vers": 3192,
      "stit": 3193,
      "utt": 3194,
      "ani": 3195,
      "ome": 3196,
      "Ġter": 3197,
      "Ġdé": 3198,
      "че": 3199,
      "Ġis": 3200,
      "Ġse": 3201,
      "Ġret": 3202,
      "ount": 3203,
      "roup": 3204,
      "ants": 3205,
      "Ġtrans": 3206,
      "je": 3207,
      "ino": 3208,
      "Ġel": 3209,
      "ck": 3210,
      "leg": 3211,
      "sl": 3212,
      "Ġт": 3213,
      "Ġdef": 3214,
      "ays": 3215,
      "ris": 3216,
      "AP": 3217,
      "Ġgl": 3218,
      "ائ": 3219,
      "ili": 3220,
      "Ġpol": 3221,
      "Ġش": 3222,
      "ĠBl": 3223,
      "Er": 3224,
      "iment": 3225,
      "emp": 3226,
      "ras": 3227,
      "Ġman": 3228,
      "str": 3229,
      "Pl": 3230,
      "EL": 3231,
      "ization": 3232,
      "ld": 3233,
      "én": 3234,
      "Ġmen": 3235,
      "ве": 3236,
      "ook": 3237,
      "Sh": 3238,
      "iqu": 3239,
      "ness": 3240,
      "ido": 3241,
      "Ġз": 3242,
      "rag": 3243,
      "ten": 3244,
      "vis": 3245,
      "ask": 3246,
      "nc": 3247,
      "Ġne": 3248,
      "OL": 3249,
      "urg": 3250,
      "rist": 3251,
      "Ġget": 3252,
      "Ġф": 3253,
      "aff": 3254,
      "plic": 3255,
      "Ġass": 3256,
      "Ġdi": 3257,
      "File": 3258,
      "AG": 3259,
      "Button": 3260,
      "лу": 3261,
      "apt": 3262,
      "ĠRe": 3263,
      "IM": 3264,
      "ja": 3265,
      "idd": 3266,
      "ave": 3267,
      "arb": 3268,
      "са": 3269,
      "Ġreg": 3270,
      "Of": 3271,
      "umber": 3272,
      "Ġоб": 3273,
      "ora": 3274,
      "line": 3275,
      "oo": 3276,
      "ala": 3277,
      "Ġev": 3278,
      "uh": 3279,
      "Ind": 3280,
      "Ad": 3281,
      "ду": 3282,
      "Ġcomm": 3283,
      "erd": 3284,
      "fe": 3285,
      "atic": 3286,
      "ın": 3287,
      "ering": 3288,
      "fig": 3289,
      "inal": 3290,
      "Ġré": 3291,
      "Ġpers": 3292,
      "ipp": 3293,
      "Serv": 3294,
      "vi": 3295,
      "pre": 3296,
      "ĠSc": 3297,
      "eme": 3298,
      "Size": 3299,
      "mo": 3300,
      "edi": 3301,
      "ши": 3302,
      "ить": 3303,
      "ych": 3304,
      "Ġcre": 3305,
      "ically": 3306,
      "Ġout": 3307,
      "Mod": 3308,
      "idad": 3309,
      "Ġре": 3310,
      "Ġcur": 3311,
      "Ġav": 3312,
      "ения": 3313,
      "ots": 3314,
      "ativ": 3315,
      "ги": 3316,
      "Ġوال": 3317,
      "ven": 3318,
      "ump": 3319,
      "lich": 3320,
      "less": 3321,
      "Ġдо": 3322,
      "lt": 3323,
      "Error": 3324,
      "ING": 3325,
      "ano": 3326,
      "IG": 3327,
      "пе": 3328,
      "iet": 3329,
      "Ġref": 3330,
      "пи": 3331,
      "Ġset": 3332,
      "ager": 3333,
      "atur": 3334,
      "String": 3335,
      "ateg": 3336,
      "Ġcol": 3337,
      "yle": 3338,
      "ます": 3339,
      "ово": 3340,
      "Sp": 3341,
      "Ġح": 3342,
      "EM": 3343,
      "лю": 3344,
      "ider": 3345,
      "ule": 3346,
      "ente": 3347,
      "ool": 3348,
      "ira": 3349,
      "PS": 3350,
      "ero": 3351,
      "err": 3352,
      "Ġgr": 3353,
      "Ġatt": 3354,
      "arc": 3355,
      "arl": 3356,
      "Man": 3357,
      "ille": 3358,
      "Ġut": 3359,
      "ages": 3360,
      "Ġoc": 3361,
      "ĠCl": 3362,
      "ando": 3363,
      "ste": 3364,
      "ĠX": 3365,
      "ograph": 3366,
      "Ġг": 3367,
      "Ġrem": 3368,
      "ند": 3369,
      "IV": 3370,
      "ите": 3371,
      "ree": 3372,
      "amente": 3373,
      "uth": 3374,
      "met": 3375,
      "rd": 3376,
      "اع": 3377,
      "Ġсо": 3378,
      "OT": 3379,
      "Ġвы": 3380,
      "му": 3381,
      "ange": 3382,
      "yc": 3383,
      "vel": 3384,
      "ĠPh": 3385,
      "SP": 3386,
      "rol": 3387,
      "Ġol": 3388,
      "Ġق": 3389,
      "Ġrel": 3390,
      "Array": 3391,
      "ream": 3392,
      "Ġfor": 3393,
      "hr": 3394,
      "ior": 3395,
      "ycl": 3396,
      "жи": 3397,
      "Ġpart": 3398,
      "Ġed": 3399,
      "éd": 3400,
      "ivers": 3401,
      "Ġmod": 3402,
      "ocal": 3403,
      "ral": 3404,
      "ta": 3405,
      "By": 3406,
      "rec": 3407,
      "elect": 3408,
      "ument": 3409,
      "ante": 3410,
      "ée": 3411,
      "duct": 3412,
      "vert": 3413,
      "Ġx": 3414,
      "Ġđ": 3415,
      "ao": 3416,
      "IP": 3417,
      "ای": 3418,
      "bar": 3419,
      "rack": 3420,
      "Ġover": 3421,
      "vol": 3422,
      "ito": 3423,
      "hi": 3424,
      "ري": 3425,
      "read": 3426,
      "elle": 3427,
      "ál": 3428,
      "Ġmon": 3429,
      "Ġup": 3430,
      "ей": 3431,
      "Ġinf": 3432,
      "ford": 3433,
      "ify": 3434,
      "SC": 3435,
      "ali": 3436,
      "Index": 3437,
      "Ġext": 3438,
      "って": 3439,
      "rem": 3440,
      "nh": 3441,
      "Image": 3442,
      "ency": 3443,
      "UM": 3444,
      "Ġor": 3445,
      "Int": 3446,
      "State": 3447,
      "ĠGu": 3448,
      "icht": 3449,
      "ns": 3450,
      "ita": 3451,
      "App": 3452,
      "Ġsch": 3453,
      "ту": 3454,
      "Ġmult": 3455,
      "cont": 3456,
      "yr": 3457,
      "back": 3458,
      "gu": 3459,
      "by": 3460,
      "arch": 3461,
      "ution": 3462,
      "Time": 3463,
      "ні": 3464,
      "Ġwh": 3465,
      "Ġhe": 3466,
      "reen": 3467,
      "IA": 3468,
      "cur": 3469,
      "со": 3470,
      "Param": 3471,
      "inter": 3472,
      "ower": 3473,
      "rain": 3474,
      "rap": 3475,
      "Field": 3476,
      "iones": 3477,
      "va": 3478,
      "unk": 3479,
      "Ġот": 3480,
      "sub": 3481,
      "Ġdep": 3482,
      "ici": 3483,
      "Ġпре": 3484,
      "iles": 3485,
      "Ġins": 3486,
      "وا": 3487,
      "зи": 3488,
      "oul": 3489,
      "ég": 3490,
      "irm": 3491,
      "go": 3492,
      "Ġdist": 3493,
      "ĠQu": 3494,
      "oot": 3495,
      "Ġvol": 3496,
      "aps": 3497,
      "ians": 3498,
      "ĠС": 3499,
      "ique": 3500,
      "Ġus": 3501,
      "ales": 3502,
      "ui": 3503,
      "Ġмо": 3504,
      "Ġpost": 3505,
      "ĠВ": 3506,
      "ima": 3507,
      "US": 3508,
      "br": 3509,
      "ür": 3510,
      "یر": 3511,
      "Ġآ": 3512,
      "ource": 3513,
      "rel": 3514,
      "ude": 3515,
      "ego": 3516,
      "ско": 3517,
      "IR": 3518,
      "Ġber": 3519,
      "rie": 3520,
      "equest": 3521,
      "ía": 3522,
      "ية": 3523,
      "for": 3524,
      "Ġلل": 3525,
      "off": 3526,
      "aya": 3527,
      "ayout": 3528,
      "ments": 3529,
      "ml": 3530,
      "ás": 3531,
      "ĠPl": 3532,
      "Ġconf": 3533,
      "vo": 3534,
      "arr": 3535,
      "Ġsw": 3536,
      "cent": 3537,
      "load": 3538,
      "Ġbe": 3539,
      "Color": 3540,
      "сть": 3541,
      "ias": 3542,
      "Al": 3543,
      "ble": 3544,
      "Ġsol": 3545,
      "лен": 3546,
      "oto": 3547,
      "се": 3548,
      "ты": 3549,
      "Context": 3550,
      "rite": 3551,
      "ilit": 3552,
      "Ġmet": 3553,
      "Ġdel": 3554,
      "CE": 3555,
      "ident": 3556,
      "Ġrep": 3557,
      "zi": 3558,
      "CL": 3559,
      "round": 3560,
      "ception": 3561,
      "сь": 3562,
      "ör": 3563,
      "zy": 3564,
      "Ġexp": 3565,
      "press": 3566,
      "ის": 3567,
      "Ġend": 3568,
      "ese": 3569,
      "Ġст": 3570,
      "ря": 3571,
      "eld": 3572,
      "ır": 3573,
      "Ġpres": 3574,
      "Fl": 3575,
      "Ġво": 3576,
      "enz": 3577,
      "ĠAm": 3578,
      "RP": 3579,
      "ayer": 3580,
      "ection": 3581,
      "Ġact": 3582,
      "aus": 3583,
      "Ġbr": 3584,
      "Ġenc": 3585,
      "وم": 3586,
      "BS": 3587,
      "asc": 3588,
      "اس": 3589,
      "وب": 3590,
      "Ġov": 3591,
      "ор": 3592,
      "OC": 3593,
      "onent": 3594,
      "ير": 3595,
      "Ġmin": 3596,
      "Ġod": 3597,
      "ua": 3598,
      "Ġpot": 3599,
      "my": 3600,
      "ĠLe": 3601,
      "ms": 3602,
      "Code": 3603,
      "sw": 3604,
      "irect": 3605,
      "Ġcal": 3606,
      "nie": 3607,
      "Ġon": 3608,
      "ette": 3609,
      "Ġpo": 3610,
      "ных": 3611,
      "TR": 3612,
      "AB": 3613,
      "لي": 3614,
      "any": 3615,
      "itch": 3616,
      "rip": 3617,
      "Ġэ": 3618,
      "lex": 3619,
      "elt": 3620,
      "ouse": 3621,
      "Get": 3622,
      "lin": 3623,
      "itz": 3624,
      "OD": 3625,
      "da": 3626,
      "Ġdisc": 3627,
      "udd": 3628,
      "iro": 3629,
      "ender": 3630,
      "rup": 3631,
      "ение": 3632,
      "irt": 3633,
      "ever": 3634,
      "ĠVer": 3635,
      "Ref": 3636,
      "Ġes": 3637,
      "Ġма": 3638,
      "Box": 3639,
      "uan": 3640,
      "ров": 3641,
      "uild": 3642,
      "All": 3643,
      "Ġdem": 3644,
      "Ġstr": 3645,
      "oad": 3646,
      "Ġang": 3647,
      "mp": 3648,
      "ĠBe": 3649,
      "Ġdo": 3650,
      "ues": 3651,
      "Bl": 3652,
      "Ġprop": 3653,
      "ital": 3654,
      "opp": 3655,
      "ود": 3656,
      "ouch": 3657,
      "uer": 3658,
      "ny": 3659,
      "ii": 3660,
      "acc": 3661,
      "ape": 3662,
      "order": 3663,
      "Up": 3664,
      "box": 3665,
      "ου": 3666,
      "Ġpos": 3667,
      "ae": 3668,
      "uto": 3669,
      "itor": 3670,
      "aan": 3671,
      "Ġapp": 3672,
      "Ġesc": 3673,
      "Ġinv": 3674,
      "Ġte": 3675,
      "ql": 3676,
      "ken": 3677,
      "ught": 3678,
      "ĠUn": 3679,
      "ody": 3680,
      "Ġwe": 3681,
      "Th": 3682,
      "он": 3683,
      "пу": 3684,
      "ences": 3685,
      "ils": 3686,
      "bol": 3687,
      "ability": 3688,
      "Ap": 3689,
      "су": 3690,
      "abb": 3691,
      "esh": 3692,
      "Ġme": 3693,
      "unter": 3694,
      "ives": 3695,
      "Ġred": 3696,
      "ational": 3697,
      "ips": 3698,
      "ove": 3699,
      "ogg": 3700,
      "ные": 3701,
      "EC": 3702,
      "Ġpe": 3703,
      "ists": 3704,
      "User": 3705,
      "Ġsm": 3706,
      "Request": 3707,
      "atter": 3708,
      "Ġep": 3709,
      "Ġdev": 3710,
      "ily": 3711,
      "ester": 3712,
      "PL": 3713,
      "är": 3714,
      "ной": 3715,
      "amm": 3716,
      "ius": 3717,
      "kh": 3718,
      "rig": 3719,
      "nal": 3720,
      "cre": 3721,
      "ides": 3722,
      "SA": 3723,
      "enu": 3724,
      "Bar": 3725,
      "Ġي": 3726,
      "akt": 3727,
      "ope": 3728,
      "Ġdet": 3729,
      "رو": 3730,
      "abel": 3731,
      "uest": 3732,
      "ination": 3733,
      "ology": 3734,
      "zt": 3735,
      "ní": 3736,
      "Group": 3737,
      "ün": 3738,
      "aint": 3739,
      "Ġall": 3740,
      "ced": 3741,
      "FF": 3742,
      "imp": 3743,
      "akan": 3744,
      "len": 3745,
      "board": 3746,
      "Inter": 3747,
      "TS": 3748,
      "ción": 3749,
      "Ġart": 3750,
      "یک": 3751,
      "icul": 3752,
      "orb": 3753,
      "Ġleg": 3754,
      "acter": 3755,
      "ット": 3756,
      "urb": 3757,
      "Out": 3758,
      "Ġemb": 3759,
      "DA": 3760,
      "ved": 3761,
      "Ġsal": 3762,
      "lev": 3763,
      "OP": 3764,
      "ote": 3765,
      "ებ": 3766,
      "raz": 3767,
      "alk": 3768,
      "struct": 3769,
      "ault": 3770,
      "ды": 3771,
      "chen": 3772,
      "uel": 3773,
      "osph": 3774,
      "ים": 3775,
      "ствен": 3776,
      "Ġگ": 3777,
      "indow": 3778,
      "ados": 3779,
      "col": 3780,
      "Ġsur": 3781,
      "com": 3782,
      "Set": 3783,
      "ĠFl": 3784,
      "idth": 3785,
      "uid": 3786,
      "Class": 3787,
      "át": 3788,
      "hen": 3789,
      "Ġir": 3790,
      "lad": 3791,
      "ca": 3792,
      "wa": 3793,
      "ices": 3794,
      "Ġص": 3795,
      "oken": 3796,
      "CP": 3797,
      "Ġраз": 3798,
      "ces": 3799,
      "view": 3800,
      "umer": 3801,
      "Ġnot": 3802,
      "ift": 3803,
      "ators": 3804,
      "orth": 3805,
      "Ġmar": 3806,
      "ĠEd": 3807,
      "mi": 3808,
      "unch": 3809,
      "Ġann": 3810,
      "eler": 3811,
      "ours": 3812,
      "TH": 3813,
      "Ass": 3814,
      "pond": 3815,
      "En": 3816,
      "Ġoff": 3817,
      "ete": 3818,
      "onic": 3819,
      "спо": 3820,
      "して": 3821,
      "ĠEm": 3822,
      "SS": 3823,
      "ves": 3824,
      "Ph": 3825,
      "imm": 3826,
      "ει": 3827,
      "aks": 3828,
      "aft": 3829,
      "Input": 3830,
      "ید": 3831,
      "istic": 3832,
      "zen": 3833,
      "ĠAb": 3834,
      "UL": 3835,
      "onal": 3836,
      "Ġه": 3837,
      "omet": 3838,
      "endo": 3839,
      "ère": 3840,
      "يه": 3841,
      "oon": 3842,
      "لی": 3843,
      "CS": 3844,
      "IB": 3845,
      "ĠEn": 3846,
      "orph": 3847,
      "ified": 3848,
      "ola": 3849,
      "щи": 3850,
      "las": 3851,
      "ature": 3852,
      "Pre": 3853,
      "roph": 3854,
      "clus": 3855,
      "PC": 3856,
      "uct": 3857,
      "etic": 3858,
      "ный": 3859,
      "Ġان": 3860,
      "do": 3861,
      "Un": 3862,
      "eder": 3863,
      "uro": 3864,
      "лі": 3865,
      "ids": 3866,
      "gram": 3867,
      "Char": 3868,
      "abor": 3869,
      "ona": 3870,
      "Ġmeng": 3871,
      "ited": 3872,
      "Layout": 3873,
      "Ġпа": 3874,
      "ulf": 3875,
      "raft": 3876,
      "bre": 3877,
      "ida": 3878,
      "Ġec": 3879,
      "ense": 3880,
      "ements": 3881,
      "asi": 3882,
      "ĠPol": 3883,
      "cal": 3884,
      "Ġtest": 3885,
      "Ġfil": 3886,
      "ées": 3887,
      "ocation": 3888,
      "ende": 3889,
      "rict": 3890,
      "ites": 3891,
      "ного": 3892,
      "ermin": 3893,
      "Ġimm": 3894,
      "кт": 3895,
      "empl": 3896,
      "atus": 3897,
      "éc": 3898,
      "Manager": 3899,
      "unic": 3900,
      "ky": 3901,
      "ula": 3902,
      "Ġform": 3903,
      "يد": 3904,
      "Prop": 3905,
      "lor": 3906,
      "ĠБ": 3907,
      "Ġsec": 3908,
      "از": 3909,
      "Ġconv": 3910,
      "ĠPr": 3911,
      "Col": 3912,
      "ains": 3913,
      "now": 3914,
      "Ġrest": 3915,
      "cht": 3916,
      "agg": 3917,
      "Ġfr": 3918,
      "Ġprof": 3919,
      "ĠА": 3920,
      "ATION": 3921,
      "تر": 3922,
      "utter": 3923,
      "ĠPar": 3924,
      "اف": 3925,
      "Ġge": 3926,
      "Ġك": 3927,
      "した": 3928,
      "Result": 3929,
      "Ġneg": 3930,
      "atis": 3931,
      "πο": 3932,
      "esch": 3933,
      "ém": 3934,
      "ков": 3935,
      "рав": 3936,
      "lig": 3937,
      "Ġdesc": 3938,
      "ĠHe": 3939,
      "edia": 3940,
      "Ġте": 3941,
      "serv": 3942,
      "zo": 3943,
      "ック": 3944,
      "atan": 3945,
      "Ġgi": 3946,
      "ries": 3947,
      "Def": 3948,
      "oe": 3949,
      "رد": 3950,
      "ono": 3951,
      "comp": 3952,
      "Ġбо": 3953,
      "ards": 3954,
      "Ġequ": 3955,
      "ות": 3956,
      "Element": 3957,
      "oxy": 3958,
      "MS": 3959,
      "onom": 3960,
      "cor": 3961,
      "onn": 3962,
      "With": 3963,
      "ĠAg": 3964,
      "way": 3965,
      "Ġго": 3966,
      "field": 3967,
      "ava": 3968,
      "гра": 3969,
      "new": 3970,
      "Ġро": 3971,
      "oci": 3972,
      "count": 3973,
      "aster": 3974,
      "not": 3975,
      "rab": 3976,
      "berg": 3977,
      "path": 3978,
      "ще": 3979,
      "organ": 3980,
      "ät": 3981,
      "кі": 3982,
      "HT": 3983,
      "ki": 3984,
      "raf": 3985,
      "ĠCont": 3986,
      "αν": 3987,
      "Ġaff": 3988,
      "ched": 3989,
      "wood": 3990,
      "Event": 3991,
      "For": 3992,
      "oint": 3993,
      "anam": 3994,
      "ila": 3995,
      "Ġж": 3996,
      "rif": 3997,
      "PT": 3998,
      "eader": 3999,
      "ité": 4000,
      "ше": 4001,
      "ops": 4002,
      "ĠComp": 4003,
      "omer": 4004,
      "den": 4005,
      "anti": 4006,
      "Ġval": 4007,
      "Action": 4008,
      "oma": 4009,
      "Ġpub": 4010,
      "Em": 4011,
      "iej": 4012,
      "ength": 4013,
      "urt": 4014,
      "Ġma": 4015,
      "ĠCor": 4016,
      "ĠMar": 4017,
      "Ġesp": 4018,
      "oke": 4019,
      "irc": 4020,
      "ury": 4021,
      "atth": 4022,
      "Call": 4023,
      "ribut": 4024,
      "ĠК": 4025,
      "ön": 4026,
      "Count": 4027,
      "حد": 4028,
      "وس": 4029,
      "Number": 4030,
      "Ġrad": 4031,
      "ска": 4032,
      "Ġfe": 4033,
      "item": 4034,
      "Ġhand": 4035,
      "вер": 4036,
      "pect": 4037,
      "ured": 4038,
      "ĠCar": 4039,
      "ход": 4040,
      "ivity": 4041,
      "Ġla": 4042,
      "ца": 4043,
      "comm": 4044,
      "Ġsuc": 4045,
      "リー": 4046,
      "igen": 4047,
      "omen": 4048,
      "ан": 4049,
      "olic": 4050,
      "atal": 4051,
      "OW": 4052,
      "Service": 4053,
      "ĠEl": 4054,
      "IF": 4055,
      "Ġjed": 4056,
      "Ġtran": 4057,
      "di": 4058,
      "stra": 4059,
      "ĠApp": 4060,
      "duc": 4061,
      "ois": 4062,
      "ening": 4063,
      "рова": 4064,
      "Ġبال": 4065,
      "Ġutil": 4066,
      "Ġcr": 4067,
      "Config": 4068,
      "った": 4069,
      "Is": 4070,
      "Ġdiv": 4071,
      "acy": 4072,
      "Ġto": 4073,
      "ko": 4074,
      "ucle": 4075,
      "ĠCol": 4076,
      "eli": 4077,
      "Ġbo": 4078,
      "Ġinst": 4079,
      "ney": 4080,
      "AY": 4081,
      "amin": 4082,
      "ross": 4083,
      "ede": 4084,
      "alle": 4085,
      "room": 4086,
      "atri": 4087,
      "ĠCo": 4088,
      "play": 4089,
      "ール": 4090,
      "Ġбу": 4091,
      "Ġperm": 4092,
      "би": 4093,
      "Ġso": 4094,
      "EG": 4095,
      "Ġtro": 4096,
      "Table": 4097,
      "ones": 4098,
      "imb": 4099,
      "Ġkh": 4100,
      "usc": 4101,
      "Ġста": 4102,
      "ync": 4103,
      "map": 4104,
      "mar": 4105,
      "osc": 4106,
      "ĠIm": 4107,
      "tre": 4108,
      "ethod": 4109,
      "ised": 4110,
      "ĠП": 4111,
      "ails": 4112,
      "Ġsym": 4113,
      "ept": 4114,
      "ай": 4115,
      "zer": 4116,
      "ĠSe": 4117,
      "Exception": 4118,
      "key": 4119,
      "än": 4120,
      "iffer": 4121,
      "фи": 4122,
      "omin": 4123,
      "Ġσ": 4124,
      "Ġba": 4125,
      "mod": 4126,
      "unn": 4127,
      "Date": 4128,
      "bit": 4129,
      "Ġng": 4130,
      "Model": 4131,
      "يا": 4132,
      "lish": 4133,
      "ugg": 4134,
      "ート": 4135,
      "رب": 4136,
      "ador": 4137,
      "ungen": 4138,
      "Ġnew": 4139,
      "Ġbre": 4140,
      "Log": 4141,
      "Ġя": 4142,
      "тель": 4143,
      "Ġز": 4144,
      "Ġsv": 4145,
      "aur": 4146,
      "GR": 4147,
      "MA": 4148,
      "hat": 4149,
      "ector": 4150,
      "ít": 4151,
      "CO": 4152,
      "Ġbi": 4153,
      "Ġcap": 4154,
      "elf": 4155,
      "earch": 4156,
      "ige": 4157,
      "pen": 4158,
      "js": 4159,
      "ibr": 4160,
      "ĠBar": 4161,
      "oro": 4162,
      "ika": 4163,
      "ilt": 4164,
      "encia": 4165,
      "ング": 4166,
      "لم": 4167,
      "Qu": 4168,
      "ĠBr": 4169,
      "ют": 4170,
      "Ġaf": 4171,
      "He": 4172,
      "Ġtre": 4173,
      "Ġкон": 4174,
      "iento": 4175,
      "CA": 4176,
      "Ġreal": 4177,
      "ĠIN": 4178,
      "ben": 4179,
      "rv": 4180,
      "Ġsem": 4181,
      "ires": 4182,
      "IST": 4183,
      "Ġlo": 4184,
      "text": 4185,
      "anj": 4186,
      "Ġpal": 4187,
      "ster": 4188,
      "essage": 4189,
      "بر": 4190,
      "Ġआ": 4191,
      "DS": 4192,
      "lı": 4193,
      "Ġш": 4194,
      "gi": 4195,
      "Ġиз": 4196,
      "down": 4197,
      "ington": 4198,
      "Ġhom": 4199,
      "ydro": 4200,
      "ogen": 4201,
      "ız": 4202,
      "point": 4203,
      "зы": 4204,
      "ül": 4205,
      "OS": 4206,
      "Ġadd": 4207,
      "Test": 4208,
      "rum": 4209,
      "ĠOr": 4210,
      "une": 4211,
      "aro": 4212,
      "Ġsn": 4213,
      "Ġmed": 4214,
      "Ġч": 4215,
      "Node": 4216,
      "Ġsu": 4217,
      "ials": 4218,
      "τα": 4219,
      "ification": 4220,
      "ски": 4221,
      "ethyl": 4222,
      "yth": 4223,
      "Act": 4224,
      "Ġچ": 4225,
      "aki": 4226,
      "cer": 4227,
      "por": 4228,
      "ison": 4229,
      "ission": 4230,
      "anel": 4231,
      "avig": 4232,
      "name": 4233,
      "izing": 4234,
      "Ġpass": 4235,
      "Ġви": 4236,
      "ери": 4237,
      "Ġπ": 4238,
      "onse": 4239,
      "اش": 4240,
      "isp": 4241,
      "ski": 4242,
      "char": 4243,
      "DE": 4244,
      "DP": 4245,
      "Ġالع": 4246,
      "adi": 4247,
      "rl": 4248,
      "Arg": 4249,
      "odes": 4250,
      "iber": 4251,
      "angan": 4252,
      "Ġsim": 4253,
      "olo": 4254,
      "erty": 4255,
      "ume": 4256,
      "resent": 4257,
      "awa": 4258,
      "Comm": 4259,
      "TER": 4260,
      "Window": 4261,
      "minist": 4262,
      "Ġmem": 4263,
      "ów": 4264,
      "ogn": 4265,
      "erk": 4266,
      "ется": 4267,
      "ku": 4268,
      "umin": 4269,
      "Ġпод": 4270,
      "SM": 4271,
      "Ġہ": 4272,
      "Ġet": 4273,
      "AA": 4274,
      "ран": 4275,
      "Info": 4276,
      "Ġmot": 4277,
      "Ġmo": 4278,
      "oder": 4279,
      "ba": 4280,
      "web": 4281,
      "ек": 4282,
      "Map": 4283,
      "lu": 4284,
      "Ġالت": 4285,
      "eep": 4286,
      "сы": 4287,
      "aim": 4288,
      "تی": 4289,
      "ικ": 4290,
      "Ġsz": 4291,
      "tim": 4292,
      "Ġин": 4293,
      "ather": 4294,
      "ttp": 4295,
      "Ġمن": 4296,
      "orr": 4297,
      "Resp": 4298,
      "ния": 4299,
      "Ġpop": 4300,
      "ım": 4301,
      "anz": 4302,
      "icos": 4303,
      "isi": 4304,
      "وں": 4305,
      "Ġhum": 4306,
      "یم": 4307,
      "Hand": 4308,
      "illa": 4309,
      "Ġri": 4310,
      "ên": 4311,
      "lik": 4312,
      "aten": 4313,
      "FA": 4314,
      "Ġmax": 4315,
      "Ġç": 4316,
      "init": 4317,
      "ega": 4318,
      "ĠAp": 4319,
      "Att": 4320,
      "urch": 4321,
      "ami": 4322,
      "ĠMon": 4323,
      "ulation": 4324,
      "rich": 4325,
      "sm": 4326,
      "iver": 4327,
      "nya": 4328,
      "ocus": 4329,
      "igg": 4330,
      "лы": 4331,
      "yg": 4332,
      "ances": 4333,
      "یا": 4334,
      "der": 4335,
      "ĠSw": 4336,
      "ĠSal": 4337,
      "äh": 4338,
      "сси": 4339,
      "ji": 4340,
      "una": 4341,
      "ĠComm": 4342,
      "ges": 4343,
      "edd": 4344,
      "arks": 4345,
      "ĠMan": 4346,
      "mente": 4347,
      "Ġcent": 4348,
      "amos": 4349,
      "ĠWh": 4350,
      "rew": 4351,
      "ending": 4352,
      "atory": 4353,
      "irst": 4354,
      "ares": 4355,
      "Width": 4356,
      "ony": 4357,
      "EST": 4358,
      "An": 4359,
      "Ġде": 4360,
      "ivo": 4361,
      "Co": 4362,
      "eri": 4363,
      "ively": 4364,
      "inf": 4365,
      "ordin": 4366,
      "mat": 4367,
      "icas": 4368,
      "Ġdest": 4369,
      "eta": 4370,
      "Be": 4371,
      "Ġpat": 4372,
      "Ġprz": 4373,
      "date": 4374,
      "CM": 4375,
      "Re": 4376,
      "uge": 4377,
      "Ġcond": 4378,
      "ınd": 4379,
      "лов": 4380,
      "ural": 4381,
      "Ġsign": 4382,
      "Ġhab": 4383,
      "ently": 4384,
      "ened": 4385,
      "list": 4386,
      "Ġkon": 4387,
      "Ġfre": 4388,
      "ĠReg": 4389,
      "erman": 4390,
      "ĠAss": 4391,
      "Form": 4392,
      "aran": 4393,
      "Ġה": 4394,
      "Ġser": 4395,
      "нд": 4396,
      "At": 4397,
      "Ġü": 4398,
      "rick": 4399,
      "aph": 4400,
      "TA": 4401,
      "riter": 4402,
      "ases": 4403,
      "bra": 4404,
      "igu": 4405,
      "Ġvis": 4406,
      "ба": 4407,
      "ej": 4408,
      "Ġmis": 4409,
      "Sub": 4410,
      "tra": 4411,
      "uffer": 4412,
      "Ġinform": 4413,
      "Ġdiss": 4414,
      "rob": 4415,
      "Ġgu": 4416,
      "ĠEr": 4417,
      "ден": 4418,
      "ired": 4419,
      "ระ": 4420,
      "Ġprom": 4421,
      "ories": 4422,
      "Ġfac": 4423,
      "net": 4424,
      "ха": 4425,
      "Ġме": 4426,
      "roc": 4427,
      "Ġmic": 4428,
      "şt": 4429,
      "Ġgen": 4430,
      "izz": 4431,
      "CI": 4432,
      "shire": 4433,
      "ها": 4434,
      "スト": 4435,
      "про": 4436,
      "Ġdisp": 4437,
      "last": 4438,
      "oles": 4439,
      "si": 4440,
      "nik": 4441,
      "ない": 4442,
      "unct": 4443,
      "ows": 4444,
      "änd": 4445,
      "umn": 4446,
      "itter": 4447,
      "це": 4448,
      "Ġأ": 4449,
      "Ġprot": 4450,
      "inu": 4451,
      "BC": 4452,
      "Ġtri": 4453,
      "aud": 4454,
      "lem": 4455,
      "Line": 4456,
      "Ġeff": 4457,
      "het": 4458,
      "Component": 4459,
      "Ġcu": 4460,
      "ikan": 4461,
      "ista": 4462,
      "older": 4463,
      "ei": 4464,
      "log": 4465,
      "osa": 4466,
      "Ġren": 4467,
      "رف": 4468,
      "QU": 4469,
      "emat": 4470,
      "AV": 4471,
      "ols": 4472,
      "ESS": 4473,
      "ecial": 4474,
      "Ġالأ": 4475,
      "hip": 4476,
      "Ġcoll": 4477,
      "Ġمع": 4478,
      "ρα": 4479,
      "anda": 4480,
      "Not": 4481,
      "cher": 4482,
      "PR": 4483,
      "avor": 4484,
      "ĠOb": 4485,
      "inder": 4486,
      "Ġexc": 4487,
      "uns": 4488,
      "arth": 4489,
      "oi": 4490,
      "لو": 4491,
      "Rec": 4492,
      "Ġid": 4493,
      "вет": 4494,
      "ном": 4495,
      "ĠSl": 4496,
      "itions": 4497,
      "рі": 4498,
      "arget": 4499,
      "iers": 4500,
      "hib": 4501,
      "Menu": 4502,
      "ario": 4503,
      "mas": 4504,
      "iem": 4505,
      "gr": 4506,
      "する": 4507,
      "aul": 4508,
      "rest": 4509,
      "iner": 4510,
      "aries": 4511,
      "DR": 4512,
      "tn": 4513,
      "ends": 4514,
      "ialog": 4515,
      "Ġvi": 4516,
      "gg": 4517,
      "бу": 4518,
      "же": 4519,
      "ecut": 4520,
      "Ġالا": 4521,
      "ĠST": 4522,
      "On": 4523,
      "Ġseg": 4524,
      "osis": 4525,
      "iam": 4526,
      "ades": 4527,
      "cup": 4528,
      "wi": 4529,
      "жен": 4530,
      "Ġport": 4531,
      "ela": 4532,
      "ím": 4533,
      "Ġbeg": 4534,
      "Det": 4535,
      "uring": 4536,
      "amil": 4537,
      "riz": 4538,
      "Ġing": 4539,
      "ĠRes": 4540,
      "ĠAt": 4541,
      "inst": 4542,
      "geb": 4543,
      "بي": 4544,
      "او": 4545,
      "Ġда": 4546,
      "Start": 4547,
      "Ġhal": 4548,
      "Page": 4549,
      "nam": 4550,
      "Ġالس": 4551,
      "We": 4552,
      "ור": 4553,
      "han": 4554,
      "érie": 4555,
      "Rep": 4556,
      "ova": 4557,
      "Ġden": 4558,
      "ელ": 4559,
      "üh": 4560,
      "aire": 4561,
      "Ġč": 4562,
      "تا": 4563,
      "tern": 4564,
      "ills": 4565,
      "ivid": 4566,
      "rot": 4567,
      "ĠО": 4568,
      "ekt": 4569,
      "akes": 4570,
      "Ġpen": 4571,
      "api": 4572,
      "ĠPal": 4573,
      "lie": 4574,
      "Select": 4575,
      "eda": 4576,
      "гу": 4577,
      "ám": 4578,
      "ĠМ": 4579,
      "ader": 4580,
      "anger": 4581,
      "dec": 4582,
      "enth": 4583,
      "umm": 4584,
      "Web": 4585,
      "ĠР": 4586,
      "ately": 4587,
      "ერ": 4588,
      "тив": 4589,
      "gress": 4590,
      "Ġsa": 4591,
      "τε": 4592,
      "ential": 4593,
      "Pos": 4594,
      "сле": 4595,
      "jo": 4596,
      "db": 4597,
      "hab": 4598,
      "chem": 4599,
      "ches": 4600,
      "ERS": 4601,
      "ĠAll": 4602,
      "itu": 4603,
      "არ": 4604,
      "ising": 4605,
      "Go": 4606,
      "van": 4607,
      "amera": 4608,
      "ahan": 4609,
      "PA": 4610,
      "rypt": 4611,
      "ella": 4612,
      "hand": 4613,
      "Ġbel": 4614,
      "нда": 4615,
      "Ġdeb": 4616,
      "otic": 4617,
      "اری": 4618,
      "ister": 4619,
      "rame": 4620,
      "uls": 4621,
      "Ġsam": 4622,
      "зу": 4623,
      "ĠInd": 4624,
      "ĠCom": 4625,
      "iler": 4626,
      "ared": 4627,
      "ĠNe": 4628,
      "imo": 4629,
      "اه": 4630,
      "ECT": 4631,
      "bb": 4632,
      "hav": 4633,
      "ables": 4634,
      "Style": 4635,
      "اک": 4636,
      "ords": 4637,
      "resh": 4638,
      "يم": 4639,
      "Ġта": 4640,
      "As": 4641,
      "ijk": 4642,
      "Mode": 4643,
      "open": 4644,
      "And": 4645,
      "Down": 4646,
      "II": 4647,
      "ĠCH": 4648,
      "Ġpred": 4649,
      "aka": 4650,
      "MP": 4651,
      "DK": 4652,
      "ár": 4653,
      "Api": 4654,
      "ls": 4655,
      "file": 4656,
      "abil": 4657,
      "Ġback": 4658,
      "Ġelect": 4659,
      "Back": 4660,
      "arp": 4661,
      "Ġfin": 4662,
      "inh": 4663,
      "ĠИ": 4664,
      "です": 4665,
      "ref": 4666,
      "cs": 4667,
      "roid": 4668,
      "IO": 4669,
      "agen": 4670,
      "Message": 4671,
      "eller": 4672,
      "тов": 4673,
      "Client": 4674,
      "Ġdiff": 4675,
      "ści": 4676,
      "egr": 4677,
      "CR": 4678,
      "iya": 4679,
      "eric": 4680,
      "ocket": 4681,
      "ке": 4682,
      "ĠAnd": 4683,
      "ĠWe": 4684,
      "ourn": 4685,
      "SO": 4686,
      "تب": 4687,
      "LL": 4688,
      "aux": 4689,
      "udent": 4690,
      "erson": 4691,
      "ння": 4692,
      "ground": 4693,
      "imento": 4694,
      "ĠRep": 4695,
      "Ġcan": 4696,
      "ĠRec": 4697,
      "Ġphot": 4698,
      "یں": 4699,
      "Panel": 4700,
      "aker": 4701,
      "iness": 4702,
      "lection": 4703,
      "ρο": 4704,
      "าย": 4705,
      "iri": 4706,
      "evel": 4707,
      "Ġsuper": 4708,
      "Ġvo": 4709,
      "Ġexpl": 4710,
      "ason": 4711,
      "мы": 4712,
      "icip": 4713,
      "rz": 4714,
      "ache": 4715,
      "Ġve": 4716,
      "aly": 4717,
      "Ġhyp": 4718,
      "Trans": 4719,
      "Ġps": 4720,
      "ival": 4721,
      "Ġpod": 4722,
      "こと": 4723,
      "кра": 4724,
      "Ġtem": 4725,
      "ibility": 4726,
      "well": 4727,
      "ably": 4728,
      "ryst": 4729,
      "rupt": 4730,
      "uen": 4731,
      "Auth": 4732,
      "ipl": 4733,
      "став": 4734,
      "oper": 4735,
      "ended": 4736,
      "arant": 4737,
      "ynam": 4738,
      "udi": 4739,
      "ye": 4740,
      "amento": 4741,
      "Ġvers": 4742,
      "ĠGr": 4743,
      "hor": 4744,
      "ams": 4745,
      "ĠТ": 4746,
      "ід": 4747,
      "イン": 4748,
      "current": 4749,
      "Ġbil": 4750,
      "lob": 4751,
      "anding": 4752,
      "сту": 4753,
      "GF": 4754,
      "eft": 4755,
      "Star": 4756,
      "دا": 4757,
      "اہ": 4758,
      "SI": 4759,
      "econd": 4760,
      "reet": 4761,
      "work": 4762,
      "ショ": 4763,
      "MC": 4764,
      "iev": 4765,
      "aires": 4766,
      "other": 4767,
      "elles": 4768,
      "Ġgener": 4769,
      "ria": 4770,
      "ceed": 4771,
      "вы": 4772,
      "ploy": 4773,
      "wh": 4774,
      "esis": 4775,
      "ĠAc": 4776,
      "aga": 4777,
      "icks": 4778,
      "Ġsyn": 4779,
      "ín": 4780,
      "Ġmill": 4781,
      "ums": 4782,
      "ное": 4783,
      "یت": 4784,
      "зова": 4785,
      "Ġur": 4786,
      "Ġdig": 4787,
      "ished": 4788,
      "له": 4789,
      "Token": 4790,
      "itting": 4791,
      "ів": 4792,
      "Ġbro": 4793,
      "URE": 4794,
      "Ġunder": 4795,
      "Ġmer": 4796,
      "aces": 4797,
      "ifer": 4798,
      "New": 4799,
      "enti": 4800,
      "ward": 4801,
      "dz": 4802,
      "سم": 4803,
      "ĠД": 4804,
      "ike": 4805,
      "ifier": 4806,
      "CON": 4807,
      "rog": 4808,
      "izer": 4809,
      "ota": 4810,
      "Ġmat": 4811,
      "Ġeg": 4812,
      "rug": 4813,
      "osp": 4814,
      "ĠEst": 4815,
      "upp": 4816,
      "draw": 4817,
      "alth": 4818,
      "Ġmel": 4819,
      "alam": 4820,
      "iting": 4821,
      "Ġсу": 4822,
      "zn": 4823,
      "VER": 4824,
      "ander": 4825,
      "ori": 4826,
      "ça": 4827,
      "itar": 4828,
      "des": 4829,
      "rown": 4830,
      "ან": 4831,
      "Ġfran": 4832,
      "Ġх": 4833,
      "Url": 4834,
      "Ed": 4835,
      "XX": 4836,
      "ная": 4837,
      "ят": 4838,
      "ained": 4839,
      "Ġmagn": 4840,
      "ĠAng": 4841,
      "PM": 4842,
      "igned": 4843,
      "rij": 4844,
      "니다": 4845,
      "ство": 4846,
      "eva": 4847,
      "ние": 4848,
      "oid": 4849,
      "PE": 4850,
      "Ġالن": 4851,
      "Ġпред": 4852,
      "цен": 4853,
      "ĠMcC": 4854,
      "rio": 4855,
      "iki": 4856,
      "él": 4857,
      "ropri": 4858,
      "ously": 4859,
      "vest": 4860,
      "وان": 4861,
      "oms": 4862,
      "ĠMah": 4863,
      "ました": 4864,
      "یل": 4865,
      "Ġö": 4866,
      "oa": 4867,
      "eless": 4868,
      "ITY": 4869,
      "data": 4870,
      "ージ": 4871,
      "ingu": 4872,
      "ystem": 4873,
      "asis": 4874,
      "ĠTr": 4875,
      "ĠBro": 4876,
      "Conn": 4877,
      "ypes": 4878,
      "ision": 4879,
      "تم": 4880,
      "Ġто": 4881,
      "opy": 4882,
      "ĠMe": 4883,
      "aciones": 4884,
      "Ġса": 4885,
      "ита": 4886,
      "ORT": 4887,
      "hal": 4888,
      "ĠCons": 4889,
      "action": 4890,
      "Ġuse": 4891,
      "یز": 4892,
      "lj": 4893,
      "lass": 4894,
      "eto": 4895,
      "ocument": 4896,
      "Ġالق": 4897,
      "astic": 4898,
      "aler": 4899,
      "يك": 4900,
      "ĠBel": 4901,
      "Add": 4902,
      "Ġcurrent": 4903,
      "Ġkn": 4904,
      "ным": 4905,
      "Response": 4906,
      "Ġالح": 4907,
      "ined": 4908,
      "aking": 4909,
      "SRP": 4910,
      "าร": 4911,
      "ights": 4912,
      "argin": 4913,
      "Header": 4914,
      "iten": 4915,
      "ustom": 4916,
      "бе": 4917,
      "ration": 4918,
      "ĠDe": 4919,
      "Ġinfl": 4920,
      "quis": 4921,
      "ск": 4922,
      "GE": 4923,
      "anth": 4924,
      "aa": 4925,
      "صل": 4926,
      "Dec": 4927,
      "ĠSte": 4928,
      "ĠН": 4929,
      "BA": 4930,
      "ims": 4931,
      "ension": 4932,
      "cient": 4933,
      "otal": 4934,
      "Params": 4935,
      "Cre": 4936,
      "ша": 4937,
      "har": 4938,
      "рга": 4939,
      "اء": 4940,
      "ности": 4941,
      "Status": 4942,
      "ouv": 4943,
      "μα": 4944,
      "Ġअ": 4945,
      "ief": 4946,
      "ენ": 4947,
      "DB": 4948,
      "Ġком": 4949,
      "stitut": 4950,
      "find": 4951,
      "Ġnov": 4952,
      "osh": 4953,
      "arrow": 4954,
      "ession": 4955,
      "iance": 4956,
      "SR": 4957,
      "esi": 4958,
      "ignment": 4959,
      "cy": 4960,
      "Ġمح": 4961,
      "Av": 4962,
      "Ġsil": 4963,
      "DI": 4964,
      "Ġlog": 4965,
      "bs": 4966,
      "imal": 4967,
      "ões": 4968,
      "Ġcle": 4969,
      "uts": 4970,
      "eger": 4971,
      "Us": 4972,
      "Ġmal": 4973,
      "outh": 4974,
      "Init": 4975,
      "eff": 4976,
      "lam": 4977,
      "Ġbar": 4978,
      "print": 4979,
      "Ġε": 4980,
      "war": 4981,
      "Ġple": 4982,
      "Ġconc": 4983,
      "under": 4984,
      "Ġof": 4985,
      "Ġadj": 4986,
      "oring": 4987,
      "AND": 4988,
      "ĠInt": 4989,
      "rint": 4990,
      "ged": 4991,
      "Ġresp": 4992,
      "class": 4993,
      "лек": 4994,
      "Rout": 4995,
      "space": 4996,
      "eni": 4997,
      "います": 4998,
      "fort": 4999,
      "TE": 5000,
      "sz": 5001,
      "Ġpur": 5002,
      "Ġho": 5003,
      "ker": 5004,
      "ĠSm": 5005,
      "ĠIs": 5006,
      "Output": 5007,
      "lay": 5008,
      "Ġok": 5009,
      "pear": 5010,
      "itan": 5011,
      "Ġi": 5012,
      "echn": 5013,
      "ried": 5014,
      "def": 5015,
      "UD": 5016,
      "qual": 5017,
      "inger": 5018,
      "ĠRE": 5019,
      "Ġط": 5020,
      "roller": 5021,
      "ibus": 5022,
      "يل": 5023,
      "ART": 5024,
      "ands": 5025,
      "ients": 5026,
      "ored": 5027,
      "Var": 5028,
      "opt": 5029,
      "یس": 5030,
      "ân": 5031,
      "erial": 5032,
      "iva": 5033,
      "aik": 5034,
      "ık": 5035,
      "خت": 5036,
      "Ġbet": 5037,
      "Ġkar": 5038,
      "ested": 5039,
      "alar": 5040,
      "rey": 5041,
      "Ġتع": 5042,
      "Buffer": 5043,
      "kin": 5044,
      "Ġmy": 5045,
      "Ġnh": 5046,
      "cons": 5047,
      "esse": 5048,
      "ises": 5049,
      "Ġlocal": 5050,
      "prop": 5051,
      "Build": 5052,
      "vid": 5053,
      "ĠInter": 5054,
      "iente": 5055,
      "ography": 5056,
      "ML": 5057,
      "Ġprim": 5058,
      "part": 5059,
      "Ġder": 5060,
      "mark": 5061,
      "rea": 5062,
      "Ġpri": 5063,
      "inct": 5064,
      "oir": 5065,
      "xy": 5066,
      "iert": 5067,
      "End": 5068,
      "رح": 5069,
      "mon": 5070,
      "orld": 5071,
      "RA": 5072,
      "ĠCal": 5073,
      "Ġси": 5074,
      "Exp": 5075,
      "py": 5076,
      "lan": 5077,
      "gar": 5078,
      "idget": 5079,
      "ĠMod": 5080,
      "rer": 5081,
      "Ġeng": 5082,
      "BL": 5083,
      "win": 5084,
      "rect": 5085,
      "зо": 5086,
      "uter": 5087,
      "Ġten": 5088,
      "Ġult": 5089,
      "ga": 5090,
      "вто": 5091,
      "añ": 5092,
      "Sw": 5093,
      "рт": 5094,
      "kow": 5095,
      "Ġorgan": 5096,
      "éri": 5097,
      "emos": 5098,
      "rah": 5099,
      "omy": 5100,
      "ươ": 5101,
      "ность": 5102,
      "TC": 5103,
      "رم": 5104,
      "fol": 5105,
      "ント": 5106,
      "script": 5107,
      "при": 5108,
      "iction": 5109,
      "Ġpor": 5110,
      "Per": 5111,
      "face": 5112,
      "emia": 5113,
      "Ġру": 5114,
      "اح": 5115,
      "ĠSub": 5116,
      "ront": 5117,
      "Ġfort": 5118,
      "agon": 5119,
      "ĠГ": 5120,
      "ption": 5121,
      "сі": 5122,
      "RI": 5123,
      "xim": 5124,
      "رس": 5125,
      "rade": 5126,
      "pol": 5127,
      "owing": 5128,
      "Ġхо": 5129,
      "ds": 5130,
      "ued": 5131,
      "PP": 5132,
      "ства": 5133,
      "ĠAcc": 5134,
      "ĠBo": 5135,
      "illing": 5136,
      "fully": 5137,
      "iser": 5138,
      "igo": 5139,
      "Ġgra": 5140,
      "LO": 5141,
      "ormal": 5142,
      "وز": 5143,
      "link": 5144,
      "Ġil": 5145,
      "ti": 5146,
      "Dialog": 5147,
      "Link": 5148,
      "elet": 5149,
      "abs": 5150,
      "rar": 5151,
      "Content": 5152,
      "ological": 5153,
      "ategor": 5154,
      "три": 5155,
      "стро": 5156,
      "Ġdim": 5157,
      "ĠArch": 5158,
      "ĠRo": 5159,
      "ĠWil": 5160,
      "UST": 5161,
      "Change": 5162,
      "este": 5163,
      "aid": 5164,
      "eds": 5165,
      "icial": 5166,
      "Block": 5167,
      "Sl": 5168,
      "Ġche": 5169,
      "hes": 5170,
      "user": 5171,
      "asm": 5172,
      "awn": 5173,
      "itle": 5174,
      "Ġbas": 5175,
      "وج": 5176,
      "MENT": 5177,
      "yte": 5178,
      "ORD": 5179,
      "atas": 5180,
      "Ġли": 5181,
      "ól": 5182,
      "eling": 5183,
      "eal": 5184,
      "Or": 5185,
      "мет": 5186,
      "Inst": 5187,
      "кме": 5188,
      "ió": 5189,
      "anh": 5190,
      "rou": 5191,
      "eti": 5192,
      "vas": 5193,
      "icker": 5194,
      "Ġprec": 5195,
      "ipe": 5196,
      "rial": 5197,
      "inde": 5198,
      "ンド": 5199,
      "ві": 5200,
      "CD": 5201,
      "auc": 5202,
      "ĠMart": 5203,
      "Ġmi": 5204,
      "SD": 5205,
      "From": 5206,
      "cel": 5207,
      "ersion": 5208,
      "Ġmil": 5209,
      "uda": 5210,
      "Ġemp": 5211,
      "いた": 5212,
      "burg": 5213,
      "ĠFre": 5214,
      "نی": 5215,
      "Ġtw": 5216,
      "ამ": 5217,
      "sen": 5218,
      "CB": 5219,
      "mann": 5220,
      "ukan": 5221,
      "ции": 5222,
      "itri": 5223,
      "pty": 5224,
      "Height": 5225,
      "itive": 5226,
      "Ġserv": 5227,
      "יי": 5228,
      "arts": 5229,
      "Ġpi": 5230,
      "aven": 5231,
      "Ġher": 5232,
      "cell": 5233,
      "ILL": 5234,
      "amer": 5235,
      "ther": 5236,
      "Ġjedn": 5237,
      "cho": 5238,
      "ytes": 5239,
      "Ac": 5240,
      "Focus": 5241,
      "OUR": 5242,
      "шен": 5243,
      "Ġsens": 5244,
      "Ġве": 5245,
      "entes": 5246,
      "Ġloc": 5247,
      "ema": 5248,
      "has": 5249,
      "AK": 5250,
      "adas": 5251,
      "Ġét": 5252,
      "yan": 5253,
      "Ġconst": 5254,
      "Ġú": 5255,
      "xx": 5256,
      "Ġnec": 5257,
      "etch": 5258,
      "rs": 5259,
      "acer": 5260,
      "echan": 5261,
      "مع": 5262,
      "бли": 5263,
      "MB": 5264,
      "ция": 5265,
      "Ġaus": 5266,
      "いて": 5267,
      "post": 5268,
      "зыва": 5269,
      "Ġu": 5270,
      "TP": 5271,
      "Auto": 5272,
      "ĠBh": 5273,
      "acht": 5274,
      "itation": 5275,
      "ĠPer": 5276,
      "Ġben": 5277,
      "Ġhist": 5278,
      "ων": 5279,
      "íc": 5280,
      "eks": 5281,
      "ού": 5282,
      "ĠDec": 5283,
      "いる": 5284,
      "elling": 5285,
      "ased": 5286,
      "Ġhead": 5287,
      "edic": 5288,
      "Ġкра": 5289,
      "ĠSur": 5290,
      "ają": 5291,
      "äng": 5292,
      "epend": 5293,
      "head": 5294,
      "وش": 5295,
      "adr": 5296,
      "ago": 5297,
      "enda": 5298,
      "ests": 5299,
      "Ġtele": 5300,
      "lov": 5301,
      "Ġtext": 5302,
      "Ġanal": 5303,
      "rows": 5304,
      "Oper": 5305,
      "ALL": 5306,
      "inding": 5307,
      "aman": 5308,
      "Ġმ": 5309,
      "ribute": 5310,
      "Ġfer": 5311,
      "kins": 5312,
      "ره": 5313,
      "Ġbeh": 5314,
      "incip": 5315,
      "idos": 5316,
      "Ġالد": 5317,
      "EX": 5318,
      "iving": 5319,
      "Ġsep": 5320,
      "spect": 5321,
      "FBS": 5322,
      "itud": 5323,
      "band": 5324,
      "rift": 5325,
      "مل": 5326,
      "кер": 5327,
      "Ġwa": 5328,
      "fin": 5329,
      "ップ": 5330,
      "UG": 5331,
      "ĠRef": 5332,
      "mitt": 5333,
      "mooth": 5334,
      "gn": 5335,
      "rez": 5336,
      "ship": 5337,
      "Ġба": 5338,
      "lock": 5339,
      "aring": 5340,
      "var": 5341,
      "Ġvel": 5342,
      "Ġhem": 5343,
      "ター": 5344,
      "del": 5345,
      "ρι": 5346,
      "NS": 5347,
      "Ord": 5348,
      "rage": 5349,
      "etri": 5350,
      "Ġbul": 5351,
      "antes": 5352,
      "Ġaw": 5353,
      "Acc": 5354,
      "icle": 5355,
      "Cur": 5356,
      "एस": 5357,
      "Ġcreate": 5358,
      "ству": 5359,
      "след": 5360,
      "Ġсто": 5361,
      "Ġالج": 5362,
      "Mut": 5363,
      "Ġрас": 5364,
      "clud": 5365,
      "Ġhar": 5366,
      "OK": 5367,
      "bor": 5368,
      "фор": 5369,
      "usion": 5370,
      "ques": 5371,
      "ungs": 5372,
      "فر": 5373,
      "Ġnon": 5374,
      "roy": 5375,
      "Ġmag": 5376,
      "Ġمش": 5377,
      "Dis": 5378,
      "ĠCR": 5379,
      "right": 5380,
      "erse": 5381,
      "UND": 5382,
      "Ġлю": 5383,
      "ressed": 5384,
      "ته": 5385,
      "Task": 5386,
      "Resource": 5387,
      "ĠFran": 5388,
      "ία": 5389,
      "ancy": 5390,
      "light": 5391,
      "lim": 5392,
      "ember": 5393,
      "Ġq": 5394,
      "ugin": 5395,
      "ュー": 5396,
      "hel": 5397,
      "EE": 5398,
      "Cho": 5399,
      "Ġშ": 5400,
      "aging": 5401,
      "Ġκ": 5402,
      "ected": 5403,
      "циа": 5404,
      "Ġcost": 5405,
      "ebug": 5406,
      "με": 5407,
      "Ġarch": 5408,
      "Port": 5409,
      "Ġpay": 5410,
      "iller": 5411,
      "aver": 5412,
      "лет": 5413,
      "Ġtrav": 5414,
      "Http": 5415,
      "Control": 5416,
      "ís": 5417,
      "Cell": 5418,
      "Ġос": 5419,
      "ellen": 5420,
      "ць": 5421,
      "iene": 5422,
      "Ġзна": 5423,
      "Ġام": 5424,
      "imet": 5425,
      "aste": 5426,
      "Handler": 5427,
      "Ġven": 5428,
      "لس": 5429,
      "Ġuns": 5430,
      "вод": 5431,
      "olar": 5432,
      "bed": 5433,
      "obb": 5434,
      "race": 5435,
      "inner": 5436,
      "angle": 5437,
      "miss": 5438,
      "ware": 5439,
      "irk": 5440,
      "Ġele": 5441,
      "Rect": 5442,
      "Ġamb": 5443,
      "Ġit": 5444,
      "olds": 5445,
      "irl": 5446,
      "Row": 5447,
      "FBSDK": 5448,
      "зна": 5449,
      "rome": 5450,
      "riff": 5451,
      "UC": 5452,
      "onne": 5453,
      "auf": 5454,
      "icz": 5455,
      "кла": 5456,
      "ĠNew": 5457,
      "Ġbaş": 5458,
      "Ġot": 5459,
      "Ġka": 5460,
      "Ġrev": 5461,
      "รา": 5462,
      "ference": 5463,
      "Ġα": 5464,
      "ĠPL": 5465,
      "rev": 5466,
      "wer": 5467,
      "exp": 5468,
      "ления": 5469,
      "اي": 5470,
      "Ġspe": 5471,
      "izar": 5472,
      "Ġtop": 5473,
      "emon": 5474,
      "aper": 5475,
      "ом": 5476,
      "Ġker": 5477,
      "ôt": 5478,
      "ге": 5479,
      "ında": 5480,
      "Ġvari": 5481,
      "RAN": 5482,
      "Ġშე": 5483,
      "кой": 5484,
      "FT": 5485,
      "CTION": 5486,
      "Ġпов": 5487,
      "Ġcirc": 5488,
      "ife": 5489,
      "Server": 5490,
      "зя": 5491,
      "Ġdil": 5492,
      "ĠRev": 5493,
      "udio": 5494,
      "ived": 5495,
      "Ġbh": 5496,
      "ello": 5497,
      "angu": 5498,
      "Ġআ": 5499,
      "Bo": 5500,
      "PO": 5501,
      "etter": 5502,
      "bro": 5503,
      "send": 5504,
      "Ġcin": 5505,
      "Ġram": 5506,
      "Ġpriv": 5507,
      "ifest": 5508,
      "Ġmas": 5509,
      "ĠDis": 5510,
      "üt": 5511,
      "Ġе": 5512,
      "ĠPe": 5513,
      "Ġبر": 5514,
      "opup": 5515,
      "word": 5516,
      "ці": 5517,
      "rell": 5518,
      "rep": 5519,
      "Off": 5520,
      "Ġს": 5521,
      "ον": 5522,
      "Property": 5523,
      "стра": 5524,
      "ĠHel": 5525,
      "olt": 5526,
      "ĠMor": 5527,
      "rado": 5528,
      "ĠWood": 5529,
      "Ġhy": 5530,
      "hou": 5531,
      "ollow": 5532,
      "ty": 5533,
      "apping": 5534,
      "Ġpel": 5535,
      "amo": 5536,
      "uble": 5537,
      "book": 5538,
      "ու": 5539,
      "Ġspl": 5540,
      "ương": 5541,
      "اند": 5542,
      "onder": 5543,
      "Module": 5544,
      "ideo": 5545,
      "ocks": 5546,
      "iste": 5547,
      "каза": 5548,
      "input": 5549,
      "ĠEng": 5550,
      "iden": 5551,
      "enter": 5552,
      "Rad": 5553,
      "apter": 5554,
      "anes": 5555,
      "Game": 5556,
      "Track": 5557,
      "Vis": 5558,
      "orte": 5559,
      "Ġî": 5560,
      "ahr": 5561,
      "iously": 5562,
      "ailed": 5563,
      "iaz": 5564,
      "ما": 5565,
      "TL": 5566,
      "Ġpon": 5567,
      "upt": 5568,
      "Ġва": 5569,
      "Ġfam": 5570,
      "يب": 5571,
      "ション": 5572,
      "atu": 5573,
      "iddle": 5574,
      "フィ": 5575,
      "Ġmus": 5576,
      "рен": 5577,
      "Ġgel": 5578,
      "atura": 5579,
      "ining": 5580,
      "Ġax": 5581,
      "Ġbes": 5582,
      "kat": 5583,
      "Do": 5584,
      "Ġمت": 5585,
      "Ġdéc": 5586,
      "Sup": 5587,
      "стви": 5588,
      "кмекер": 5589,
      "ĠCON": 5590,
      "pack": 5591,
      "just": 5592,
      "ĠTrans": 5593,
      "itude": 5594,
      "string": 5595,
      "oler": 5596,
      "pie": 5597,
      "tres": 5598,
      "ules": 5599,
      "óg": 5600,
      "plac": 5601,
      "FR": 5602,
      "inz": 5603,
      "Ġالخ": 5604,
      "ncia": 5605,
      "aje": 5606,
      "Ġми": 5607,
      "ĠCOM": 5608,
      "ორ": 5609,
      "pass": 5610,
      "ande": 5611,
      "pret": 5612,
      "respond": 5613,
      "ór": 5614,
      "льно": 5615,
      "test": 5616,
      "sky": 5617,
      "empor": 5618,
      "ĠGo": 5619,
      "Ġak": 5620,
      "rb": 5621,
      "ág": 5622,
      "ĠEp": 5623,
      "EY": 5624,
      "asa": 5625,
      "ube": 5626,
      "oft": 5627,
      "stein": 5628,
      "Ġcamp": 5629,
      "iph": 5630,
      "elly": 5631,
      "itis": 5632,
      "alls": 5633,
      "rane": 5634,
      "ĠKn": 5635,
      "aria": 5636,
      "ĠЕ": 5637,
      "لام": 5638,
      "Ġneut": 5639,
      "onents": 5640,
      "ycle": 5641,
      "iding": 5642,
      "ał": 5643,
      "ĠWar": 5644,
      "ých": 5645,
      "ος": 5646,
      "ging": 5647,
      "Ent": 5648,
      "eros": 5649,
      "Ġrh": 5650,
      "urd": 5651,
      "Ġiz": 5652,
      "Label": 5653,
      "uster": 5654,
      "math": 5655,
      "nes": 5656,
      "اق": 5657,
      "Me": 5658,
      "Ġсе": 5659,
      "iled": 5660,
      "Ġbu": 5661,
      "Source": 5662,
      "Ġautom": 5663,
      "Ġобра": 5664,
      "rine": 5665,
      "stream": 5666,
      "sequ": 5667,
      "Open": 5668,
      "ercent": 5669,
      "uent": 5670,
      "oment": 5671,
      "ĠAs": 5672,
      "inary": 5673,
      "Ġsob": 5674,
      "xc": 5675,
      "alm": 5676,
      "нен": 5677,
      "Ġgrad": 5678,
      "bert": 5679,
      "ді": 5680,
      "icon": 5681,
      "Length": 5682,
      "ış": 5683,
      "dis": 5684,
      "ality": 5685,
      "trans": 5686,
      "Ġב": 5687,
      "Ret": 5688,
      "Ġinn": 5689,
      "Ġos": 5690,
      "وع": 5691,
      "unction": 5692,
      "ampl": 5693,
      "reens": 5694,
      "local": 5695,
      "thor": 5696,
      "Ġswe": 5697,
      "itte": 5698,
      "HA": 5699,
      "UI": 5700,
      "anged": 5701,
      "она": 5702,
      "ulated": 5703,
      "anyl": 5704,
      "Ġавто": 5705,
      "ĠPo": 5706,
      "ulo": 5707,
      "из": 5708,
      "andom": 5709,
      "gt": 5710,
      "Ġtom": 5711,
      "Ġбе": 5712,
      "Player": 5713,
      "ogo": 5714,
      "Body": 5715,
      "Ġspec": 5716,
      "وف": 5717,
      "Ġእ": 5718,
      "asp": 5719,
      "requ": 5720,
      "τη": 5721,
      "Ġcyt": 5722,
      "ин": 5723,
      "Tool": 5724,
      "END": 5725,
      "чен": 5726,
      "onc": 5727,
      "тер": 5728,
      "De": 5729,
      "oli": 5730,
      "Ġabs": 5731,
      "Ġmeg": 5732,
      "cep": 5733,
      "ATE": 5734,
      "aca": 5735,
      "reat": 5736,
      "INE": 5737,
      "Ġmu": 5738,
      "med": 5739,
      "riend": 5740,
      "Ġwy": 5741,
      "Ġsav": 5742,
      "óm": 5743,
      "Vert": 5744,
      "from": 5745,
      "Ġmont": 5746,
      "uis": 5747,
      "ĠVal": 5748,
      "oti": 5749,
      "قد": 5750,
      "Ġpeng": 5751,
      "allow": 5752,
      "embre": 5753,
      "Ġox": 5754,
      "Query": 5755,
      "Pass": 5756,
      "انی": 5757,
      "ilib": 5758,
      "Ġkt": 5759,
      "ться": 5760,
      "ια": 5761,
      "ause": 5762,
      "тор": 5763,
      "Ġlist": 5764,
      "iques": 5765,
      "aged": 5766,
      "vider": 5767,
      "Num": 5768,
      "Ġтер": 5769,
      "ĠAnt": 5770,
      "ác": 5771,
      "прав": 5772,
      "chaft": 5773,
      "irth": 5774,
      "ĠMcK": 5775,
      "ingen": 5776,
      "Ġand": 5777,
      "DC": 5778,
      "Create": 5779,
      "otion": 5780,
      "اج": 5781,
      "Ġsqu": 5782,
      "can": 5783,
      "Ġпер": 5784,
      "oster": 5785,
      "ĠMin": 5786,
      "ĠSup": 5787,
      "обра": 5788,
      "Ġсво": 5789,
      "یش": 5790,
      "arter": 5791,
      "evice": 5792,
      "getM": 5793,
      "Ġtab": 5794,
      "Ġвоз": 5795,
      "мер": 5796,
      "esso": 5797,
      "start": 5798,
      "ので": 5799,
      "ongo": 5800,
      "erce": 5801,
      "ipped": 5802,
      "споль": 5803,
      "Ġпу": 5804,
      "type": 5805,
      "Ġseb": 5806,
      "olid": 5807,
      "efore": 5808,
      "ohn": 5809,
      "opic": 5810,
      "aton": 5811,
      "Ġill": 5812,
      "ĠGe": 5813,
      "ĠKe": 5814,
      "ります": 5815,
      "rier": 5816,
      "eve": 5817,
      "airs": 5818,
      "мі": 5819,
      "Ġ있": 5820,
      "NG": 5821,
      "rink": 5822,
      "Ġsac": 5823,
      "жда": 5824,
      "idade": 5825,
      "jet": 5826,
      "нима": 5827,
      "Version": 5828,
      "cd": 5829,
      "acch": 5830,
      "Ġpow": 5831,
      "Ġdown": 5832,
      "Ġens": 5833,
      "uses": 5834,
      "ול": 5835,
      "nis": 5836,
      "GB": 5837,
      "Ġtor": 5838,
      "El": 5839,
      "Student": 5840,
      "idaz": 5841,
      "ovan": 5842,
      "mm": 5843,
      "plot": 5844,
      "outs": 5845,
      "perm": 5846,
      "bi": 5847,
      "eline": 5848,
      "sal": 5849,
      "ığ": 5850,
      "quin": 5851,
      "iling": 5852,
      "zą": 5853,
      "Json": 5854,
      "illes": 5855,
      "Ġke": 5856,
      "jsk": 5857,
      "чно": 5858,
      "Ġcer": 5859,
      "usp": 5860,
      "reas": 5861,
      "ประ": 5862,
      "river": 5863,
      "det": 5864,
      "ıs": 5865,
      "ipher": 5866,
      "ща": 5867,
      "Ġexper": 5868,
      "ĠSer": 5869,
      "TO": 5870,
      "Ġkey": 5871,
      "пре": 5872,
      "Ġrect": 5873,
      "Load": 5874,
      "counter": 5875,
      "Const": 5876,
      "mes": 5877,
      "Ġoper": 5878,
      "Ne": 5879,
      "าก": 5880,
      "Le": 5881,
      "Ġار": 5882,
      "embl": 5883,
      "mit": 5884,
      "max": 5885,
      "inds": 5886,
      "emy": 5887,
      "write": 5888,
      "obil": 5889,
      "icular": 5890,
      "MN": 5891,
      "ĠArt": 5892,
      "Ġfra": 5893,
      "color": 5894,
      "Ġthe": 5895,
      "ĠMcG": 5896,
      "ную": 5897,
      "Top": 5898,
      "aining": 5899,
      "Ġline": 5900,
      "eting": 5901,
      "aming": 5902,
      "Ġay": 5903,
      "vir": 5904,
      "cast": 5905,
      "zie": 5906,
      "xt": 5907,
      "Ġju": 5908,
      "سی": 5909,
      "ĠHar": 5910,
      "rak": 5911,
      "ĠPart": 5912,
      "aat": 5913,
      "ĠBur": 5914,
      "Ġplay": 5915,
      "Ġtur": 5916,
      "rast": 5917,
      "бы": 5918,
      "anch": 5919,
      "Ġclass": 5920,
      "一个": 5921,
      "れて": 5922,
      "ould": 5923,
      "Ġprov": 5924,
      "ĠDi": 5925,
      "Ġmut": 5926,
      "ĠMed": 5927,
      "Ġviv": 5928,
      "Ġhor": 5929,
      "Ġgo": 5930,
      "enden": 5931,
      "шо": 5932,
      "kov": 5933,
      "Ġger": 5934,
      "urop": 5935,
      "icult": 5936,
      "arat": 5937,
      "Ġtrad": 5938,
      "mb": 5939,
      "рти": 5940,
      "ний": 5941,
      "ès": 5942,
      "rada": 5943,
      "URL": 5944,
      "OH": 5945,
      "Ġcat": 5946,
      "Ġméd": 5947,
      "icient": 5948,
      "eze": 5949,
      "osit": 5950,
      "Ġrac": 5951,
      "day": 5952,
      "Ġped": 5953,
      "ĠSim": 5954,
      "ıl": 5955,
      "Ġдру": 5956,
      "eps": 5957,
      "Ġсоб": 5958,
      "erto": 5959,
      "ags": 5960,
      "ahl": 5961,
      "کھ": 5962,
      "öz": 5963,
      "iar": 5964,
      "eful": 5965,
      "Ġast": 5966,
      "ähr": 5967,
      "κε": 5968,
      "arser": 5969,
      "ahi": 5970,
      "Ġcele": 5971,
      "rates": 5972,
      "Ġlib": 5973,
      "atrix": 5974,
      "Location": 5975,
      "ượ": 5976,
      "BI": 5977,
      "Ġفون": 5978,
      "overn": 5979,
      "Ġmemb": 5980,
      "idades": 5981,
      "Ġvent": 5982,
      "irs": 5983,
      "SL": 5984,
      "uzz": 5985,
      "Arch": 5986,
      "ĠBre": 5987,
      "ση": 5988,
      "egu": 5989,
      "uje": 5990,
      "Method": 5991,
      "ublic": 5992,
      "Ġcas": 5993,
      "gy": 5994,
      "Ġpath": 5995,
      "fil": 5996,
      "ban": 5997,
      "Bit": 5998,
      "Ġti": 5999,
      "rowser": 6000,
      "bury": 6001,
      "oding": 6002,
      "спе": 6003,
      "aves": 6004,
      "ას": 6005,
      "ishing": 6006,
      "Ġالب": 6007,
      "ucc": 6008,
      "Ġlong": 6009,
      "itos": 6010,
      "Ġmit": 6011,
      "Ġey": 6012,
      "UB": 6013,
      "ĠMet": 6014,
      "sid": 6015,
      "iper": 6016,
      "PER": 6017,
      "ulate": 6018,
      "ĠHo": 6019,
      "ĠMa": 6020,
      "ĠRos": 6021,
      "oup": 6022,
      "illed": 6023,
      "Ġunivers": 6024,
      "ample": 6025,
      "Ġpoz": 6026,
      "ód": 6027,
      "ANG": 6028,
      "imes": 6029,
      "ually": 6030,
      "ĠCO": 6031,
      "Ġpré": 6032,
      "ĠDM": 6033,
      "icate": 6034,
      "Pack": 6035,
      "مر": 6036,
      "bal": 6037,
      "md": 6038,
      "resc": 6039,
      "ether": 6040,
      "mic": 6041,
      "elete": 6042,
      "ww": 6043,
      "gan": 6044,
      "econds": 6045,
      "ĠVill": 6046,
      "big": 6047,
      "Null": 6048,
      "Ġplan": 6049,
      "Ġadminist": 6050,
      "Ġкото": 6051,
      "ilar": 6052,
      "Script": 6053,
      "PI": 6054,
      "ifying": 6055,
      "DF": 6056,
      "Ġcam": 6057,
      "glich": 6058,
      "elled": 6059,
      "ework": 6060,
      "ան": 6061,
      "よう": 6062,
      "ĠKar": 6063,
      "yll": 6064,
      "rá": 6065,
      "сте": 6066,
      "sets": 6067,
      "ĠDor": 6068,
      "ICE": 6069,
      "egen": 6070,
      "eness": 6071,
      "Ġی": 6072,
      "Sync": 6073,
      "oven": 6074,
      "atz": 6075,
      "ар": 6076,
      "род": 6077,
      "اض": 6078,
      "ersh": 6079,
      "čn": 6080,
      "atform": 6081,
      "Ġpř": 6082,
      "IZ": 6083,
      "ĠDel": 6084,
      "Default": 6085,
      "ений": 6086,
      "inch": 6087,
      "ĠMad": 6088,
      "owan": 6089,
      "ющи": 6090,
      "FER": 6091,
      "ĠQx": 6092,
      "ategory": 6093,
      "anto": 6094,
      "Product": 6095,
      "time": 6096,
      "Stream": 6097,
      "actory": 6098,
      "ames": 6099,
      "pton": 6100,
      "ード": 6101,
      "rin": 6102,
      "Ġsor": 6103,
      "Child": 6104,
      "рх": 6105,
      "mond": 6106,
      "Ġdire": 6107,
      "سب": 6108,
      "plication": 6109,
      "Struct": 6110,
      "alan": 6111,
      "SH": 6112,
      "azione": 6113,
      "anges": 6114,
      "aze": 6115,
      "Ġwork": 6116,
      "icles": 6117,
      "cp": 6118,
      "ymph": 6119,
      "рован": 6120,
      "Ġstat": 6121,
      "Controller": 6122,
      "Ġum": 6123,
      "ribe": 6124,
      "έν": 6125,
      "ogram": 6126,
      "Ġtransp": 6127,
      "Ġא": 6128,
      "бер": 6129,
      "PRO": 6130,
      "Reg": 6131,
      "df": 6132,
      "actor": 6133,
      "Ġод": 6134,
      "ifi": 6135,
      "Buf": 6136,
      "heet": 6137,
      "aar": 6138,
      "iye": 6139,
      "tect": 6140,
      "ball": 6141,
      "wise": 6142,
      "page": 6143,
      "ardi": 6144,
      "lete": 6145,
      "من": 6146,
      "Ġsle": 6147,
      "hood": 6148,
      "Compat": 6149,
      "wick": 6150,
      "hn": 6151,
      "AF": 6152,
      "Ġпере": 6153,
      "ĠGar": 6154,
      "ĠBx": 6155,
      "ville": 6156,
      "Instance": 6157,
      "ells": 6158,
      "ლი": 6159,
      "ACT": 6160,
      "Ġmand": 6161,
      "ayan": 6162,
      "ника": 6163,
      "лож": 6164,
      "eral": 6165,
      "used": 6166,
      "ação": 6167,
      "кан": 6168,
      "Ġpert": 6169,
      "Ut": 6170,
      "ев": 6171,
      "osed": 6172,
      "Ġเ": 6173,
      "atin": 6174,
      "Ġposit": 6175,
      "ĠAst": 6176,
      "дер": 6177,
      "angs": 6178,
      "ინ": 6179,
      "から": 6180,
      "Ġposs": 6181,
      "Video": 6182,
      "Ġresist": 6183,
      "Ġfem": 6184,
      "Ġstri": 6185,
      "яв": 6186,
      "aked": 6187,
      "Ġmes": 6188,
      "Ġфи": 6189,
      "ßen": 6190,
      "igt": 6191,
      "ĠText": 6192,
      "ĠPet": 6193,
      "aling": 6194,
      "Ġist": 6195,
      "agin": 6196,
      "Search": 6197,
      "Ġinvest": 6198,
      "claim": 6199,
      "مد": 6200,
      "volution": 6201,
      "yb": 6202,
      "AGE": 6203,
      "Listener": 6204,
      "bu": 6205,
      "Ġappro": 6206,
      "andid": 6207,
      "Ġcz": 6208,
      "lia": 6209,
      "Ġadv": 6210,
      "chn": 6211,
      "कर": 6212,
      "Ġvert": 6213,
      "ходи": 6214,
      "uti": 6215,
      "rvGroup": 6216,
      "ird": 6217,
      "Ġcomb": 6218,
      "image": 6219,
      "ティ": 6220,
      "rone": 6221,
      "Ġom": 6222,
      "car": 6223,
      "ynth": 6224,
      "ĠTer": 6225,
      "습니다": 6226,
      "assert": 6227,
      "ré": 6228,
      "ariant": 6229,
      "pow": 6230,
      "mt": 6231,
      "orough": 6232,
      "isl": 6233,
      "Ġgest": 6234,
      "лай": 6235,
      "Ġsab": 6236,
      "Ġdesp": 6237,
      "Ġperf": 6238,
      "Update": 6239,
      "omes": 6240,
      "ograf": 6241,
      "Ġgro": 6242,
      "ük": 6243,
      "тво": 6244,
      "ving": 6245,
      "Ġcompl": 6246,
      "lands": 6247,
      "iş": 6248,
      "heel": 6249,
      "Ġjust": 6250,
      "Ġni": 6251,
      "Ġδ": 6252,
      "iring": 6253,
      "ĠEnt": 6254,
      "ĠWeb": 6255,
      "Current": 6256,
      "Ġsymbol": 6257,
      "auth": 6258,
      "ông": 6259,
      "nowled": 6260,
      "ĠAct": 6261,
      "Ġprincip": 6262,
      "ライ": 6263,
      "sec": 6264,
      "lio": 6265,
      "ĠCur": 6266,
      "HE": 6267,
      "Enc": 6268,
      "ĠPRO": 6269,
      "フォ": 6270,
      "aved": 6271,
      "onym": 6272,
      "Ġno": 6273,
      "sel": 6274,
      "ensive": 6275,
      "olver": 6276,
      "हर": 6277,
      "ĠHer": 6278,
      "ports": 6279,
      "قه": 6280,
      "sn": 6281,
      "ätt": 6282,
      "GA": 6283,
      "Ġyap": 6284,
      "onde": 6285,
      "process": 6286,
      "Des": 6287,
      "Ġالش": 6288,
      "fix": 6289,
      "Ġtim": 6290,
      "Ġcert": 6291,
      "ĠEll": 6292,
      "aller": 6293,
      "ĠUt": 6294,
      "cos": 6295,
      "Ġpok": 6296,
      "Avg": 6297,
      "urope": 6298,
      "Target": 6299,
      "ying": 6300,
      "ĠGen": 6301,
      "ità": 6302,
      "Ġdeg": 6303,
      "Ġsubt": 6304,
      "Ġqual": 6305,
      "ushed": 6306,
      "жу": 6307,
      "ENCE": 6308,
      "ĠGi": 6309,
      "Ġste": 6310,
      "encies": 6311,
      "icher": 6312,
      "Debug": 6313,
      "Ġcong": 6314,
      "HS": 6315,
      "ikt": 6316,
      "ĠServ": 6317,
      "ACK": 6318,
      "Ġterm": 6319,
      "にな": 6320,
      "arios": 6321,
      "so": 6322,
      "عل": 6323,
      "PH": 6324,
      "yles": 6325,
      "Ġchar": 6326,
      "augh": 6327,
      "tes": 6328,
      "jel": 6329,
      "agy": 6330,
      "IVE": 6331,
      "Ġsoc": 6332,
      "тра": 6333,
      "lare": 6334,
      "ads": 6335,
      "Bound": 6336,
      "imate": 6337,
      "place": 6338,
      "unge": 6339,
      "apor": 6340,
      "ometric": 6341,
      "itect": 6342,
      "dk": 6343,
      "anu": 6344,
      "FI": 6345,
      "Refer": 6346,
      "ник": 6347,
      "medi": 6348,
      "ções": 6349,
      "ĠDef": 6350,
      "Tab": 6351,
      "orc": 6352,
      "ément": 6353,
      "ستان": 6354,
      "Interface": 6355,
      "ĠVol": 6356,
      "activ": 6357,
      "iny": 6358,
      "อง": 6359,
      "Ġgew": 6360,
      "بی": 6361,
      "тре": 6362,
      "flow": 6363,
      "fit": 6364,
      "HER": 6365,
      "oda": 6366,
      "ibli": 6367,
      "ком": 6368,
      "quer": 6369,
      "pm": 6370,
      "Max": 6371,
      "atively": 6372,
      "Ġfo": 6373,
      "Ġcos": 6374,
      "ĠEX": 6375,
      "Ġcontent": 6376,
      "uni": 6377,
      "ints": 6378,
      "Ġbur": 6379,
      "SU": 6380,
      "Ġquant": 6381,
      "امل": 6382,
      "スタ": 6383,
      "rice": 6384,
      "ện": 6385,
      "ufact": 6386,
      "وق": 6387,
      "Ġpublic": 6388,
      "Ġuser": 6389,
      "Camera": 6390,
      "αι": 6391,
      "acet": 6392,
      "oxic": 6393,
      "atta": 6394,
      "atisf": 6395,
      "Ġди": 6396,
      "Left": 6397,
      "create": 6398,
      "IGHT": 6399,
      "iana": 6400,
      "Ġpret": 6401,
      "usiness": 6402,
      "ĠBlack": 6403,
      "amine": 6404,
      "sey": 6405,
      "atha": 6406,
      "طل": 6407,
      "Ġrecon": 6408,
      "omic": 6409,
      "house": 6410,
      "adow": 6411,
      "وال": 6412,
      "ĠФ": 6413,
      "Ġach": 6414,
      "ools": 6415,
      "iche": 6416,
      "іль": 6417,
      "idas": 6418,
      "пол": 6419,
      "arin": 6420,
      "Ġmultip": 6421,
      "idel": 6422,
      "রণ": 6423,
      "ached": 6424,
      "obj": 6425,
      "bound": 6426,
      "ета": 6427,
      "Ġperson": 6428,
      "بال": 6429,
      "unes": 6430,
      "rystall": 6431,
      "ĠSP": 6432,
      "нь": 6433,
      "IGN": 6434,
      "าน": 6435,
      "вя": 6436,
      "Ġdob": 6437,
      "Ġcour": 6438,
      "ości": 6439,
      "Ġঅ": 6440,
      "ść": 6441,
      "ĠRem": 6442,
      "Ġarr": 6443,
      "äl": 6444,
      "Ġlim": 6445,
      "Ġhyd": 6446,
      "Builder": 6447,
      "ĠBa": 6448,
      "lib": 6449,
      "isation": 6450,
      "าม": 6451,
      "Ġhel": 6452,
      "ĠMac": 6453,
      "Ġfa": 6454,
      "ĠMo": 6455,
      "št": 6456,
      "Ġagg": 6457,
      "stant": 6458,
      "Ġстра": 6459,
      "lets": 6460,
      "vey": 6461,
      "Ġpsych": 6462,
      "drop": 6463,
      "INT": 6464,
      "Opt": 6465,
      "TT": 6466,
      "Show": 6467,
      "Ġresult": 6468,
      "utor": 6469,
      "ĠAy": 6470,
      "áv": 6471,
      "eny": 6472,
      "Ġڈ": 6473,
      "chron": 6474,
      "пра": 6475,
      "onda": 6476,
      "uation": 6477,
      "rust": 6478,
      "akers": 6479,
      "akkh": 6480,
      "ディ": 6481,
      "orts": 6482,
      "ני": 6483,
      "üm": 6484,
      "COM": 6485,
      "Attribute": 6486,
      "Command": 6487,
      "Ġris": 6488,
      "rimin": 6489,
      "Ġمق": 6490,
      "Ġadm": 6491,
      "ĠRh": 6492,
      "смо": 6493,
      "Ġna": 6494,
      "Ġsett": 6495,
      "rass": 6496,
      "anner": 6497,
      "ĠTe": 6498,
      "Fe": 6499,
      "ENC": 6500,
      "ioni": 6501,
      "Ġinit": 6502,
      "Ġİ": 6503,
      "Ag": 6504,
      "ńsk": 6505,
      "ĠOl": 6506,
      "Area": 6507,
      "Ġś": 6508,
      "Card": 6509,
      "Login": 6510,
      "Ġcheck": 6511,
      "ulations": 6512,
      "QL": 6513,
      "Ġму": 6514,
      "oming": 6515,
      "imi": 6516,
      "ĠMag": 6517,
      "نگ": 6518,
      "ME": 6519,
      "Ġcop": 6520,
      "Ow": 6521,
      "ainer": 6522,
      "izes": 6523,
      "oral": 6524,
      "ICK": 6525,
      "Se": 6526,
      "éra": 6527,
      "Find": 6528,
      "kl": 6529,
      "DL": 6530,
      "лей": 6531,
      "estion": 6532,
      "Ġpresent": 6533,
      "unci": 6534,
      "iran": 6535,
      "Items": 6536,
      "opl": 6537,
      "Ġcult": 6538,
      "Ġaz": 6539,
      "ju": 6540,
      "icio": 6541,
      "ĠЛ": 6542,
      "стоя": 6543,
      "lying": 6544,
      "Ġroz": 6545,
      "hol": 6546,
      "cias": 6547,
      "FL": 6548,
      "ĠGer": 6549,
      "Ġproduct": 6550,
      "nder": 6551,
      "ateral": 6552,
      "Ġprost": 6553,
      "وی": 6554,
      "wd": 6555,
      "Art": 6556,
      "ĠFor": 6557,
      "dat": 6558,
      "Ġtub": 6559,
      "ĠBer": 6560,
      "ple": 6561,
      "rito": 6562,
      "Ġgly": 6563,
      "iol": 6564,
      "search": 6565,
      "Sett": 6566,
      "Ġእን": 6567,
      "Para": 6568,
      "ided": 6569,
      "olf": 6570,
      "oni": 6571,
      "uration": 6572,
      "Cons": 6573,
      "Ġکھ": 6574,
      "تح": 6575,
      "ellow": 6576,
      "rement": 6577,
      "oco": 6578,
      "posit": 6579,
      "eben": 6580,
      "ĠMont": 6581,
      "Ġya": 6582,
      "exual": 6583,
      "urity": 6584,
      "ridge": 6585,
      "btn": 6586,
      "ĠGal": 6587,
      "arta": 6588,
      "HL": 6589,
      "squ": 6590,
      "ướ": 6591,
      "Ġjur": 6592,
      "ĠUN": 6593,
      "ência": 6594,
      "писа": 6595,
      "ĠAtt": 6596,
      "udo": 6597,
      "ompl": 6598,
      "Project": 6599,
      "abin": 6600,
      "MO": 6601,
      "Ġinput": 6602,
      "гы": 6603,
      "iley": 6604,
      "annya": 6605,
      "GC": 6606,
      "Ġconj": 6607,
      "phen": 6608,
      "Ġсов": 6609,
      "icked": 6610,
      "Ġпра": 6611,
      "rait": 6612,
      "Ġτ": 6613,
      "inden": 6614,
      "Ġarg": 6615,
      "Ġжи": 6616,
      "beit": 6617,
      "Sprite": 6618,
      "esting": 6619,
      "FS": 6620,
      "bad": 6621,
      "itas": 6622,
      "unce": 6623,
      "Ġsent": 6624,
      "ehen": 6625,
      "Ġintern": 6626,
      "eleg": 6627,
      "ibil": 6628,
      "utto": 6629,
      "сты": 6630,
      "iger": 6631,
      "nect": 6632,
      "oser": 6633,
      "Ġoccup": 6634,
      "сно": 6635,
      "Dir": 6636,
      "ĠRet": 6637,
      "Pk": 6638,
      "Ġnas": 6639,
      "ĠRx": 6640,
      "Ġunt": 6641,
      "Ġча": 6642,
      "ĠRed": 6643,
      "Ġord": 6644,
      "Parameter": 6645,
      "ánd": 6646,
      "しい": 6647,
      "amily": 6648,
      "Ġkur": 6649,
      "ást": 6650,
      "ulu": 6651,
      "pc": 6652,
      "ulfanyl": 6653,
      "URN": 6654,
      "Ġphosph": 6655,
      "εί": 6656,
      "pet": 6657,
      "kn": 6658,
      "ър": 6659,
      "íst": 6660,
      "uds": 6661,
      "aja": 6662,
      "rained": 6663,
      "stone": 6664,
      "ĠIr": 6665,
      "IAL": 6666,
      "قت": 6667,
      "hm": 6668,
      "Ġस": 6669,
      "Ġذ": 6670,
      "agger": 6671,
      "atures": 6672,
      "oner": 6673,
      "ĠMal": 6674,
      "atives": 6675,
      "rate": 6676,
      "ially": 6677,
      "SX": 6678,
      "empt": 6679,
      "ondition": 6680,
      "ĠMark": 6681,
      "rote": 6682,
      "Provider": 6683,
      "rir": 6684,
      "ped": 6685,
      "isting": 6686,
      "erno": 6687,
      "ĠAv": 6688,
      "Ġview": 6689,
      "ını": 6690,
      "ĠCan": 6691,
      "ukt": 6692,
      "hem": 6693,
      "esses": 6694,
      "rash": 6695,
      "RC": 6696,
      "Ġland": 6697,
      "ĠPre": 6698,
      "Ġку": 6699,
      "Ġکر": 6700,
      "Ġtet": 6701,
      "ytic": 6702,
      "uml": 6703,
      "isms": 6704,
      "ws": 6705,
      "OA": 6706,
      "дов": 6707,
      "ride": 6708,
      "ĠSom": 6709,
      "Ġtwe": 6710,
      "bur": 6711,
      "sup": 6712,
      "ARE": 6713,
      "ottom": 6714,
      "andal": 6715,
      "iale": 6716,
      "rank": 6717,
      "apse": 6718,
      "ĠStr": 6719,
      "ported": 6720,
      "ĠDon": 6721,
      "Ġaj": 6722,
      "Ġž": 6723,
      "ление": 6724,
      "ryl": 6725,
      "Ġvit": 6726,
      "esta": 6727,
      "dom": 6728,
      "apped": 6729,
      "станов": 6730,
      "ень": 6731,
      "مان": 6732,
      "ĠMcD": 6733,
      "oned": 6734,
      "ieg": 6735,
      "OG": 6736,
      "Nav": 6737,
      "ườ": 6738,
      "escript": 6739,
      "aha": 6740,
      "Ġمد": 6741,
      "zym": 6742,
      "iko": 6743,
      "ĠHum": 6744,
      "erme": 6745,
      "VC": 6746,
      "Ġdir": 6747,
      "oting": 6748,
      "rant": 6749,
      "oji": 6750,
      "ĠCam": 6751,
      "asing": 6752,
      "nem": 6753,
      "SON": 6754,
      "pose": 6755,
      "zia": 6756,
      "IRE": 6757,
      "Case": 6758,
      "rica": 6759,
      "elli": 6760,
      "ình": 6761,
      "imation": 6762,
      "kar": 6763,
      "Ġგ": 6764,
      "Ġsat": 6765,
      "oja": 6766,
      "Ġსა": 6767,
      "Part": 6768,
      "Ġtend": 6769,
      "รร": 6770,
      "asy": 6771,
      "Ġwith": 6772,
      "ĠDo": 6773,
      "Ġnu": 6774,
      "ispatch": 6775,
      "Navig": 6776,
      "eman": 6777,
      "olicy": 6778,
      "atched": 6779,
      "ück": 6780,
      "ити": 6781,
      "oton": 6782,
      "ünd": 6783,
      "loat": 6784,
      "Ġair": 6785,
      "ounc": 6786,
      "ㅋㅋ": 6787,
      "ĠPat": 6788,
      "iat": 6789,
      "Ġdib": 6790,
      "Ġcount": 6791,
      "Ġş": 6792,
      "Ġспо": 6793,
      "illy": 6794,
      "acion": 6795,
      "ого": 6796,
      "ères": 6797,
      "Ġস": 6798,
      "وي": 6799,
      "writ": 6800,
      "รง": 6801,
      "ĠDep": 6802,
      "Ġแ": 6803,
      "Ġpil": 6804,
      "nia": 6805,
      "ixed": 6806,
      "Components": 6807,
      "Ġpró": 6808,
      "onduct": 6809,
      "Ġبی": 6810,
      "ĠCro": 6811,
      "oped": 6812,
      "enced": 6813,
      "ted": 6814,
      "ewer": 6815,
      "ĠCB": 6816,
      "ferred": 6817,
      "fr": 6818,
      "ournal": 6819,
      "Ġdirect": 6820,
      "idal": 6821,
      "RS": 6822,
      "Ġold": 6823,
      "oked": 6824,
      "Ġbook": 6825,
      "Ġज": 6826,
      "Ġplac": 6827,
      "iga": 6828,
      "Point": 6829,
      "Ġko": 6830,
      "Ġак": 6831,
      "plant": 6832,
      "pend": 6833,
      "ícul": 6834,
      "Sal": 6835,
      "enger": 6836,
      "Ġsing": 6837,
      "Ġide": 6838,
      "Mov": 6839,
      "Ġcycl": 6840,
      "دم": 6841,
      "stock": 6842,
      "Ġcanc": 6843,
      "Post": 6844,
      "Ġkil": 6845,
      "ako": 6846,
      "Ġmark": 6847,
      "Ġmac": 6848,
      "iego": 6849,
      "ある": 6850,
      "Ġther": 6851,
      "Ġब": 6852,
      "cad": 6853,
      "Ġمر": 6854,
      "imer": 6855,
      "aching": 6856,
      "ĠDes": 6857,
      "гово": 6858,
      "Ġparticip": 6859,
      "the": 6860,
      "Ġfut": 6861,
      "ву": 6862,
      "rik": 6863,
      "lab": 6864,
      "uten": 6865,
      "Types": 6866,
      "Ġconstit": 6867,
      "atches": 6868,
      "VID": 6869,
      "Ġhot": 6870,
      "essed": 6871,
      "ĠRaj": 6872,
      "Ġfile": 6873,
      "Ġchrom": 6874,
      "ensor": 6875,
      "Record": 6876,
      "Ġالص": 6877,
      "adem": 6878,
      "Scroll": 6879,
      "Ġالف": 6880,
      "Ġвер": 6881,
      "MD": 6882,
      "ways": 6883,
      "Equal": 6884,
      "Screen": 6885,
      "code": 6886,
      "ено": 6887,
      "ισ": 6888,
      "Ġty": 6889,
      "Column": 6890,
      "otes": 6891,
      "racy": 6892,
      "Ġvac": 6893,
      "mn": 6894,
      "نے": 6895,
      "eno": 6896,
      "htt": 6897,
      "ון": 6898,
      "rating": 6899,
      "Ġcamb": 6900,
      "Ġtherm": 6901,
      "gal": 6902,
      "قی": 6903,
      "wo": 6904,
      "ympt": 6905,
      "richt": 6906,
      "Full": 6907,
      "áz": 6908,
      "Over": 6909,
      "abled": 6910,
      "amps": 6911,
      "utable": 6912,
      "AMP": 6913,
      "ristian": 6914,
      "sg": 6915,
      "чески": 6916,
      "arded": 6917,
      "Cor": 6918,
      "Tree": 6919,
      "bour": 6920,
      "Ġфа": 6921,
      "uno": 6922,
      "allback": 6923,
      "ije": 6924,
      "aba": 6925,
      "基金": 6926,
      "ĠРо": 6927,
      "base": 6928,
      "Mar": 6929,
      "ении": 6930,
      "ĠSam": 6931,
      "Ġtit": 6932,
      "VA": 6933,
      "وت": 6934,
      "هر": 6935,
      "Ġunw": 6936,
      "ич": 6937,
      "asta": 6938,
      "öt": 6939,
      "ilde": 6940,
      "Wh": 6941,
      "Ġutiliz": 6942,
      "oggle": 6943,
      "DT": 6944,
      "áng": 6945,
      "ĠAN": 6946,
      "Ġshe": 6947,
      "Vertex": 6948,
      "Temp": 6949,
      "ĠSil": 6950,
      "ière": 6951,
      "nah": 6952,
      "ĠCr": 6953,
      "alg": 6954,
      "ondo": 6955,
      "esto": 6956,
      "Ġess": 6957,
      "abe": 6958,
      "lä": 6959,
      "ĠFe": 6960,
      "UE": 6961,
      "ła": 6962,
      "etty": 6963,
      "ĠBO": 6964,
      "Ġpas": 6965,
      "Check": 6966,
      "ICAL": 6967,
      "ĠAsh": 6968,
      "Ġau": 6969,
      "და": 6970,
      "fs": 6971,
      "Position": 6972,
      "ĠLa": 6973,
      "rough": 6974,
      "Ġmeny": 6975,
      "רי": 6976,
      "anç": 6977,
      "зе": 6978,
      "Ġpu": 6979,
      "àng": 6980,
      "iyor": 6981,
      "Ġphys": 6982,
      "azz": 6983,
      "Font": 6984,
      "ĠCre": 6985,
      "Ġpa": 6986,
      "lood": 6987,
      "ership": 6988,
      "ĠRock": 6989,
      "oret": 6990,
      "formed": 6991,
      "IES": 6992,
      "ubs": 6993,
      "Ġprod": 6994,
      "ラン": 6995,
      "üş": 6996,
      "Ġcir": 6997,
      "Que": 6998,
      "Drop": 6999,
      "rach": 7000,
      "Ġvan": 7001,
      "Ġsou": 7002,
      "icha": 7003,
      "üz": 7004,
      "Ġmerc": 7005,
      "acher": 7006,
      "uma": 7007,
      "Ġsé": 7008,
      "ehr": 7009,
      "jud": 7010,
      "Ġsuff": 7011,
      "Ġhydro": 7012,
      "tha": 7013,
      "ĠLie": 7014,
      "Ġvas": 7015,
      "ungan": 7016,
      "новни": 7017,
      "Ġисполь": 7018,
      "pers": 7019,
      "auer": 7020,
      "Ġتح": 7021,
      "фе": 7022,
      "odo": 7023,
      "mouse": 7024,
      "ĠLo": 7025,
      "Ġএ": 7026,
      "ĠLor": 7027,
      "Ġalle": 7028,
      "ursor": 7029,
      "Ġالك": 7030,
      "anne": 7031,
      "ına": 7032,
      "screen": 7033,
      "itable": 7034,
      "Ġwarm": 7035,
      "isa": 7036,
      "pping": 7037,
      "μο": 7038,
      "сп": 7039,
      "check": 7040,
      "Ġfur": 7041,
      "unicip": 7042,
      "opol": 7043,
      "Ġsy": 7044,
      "ĠCap": 7045,
      "System": 7046,
      "Ġchem": 7047,
      "емы": 7048,
      "yor": 7049,
      "اعد": 7050,
      "Ġrealiz": 7051,
      "ром": 7052,
      "eles": 7053,
      "Ġmol": 7054,
      "Min": 7055,
      "kk": 7056,
      "ĠOut": 7057,
      "ozz": 7058,
      "ĠBern": 7059,
      "oga": 7060,
      "ーク": 7061,
      "ĠBerg": 7062,
      "Base": 7063,
      "Marks": 7064,
      "ánh": 7065,
      "imin": 7066,
      "ULT": 7067,
      "нт": 7068,
      "apar": 7069,
      "ース": 7070,
      "rend": 7071,
      "select": 7072,
      "etta": 7073,
      "Ġphen": 7074,
      "Ġتر": 7075,
      "Ġrés": 7076,
      "apsed": 7077,
      "kit": 7078,
      "هم": 7079,
      "Ġاس": 7080,
      "سه": 7081,
      "ebo": 7082,
      "Ġeth": 7083,
      "Ġслу": 7084,
      "ται": 7085,
      "Ġfol": 7086,
      "ργ": 7087,
      "grad": 7088,
      "atement": 7089,
      "IK": 7090,
      "ubb": 7091,
      "Ġappl": 7092,
      "cles": 7093,
      "otype": 7094,
      "Right": 7095,
      "Ġregist": 7096,
      "adig": 7097,
      "oca": 7098,
      "Str": 7099,
      "encias": 7100,
      "ymmet": 7101,
      "Main": 7102,
      "ASE": 7103,
      "öl": 7104,
      "Na": 7105,
      "Activity": 7106,
      "akar": 7107,
      "apat": 7108,
      "build": 7109,
      "resp": 7110,
      "Ġemph": 7111,
      "ĠMer": 7112,
      "ycz": 7113,
      "FC": 7114,
      "عب": 7115,
      "Read": 7116,
      "ĠOff": 7117,
      "gener": 7118,
      "inity": 7119,
      "ró": 7120,
      "Ġident": 7121,
      "Ġاست": 7122,
      "ĠId": 7123,
      "ád": 7124,
      "Cap": 7125,
      "клю": 7126,
      "ysis": 7127,
      "ĠSk": 7128,
      "Ġli": 7129,
      "さい": 7130,
      "レス": 7131,
      "Ab": 7132,
      "äch": 7133,
      "Ġlabor": 7134,
      "earing": 7135,
      "irus": 7136,
      "pat": 7137,
      "imple": 7138,
      "quier": 7139,
      "heit": 7140,
      "Core": 7141,
      "Ġtent": 7142,
      "Ġnam": 7143,
      "expl": 7144,
      "ĠĐ": 7145,
      "ifications": 7146,
      "ниц": 7147,
      "orf": 7148,
      "でき": 7149,
      "izont": 7150,
      "igs": 7151,
      "Ġtermin": 7152,
      "osition": 7153,
      "Ġspecial": 7154,
      "ĠDE": 7155,
      "stru": 7156,
      "aix": 7157,
      "idden": 7158,
      "Ġkomp": 7159,
      "obac": 7160,
      "omorph": 7161,
      "asts": 7162,
      "Did": 7163,
      "Now": 7164,
      "rated": 7165,
      "inte": 7166,
      "hot": 7167,
      "rics": 7168,
      "жд": 7169,
      "ischen": 7170,
      "Ġconfig": 7171,
      "ĠEM": 7172,
      "Keys": 7173,
      "Ġfen": 7174,
      "Plugin": 7175,
      "ashi": 7176,
      "anas": 7177,
      "ELL": 7178,
      "unte": 7179,
      "дар": 7180,
      "onucle": 7181,
      "Ġrece": 7182,
      "flu": 7183,
      "نت": 7184,
      "BO": 7185,
      "onte": 7186,
      "Settings": 7187,
      "せん": 7188,
      "ません": 7189,
      "ummy": 7190,
      "Ġsph": 7191,
      "Ġمس": 7192,
      "Ġप": 7193,
      "Photo": 7194,
      "otrop": 7195,
      "itted": 7196,
      "もの": 7197,
      "mult": 7198,
      "ogs": 7199,
      "ĠTim": 7200,
      "ской": 7201,
      "typ": 7202,
      "OCK": 7203,
      "ię": 7204,
      "arah": 7205,
      "Stack": 7206,
      "LP": 7207,
      "Ġrend": 7208,
      "ého": 7209,
      "ems": 7210,
      "Ġmicro": 7211,
      "Ġbest": 7212,
      "oking": 7213,
      "stand": 7214,
      "eron": 7215,
      "Ġparam": 7216,
      "ĠAut": 7217,
      "ĠMil": 7218,
      "Ġम": 7219,
      "лар": 7220,
      "cas": 7221,
      "uven": 7222,
      "idation": 7223,
      "ány": 7224,
      "vy": 7225,
      "anning": 7226,
      "ών": 7227,
      "Args": 7228,
      "Ġprob": 7229,
      "LC": 7230,
      "ahu": 7231,
      "pay": 7232,
      "Ġfab": 7233,
      "iot": 7234,
      "Te": 7235,
      "ANT": 7236,
      "ORM": 7237,
      "Ġmov": 7238,
      "ობ": 7239,
      "পর": 7240,
      "ĠEnd": 7241,
      "UID": 7242,
      "으로": 7243,
      "vet": 7244,
      "ĠNo": 7245,
      "hu": 7246,
      "ცი": 7247,
      "Ġнов": 7248,
      "uted": 7249,
      "oman": 7250,
      "Ġih": 7251,
      "ĠSy": 7252,
      "Ġfun": 7253,
      "ilos": 7254,
      "нк": 7255,
      "τικ": 7256,
      "Ġfast": 7257,
      "dd": 7258,
      "ステ": 7259,
      "ĠGl": 7260,
      "ulture": 7261,
      "rett": 7262,
      "ちゃ": 7263,
      "ikk": 7264,
      "ongs": 7265,
      "Ġспе": 7266,
      "Ġdiffer": 7267,
      "вши": 7268,
      "Ġpropos": 7269,
      "Sql": 7270,
      "λλ": 7271,
      "acity": 7272,
      "Ġexpos": 7273,
      "agi": 7274,
      "ommen": 7275,
      "pring": 7276,
      "Ġrepe": 7277,
      "ент": 7278,
      "anza": 7279,
      "тори": 7280,
      "Ġalg": 7281,
      "Ġrelig": 7282,
      "ermal": 7283,
      "еди": 7284,
      "UP": 7285,
      "YPE": 7286,
      "Ġgri": 7287,
      "RES": 7288,
      "fa": 7289,
      "Parser": 7290,
      "ĠAug": 7291,
      "ارد": 7292,
      "Background": 7293,
      "eln": 7294,
      "Ġক": 7295,
      "Ġtar": 7296,
      "disc": 7297,
      "от": 7298,
      "Ġson": 7299,
      "aneous": 7300,
      "ĠCorn": 7301,
      "Empty": 7302,
      "Ġrapp": 7303,
      "inqu": 7304,
      "ского": 7305,
      "Ġmath": 7306,
      "HD": 7307,
      "inen": 7308,
      "Device": 7309,
      "Ġsev": 7310,
      "Ġmig": 7311,
      "Active": 7312,
      "пера": 7313,
      "entic": 7314,
      "gh": 7315,
      "oria": 7316,
      "oration": 7317,
      "aye": 7318,
      "ĠRad": 7319,
      "Ġutilis": 7320,
      "Ġполу": 7321,
      "plement": 7322,
      "imiento": 7323,
      "Ġsoft": 7324,
      "escence": 7325,
      "Ġliv": 7326,
      "Ġউ": 7327,
      "ôn": 7328,
      "ichen": 7329,
      "ört": 7330,
      "úc": 7331,
      "вед": 7332,
      "лә": 7333,
      "Ġpy": 7334,
      "ĠHor": 7335,
      "okes": 7336,
      "Ġउ": 7337,
      "Ġic": 7338,
      "Ġitem": 7339,
      "elo": 7340,
      "active": 7341,
      "ĠNot": 7342,
      "leton": 7343,
      "nov": 7344,
      "AST": 7345,
      "dy": 7346,
      "inning": 7347,
      "cop": 7348,
      "Ġvirt": 7349,
      "eground": 7350,
      "ritt": 7351,
      "Ġnaj": 7352,
      "ится": 7353,
      "Ġnie": 7354,
      "bin": 7355,
      "Ġlat": 7356,
      "Ġenf": 7357,
      "Ġالز": 7358,
      "ĠImm": 7359,
      "stract": 7360,
      "ska": 7361,
      "vén": 7362,
      "Ġква": 7363,
      "Ġرکھ": 7364,
      "ĠBad": 7365,
      "いう": 7366,
      "Ins": 7367,
      "ремен": 7368,
      "anded": 7369,
      "Ġaug": 7370,
      "brevi": 7371,
      "ĠAR": 7372,
      "Ġprev": 7373,
      "Ġextr": 7374,
      "elig": 7375,
      "isse": 7376,
      "Connection": 7377,
      "pad": 7378,
      "ĠHaw": 7379,
      "vision": 7380,
      "ić": 7381,
      "Ġsig": 7382,
      "ulator": 7383,
      "IONS": 7384,
      "Files": 7385,
      "Ġfib": 7386,
      "overs": 7387,
      "Widget": 7388,
      "keit": 7389,
      "cie": 7390,
      "なく": 7391,
      "iu": 7392,
      "clos": 7393,
      "しく": 7394,
      "ĠEsp": 7395,
      "spir": 7396,
      "ISE": 7397,
      "ئی": 7398,
      "Ġц": 7399,
      "Found": 7400,
      "اين": 7401,
      "Callback": 7402,
      "Grid": 7403,
      "iniz": 7404,
      "Archive": 7405,
      "ivos": 7406,
      "Ġkor": 7407,
      "olph": 7408,
      "ocol": 7409,
      "Ġmorph": 7410,
      "enge": 7411,
      "ellig": 7412,
      "Ġcro": 7413,
      "enzo": 7414,
      "Ġbez": 7415,
      "Ġμ": 7416,
      "μέν": 7417,
      "cod": 7418,
      "рта": 7419,
      "acute": 7420,
      "ĠНа": 7421,
      "rival": 7422,
      "ustain": 7423,
      "ifica": 7424,
      "ными": 7425,
      "rish": 7426,
      "бол": 7427,
      "Ġread": 7428,
      "loud": 7429,
      "ĠPort": 7430,
      "ebru": 7431,
      "IE": 7432,
      "ĠVen": 7433,
      "ratic": 7434,
      "ND": 7435,
      "Unit": 7436,
      "assa": 7437,
      "anos": 7438,
      "uta": 7439,
      "Ġselect": 7440,
      "áb": 7441,
      "Ġdraw": 7442,
      "ъл": 7443,
      "Root": 7444,
      "рово": 7445,
      "ashing": 7446,
      "Ġencont": 7447,
      "ッド": 7448,
      "ĠForm": 7449,
      "GS": 7450,
      "antic": 7451,
      "Ġhair": 7452,
      "Ġimmun": 7453,
      "Ġcit": 7454,
      "иться": 7455,
      "Ġکن": 7456,
      "Ġtemper": 7457,
      "Ġauthor": 7458,
      "GP": 7459,
      "ety": 7460,
      "ĠShe": 7461,
      "Ġአ": 7462,
      "Writer": 7463,
      "Ġpersonal": 7464,
      "ลา": 7465,
      "Ġاع": 7466,
      "akh": 7467,
      "itors": 7468,
      "Ġcounter": 7469,
      "ĠPay": 7470,
      "Ġpec": 7471,
      "Ġha": 7472,
      "erve": 7473,
      "ysc": 7474,
      "roke": 7475,
      "apkan": 7476,
      "ensions": 7477,
      "Pane": 7478,
      "Ġhu": 7479,
      "schaft": 7480,
      "Ġorig": 7481,
      "ето": 7482,
      "igns": 7483,
      "lung": 7484,
      "umen": 7485,
      "Ġsel": 7486,
      "MR": 7487,
      "size": 7488,
      "ehyd": 7489,
      "OUT": 7490,
      "ĠLuc": 7491,
      "owe": 7492,
      "Adapter": 7493,
      "Ġakt": 7494,
      "чни": 7495,
      "iox": 7496,
      "Ġlect": 7497,
      "Ġχ": 7498,
      "Ġej": 7499,
      "arı": 7500,
      "лекса": 7501,
      "wend": 7502,
      "Ġmost": 7503,
      "Ġstand": 7504,
      "Ġbal": 7505,
      "Ġiss": 7506,
      "ño": 7507,
      "Ġتج": 7508,
      "Character": 7509,
      "گی": 7510,
      "Ġef": 7511,
      "Ang": 7512,
      "Ġunf": 7513,
      "Ġpou": 7514,
      "Ġhyper": 7515,
      "Ġпи": 7516,
      "стре": 7517,
      "ène": 7518,
      "asure": 7519,
      "aily": 7520,
      "utz": 7521,
      "imiz": 7522,
      "ités": 7523,
      "cha": 7524,
      "ете": 7525,
      "ieren": 7526,
      "wait": 7527,
      "と思": 7528,
      "utsch": 7529,
      "ლებ": 7530,
      "pped": 7531,
      "erts": 7532,
      "Ġcod": 7533,
      "ARCH": 7534,
      "azar": 7535,
      "asan": 7536,
      "ooks": 7537,
      "allel": 7538,
      "Ġمل": 7539,
      "ĠZe": 7540,
      "icia": 7541,
      "abl": 7542,
      "Details": 7543,
      "arker": 7544,
      "Push": 7545,
      "ĠAk": 7546,
      "ractor": 7547,
      "anks": 7548,
      "Ġalt": 7549,
      "rison": 7550,
      "די": 7551,
      "lav": 7552,
      "ĠDet": 7553,
      "ĠNorth": 7554,
      "VP": 7555,
      "ĠSand": 7556,
      "atiti": 7557,
      "Ġmant": 7558,
      "使用": 7559,
      "alla": 7560,
      "Ġgod": 7561,
      "valid": 7562,
      "ĠOs": 7563,
      "uez": 7564,
      "unj": 7565,
      "dam": 7566,
      "Ġsed": 7567,
      "Ġtec": 7568,
      "iced": 7569,
      "ning": 7570,
      "antly": 7571,
      "Ġالر": 7572,
      "rove": 7573,
      "icted": 7574,
      "リア": 7575,
      "бра": 7576,
      "eden": 7577,
      "efont": 7578,
      "دی": 7579,
      "ague": 7580,
      "Eng": 7581,
      "ĠKey": 7582,
      "Ġtotal": 7583,
      "ĠNav": 7584,
      "ომ": 7585,
      "iano": 7586,
      "ích": 7587,
      "Kind": 7588,
      "Ġenerg": 7589,
      "ред": 7590,
      "MT": 7591,
      "My": 7592,
      "Queue": 7593,
      "кти": 7594,
      "Ġanim": 7595,
      "Level": 7596,
      "имо": 7597,
      "verse": 7598,
      "Ġvatt": 7599,
      "ней": 7600,
      "Ġcapt": 7601,
      "クト": 7602,
      "ĠInf": 7603,
      "acks": 7604,
      "ipping": 7605,
      "edy": 7606,
      "ental": 7607,
      "opping": 7608,
      "xis": 7609,
      "ojo": 7610,
      "angen": 7611,
      "ashed": 7612,
      "Ġfund": 7613,
      "ilon": 7614,
      "arted": 7615,
      "elic": 7616,
      "ĠEth": 7617,
      "pop": 7618,
      "ías": 7619,
      "ĠMax": 7620,
      "eza": 7621,
      "agne": 7622,
      "ност": 7623,
      "dr": 7624,
      "mak": 7625,
      "ĠMath": 7626,
      "Ġsecret": 7627,
      "ril": 7628,
      "Ġda": 7629,
      "ming": 7630,
      "ayam": 7631,
      "omo": 7632,
      "ymp": 7633,
      "Ġreb": 7634,
      "Ġrefer": 7635,
      "ält": 7636,
      "Ġoct": 7637,
      "urer": 7638,
      "alling": 7639,
      "Non": 7640,
      "gul": 7641,
      "Ġconform": 7642,
      "Ġca": 7643,
      "ურ": 7644,
      "ublish": 7645,
      "appe": 7646,
      "inha": 7647,
      "aches": 7648,
      "sulfanyl": 7649,
      "форма": 7650,
      "erta": 7651,
      "Ġweb": 7652,
      "Ġlig": 7653,
      "Ġkont": 7654,
      "escent": 7655,
      "Wait": 7656,
      "Dict": 7657,
      "oku": 7658,
      "acts": 7659,
      "ramework": 7660,
      "uler": 7661,
      "Ġobject": 7662,
      "ffen": 7663,
      "ogene": 7664,
      "ĠSab": 7665,
      "Ġlab": 7666,
      "Ġcomment": 7667,
      "iod": 7668,
      "ĠGall": 7669,
      "ensa": 7670,
      "Ġни": 7671,
      "Ġobserv": 7672,
      "êt": 7673,
      "zech": 7674,
      "eco": 7675,
      "VIC": 7676,
      "Ġappre": 7677,
      "icing": 7678,
      "Ġelev": 7679,
      "ссий": 7680,
      "Ġпла": 7681,
      "Ġsen": 7682,
      "ĠSeb": 7683,
      "BUR": 7684,
      "ITH": 7685,
      "Props": 7686,
      "Ġfont": 7687,
      "Operation": 7688,
      "DM": 7689,
      "emen": 7690,
      "uri": 7691,
      "Ġampl": 7692,
      "می": 7693,
      "utta": 7694,
      "Ġbic": 7695,
      "Ġrib": 7696,
      "etry": 7697,
      "Ġpes": 7698,
      "可以": 7699,
      "ết": 7700,
      "Ġbase": 7701,
      "Ġmart": 7702,
      "opath": 7703,
      "joy": 7704,
      "anjut": 7705,
      "issions": 7706,
      "лова": 7707,
      "inos": 7708,
      "raven": 7709,
      "uci": 7710,
      "ίν": 7711,
      "raul": 7712,
      "icol": 7713,
      "ĠCav": 7714,
      "Ġpier": 7715,
      "rian": 7716,
      "чита": 7717,
      "Ġcollect": 7718,
      "Ġacqu": 7719,
      "Ġلگ": 7720,
      "Ġjug": 7721,
      "ại": 7722,
      "قل": 7723,
      "czy": 7724,
      "aldo": 7725,
      "ài": 7726,
      "dir": 7727,
      "àn": 7728,
      "ło": 7729,
      "lectic": 7730,
      "phal": 7731,
      "isk": 7732,
      "illi": 7733,
      "reib": 7734,
      "zione": 7735,
      "Ġlay": 7736,
      "Ġproble": 7737,
      "arden": 7738,
      "Ġپی": 7739,
      "Reader": 7740,
      "heat": 7741,
      "Ġradi": 7742,
      "apeut": 7743,
      "Coll": 7744,
      "تے": 7745,
      "Vector": 7746,
      "рий": 7747,
      "spl": 7748,
      "ĠBal": 7749,
      "ijn": 7750,
      "ĠRen": 7751,
      "ør": 7752,
      "اط": 7753,
      "wrap": 7754,
      "rä": 7755,
      "ühr": 7756,
      "alis": 7757,
      "ĠAf": 7758,
      "isted": 7759,
      "BR": 7760,
      "Ġrap": 7761,
      "ariable": 7762,
      "duced": 7763,
      "std": 7764,
      "Ġcoment": 7765,
      "ене": 7766,
      "rizz": 7767,
      "asser": 7768,
      "umble": 7769,
      "äll": 7770,
      "Pkg": 7771,
      "ELE": 7772,
      "ĠJac": 7773,
      "sche": 7774,
      "ounded": 7775,
      "phone": 7776,
      "oje": 7777,
      "zes": 7778,
      "йно": 7779,
      "orage": 7780,
      "No": 7781,
      "оло": 7782,
      "Preview": 7783,
      "obl": 7784,
      "ranch": 7785,
      "Ġsuccess": 7786,
      "Ġуча": 7787,
      "ento": 7788,
      "Fil": 7789,
      "Ġαν": 7790,
      "ARY": 7791,
      "Ġpros": 7792,
      "ĠMot": 7793,
      "ieron": 7794,
      "ardo": 7795,
      "icking": 7796,
      "oning": 7797,
      "Ġgar": 7798,
      "NAM": 7799,
      "Ġcarb": 7800,
      "emi": 7801,
      "riction": 7802,
      "ordan": 7803,
      "Ptr": 7804,
      "レー": 7805,
      "Ġtyp": 7806,
      "opes": 7807,
      "Ġactiv": 7808,
      "nej": 7809,
      "ometer": 7810,
      "ĠKx": 7811,
      "Ġasc": 7812,
      "ują": 7813,
      "ĠPad": 7814,
      "oks": 7815,
      "مار": 7816,
      "irection": 7817,
      "imos": 7818,
      "Sch": 7819,
      "weise": 7820,
      "Policy": 7821,
      "ayed": 7822,
      "hy": 7823,
      "Last": 7824,
      "ょう": 7825,
      "Ġfunc": 7826,
      "oud": 7827,
      "illion": 7828,
      "Ġmul": 7829,
      "лим": 7830,
      "цион": 7831,
      "ению": 7832,
      "fen": 7833,
      "Ġpet": 7834,
      "unsch": 7835,
      "Ġnecess": 7836,
      "Ġnum": 7837,
      "Ġcommun": 7838,
      "aras": 7839,
      "Ġгра": 7840,
      "NA": 7841,
      "encial": 7842,
      "aisse": 7843,
      "Touch": 7844,
      "raction": 7845,
      "oter": 7846,
      "oplas": 7847,
      "Ġš": 7848,
      "One": 7849,
      "ingham": 7850,
      "uous": 7851,
      "oney": 7852,
      "amiento": 7853,
      "chiev": 7854,
      "Ġdign": 7855,
      "orno": 7856,
      "ダー": 7857,
      "Ġarm": 7858,
      "bind": 7859,
      "ĠMain": 7860,
      "Ġded": 7861,
      "ORE": 7862,
      "ritic": 7863,
      "osi": 7864,
      "uled": 7865,
      "uke": 7866,
      "Ġrot": 7867,
      "thal": 7868,
      "Ġwel": 7869,
      "Ġig": 7870,
      "ergic": 7871,
      "ĠSn": 7872,
      "utes": 7873,
      "ließ": 7874,
      "Ġung": 7875,
      "halt": 7876,
      "Asset": 7877,
      "ково": 7878,
      "Ġign": 7879,
      "aterial": 7880,
      "adam": 7881,
      "anor": 7882,
      "Ġcul": 7883,
      "ème": 7884,
      "ему": 7885,
      "apa": 7886,
      "ĠProm": 7887,
      "enna": 7888,
      "Ġprodu": 7889,
      "Btn": 7890,
      "ASS": 7891,
      "ober": 7892,
      "oved": 7893,
      "getS": 7894,
      "entlich": 7895,
      "Ġspect": 7896,
      "arkan": 7897,
      "Ġchi": 7898,
      "WE": 7899,
      "Ġja": 7900,
      "idazole": 7901,
      "Counter": 7902,
      "OB": 7903,
      "Ġdham": 7904,
      "ĠVers": 7905,
      "real": 7906,
      "иту": 7907,
      "rek": 7908,
      "ван": 7909,
      "Folder": 7910,
      "dev": 7911,
      "onna": 7912,
      "Ġpunct": 7913,
      "Rest": 7914,
      "amen": 7915,
      "Ġно": 7916,
      "ocker": 7917,
      "وری": 7918,
      "tal": 7919,
      "Ġgrav": 7920,
      "ĠFile": 7921,
      "اده": 7922,
      "Pix": 7923,
[...]
