{
  "version": "1.0",
  "truncation": null,
  "padding": null,
  "added_tokens": [
    {
      "id": 8818,
      "content": "<UNK>",
      "single_word": false,
      "lstrip": false,
      "rstrip": false,
      "normalized": true,
      "special": true
    },
    {
      "id": 8819,
      "content": "<｜end▁of▁sentence｜>",
      "single_word": false,
      "lstrip": false,
      "rstrip": false,
      "normalized": true,
      "special": true
    },
    {
      "id": 8820,
      "content": "<｜pad｜>",
      "single_word": false,
      "lstrip": false,
      "rstrip": false,
      "normalized": true,
      "special": true
    },
    {
      "id": 8821,
      "content": "<｜begin▁of▁sentence｜>",
      "single_word": false,
      "lstrip": false,
      "rstrip": false,
      "normalized": true,
      "special": true
    }
  ],
  "normalizer": {
    "type": "Sequence",
    "normalizers": []
  },
  "pre_tokenizer": {
    "type": "Sequence",
    "pretokenizers": [
      {
        "type": "Split",
        "pattern": {
          "Regex": "[\\r\\n]"
        },
        "behavior": "Isolated",
        "invert": false
      },
      {
        "type": "Split",
        "pattern": {
          "Regex": "\\s?[A-Za-zµÀ-ÖØ-öø-ƺƼ-ƿǄ-ʓʕ-ʯͰ-ͳͶͷͻ-ͽͿΆΈ-ΊΌΎ-ΡΣ-ϵϷ-ҁҊ-ԯԱ-ՖႠ-ჅᎠ-Ᏽᏸ-ᏽᲐ-ᲺᲽ-Ჿᴀ-ᴫᵫ-ᵷᵹ-ᶚḀ-ἕἘ-Ἕἠ-ὅὈ-Ὅὐ-ὗὙὛὝὟ-ώᾀ-ᾴᾶ-ᾼιῂ-ῄῆ-ῌῐ-ΐῖ-Ίῠ-Ῥῲ-ῴῶ-ῼℂℇℊ-ℓℕℙ-ℝℤΩℨK-ℭℯ-ℴℹℼ-ℿⅅ-ⅉⅎↃↄⰀ-ⱻⱾ-ⳤⳫ-ⳮⳲⳳꙀ-ꙭꚀ-ꚛꜢ-ꝯꝱ-ꞇꞋ-ꞎꭰ-ꮿﬀ-ﬆﬓ-ﬗＡ-Ｚａ-ｚ𐐀-𐑏𐒰-𐓓𐓘-𐓻𐲀-𐲲𐳀-𐳲𑢠-𑣟𞤀-𞥃]+"
        },
        "behavior": "Isolated",
        "invert": false
      },
      {
        "type": "Split",
        "pattern": {
          "Regex": "\\s?[!-/:-~！-／：-～‘-‟　-。]+"
        },
        "behavior": "Isolated",
        "invert": false
      },
      {
        "type": "Split",
        "pattern": {
          "Regex": "\\s+$"
        },
        "behavior": "Isolated",
        "invert": false
      },
      {
        "type": "Split",
        "pattern": {
          "Regex": "[一-龥ࠀ-一가-퟿]+"
        },
        "behavior": "Isolated",
        "invert": false
      },
      {
        "type": "Digits",
        "individual_digits": true
      },
      {
        "type": "ByteLevel",
        "add_prefix_space": false,
        "trim_offsets": true,
        "use_regex": false
      }
    ]
  },
  "post_processor": {
    "type": "ByteLevel",
    "add_prefix_space": true,
    "trim_offsets": false,
    "use_regex": true
  },
  "decoder": {
    "type": "ByteLevel",
    "add_prefix_space": true,
    "trim_offsets": true,
    "use_regex": true
  },
  "model": {
    "type": "BPE",
    "dropout": null,
    "unk_token": "<UNK>",
    "continuing_subword_prefix": null,
    "end_of_word_suffix": null,
    "fuse_unk": false,
    "byte_fallback": false,
    "ignore_merges": false,
    "bMax_frequency": true,
    "max_frequency": 254107538,
    "vocab": {
      "Ġjest": 0,
      "いたします": 1,
      "ĠTov": 2,
      "ynie": 3,
      "Behaviour": 4,
      "ソコン": 5,
      "Toolbar": 6,
      "Ġanvänder": 7,
      "üman": 8,
      "mk": 9,
      "Ġلیګ": 10,
      "ĠCrum": 11,
      "Getenv": 12,
      "ließen": 13,
      "Ġδιά": 14,
      "ĠDirectorate": 15,
      "Ġbever": 16,
      "Ġvalt": 17,
      "NEEDED": 18,
      "ureen": 19,
      "ĠAsset": 20,
      "Ġvirial": 21,
      "bucket": 22,
      "ствима": 23,
      "icho": 24,
      "Ġlitter": 25,
      "Ġкөр": 26,
      "ĠMonochrome": 27,
      "дцать": 28,
      "メータ": 29,
      "Ġcrunch": 30,
      "キッズ": 31,
      "ĠTink": 32,
      "dominal": 33,
      "ĠChoibalsan": 34,
      "Coord": 35,
      "пъл": 36,
      "Plain": 37,
      "Ġpowodu": 38,
      "ινων": 39,
      "ĠCorinthians": 40,
      "чью": 41,
      "Ġthrott": 42,
      "ĠTats": 43,
      "setText": 44,
      "diagn": 45,
      "itioning": 46,
      "Ġofficia": 47,
      "ĠSDLK": 48,
      "pry": 49,
      "ĠAEG": 50,
      "ĠHVAC": 51,
      "taj": 52,
      "цца": 53,
      "lger": 54,
      "étend": 55,
      "arsipkan": 56,
      "arina": 57,
      "Ġprzyję": 58,
      "Ġjay": 59,
      "idescent": 60,
      "ĠCompat": 61,
      "उचर": 62,
      "profen": 63,
      "lara": 64,
      "Ġsuyu": 65,
      "ĠHomer": 66,
      "مدة": 67,
      "Ġзаключается": 68,
      "ĠÜbers": 69,
      "usetzen": 70,
      "пати": 71,
      "Ġlatt": 72,
      "searchResults": 73,
      "unculus": 74,
      "Ġfenomeno": 75,
      "Ġbirefring": 76,
      "UIT": 77,
      "ĠNodeRef": 78,
      "Ġосо": 79,
      "ències": 80,
      "Ġادا": 81,
      "Ġразу": 82,
      "INDUST": 83,
      "Ġбро": 84,
      "Ġusu": 85,
      "toString": 86,
      "ípio": 87,
      "Ġimmort": 88,
      "õh": 89,
      "Ġpõh": 90,
      "ubre": 91,
      "Ġregel": 92,
      "subnet": 93,
      "Ġdiseñ": 94,
      "oree": 95,
      "Ġaxb": 96,
      "Ġpuis": 97,
      "estimate": 98,
      "Ġspore": 99,
      "collider": 100,
      "ẩn": 101,
      "vero": 102,
      "oplasma": 103,
      "ホーム": 104,
      "ichting": 105,
      "Ġmenghad": 106,
      "ĠReserv": 107,
      "oglobin": 108,
      "ĠErgeb": 109,
      "Ġآن": 110,
      "ĠDyn": 111,
      "Recommend": 112,
      "authState": 113,
      "erende": 114,
      "женные": 115,
      "Ġnazy": 116,
      "ĠcountDown": 117,
      "Ġeigener": 118,
      "Ġskladu": 119,
      "xyplot": 120,
      "лейбол": 121,
      "ĠBritann": 122,
      "ĠVigo": 123,
      "ĠSAE": 124,
      "Ġوالس": 125,
      "Ġآورد": 126,
      "truck": 127,
      "luoromethyl": 128,
      "Ġbicycl": 129,
      "iejo": 130,
      "grams": 131,
      "ĠSym": 132,
      "STEM": 133,
      "ĠTatiana": 134,
      "ITTER": 135,
      "Tip": 136,
      "jší": 137,
      "Ġappel": 138,
      "Ġці": 139,
      "ĠKers": 140,
      "Ġможли": 141,
      "Ġyuan": 142,
      "ĠLiqu": 143,
      "тельства": 144,
      "Ġvajj": 145,
      "akarantadhatu": 146,
      "ograv": 147,
      "Ġnltk": 148,
      "Ġanalog": 149,
      "Ġchampion": 150,
      "plings": 151,
      "Ġguère": 152,
      "hedge": 153,
      "wicket": 154,
      "tss": 155,
      "fromParams": 156,
      "ĠCustB": 157,
      "Abroad": 158,
      "Ġglic": 159,
      "Ġeuropäischen": 160,
      "ĠSark": 161,
      "Ġٹینس": 162,
      "Ġfluidized": 163,
      "Vendo": 164,
      "ĠCAGR": 165,
      "Ġtọa": 166,
      "Ġextrinsic": 167,
      "STEIN": 168,
      "KIS": 169,
      "touch": 170,
      "retanto": 171,
      "Ġconstrue": 172,
      "iyy": 173,
      "cello": 174,
      "Ġsour": 175,
      "veu": 176,
      "Ġuniverso": 177,
      "ĠElli": 178,
      "COTT": 179,
      "inot": 180,
      "Ġresched": 181,
      "rods": 182,
      "eture": 183,
      "Ġwren": 184,
      "なの": 185,
      "お届": 186,
      "Ġmiddel": 187,
      "ĠUUID": 188,
      "お届け": 189,
      "ĠQPushButton": 190,
      "ĠmodelBuilder": 191,
      "Drake": 192,
      "ліз": 193,
      "idationError": 194,
      "ለጠ": 195,
      "በለጠ": 196,
      "Ġየበለጠ": 197,
      "oyan": 198,
      "Ġодного": 199,
      "Ġureth": 200,
      "assati": 201,
      "Responder": 202,
      "Ġแรง": 203,
      "Buzz": 204,
      "pute": 205,
      "لیم": 206,
      "Ġkneel": 207,
      "Ġfruit": 208,
      "ĠBav": 209,
      "REGIUNE": 210,
      "assem": 211,
      "Ġjohnson": 212,
      "ĠDominik": 213,
      "Ġanem": 214,
      "ĠCOPY": 215,
      "Ġitth": 216,
      "Ġdesconocido": 217,
      "esque": 218,
      "ĠInnov": 219,
      "yawa": 220,
      "পহরণ": 221,
      "Ġmatin": 222,
      "γέν": 223,
      "isocyanate": 224,
      "ĠMünster": 225,
      "egano": 226,
      "Ġoregano": 227,
      "ĠBangladeshi": 228,
      "Hugo": 229,
      "ĠHuey": 230,
      "ضافة": 231,
      "IDGE": 232,
      "ĠParís": 233,
      "manı": 234,
      "anker": 235,
      "Ġsağlık": 236,
      "Faz": 237,
      "usste": 238,
      "电子": 239,
      "ériences": 240,
      "ImmediateContext": 241,
      "ĠIUP": 242,
      "igsaw": 243,
      "Ġbatang": 244,
      "orbes": 245,
      "Ġmilioane": 246,
      "ĠSPT": 247,
      "olete": 248,
      "Ġhomozyg": 249,
      "ochs": 250,
      "ĠNotImplemented": 251,
      "estock": 252,
      "Ġhelical": 253,
      "etre": 254,
      "ĠPoole": 255,
      "Ġhoera": 256,
      "нед": 257,
      "Ġвлас": 258,
      "anesu": 259,
      "Ġкило": 260,
      "ĠSISO": 261,
      "Ġjustify": 262,
      "ĠDefts": 263,
      "Ġglomerul": 264,
      "віду": 265,
      "asaddo": 266,
      "ĠAugustine": 267,
      "ĠSaddam": 268,
      "adier": 269,
      "Ġgaf": 270,
      "ĠBede": 271,
      "abha": 272,
      "ĠUIFont": 273,
      "sync": 274,
      "hegan": 275,
      "ეგი": 276,
      "mousedown": 277,
      "ĠBartholomew": 278,
      "Ġresurrect": 279,
      "ĠSarawak": 280,
      "atae": 281,
      "Ġhermit": 282,
      "Ġank": 283,
      "imageCache": 284,
      "urlencoded": 285,
      "addKillBonus": 286,
      "Ġcanv": 287,
      "ĠBrowserModule": 288,
      "Ġurn": 289,
      "Ġmengetahui": 290,
      "ĠNils": 291,
      "Ġadatto": 292,
      "Ġсвої": 293,
      "دیای": 294,
      "ianthus": 295,
      "ĠGlover": 296,
      "ĠKenyatta": 297,
      "Ġminions": 298,
      "Ġduh": 299,
      "lineTo": 300,
      "ĠFitzpatrick": 301,
      "ackerel": 302,
      "Ġentero": 303,
      "Ġклиен": 304,
      "pdb": 305,
      "ijek": 306,
      "Ġintercal": 307,
      "とする": 308,
      "oled": 309,
      "Ġpatriot": 310,
      "enos": 311,
      "Ġتاک": 312,
      "Ġdespot": 313,
      "Ġکنه": 314,
      "ĠmapStateToProps": 315,
      "เจ": 316,
      "Ġgeme": 317,
      "мония": 318,
      "ĠFlutter": 319,
      "Ġprzedstaw": 320,
      "Ġsinglet": 321,
      "Ġquelcon": 322,
      "räge": 323,
      "Ġکنی": 324,
      "PROTON": 325,
      "Ġgreat": 326,
      "othed": 327,
      "Ġwah": 328,
      "Ġthermocou": 329,
      "gage": 330,
      "ĠinitComponents": 331,
      "Ġfollicular": 332,
      "ții": 333,
      "kbeta": 334,
      "Ġrelo": 335,
      "Ġmixt": 336,
      "Ġcoffers": 337,
      "JlcG": 338,
      "ĠOrr": 339,
      "ricultura": 340,
      "Ġبوت": 341,
      "Fem": 342,
      "agliari": 343,
      "Ġنکل": 344,
      "colourCodeDict": 345,
      "Occ": 346,
      "ĠLactobacillus": 347,
      "ĠPopupWindow": 348,
      "ADY": 349,
      "Ġeinges": 350,
      "Ġtvrd": 351,
      "Ġplaf": 352,
      "abbing": 353,
      "Ġirrigated": 354,
      "Ġljub": 355,
      "ĠRxc": 356,
      "Ġالرسم": 357,
      "Ġnath": 358,
      "Ġgalvanized": 359,
      "ameron": 360,
      "frak": 361,
      "ichern": 362,
      "Ġجواز": 363,
      "Ġthigh": 364,
      "ĠAllison": 365,
      "Cliente": 366,
      "Ġmetrizable": 367,
      "прос": 368,
      "rolyte": 369,
      "ĠMerck": 370,
      "stuffs": 371,
      "ĠHogan": 372,
      "ĠKrak": 373,
      "ignated": 374,
      "Ġpiatta": 375,
      "Ġgepub": 376,
      "ĠCunha": 377,
      "keen": 378,
      "onductors": 379,
      "ĠStro": 380,
      "ĠKeaton": 381,
      "Ġвариан": 382,
      "ĠTogo": 383,
      "Ġдеген": 384,
      "VERE": 385,
      "Ġgriega": 386,
      "تاز": 387,
      "rapp": 388,
      "PositionY": 389,
      "ĠNaik": 390,
      "Ġинте": 391,
      "ĠSib": 392,
      "émico": 393,
      "ĠRaipur": 394,
      "éor": 395,
      "ĠDiablo": 396,
      "ĠPois": 397,
      "udrait": 398,
      "atorship": 399,
      "lela": 400,
      "axiom": 401,
      "سيط": 402,
      "FTA": 403,
      "omorphisms": 404,
      "ĠBestell": 405,
      "Ġaxis": 406,
      "Ġвпер": 407,
      "Denovo": 408,
      "Ġother": 409,
      "زمة": 410,
      "cean": 411,
      "Ġabort": 412,
      "Germ": 413,
      "Ġہوج": 414,
      "Ġঅমন": 415,
      "ĠFairfax": 416,
      "ItemId": 417,
      "MACl": 418,
      "pellier": 419,
      "ĠSalamanca": 420,
      "ationships": 421,
      "ĠWILSON": 422,
      "Ġungef": 423,
      "ванович": 424,
      "oshin": 425,
      "konen": 426,
      "cameraAutoFocus": 427,
      "ĠSTAT": 428,
      "ĠCreate": 429,
      "CustomerId": 430,
      "AMA": 431,
      "ĠРус": 432,
      "ĠTert": 433,
      "ídia": 434,
      "ĠFitzgerald": 435,
      "Year": 436,
      "tir": 437,
      "ĠPower": 438,
      "Ġabgerufen": 439,
      "リング": 440,
      "ievo": 441,
      "Ġtripped": 442,
      "Ġagonists": 443,
      "eliti": 444,
      "Ġelit": 445,
      "ĠLuk": 446,
      "adeon": 447,
      "period": 448,
      "Ġidol": 449,
      "SaveChangesAsync": 450,
      "ommodation": 451,
      "otransferase": 452,
      "الصف": 453,
      "Ġboson": 454,
      "Bullets": 455,
      "luence": 456,
      "Ġআহম": 457,
      "ĠSEK": 458,
      "十壹": 459,
      "ínu": 460,
      "十壹章": 461,
      "Ġlimes": 462,
      "ukiyoe": 463,
      "ĠNeutral": 464,
      "aithe": 465,
      "Ġelog": 466,
      "Ġsass": 467,
      "rike": 468,
      "umont": 469,
      "ĠExerc": 470,
      "ĠgrantResults": 471,
      "ĠBuy": 472,
      "awarkan": 473,
      "Ġболез": 474,
      "Ġoxi": 475,
      "Ġwala": 476,
      "uretic": 477,
      "wijk": 478,
      "ĠWillo": 479,
      "ptime": 480,
      "ughby": 481,
      "ĠWilloughby": 482,
      "embal": 483,
      "Ġangiel": 484,
      "Ġповин": 485,
      "Ġyaz": 486,
      "oflavin": 487,
      "ĠcurrentTime": 488,
      "Interest": 489,
      "رمز": 490,
      "Salve": 491,
      "অপর": 492,
      "Ġerratic": 493,
      "Ġпрофе": 494,
      "resi": 495,
      "物联网": 496,
      "ILO": 497,
      "Ġschimb": 498,
      "ĠInitial": 499,
      "Brad": 500,
      "ereich": 501,
      "alka": 502,
      "ccnc": 503,
      "uvi": 504,
      "gripper": 505,
      "ĠBelgien": 506,
      "Glenn": 507,
      "HAND": 508,
      "iope": 509,
      "lenül": 510,
      "Ġdegré": 511,
      "ĠФран": 512,
      "Ġnibh": 513,
      "Ġtestament": 514,
      "ordinator": 515,
      "Ġbring": 516,
      "IMENTAL": 517,
      "Accelerometer": 518,
      "Ġheur": 519,
      "ughters": 520,
      "ĠMerle": 521,
      "equalTo": 522,
      "thinkable": 523,
      "Ġausgew": 524,
      "Ġجمال": 525,
      "Ġراجسټریشن": 526,
      "Ġобратить": 527,
      "Ġgeschikt": 528,
      "Ġfaulty": 529,
      "Ġanatom": 530,
      "ĠSarajevo": 531,
      "SpecID": 532,
      "ĠProspect": 533,
      "multicol": 534,
      "ĠMDLVertex": 535,
      "lucky": 536,
      "Ġtịch": 537,
      "astra": 538,
      "Vict": 539,
      "orah": 540,
      "constit": 541,
      "RECTION": 542,
      "cedures": 543,
      "Ġsoftens": 544,
      "PrintNumConst": 545,
      "ĠIEM": 546,
      "pyt": 547,
      "زاب": 548,
      "Ġзаниматься": 549,
      "ĠBosnian": 550,
      "Ġsector": 551,
      "tip": 552,
      "ĠBarton": 553,
      "nb": 554,
      "шали": 555,
      "लकर": 556,
      "Ġaffrontare": 557,
      "larından": 558,
      "Ġтра": 559,
      "barrow": 560,
      "icide": 561,
      "Ġinden": 562,
      "ubar": 563,
      "лаве": 564,
      "ńskim": 565,
      "ironolactone": 566,
      "ández": 567,
      "Ġherman": 568,
      "Ġcorros": 569,
      "TLV": 570,
      "mousePressed": 571,
      "ĠStimme": 572,
      "ĠLila": 573,
      "elina": 574,
      "ĠGERM": 575,
      "Ġbearish": 576,
      "ĠBevan": 577,
      "caire": 578,
      "ĠMahatma": 579,
      "ĠQtGui": 580,
      "ĠoutputPath": 581,
      "úcar": 582,
      "iacute": 583,
      "fonts": 584,
      "andaş": 585,
      "Ġخانواده": 586,
      "ppies": 587,
      "Ġmillet": 588,
      "ĠORD": 589,
      "Stabilise": 590,
      "cim": 591,
      "ĠShrev": 592,
      "ĠShreveport": 593,
      "CollectedField": 594,
      "aeskeygenassist": 595,
      "ĠWagner": 596,
      "Ġзару": 597,
      "Soap": 598,
      "Ġhydroly": 599,
      "ĠNoz": 600,
      "ĠForeign": 601,
      "Ġaccret": 602,
      "Ġnúcle": 603,
      "ebok": 604,
      "Ġsmugg": 605,
      "ĠBaill": 606,
      "Ġgeprü": 607,
      "Ġtih": 608,
      "Ġrenounce": 609,
      "Ġfong": 610,
      "الو": 611,
      "Ġлабора": 612,
      "Ġтурында": 613,
      "rrb": 614,
      "ĠDEL": 615,
      "rrbracket": 616,
      "ĠYani": 617,
      "Ġsimak": 618,
      "фри": 619,
      "pathy": 620,
      "dwyd": 621,
      "Ġبرج": 622,
      "artes": 623,
      "ĠDescartes": 624,
      "atello": 625,
      "ĠTER": 626,
      "Ġvattabbo": 627,
      "Ġemployee": 628,
      "Ġuite": 629,
      "öra": 630,
      "ブレー": 631,
      "ĠBells": 632,
      "ĠRepublik": 633,
      "igene": 634,
      "espół": 635,
      "ĠConven": 636,
      "Ġtrail": 637,
      "Ġfirmado": 638,
      "níka": 639,
      "нах": 640,
      "ĠAtlas": 641,
      "Ġkorero": 642,
      "ĠDurham": 643,
      "Ġ오늘": 644,
      "kannten": 645,
      "Ġbiliary": 646,
      "ĠFlanagan": 647,
      "RY": 648,
      "зом": 649,
      "Ġpřev": 650,
      "PropertySheets": 651,
      "spirator": 652,
      "ĠLef": 653,
      "ĠJésus": 654,
      "Ġdermatitis": 655,
      "urado": 656,
      "ĠsetCount": 657,
      "提出了": 658,
      "Mathemat": 659,
      "ĠIPCC": 660,
      "productive": 661,
      "isnull": 662,
      "ĠSven": 663,
      "Ġblushed": 664,
      "Ġvenons": 665,
      "ılmaz": 666,
      "Ġsyring": 667,
      "ensors": 668,
      "ensatz": 669,
      "ина": 670,
      "ĠSTAN": 671,
      "ссы": 672,
      "balance": 673,
      "Ġjulio": 674,
      "arnya": 675,
      "ançon": 676,
      "Ġproduz": 677,
      "paired": 678,
      "YA": 679,
      "ARAJYA": 680,
      "리스": 681,
      "ĠMSE": 682,
      "Linking": 683,
      "Ġethnic": 684,
      "Pok": 685,
      "Ġостан": 686,
      "ĠAsoci": 687,
      "ĠGogh": 688,
      "ĠWells": 689,
      "sType": 690,
      "Ġসব": 691,
      "Ġviii": 692,
      "кове": 693,
      "Ġgesprek": 694,
      "Ġfau": 695,
      "Ġgboolean": 696,
      "пах": 697,
      "ĠPeachtree": 698,
      "Ġvuccatiti": 699,
      "Ġodre": 700,
      "ĠPilar": 701,
      "ĠAther": 702,
      "Ġstär": 703,
      "ĠJad": 704,
      "rigation": 705,
      "ĠIrrigation": 706,
      "âne": 707,
      "recycl": 708,
      "штар": 709,
      "Ġtao": 710,
      "Ġjol": 711,
      "يديو": 712,
      "Ġportraits": 713,
      "Ġsigue": 714,
      "ettha": 715,
      "Ġdecre": 716,
      "ĠAM": 717,
      "OutputDir": 718,
      "Ġтехнологи": 719,
      "Ġойношот": 720,
      "ĠBellamy": 721,
      "URNING": 722,
      "Ġcoincide": 723,
      "zę": 724,
      "ĠLAMP": 725,
      "blade": 726,
      "ReactNative": 727,
      "Ġplt": 728,
      "тному": 729,
      "қда": 730,
      "ニット": 731,
      "arete": 732,
      "ujos": 733,
      "Ġرابط": 734,
      "اعات": 735,
      "urangan": 736,
      "Ġzabud": 737,
      "ĠAung": 738,
      "Ġstoj": 739,
      "Ġcombing": 740,
      "Ġtentacles": 741,
      "ĠКемен": 742,
      "ĠAccept": 743,
      "Ġcheckbox": 744,
      "ĠBachchan": 745,
      "ĠКеменов": 746,
      "Ġferroc": 747,
      "ĠBals": 748,
      "URUK": 749,
      "Ġsuht": 750,
      "Ġdís": 751,
      "reliable": 752,
      "osia": 753,
      "astri": 754,
      "écution": 755,
      "dodge": 756,
      "entan": 757,
      "Ġfeaturen": 758,
      "ĠmenuMobile": 759,
      "Ġfeaturenumber": 760,
      "nth": 761,
      "leicht": 762,
      "hishek": 763,
      "Ġnudity": 764,
      "polo": 765,
      "یشنل": 766,
      "ĠBrux": 767,
      "Ġofere": 768,
      "Ġermö": 769,
      "ĠcreateArticle": 770,
      "Ġnagy": 771,
      "ĠLRC": 772,
      "Ġinverno": 773,
      "Ġbelirtti": 774,
      "olini": 775,
      "ĠSAS": 776,
      "ĠBLUENRG": 777,
      "AttrName": 778,
      "فاو": 779,
      "فاوت": 780,
      "ĠFaye": 781,
      "Ġtoj": 782,
      "Ġjati": 783,
      "зной": 784,
      "ĠIrons": 785,
      "ĠframeN": 786,
      "ĠBhar": 787,
      "langen": 788,
      "ĠRennes": 789,
      "Ġpratis": 790,
      "endeu": 791,
      "Cucumber": 792,
      "loxy": 793,
      "开始": 794,
      "oszt": 795,
      "Ġremark": 796,
      "Ġheraus": 797,
      "ĠDemp": 798,
      "Ġsubcommand": 799,
      "nhold": 800,
      "Ġpelig": 801,
      "hep": 802,
      "rofoam": 803,
      "Ġprä": 804,
      "ĠTNT": 805,
      "larımız": 806,
      "foil": 807,
      "Ġactomyosin": 808,
      "Ġсуществу": 809,
      "ĠABV": 810,
      "wardly": 811,
      "ellae": 812,
      "Ġادار": 813,
      "Ġнабира": 814,
      "Ġepig": 815,
      "ĠViewController": 816,
      "ĠDah": 817,
      "Ġabut": 818,
      "ĠAck": 819,
      "azah": 820,
      "ĠAckerman": 821,
      "capi": 822,
      "plug": 823,
      "ĠRechn": 824,
      "ĠRechnung": 825,
      "gaon": 826,
      "ĠHangzhou": 827,
      "makeText": 828,
      "gten": 829,
      "soe": 830,
      "linalg": 831,
      "irms": 832,
      "Ġconstituer": 833,
      "snowflake": 834,
      "ミング": 835,
      "ĠPrivy": 836,
      "newdata": 837,
      "ghijkl": 838,
      "Ġtrener": 839,
      "кономі": 840,
      "RelativeLayout": 841,
      "ichts": 842,
      "ermanfaat": 843,
      "GPT": 844,
      "achos": 845,
      "Ġincompat": 846,
      "loadNpmTasks": 847,
      "ábamos": 848,
      "ファー": 849,
      "blob": 850,
      "ĠFDIC": 851,
      "Ġwindows": 852,
      "deselect": 853,
      "Ġeyelash": 854,
      "ĠForrester": 855,
      "yphenyl": 856,
      "Ġkesel": 857,
      "VISED": 858,
      "LETE": 859,
      "miri": 860,
      "define": 861,
      "cinas": 862,
      "Ġlabios": 863,
      "Ġcontempor": 864,
      "мимо": 865,
      "Ġtoep": 866,
      "urbin": 867,
      "Ġprzeg": 868,
      "bootstrap": 869,
      "Ġinfall": 870,
      "inig": 871,
      "iculate": 872,
      "ĠElaina": 873,
      "wau": 874,
      "Ġchia": 875,
      "Ġmenurun": 876,
      "ômios": 877,
      "онів": 878,
      "aminase": 879,
      "这一": 880,
      "agedy": 881,
      "ĠFACTS": 882,
      "kprop": 883,
      "Ġdugo": 884,
      "tileSize": 885,
      "場合は": 886,
      "Ġwai": 887,
      "Ġrind": 888,
      "achi": 889,
      "Ġtutt": 890,
      "ĠSuga": 891,
      "ĠSpawn": 892,
      "Ġtaraf": 893,
      "Ġ관": 894,
      "рни": 895,
      "Ġjeruk": 896,
      "ĠPetrov": 897,
      "ქვთ": 898,
      "osy": 899,
      "auml": 900,
      "Ġaccom": 901,
      "Ġtraged": 902,
      "ĠSherwood": 903,
      "FAMILY": 904,
      "Ġsurn": 905,
      "канчи": 906,
      "ronique": 907,
      "ění": 908,
      "Ġmari": 909,
      "ĠShop": 910,
      "sdl": 911,
      "રસ": 912,
      "phar": 913,
      "Ġretriev": 914,
      "baru": 915,
      "Ġવરસ": 916,
      "ReadToEnd": 917,
      "Ġfactorial": 918,
      "ĠFaker": 919,
      "στά": 920,
      "Ġestrell": 921,
      "یداری": 922,
      "resource": 923,
      "bibinfo": 924,
      "nate": 925,
      "čak": 926,
      "ĠMcCall": 927,
      "Ġwypad": 928,
      "Ġdevice": 929,
      "hecy": 930,
      "Ped": 931,
      "ĠStringSet": 932,
      "poetrycommunity": 933,
      "Ġdart": 934,
      "ĠMalta": 935,
      "ackel": 936,
      "Ġكنا": 937,
      "Records": 938,
      "Ġesclare": 939,
      "cía": 940,
      "lichess": 941,
      "Ġфир": 942,
      "Ġجمہوری": 943,
      "Ġdismissed": 944,
      "Ġyon": 945,
      "nikiem": 946,
      "stud": 947,
      "assured": 948,
      "ĠHeath": 949,
      "Ġэффектив": 950,
      "Ġwall": 951,
      "Ġidk": 952,
      "πτυ": 953,
      "مام": 954,
      "Ġsis": 955,
      "ských": 956,
      "Ġponencia": 957,
      "storeItem": 958,
      "Ġfacades": 959,
      "biid": 960,
      "Ġeft": 961,
      "ehatan": 962,
      "Ġservi": 963,
      "numbered": 964,
      "Ġfru": 965,
      "btnInventory": 966,
      "ĠDonn": 967,
      "Ġstinging": 968,
      "Ġconteú": 969,
      "ĠDonnelly": 970,
      "uân": 971,
      "Ġrelent": 972,
      "ίνεται": 973,
      "ĠBCE": 974,
      "Hom": 975,
      "ĠZtg": 976,
      "pkg": 977,
      "SQLALCHEMY": 978,
      "ĠOntology": 979,
      "十四": 980,
      "ĠFalcon": 981,
      "十四章": 982,
      "trs": 983,
      "Closeup": 984,
      "furn": 985,
      "ινό": 986,
      "Ġbab": 987,
      "PHA": 988,
      "Kya": 989,
      "Ġpett": 990,
      "Ġdeten": 991,
      "Ġdrows": 992,
      "fromj": 993,
      "Books": 994,
      "Ġkui": 995,
      "ehenge": 996,
      "ziemy": 997,
      "Classpath": 998,
      "ĠStonehenge": 999,
      "ĠGarg": 1000,
      "Routes": 1001,
      "icut": 1002,
      "ĠDAR": 1003,
      "Ġtiem": 1004,
      "Malley": 1005,
      "стал": 1006,
      "ĠMagnus": 1007,
      "Notifier": 1008,
      "Ġtij": 1009,
      "يجة": 1010,
      "Ġالفصل": 1011,
      "ipsych": 1012,
      "Ġvidé": 1013,
      "cretsiz": 1014,
      "ících": 1015,
      "Ġdismissing": 1016,
      "SelfPermission": 1017,
      "шите": 1018,
      "اندی": 1019,
      "lech": 1020,
      "ĠHSM": 1021,
      "Ġzv": 1022,
      "addObject": 1023,
      "Ġoctobre": 1024,
      "chromium": 1025,
      "ĠRicci": 1026,
      "Ġотра": 1027,
      "Ġด": 1028,
      "ĠHort": 1029,
      "ارة": 1030,
      "relief": 1031,
      "сное": 1032,
      "ĠPiy": 1033,
      "Ġeax": 1034,
      "ĠRosenberg": 1035,
      "culares": 1036,
      "Ġpiece": 1037,
      "Ġpostan": 1038,
      "Ġfutbol": 1039,
      "REN": 1040,
      "ĠEstrada": 1041,
      "Ġungu": 1042,
      "RENCH": 1043,
      "Ġተመሳሳይ": 1044,
      "ĠCanva": 1045,
      "روح": 1046,
      "slaught": 1047,
      "Ġundermines": 1048,
      "ĠtestAvg": 1049,
      "ストア": 1050,
      "Donnell": 1051,
      "сня": 1052,
      "Ġvenge": 1053,
      "Ġdarg": 1054,
      "kait": 1055,
      "ĠPrud": 1056,
      "Ġwaiter": 1057,
      "дон": 1058,
      "ház": 1059,
      "Ġpaper": 1060,
      "idespread": 1061,
      "antai": 1062,
      "cka": 1063,
      "Ġcontest": 1064,
      "Ġملعب": 1065,
      "GTBaseAlert": 1066,
      "Ġhitting": 1067,
      "Ġkhi": 1068,
      "Ġparaph": 1069,
      "ĠEpp": 1070,
      "Ġsettembre": 1071,
      "τές": 1072,
      "kyat": 1073,
      "ĠBelediyesi": 1074,
      "Ġglycol": 1075,
      "Ġعلاق": 1076,
      "ichter": 1077,
      "mPreview": 1078,
      "要知道": 1079,
      "Ġfrac": 1080,
      "achlor": 1081,
      "Usb": 1082,
      "ĠCDF": 1083,
      "journal": 1084,
      "PosDelimiter": 1085,
      "CreateModel": 1086,
      "ĠArya": 1087,
      "Ġverdad": 1088,
      "Ġinflux": 1089,
      "Ġکہنا": 1090,
      "ĠSanderson": 1091,
      "nala": 1092,
      "çar": 1093,
      "Ġmód": 1094,
      "Ġкоэффици": 1095,
      "rectomy": 1096,
      "Ġrecordando": 1097,
      "ĠArbor": 1098,
      "Ġcompactness": 1099,
      "icoterzi": 1100,
      "Arguments": 1101,
      "ĠSuper": 1102,
      "bottle": 1103,
      "ilitar": 1104,
      "ĠSanz": 1105,
      "Ġкоторую": 1106,
      "ĠSIINFEKL": 1107,
      "Ġpenjumlahan": 1108,
      "Ġdaly": 1109,
      "ĠnCurrent": 1110,
      "lije": 1111,
      "Ġrezat": 1112,
      "Ġbetre": 1113,
      "Attrs": 1114,
      "Ġسول": 1115,
      "нка": 1116,
      "тельством": 1117,
      "Ġкрасо": 1118,
      "attro": 1119,
      "jego": 1120,
      "pril": 1121,
      "irà": 1122,
      "Ġentste": 1123,
      "оти": 1124,
      "ĠDurand": 1125,
      "Ġaang": 1126,
      "ĠChanel": 1127,
      "dropPanel": 1128,
      "DSS": 1129,
      "blick": 1130,
      "bias": 1131,
      "Ġmultib": 1132,
      "ĠTBS": 1133,
      "bigcap": 1134,
      "Ġtür": 1135,
      "Ġtekint": 1136,
      "かい": 1137,
      "ĠCCA": 1138,
      "ocortic": 1139,
      "illors": 1140,
      "Ġempower": 1141,
      "manes": 1142,
      "ĠBlanche": 1143,
      "argeon": 1144,
      "ĠSami": 1145,
      "ĠMikh": 1146,
      "eley": 1147,
      "Ġprior": 1148,
      "があり": 1149,
      "рым": 1150,
      "ĠCurie": 1151,
      "sberg": 1152,
      "ĠChu": 1153,
      "перед": 1154,
      "Ġzweimal": 1155,
      "buatan": 1156,
      "Percentage": 1157,
      "stuk": 1158,
      "Ġimposs": 1159,
      "Ġradio": 1160,
      "CATEG": 1161,
      "Ġdistribut": 1162,
      "MinWidth": 1163,
      "Ġправить": 1164,
      "ĠHalke": 1165,
      "loglevel": 1166,
      "truncate": 1167,
      "cog": 1168,
      "Ġcavity": 1169,
      "Ġسکتی": 1170,
      "ĠmaxGoto": 1171,
      "ĠBeno": 1172,
      "Ġcastes": 1173,
      "Ġspare": 1174,
      "ĠAlgon": 1175,
      "verein": 1176,
      "èdent": 1177,
      "Ġhold": 1178,
      "ĠKepler": 1179,
      "Ġvistazo": 1180,
      "ĠRhodesia": 1181,
      "ĠPursuant": 1182,
      "Laut": 1183,
      "ĠCeres": 1184,
      "omma": 1185,
      "ĠGladi": 1186,
      "ĠsetToDefault": 1187,
      "Ġtenaga": 1188,
      "SqlClient": 1189,
      "Ġcorrobor": 1190,
      "Ġتیر": 1191,
      "نیا": 1192,
      "Ġpaz": 1193,
      "irlfriend": 1194,
      "ĠGuardi": 1195,
      "ĠGuardiola": 1196,
      "Future": 1197,
      "Ġberasal": 1198,
      "Ġtenements": 1199,
      "Ġstrictest": 1200,
      "Ġconson": 1201,
      "Mer": 1202,
      "ĠDillon": 1203,
      "ĠRép": 1204,
      "stattung": 1205,
      "ilmente": 1206,
      "emeni": 1207,
      "Ġفرا": 1208,
      "testAvg": 1209,
      "īga": 1210,
      "Ġtác": 1211,
      "ĠEOS": 1212,
      "ĠVerständ": 1213,
      "Ġuv": 1214,
      "akun": 1215,
      "andia": 1216,
      "decorators": 1217,
      "Ġwpły": 1218,
      "Ġcancha": 1219,
      "Ġمجوز": 1220,
      "ĠWolves": 1221,
      "ĠMonat": 1222,
      "зулта": 1223,
      "icata": 1224,
      "ĠUSGS": 1225,
      "symbol": 1226,
      "ĠRoswell": 1227,
      "LoginActivity": 1228,
      "Ġscriv": 1229,
      "ĠExpress": 1230,
      "Ġherramient": 1231,
      "Ġfiduciary": 1232,
      "ayatiti": 1233,
      "Ġочередь": 1234,
      "ĠIslamabad": 1235,
      "зами": 1236,
      "Ġmadad": 1237,
      "ilder": 1238,
      "ĠBoyer": 1239,
      "ĠFerté": 1240,
      "ĠMansfield": 1241,
      "Ġbreez": 1242,
      "рной": 1243,
      "odynamics": 1244,
      "ĠCovington": 1245,
      "AIRMAN": 1246,
      "yielding": 1247,
      "ĠRuf": 1248,
      "POI": 1249,
      "onik": 1250,
      "ĠCLIENTI": 1251,
      "ĠIUC": 1252,
      "retti": 1253,
      "ĠIgnatius": 1254,
      "ĠIUCN": 1255,
      "Ġinci": 1256,
      "Ġalternation": 1257,
      "طفال": 1258,
      "ynchronously": 1259,
      "states": 1260,
      "Ġconfocal": 1261,
      "ھر": 1262,
      "როს": 1263,
      "Ġtats": 1264,
      "retto": 1265,
      "ĠRUTARELATIV": 1266,
      "ueger": 1267,
      "uatu": 1268,
      "Ġinicial": 1269,
      "Btu": 1270,
      "kBtu": 1271,
      "angent": 1272,
      "ĠQxc": 1273,
      "ĠNoor": 1274,
      "ĠradioButton": 1275,
      "цю": 1276,
      "masked": 1277,
      "adou": 1278,
      "XXX": 1279,
      "userInfo": 1280,
      "RU": 1281,
      "PTION": 1282,
      "RUPTION": 1283,
      "types": 1284,
      "bble": 1285,
      "Ġdepres": 1286,
      "пру": 1287,
      "Ġwaarop": 1288,
      "emorrh": 1289,
      "ĠAmbros": 1290,
      "ĠFundação": 1291,
      "érin": 1292,
      "Ġbadi": 1293,
      "urton": 1294,
      "ĠWarb": 1295,
      "ĠKarina": 1296,
      "ĠSkinner": 1297,
      "ĠWarburton": 1298,
      "Ġexd": 1299,
      "ĠvalidType": 1300,
      "isce": 1301,
      "Ġفرن": 1302,
      "Ġseng": 1303,
      "рили": 1304,
      "āla": 1305,
      "ĠUnknown": 1306,
      "Ġkebij": 1307,
      "sendCommand": 1308,
      "Ġlehető": 1309,
      "Ġcercanas": 1310,
      "GEBURTSORT": 1311,
      "tApp": 1312,
      "ĠCtApp": 1313,
      "تمع": 1314,
      "ieszcz": 1315,
      "اصر": 1316,
      "Ġархі": 1317,
      "axies": 1318,
      "ającego": 1319,
      "jpa": 1320,
      "etje": 1321,
      "CCCO": 1322,
      "Ġbeginnetje": 1323,
      "primer": 1324,
      "ĠБекер": 1325,
      "payers": 1326,
      "Ġfamílias": 1327,
      "тал": 1328,
      "Ġautob": 1329,
      "Ġکردم": 1330,
      "ystyrene": 1331,
      "ĠKigali": 1332,
      "Ġفونبیټ": 1333,
      "сус": 1334,
      "stellar": 1335,
      "ĠAnsel": 1336,
      "atly": 1337,
      "ĠTextEditing": 1338,
      "Ġreaper": 1339,
      "Ġterd": 1340,
      "ĠCRIS": 1341,
      "Ġauc": 1342,
      "iteľ": 1343,
      "ĠOutreach": 1344,
      "Ġکہنے": 1345,
      "ĠMayıs": 1346,
      "施行": 1347,
      "法施行": 1348,
      "Ġhood": 1349,
      "antz": 1350,
      "Ġقدر": 1351,
      "บาท": 1352,
      "igail": 1353,
      "uws": 1354,
      "ClkInitStruct": 1355,
      "圳市": 1356,
      "深圳市": 1357,
      "miy": 1358,
      "ĠLPTMR": 1359,
      "ĠYoda": 1360,
      "Ġგარ": 1361,
      "Indicator": 1362,
      "ĠHendrik": 1363,
      "referrer": 1364,
      "Arrow": 1365,
      "Ġkuu": 1366,
      "home": 1367,
      "可能性": 1368,
      "Ġvaan": 1369,
      "ptious": 1370,
      "LD": 1371,
      "Ġzuf": 1372,
      "IntegerValue": 1373,
      "Ġbât": 1374,
      "Ġprocent": 1375,
      "ądź": 1376,
      "vable": 1377,
      "Ġbath": 1378,
      "hetamine": 1379,
      "Ġεμφ": 1380,
      "Ġпайда": 1381,
      "Ġالعص": 1382,
      "stufe": 1383,
      "ĠBenson": 1384,
      "ASTER": 1385,
      "Ġscept": 1386,
      "LEM": 1387,
      "étaires": 1388,
      "Ġherewith": 1389,
      "ĠPrisma": 1390,
      "ĠCavaliers": 1391,
      "Ġpréalable": 1392,
      "mity": 1393,
      "ĠBoltzmann": 1394,
      "adeo": 1395,
      "Ġdiing": 1396,
      "ĠZimmerman": 1397,
      "Ġchy": 1398,
      "Ġinsult": 1399,
      "Ġelectrón": 1400,
      "ĠBhagavata": 1401,
      "ĠLowry": 1402,
      "ĠВолго": 1403,
      "ĠJit": 1404,
      "ĠAISI": 1405,
      "Ġاکاؤن": 1406,
      "ĠFirst": 1407,
      "unjung": 1408,
      "Ġİlçesi": 1409,
      "спользу": 1410,
      "Ġqubits": 1411,
      "Ġانگیز": 1412,
      "Rotate": 1413,
      "Ġparallel": 1414,
      "ائض": 1415,
      "olphins": 1416,
      "codetest": 1417,
      "highscore": 1418,
      "ĠNavarro": 1419,
      "Ġخاک": 1420,
      "шал": 1421,
      "Ġwest": 1422,
      "ĠAmes": 1423,
      "Review": 1424,
      "Ġseme": 1425,
      "rarr": 1426,
      "дий": 1427,
      "ĠresponseObject": 1428,
      "Tul": 1429,
      "poll": 1430,
      "ĠКня": 1431,
      "ĠAntilles": 1432,
      "ilarly": 1433,
      "AreaDataIndex": 1434,
      "Ġperine": 1435,
      "esorios": 1436,
      "glied": 1437,
      "Ġзвез": 1438,
      "Ġучу": 1439,
      "σταση": 1440,
      "ĠaccessToken": 1441,
      "Ġhydraulics": 1442,
      "thane": 1443,
      "ĠImper": 1444,
      "ouldn": 1445,
      "ĠMalhotra": 1446,
      "ploid": 1447,
      "ĠCOST": 1448,
      "ათ": 1449,
      "Ġmệnh": 1450,
      "Ġunob": 1451,
      "Ġempl": 1452,
      "ĠSiddh": 1453,
      "ძლიათ": 1454,
      "otard": 1455,
      "Ġआसन": 1456,
      "Ġkuj": 1457,
      "ĠWix": 1458,
      "ommended": 1459,
      "ointments": 1460,
      "Ġneh": 1461,
      "hept": 1462,
      "Ġaeron": 1463,
      "ousy": 1464,
      "ĠChadwick": 1465,
      "Lib": 1466,
      "chts": 1467,
      "Ġgyda": 1468,
      "Ġliz": 1469,
      "Ġtruss": 1470,
      "vate": 1471,
      "Ġdosimetry": 1472,
      "Ġmochila": 1473,
      "Ġreden": 1474,
      "formin": 1475,
      "ĠAran": 1476,
      "Ġapron": 1477,
      "ĠJuliana": 1478,
      "ĠEileen": 1479,
      "ĠPerrin": 1480,
      "abal": 1481,
      "bearer": 1482,
      "vez": 1483,
      "Ġolas": 1484,
      "ĠHilbert": 1485,
      "парат": 1486,
      "Ġcrib": 1487,
      "Ġteda": 1488,
      "Ġnevo": 1489,
      "weile": 1490,
      "Ġwhim": 1491,
      "ĠNeville": 1492,
      "ocles": 1493,
      "oxygenase": 1494,
      "Ġabord": 1495,
      "servic": 1496,
      "Src": 1497,
      "Ġbulundu": 1498,
      "separatedBy": 1499,
      "iterranean": 1500,
      "Neutral": 1501,
      "iasa": 1502,
      "ĠForsyth": 1503,
      "ĠSond": 1504,
      "ättre": 1505,
      "Ġtrase": 1506,
      "adka": 1507,
      "Ġcioc": 1508,
      "enski": 1509,
      "Ġحص": 1510,
      "ulosic": 1511,
      "ĠLinton": 1512,
      "Ġjooks": 1513,
      "Ġodnosno": 1514,
      "issé": 1515,
      "œur": 1516,
      "Ġtrigo": 1517,
      "Ġhaze": 1518,
      "INET": 1519,
      "stin": 1520,
      "Ġwier": 1521,
      "Ġnga": 1522,
      "ĠSchwarzenegger": 1523,
      "ています": 1524,
      "getResponse": 1525,
      "Chúc": 1526,
      "Ġالجام": 1527,
      "amiya": 1528,
      "ĠBiotechnol": 1529,
      "ewarm": 1530,
      "ĠMakati": 1531,
      "ymes": 1532,
      "Ġantice": 1533,
      "Ġмаль": 1534,
      "Ġঅবস": 1535,
      "าระ": 1536,
      "Ġrabb": 1537,
      "Ġcoval": 1538,
      "ĠTherapie": 1539,
      "spraak": 1540,
      "semanticweb": 1541,
      "ĠRound": 1542,
      "žių": 1543,
      "junctive": 1544,
      "Ġbaud": 1545,
      "porte": 1546,
      "ĠCyprus": 1547,
      "Ġmänn": 1548,
      "ĠMisty": 1549,
      "Ġнаре": 1550,
      "hbs": 1551,
      "Ġpinn": 1552,
      "უშ": 1553,
      "RxDocumentType": 1554,
      "უშა": 1555,
      "Ġhernia": 1556,
      "Ġnug": 1557,
      "ĠIda": 1558,
      "Ġpróxima": 1559,
      "ppu": 1560,
      "ighet": 1561,
      "Ġdext": 1562,
      "avez": 1563,
      "okhttp": 1564,
      "frastructure": 1565,
      "ぐる": 1566,
      "ぐるみ": 1567,
      "ứa": 1568,
      "ĠYamamoto": 1569,
      "ĠQtWidgets": 1570,
      "ĠQuotient": 1571,
      "behav": 1572,
      "ISPW": 1573,
      "ometimes": 1574,
      "ĠFaz": 1575,
      "Banner": 1576,
      "Ġmickey": 1577,
      "ĠSap": 1578,
      "FullPath": 1579,
      "Ġarsine": 1580,
      "Ġпризна": 1581,
      "ĠRocca": 1582,
      "adau": 1583,
      "quick": 1584,
      "enangan": 1585,
      "uldu": 1586,
      "ldr": 1587,
      "eveloper": 1588,
      "ává": 1589,
      "ĠПариж": 1590,
      "érm": 1591,
      "imately": 1592,
      "Ġمدرس": 1593,
      "Ġprobative": 1594,
      "Ġplastered": 1595,
      "TreeWidgetItem": 1596,
      "offline": 1597,
      "TempBuffer": 1598,
      "که": 1599,
      "оборот": 1600,
      "ĠHUM": 1601,
      "Ġسین": 1602,
      "ürlich": 1603,
      "ĠcGraph": 1604,
      "Ġseu": 1605,
      "miştir": 1606,
      "ziale": 1607,
      "ĠDug": 1608,
      "Ġjär": 1609,
      "ODY": 1610,
      "ĠCromwell": 1611,
      "Ġmmf": 1612,
      "Ġimpart": 1613,
      "uell": 1614,
      "ونا": 1615,
      "duceti": 1616,
      "Ġmancan": 1617,
      "Introduceti": 1618,
      "sonar": 1619,
      "SendMessage": 1620,
      "ходы": 1621,
      "Ġгрудня": 1622,
      "Ġshoal": 1623,
      "Ġالمقسوم": 1624,
      "avljen": 1625,
      "eroids": 1626,
      "Ġاقول": 1627,
      "Ġauricul": 1628,
      "astrous": 1629,
      "jing": 1630,
      "Ġvei": 1631,
      "forcer": 1632,
      "ĠYeh": 1633,
      "Ġmonol": 1634,
      "ĠPrism": 1635,
      "änen": 1636,
      "Ġbypassing": 1637,
      "Ġзоло": 1638,
      "ĠKnicks": 1639,
      "ĠMahoney": 1640,
      "ĠNucleaire": 1641,
      "Ġalmac": 1642,
      "inciples": 1643,
      "ሃኒ": 1644,
      "ድሃኒ": 1645,
      "Ġመድሃኒ": 1646,
      "isive": 1647,
      "Ġtriang": 1648,
      "ĠCSA": 1649,
      "Ġالزد": 1650,
      "Ġconcurring": 1651,
      "QRect": 1652,
      "Sag": 1653,
      "posite": 1654,
      "гами": 1655,
      "rayam": 1656,
      "ĠAtrayam": 1657,
      "ĠWinds": 1658,
      "igon": 1659,
      "ktx": 1660,
      "ĠMallory": 1661,
      "Ġприобре": 1662,
      "Ġparabolic": 1663,
      "Ġcutt": 1664,
      "getBean": 1665,
      "brar": 1666,
      "ĠCoronation": 1667,
      "arad": 1668,
      "Ġglo": 1669,
      "ксе": 1670,
      "בוה": 1671,
      "ĠPanzer": 1672,
      "Ġpreside": 1673,
      "MTV": 1674,
      "ductory": 1675,
      "cjs": 1676,
      "urous": 1677,
      "Ġlama": 1678,
      "Macros": 1679,
      "ĠÇ": 1680,
      "ものを": 1681,
      "ĠSeth": 1682,
      "readthedocs": 1683,
      "amssymb": 1684,
      "ĠAFFA": 1685,
      "Ġrighteous": 1686,
      "encanaan": 1687,
      "Ġarray": 1688,
      "ĠelapsedTime": 1689,
      "remark": 1690,
      "iremos": 1691,
      "ĠSult": 1692,
      "ĠAHA": 1693,
      "liery": 1694,
      "Ġlancé": 1695,
      "responseData": 1696,
      "ĠEpsom": 1697,
      "ĠupperBound": 1698,
      "ĠSoft": 1699,
      "átky": 1700,
      "defer": 1701,
      "ĠNagata": 1702,
      "Ġvšech": 1703,
      "Ġいたし": 1704,
      "ériment": 1705,
      "Ġdarts": 1706,
      "Ġvarm": 1707,
      "Ġвсі": 1708,
      "Serve": 1709,
      "Ġsirop": 1710,
      "ĠUIP": 1711,
      "ĠLumia": 1712,
      "Ġшта": 1713,
      "ĠGroß": 1714,
      "Ġinequ": 1715,
      "reden": 1716,
      "polis": 1717,
      "ándo": 1718,
      "Ġنص": 1719,
      "ael": 1720,
      "ĠSuit": 1721,
      "Ġcaffè": 1722,
      "Motor": 1723,
      "Ġsatell": 1724,
      "Ġγίνει": 1725,
      "ortex": 1726,
      "Ġchessboard": 1727,
      "Ġملین": 1728,
      "ĠVickers": 1729,
      "ichage": 1730,
      "ativistic": 1731,
      "ärg": 1732,
      "venido": 1733,
      "Ġumož": 1734,
      "gwt": 1735,
      "CDCl": 1736,
      "Ġmicrostructure": 1737,
      "mist": 1738,
      "Ġодин": 1739,
      "sera": 1740,
      "хождения": 1741,
      "hoenix": 1742,
      "volver": 1743,
      "ĠElim": 1744,
      "OutputType": 1745,
      "poline": 1746,
      "ĠArchibald": 1747,
      "ĠNRA": 1748,
      "inputId": 1749,
      "Ġмузе": 1750,
      "Lato": 1751,
      "이스": 1752,
      "所以": 1753,
      "Ġpizz": 1754,
      "usik": 1755,
      "Ġوتش": 1756,
      "Ġyüzde": 1757,
      "Ġlun": 1758,
      "Ġspider": 1759,
      "igenschaft": 1760,
      "ĠRHS": 1761,
      "unday": 1762,
      "ALF": 1763,
      "Ġdiploid": 1764,
      "faction": 1765,
      "ريكية": 1766,
      "nodemon": 1767,
      "archer": 1768,
      "liner": 1769,
      "ĠMartyn": 1770,
      "Ġburdened": 1771,
      "perity": 1772,
      "طيني": 1773,
      "Ġcyclospor": 1774,
      "に取り": 1775,
      "计算": 1776,
      "Ġanod": 1777,
      "нар": 1778,
      "ĠNegoti": 1779,
      "kepsilon": 1780,
      "Ġfusc": 1781,
      "JSP": 1782,
      "entrale": 1783,
      "ĠMij": 1784,
      "Ġsparring": 1785,
      "JSPA": 1786,
      "Ġcomunit": 1787,
      "Ġsoi": 1788,
      "nymi": 1789,
      "დეგ": 1790,
      "IDAY": 1791,
      "AINT": 1792,
      "SID": 1793,
      "udie": 1794,
      "ĠJena": 1795,
      "PRESS": 1796,
      "DrvGPIO": 1797,
      "ObjectModel": 1798,
      "Ġsabbat": 1799,
      "اکي": 1800,
      "canic": 1801,
      "Ġsabbatical": 1802,
      "Ġleichte": 1803,
      "requireNonNull": 1804,
      "ĠGAZ": 1805,
      "Ġsprite": 1806,
      "ĠChange": 1807,
      "ĠAco": 1808,
      "Ġआयर": 1809,
      "OCCO": 1810,
      "Weyl": 1811,
      "Ġamid": 1812,
      "Ġdemostrar": 1813,
      "Ġامور": 1814,
      "scrollTop": 1815,
      "ĠgroupId": 1816,
      "скага": 1817,
      "ĠWordPerfect": 1818,
      "dler": 1819,
      "Ġileti": 1820,
      "butan": 1821,
      "Ġrena": 1822,
      "ĠPrime": 1823,
      "iada": 1824,
      "INCRE": 1825,
      "Ġayudar": 1826,
      "Ġchimeric": 1827,
      "óch": 1828,
      "Ġpollin": 1829,
      "ĠNagano": 1830,
      "ĠAltman": 1831,
      "wreck": 1832,
      "wild": 1833,
      "ĠDali": 1834,
      "ObjectType": 1835,
      "andha": 1836,
      "μένο": 1837,
      "ouleur": 1838,
      "iminaries": 1839,
      "зумі": 1840,
      "Ġunwilling": 1841,
      "serializer": 1842,
      "слав": 1843,
      "ógio": 1844,
      "ĠMACHIN": 1845,
      "igot": 1846,
      "Tie": 1847,
      "ĠmapView": 1848,
      "Ġdring": 1849,
      "ĠLeicht": 1850,
      "Ġđáy": 1851,
      "Tamb": 1852,
      "ндагы": 1853,
      "ĠPayton": 1854,
      "Ġricev": 1855,
      "ĠKier": 1856,
      "Ġolması": 1857,
      "Ġannexation": 1858,
      "Ġheader": 1859,
      "ตรฐาน": 1860,
      "eleine": 1861,
      "loé": 1862,
      "Ġهنا": 1863,
      "Ġbuồn": 1864,
      "ĠMadeleine": 1865,
      "NonQuery": 1866,
      "ĠKog": 1867,
      "Ġquod": 1868,
      "жил": 1869,
      "ĠDodger": 1870,
      "λασ": 1871,
      "ĠBio": 1872,
      "ĠНово": 1873,
      "ĠCaen": 1874,
      "Ġsizz": 1875,
      "acinth": 1876,
      "ĠMomo": 1877,
      "ĠEccles": 1878,
      "Ġorthogonal": 1879,
      "itley": 1880,
      "Ġclever": 1881,
      "Ġfreestanding": 1882,
      "قول": 1883,
      "ĠKell": 1884,
      "Ġchatt": 1885,
      "ĠTasman": 1886,
      "atthavidu": 1887,
      "rensa": 1888,
      "leyen": 1889,
      "Ġdiffe": 1890,
      "Ġcallus": 1891,
      "ificação": 1892,
      "isin": 1893,
      "Ġsinc": 1894,
      "Ġhelpless": 1895,
      "Ġتی": 1896,
      "ĠYarm": 1897,
      "repent": 1898,
      "MouseEnter": 1899,
      "ĠLoft": 1900,
      "Ġmaje": 1901,
      "Vers": 1902,
      "jian": 1903,
      "واد": 1904,
      "uctance": 1905,
      "SubSystem": 1906,
      "celona": 1907,
      "Ġangu": 1908,
      "Ġprocede": 1909,
      "erning": 1910,
      "Ġতখন": 1911,
      "vik": 1912,
      "ÈRES": 1913,
      "otong": 1914,
      "abhas": 1915,
      "webservices": 1916,
      "żenia": 1917,
      "Ġfilosof": 1918,
      "ĠBots": 1919,
      "Ġ방법": 1920,
      "Ġحدا": 1921,
      "Ġdvs": 1922,
      "Ġmarbles": 1923,
      "ảm": 1924,
      "Ġsür": 1925,
      "ĠWare": 1926,
      "Ġembell": 1927,
      "eved": 1928,
      "Ġchun": 1929,
      "सम": 1930,
      "Ġآهي": 1931,
      "msk": 1932,
      "Ġداله": 1933,
      "Ġamac": 1934,
      "ĠthisTrack": 1935,
      "Eq": 1936,
      "exch": 1937,
      "ĠErwach": 1938,
      "Ġfantas": 1939,
      "ĠPartialEq": 1940,
      "tober": 1941,
      "Ġlouis": 1942,
      "pha": 1943,
      "ĠIMD": 1944,
      "KeyUp": 1945,
      "pieza": 1946,
      "Ġспособствует": 1947,
      "ĠIMDb": 1948,
      "чности": 1949,
      "ensky": 1950,
      "ukhov": 1951,
      "textFile": 1952,
      "Ġகழக": 1953,
      "oside": 1954,
      "ationship": 1955,
      "Ġpřip": 1956,
      "rents": 1957,
      "GCG": 1958,
      "ShowWindow": 1959,
      "ĠJWT": 1960,
      "lof": 1961,
      "arnish": 1962,
      "Ġsequestration": 1963,
      "تقل": 1964,
      "ĠBaner": 1965,
      "ĠBanerjee": 1966,
      "ĠUTS": 1967,
      "Ġcarbure": 1968,
      "Ġfavicon": 1969,
      "udget": 1970,
      "flowing": 1971,
      "ĠCoA": 1972,
      "Ġይችላሉ": 1973,
      "Ġتتع": 1974,
      "スタル": 1975,
      "ĠGine": 1976,
      "Ġdiya": 1977,
      "Ġهيبقى": 1978,
      "Ġperal": 1979,
      "visiae": 1980,
      "とき": 1981,
      "zonej": 1982,
      "HAR": 1983,
      "webhook": 1984,
      "HARAD": 1985,
      "ĠBrowning": 1986,
      "HDA": 1987,
      "ĠIHDA": 1988,
      "ják": 1989,
      "كله": 1990,
      "intang": 1991,
      "Ġopgenomen": 1992,
      "ĠSolskjaer": 1993,
      "ība": 1994,
      "Ġheft": 1995,
      "Ġínd": 1996,
      "ĠOscar": 1997,
      "コミュニ": 1998,
      "Ġsubside": 1999,
      "Ġshum": 2000,
      "azol": 2001,
      "ĠInsc": 2002,
      "ĠYok": 2003,
      "ĠComfort": 2004,
      "navigateTo": 2005,
      "tke": 2006,
      "ることが": 2007,
      "ĠTools": 2008,
      "Staff": 2009,
      "ssel": 2010,
      "Ġsize": 2011,
      "ĠMagdalene": 2012,
      "uine": 2013,
      "Ġczas": 2014,
      "ENTITY": 2015,
      "Methylsulfanyl": 2016,
      "WARN": 2017,
      "ĠTRANSFER": 2018,
      "erdings": 2019,
      "Ġsovr": 2020,
      "endig": 2021,
      "ĠChiche": 2022,
      "ĠChiu": 2023,
      "Ġside": 2024,
      "υτό": 2025,
      "InMillis": 2026,
      "Ġلوا": 2027,
      "یاء": 2028,
      "Marion": 2029,
      "ĠFly": 2030,
      "scar": 2031,
      "Ġprej": 2032,
      "Ġpele": 2033,
      "Ġschn": 2034,
      "zra": 2035,
      "ĠEzra": 2036,
      "ldigt": 2037,
      "Ġсалы": 2038,
      "rezz": 2039,
      "Ġrecibirá": 2040,
      "IVERSITY": 2041,
      "essere": 2042,
      "мили": 2043,
      "ĠGough": 2044,
      "ĠSeren": 2045,
      "argon": 2046,
      "єднання": 2047,
      "ĠTake": 2048,
      "yrna": 2049,
      "ĠSmyrna": 2050,
      "closePath": 2051,
      "idot": 2052,
      "ĠJES": 2053,
      "aphr": 2054,
      "Ġlandfall": 2055,
      "ĠANOVA": 2056,
      "しよう": 2057,
      "ĠHath": 2058,
      "Ġcarved": 2059,
      "bike": 2060,
      "placeable": 2061,
      "ĠMerrick": 2062,
      "ĠCheckKey": 2063,
      "ĠAchiev": 2064,
      "getPassword": 2065,
      "ĠSignIn": 2066,
      "Ġlongitudine": 2067,
      "ガチャ": 2068,
      "Ġconvective": 2069,
      "Ġsoftened": 2070,
      "shay": 2071,
      "дьми": 2072,
      "Ġenem": 2073,
      "viar": 2074,
      "EXPER": 2075,
      "Ġсмотре": 2076,
      "Ġgare": 2077,
      "Ġhük": 2078,
      "Ġprobationary": 2079,
      "olok": 2080,
      "jería": 2081,
      "Ġinsuffis": 2082,
      "vish": 2083,
      "ibaba": 2084,
      "conv": 2085,
      "ĠAlk": 2086,
      "Scorch": 2087,
      "Ġوالق": 2088,
      "ĠBai": 2089,
      "undant": 2090,
      "allist": 2091,
      "athi": 2092,
      "Ġpiac": 2093,
      "чники": 2094,
      "igenous": 2095,
      "Ġcaule": 2096,
      "ĠRipley": 2097,
      "ĠGeoNames": 2098,
      "ĠCytol": 2099,
      "Ġdyst": 2100,
      "ocop": 2101,
      "шок": 2102,
      "ĠRiga": 2103,
      "Ġez": 2104,
      "tmpl": 2105,
      "ĠKos": 2106,
      "енча": 2107,
      "ouden": 2108,
      "ĠGazetteer": 2109,
      "biet": 2110,
      "Ġlleva": 2111,
      "eské": 2112,
      "Ġavoided": 2113,
      "нера": 2114,
      "ходите": 2115,
      "hæng": 2116,
      "штей": 2117,
      "urned": 2118,
      "штейн": 2119,
      "Ġclutch": 2120,
      "imenti": 2121,
      "Ġplaythrough": 2122,
      "edades": 2123,
      "comstockmusic": 2124,
      "ĠSoo": 2125,
      "jector": 2126,
      "taa": 2127,
      "хара": 2128,
      "ĠHades": 2129,
      "Ġricotta": 2130,
      "Ġродствен": 2131,
      "abbage": 2132,
      "wali": 2133,
      "mese": 2134,
      "ĠVBA": 2135,
      "Ġبالټ": 2136,
      "usaha": 2137,
      "ĠGru": 2138,
      "ĠДер": 2139,
      "Ġjind": 2140,
      "Ġconsumm": 2141,
      "ייל": 2142,
      "Ġconsummate": 2143,
      "imgPath": 2144,
      "زيز": 2145,
      "Ġпоко": 2146,
      "RequestListener": 2147,
      "ĠandRow": 2148,
      "ĠMik": 2149,
      "ĠBuff": 2150,
      "sière": 2151,
      "ĠGodfrey": 2152,
      "Ġphyto": 2153,
      "ському": 2154,
      "ĠJoon": 2155,
      "Ġвикона": 2156,
      "Ġلدي": 2157,
      "unsplash": 2158,
      "ĠMedi": 2159,
      "Ġunprotected": 2160,
      "кар": 2161,
      "ĠKyushu": 2162,
      "社会": 2163,
      "Ġкандай": 2164,
      "ĠFlax": 2165,
      "CategoryImage": 2166,
      "Ġovershadowed": 2167,
      "Ġnoch": 2168,
      "ĠMoovit": 2169,
      "himanyu": 2170,
      "Ġgrain": 2171,
      "дев": 2172,
      "ContextHeader": 2173,
      "webBrowser": 2174,
      "ĠCortés": 2175,
      "çoit": 2176,
      "Ġcoward": 2177,
      "flowers": 2178,
      "Ġkategor": 2179,
      "Ġmilij": 2180,
      "Ġkonc": 2181,
      "Ġsaiu": 2182,
      "ĠHorace": 2183,
      "fähig": 2184,
      "iola": 2185,
      "αρ": 2186,
      "Ġenact": 2187,
      "Ġmultist": 2188,
      "Ġmall": 2189,
      "elnuts": 2190,
      "indexPath": 2191,
      "Ġhazelnuts": 2192,
      "ĠBast": 2193,
      "кового": 2194,
      "ĠRhea": 2195,
      "Ġбилан": 2196,
      "apshots": 2197,
      "リヂストン": 2198,
      "Ġブリヂストン": 2199,
      "Ġchalleng": 2200,
      "Ġжак": 2201,
      "bindingNavigator": 2202,
      "avits": 2203,
      "FANGORN": 2204,
      "ände": 2205,
      "седнев": 2206,
      "Ġslav": 2207,
      "powered": 2208,
      "ĠHezbollah": 2209,
      "isShow": 2210,
      "oury": 2211,
      "convolution": 2212,
      "lcnaf": 2213,
      "Ġvhodné": 2214,
      "Ġbetracht": 2215,
      "ĠTại": 2216,
      "Ġshal": 2217,
      "Ġrecrystall": 2218,
      "ounced": 2219,
      "cumin": 2220,
      "Ġpepe": 2221,
      "Ġwhims": 2222,
      "ftÂ": 2223,
      "Than": 2224,
      "aaf": 2225,
      "pèce": 2226,
      "ĠChubb": 2227,
      "Ġوتع": 2228,
      "trk": 2229,
      "amsu": 2230,
      "inkin": 2231,
      "Ġkorist": 2232,
      "ĠAFM": 2233,
      "ameleon": 2234,
      "Ġpleading": 2235,
      "ĠDonnie": 2236,
      "GPS": 2237,
      "уки": 2238,
      "ĠЦуки": 2239,
      "Ġvooraf": 2240,
      "gian": 2241,
      "Ġالاع": 2242,
      "latan": 2243,
      "Ġbüy": 2244,
      "heni": 2245,
      "Ġincumbents": 2246,
      "Live": 2247,
      "ĠKochubei": 2248,
      "HOB": 2249,
      "ĠScaffold": 2250,
      "ievement": 2251,
      "uega": 2252,
      "ĠRaffa": 2253,
      "newFileLine": 2254,
      "IsEnabled": 2255,
      "ĠRSA": 2256,
      "iranje": 2257,
      "Ġpreset": 2258,
      "Ġcustomtkinter": 2259,
      "Ġçiz": 2260,
      "ĠAstron": 2261,
      "ümler": 2262,
      "ĠSommers": 2263,
      "Ġshook": 2264,
      "ĠEj": 2265,
      "idenav": 2266,
      "Ġgeneal": 2267,
      "Ġpotp": 2268,
      "LoggedIn": 2269,
      "renamiento": 2270,
      "Ġficción": 2271,
      "Pods": 2272,
      "कम": 2273,
      "Ġfoam": 2274,
      "ované": 2275,
      "toByteArray": 2276,
      "Ġslad": 2277,
      "Ġaccue": 2278,
      "Spor": 2279,
      "ເຮ": 2280,
      "ECUTIVE": 2281,
      "ພວກເຮ": 2282,
      "APT": 2283,
      "BSITE": 2284,
      "Ġovaries": 2285,
      "Ġ그래": 2286,
      "Uns": 2287,
      "Ġrigg": 2288,
      "Ġdokład": 2289,
      "otao": 2290,
      "arbotao": 2291,
      "utenção": 2292,
      "Ġativarbotao": 2293,
      "birth": 2294,
      "Ġsumin": 2295,
      "Ġthereto": 2296,
      "olutamente": 2297,
      "ĠIslington": 2298,
      "Highlight": 2299,
      "Ġexuber": 2300,
      "cede": 2301,
      "ĠAccenture": 2302,
      "ĠMediaQuery": 2303,
      "IKO": 2304,
      "Ġbequeathed": 2305,
      "LNG": 2306,
      "swadian": 2307,
      "ĠЭ": 2308,
      "ubation": 2309,
      "dzie": 2310,
      "Ġbounded": 2311,
      "spedes": 2312,
      "ĠNumericVector": 2313,
      "leader": 2314,
      "Ġčesk": 2315,
      "Ġporte": 2316,
      "ĠObjectMapper": 2317,
      "uacao": 2318,
      "Ġinsight": 2319,
      "Ġfetch": 2320,
      "thm": 2321,
      "Ġตรง": 2322,
      "oer": 2323,
      "ENANCE": 2324,
      "اموش": 2325,
      "ObjectId": 2326,
      "Ġsickly": 2327,
      "Ġthóc": 2328,
      "magic": 2329,
      "ĠKup": 2330,
      "gün": 2331,
      "Ġparla": 2332,
      "ĠAngeb": 2333,
      "Ġдраматур": 2334,
      "ĠSLC": 2335,
      "ĠDarth": 2336,
      "Ġتفس": 2337,
      "Ġväč": 2338,
      "AYER": 2339,
      "explo": 2340,
      "adjac": 2341,
      "Mania": 2342,
      "subdirectory": 2343,
      "Ġایمان": 2344,
      "adjacency": 2345,
      "ĠBrawl": 2346,
      "നസ": 2347,
      "ĠDism": 2348,
      "ĠChalk": 2349,
      "Windows": 2350,
      "Ġമനസ": 2351,
      "IsEmpty": 2352,
      "रम": 2353,
      "Ġunmet": 2354,
      "erged": 2355,
      "Hepin": 2356,
      "Ġincó": 2357,
      "SRPSXML": 2358,
      "Ġfnt": 2359,
      "Ġbor": 2360,
      "ĠGuangdong": 2361,
      "чих": 2362,
      "Ġcvec": 2363,
      "Ġpreprint": 2364,
      "вок": 2365,
      "ALOG": 2366,
      "Ġtoliko": 2367,
      "ĠMonika": 2368,
      "ĠJohanna": 2369,
      "ĠCah": 2370,
      "ющем": 2371,
      "Ġjūn": 2372,
      "egral": 2373,
      "ĠLorem": 2374,
      "ĠWhisper": 2375,
      "Ġзапя": 2376,
      "Ġfief": 2377,
      "Ġinternas": 2378,
      "ouleurs": 2379,
      "Ġadhere": 2380,
      "тором": 2381,
      "Ġngon": 2382,
      "EVA": 2383,
      "lgan": 2384,
      "кци": 2385,
      "Ġотказа": 2386,
      "ğun": 2387,
      "Ġსახელ": 2388,
      "נטי": 2389,
      "詳細": 2390,
      "ämä": 2391,
      "ĠNi": 2392,
      "łas": 2393,
      "Ġwłas": 2394,
      "ĠENV": 2395,
      "Ġhoon": 2396,
      "Ġvart": 2397,
      "ĠTaschen": 2398,
      "소년": 2399,
      "탄소년": 2400,
      "anthe": 2401,
      "mend": 2402,
      "ĠNapoleon": 2403,
      "گزاری": 2404,
      "اہد": 2405,
      "quote": 2406,
      "Ġincoherent": 2407,
      "ĠOPD": 2408,
      "Ġpsy": 2409,
      "printDialog": 2410,
      "Ġauxin": 2411,
      "ĠLETTER": 2412,
      "ĠIAEA": 2413,
      "emption": 2414,
      "ĠDome": 2415,
      "encana": 2416,
      "LETIN": 2417,
      "oleic": 2418,
      "expression": 2419,
      "Ġrunat": 2420,
      "stas": 2421,
      "Ġnecesit": 2422,
      "Ġseleccion": 2423,
      "ICY": 2424,
      "ĠPopov": 2425,
      "ergate": 2426,
      "ĠWatergate": 2427,
      "icast": 2428,
      "seed": 2429,
      "ómicas": 2430,
      "utig": 2431,
      "ĠVEG": 2432,
      "ضای": 2433,
      "Ġshik": 2434,
      "ĠLCA": 2435,
      "ooled": 2436,
      "uator": 2437,
      "ĠGND": 2438,
      "commit": 2439,
      "avati": 2440,
      "ĠsetTodos": 2441,
      "Aggregate": 2442,
      "ĠSerrurier": 2443,
      "შირ": 2444,
      "ĠCasablanca": 2445,
      "staande": 2446,
      "Ġpension": 2447,
      "чать": 2448,
      "aurants": 2449,
      "Ġadhé": 2450,
      "KC": 2451,
      "ĠOKC": 2452,
      "GONE": 2453,
      "aghi": 2454,
      "Ġэпо": 2455,
      "fahren": 2456,
      "ĠConner": 2457,
      "Ġשלא": 2458,
      "Seq": 2459,
      "Ġწლის": 2460,
      "Ġnaro": 2461,
      "Ġperennials": 2462,
      "Ġcleavage": 2463,
      "ĠShibata": 2464,
      "RODUCTION": 2465,
      "ĠDurant": 2466,
      "cosis": 2467,
      "byte": 2468,
      "umpkin": 2469,
      "jit": 2470,
      "prism": 2471,
      "revoke": 2472,
      "Ġtriumph": 2473,
      "ĠSpokes": 2474,
      "ĠVisc": 2475,
      "ĠVisconti": 2476,
      "òn": 2477,
      "ĠGuard": 2478,
      "Ġrendel": 2479,
      "ĠMurdoch": 2480,
      "ĠCut": 2481,
      "ivez": 2482,
      "hamdulillah": 2483,
      "Ġیورپی": 2484,
      "ĠAdapterView": 2485,
      "äten": 2486,
      "士尼": 2487,
      "迪士尼": 2488,
      "ĠPogba": 2489,
      "Ġהראשון": 2490,
      "Ġincar": 2491,
      "iciously": 2492,
      "controller": 2493,
      "ĠPolynucleaires": 2494,
      "ĠMayfield": 2495,
      "ĠNavarra": 2496,
      "éraire": 2497,
      "FactoryBean": 2498,
      "wendungen": 2499,
      "branch": 2500,
      "ĠEuropeans": 2501,
      "Ġneoclassical": 2502,
      "larına": 2503,
      "cribe": 2504,
      "قای": 2505,
      "گو": 2506,
      "Ġآقای": 2507,
      "Ġگفتگو": 2508,
      "Ġwysok": 2509,
      "ĠSheld": 2510,
      "espoir": 2511,
      "ĠStarSXmlClass": 2512,
      "ĠSheldon": 2513,
      "Ġmérid": 2514,
      "ĠPiccadilly": 2515,
      "ريبا": 2516,
      "ĠOAuth": 2517,
      "arlas": 2518,
      "Ġepoxide": 2519,
      "Ġdegassing": 2520,
      "ORMAL": 2521,
      "كتور": 2522,
      "Ġcaver": 2523,
      "Ġstrom": 2524,
      "Ġoči": 2525,
      "FormData": 2526,
      "отя": 2527,
      "annter": 2528,
      "VIDENCE": 2529,
      "eś": 2530,
      "łeś": 2531,
      "NSY": 2532,
      "NCc": 2533,
      "znej": 2534,
      "assian": 2535,
      "ITECTURE": 2536,
      "gota": 2537,
      "Ġgermanium": 2538,
      "Ġoffices": 2539,
      "Ġprit": 2540,
      "Ġwarmest": 2541,
      "Ġlaga": 2542,
      "Ġразви": 2543,
      "ĠFarn": 2544,
      "куда": 2545,
      "kowego": 2546,
      "Ġsalicylate": 2547,
      "urende": 2548,
      "oveTo": 2549,
      "Hour": 2550,
      "isSignedIn": 2551,
      "ĠEditorGUILayout": 2552,
      "Ġtoner": 2553,
      "ĠTorrent": 2554,
      "Ġdassanato": 2555,
      "Ġkuv": 2556,
      "Ġbutterfly": 2557,
      "ĠPerfect": 2558,
      "StopTime": 2559,
      "Ġlacus": 2560,
      "ĠFEC": 2561,
      "Ġبمع": 2562,
      "Ġvollständ": 2563,
      "nivers": 2564,
      "ĠLipp": 2565,
      "ĠKIR": 2566,
      "Proc": 2567,
      "ĠsetError": 2568,
      "ĠWndProc": 2569,
      "Ġhomologous": 2570,
      "目的": 2571,
      "embr": 2572,
      "SEE": 2573,
      "orpio": 2574,
      "Ġtrabalh": 2575,
      "ĠMortal": 2576,
      "ocyst": 2577,
      "Ġreciprocity": 2578,
      "lipse": 2579,
      "ĠSnackbar": 2580,
      "นำ": 2581,
      "をして": 2582,
      "ică": 2583,
      "Ġпокры": 2584,
      "Ġhereto": 2585,
      "Ġforts": 2586,
      "leitung": 2587,
      "ladesh": 2588,
      "chini": 2589,
      "abut": 2590,
      "ĠFung": 2591,
      "Ġlicenci": 2592,
      "юда": 2593,
      "opies": 2594,
      "Ġσύ": 2595,
      "Ġsnart": 2596,
      "Ġtaut": 2597,
      "ĠFed": 2598,
      "itmen": 2599,
      "ĠRitter": 2600,
      "ĠLuft": 2601,
      "ĠtextAppearance": 2602,
      "Ġvattum": 2603,
      "ĠHail": 2604,
      "Ġگوش": 2605,
      "Ġہاکی": 2606,
      "ície": 2607,
      "Ġperfused": 2608,
      "Ġsesize": 2609,
      "Ġmotors": 2610,
      "ĠChromat": 2611,
      "tuk": 2612,
      "ńskie": 2613,
      "dumbbell": 2614,
      "MESH": 2615,
      "Ġperceptive": 2616,
      "PEAT": 2617,
      "ĠCaedwalla": 2618,
      "тмос": 2619,
      "Ġатмос": 2620,
      "ĠgetBitmap": 2621,
      "TACT": 2622,
      "到时候": 2623,
      "Ġtint": 2624,
      "yya": 2625,
      "Ġالوحده": 2626,
      "ademy": 2627,
      "zték": 2628,
      "Ġdauert": 2629,
      "Ġprocrast": 2630,
      "ieving": 2631,
      "ĠNasr": 2632,
      "ртов": 2633,
      "itics": 2634,
      "ĠSanjay": 2635,
      "ĠCorriere": 2636,
      "idora": 2637,
      "ρεία": 2638,
      "énieur": 2639,
      "Ġреспубли": 2640,
      "Ġrhubarb": 2641,
      "dincer": 2642,
      "ków": 2643,
      "ĠAKP": 2644,
      "Ġestrateg": 2645,
      "RIDES": 2646,
      "Ġopini": 2647,
      "стойчи": 2648,
      "folios": 2649,
      "ĠPersever": 2650,
      "Eden": 2651,
      "ponin": 2652,
      "omely": 2653,
      "ĠMUI": 2654,
      "Ġopos": 2655,
      "Ġđón": 2656,
      "Ġcareg": 2657,
      "ĠNHE": 2658,
      "Ġwort": 2659,
      "Manisha": 2660,
      "WICK": 2661,
      "Ġbard": 2662,
      "Ġlors": 2663,
      "Ġmicrotub": 2664,
      "Ġподоб": 2665,
      "Ġtare": 2666,
      "Ġlesquelles": 2667,
      "ĠEnroll": 2668,
      "Ġhorrid": 2669,
      "Ġdespertar": 2670,
      "vacc": 2671,
      "Ġbimod": 2672,
      "Ġlicz": 2673,
      "ovač": 2674,
      "Ġlevers": 2675,
      "Ġlapsed": 2676,
      "ajn": 2677,
      "Ġیونی": 2678,
      "Stencil": 2679,
      "Ġabyatt": 2680,
      "ĠSchell": 2681,
      "Ġпрепарат": 2682,
      "Ġexcl": 2683,
      "setParameter": 2684,
      "Ġδυνα": 2685,
      "Ġmåtte": 2686,
      "ĠWochen": 2687,
      "iped": 2688,
      "uisine": 2689,
      "Ġuninter": 2690,
      "pośred": 2691,
      "Ġrecoge": 2692,
      "ueless": 2693,
      "ترك": 2694,
      "ĠKamath": 2695,
      "ĠlineColorSpace": 2696,
      "ĠProdukt": 2697,
      "ogiri": 2698,
      "ĠNub": 2699,
      "saint": 2700,
      "baidu": 2701,
      "Ġhandcuffed": 2702,
      "theit": 2703,
      "начала": 2704,
      "yeon": 2705,
      "Ġdisple": 2706,
      "Ġoss": 2707,
      "Ġsunken": 2708,
      "Ġintu": 2709,
      "Ġmúsc": 2710,
      "Ġatop": 2711,
      "ĠBuen": 2712,
      "ishman": 2713,
      "Ġsulfonic": 2714,
      "Ġcolis": 2715,
      "ĠAyurvedic": 2716,
      "喜欢": 2717,
      "ĠLeno": 2718,
      "перь": 2719,
      "Ġклавиа": 2720,
      "prit": 2721,
      "ĠWitherspoon": 2722,
      "Ġpartout": 2723,
      "Ġdignissimos": 2724,
      "Ġtransients": 2725,
      "aniel": 2726,
      "jective": 2727,
      "Ġtailings": 2728,
      "ĠJesuits": 2729,
      "ĠLilly": 2730,
      "Ġafar": 2731,
      "плу": 2732,
      "ĠOliveira": 2733,
      "hors": 2734,
      "ĠGaler": 2735,
      "SizeType": 2736,
      "Ġfamig": 2737,
      "atribut": 2738,
      "ccccn": 2739,
      "TINGS": 2740,
      "Ġwst": 2741,
      "sebastian": 2742,
      "Ġhine": 2743,
      "ĠChesterfield": 2744,
      "ogna": 2745,
      "处理": 2746,
      "люми": 2747,
      "Ġparabol": 2748,
      "icits": 2749,
      "стати": 2750,
      "dual": 2751,
      "ĠbookService": 2752,
      "urte": 2753,
      "agor": 2754,
      "ĠversionName": 2755,
      "Ġbada": 2756,
      "ĠBPM": 2757,
      "Ġkereszt": 2758,
      "video": 2759,
      "ĠRPC": 2760,
      "Ġhoi": 2761,
      "ĠNRC": 2762,
      "نج": 2763,
      "leza": 2764,
      "Ġويا": 2765,
      "nyk": 2766,
      "Ġtoot": 2767,
      "discipl": 2768,
      "ĠBragg": 2769,
      "ánchez": 2770,
      "Ġpeker": 2771,
      "Ġcharm": 2772,
      "Ġentsche": 2773,
      "ляти": 2774,
      "Ġякий": 2775,
      "Ġnose": 2776,
      "ĠandDevice": 2777,
      "Ġundertake": 2778,
      "āju": 2779,
      "advert": 2780,
      "ĠVás": 2781,
      "COCH": 2782,
      "ĠMatsuda": 2783,
      "IDS": 2784,
      "Ġoch": 2785,
      "Ġangiotensin": 2786,
      "uruh": 2787,
      "subkey": 2788,
      "Ġizd": 2789,
      "Ġавтоматтарын": 2790,
      "いった": 2791,
      "Ġобнов": 2792,
      "Ġemblem": 2793,
      "lepas": 2794,
      "朋友圈": 2795,
      "ahili": 2796,
      "umbuhan": 2797,
      "ποίηση": 2798,
      "дили": 2799,
      "ĠcurNode": 2800,
      "Ġbeant": 2801,
      "lots": 2802,
      "ĠRhonda": 2803,
      "ĠMichel": 2804,
      "рда": 2805,
      "Ġnắng": 2806,
      "Ġalias": 2807,
      "getStock": 2808,
      "SqlServer": 2809,
      "Ġstren": 2810,
      "glichen": 2811,
      "Ġtelemetry": 2812,
      "Ġالصل": 2813,
      "Ġஆ": 2814,
      "Sego": 2815,
      "ĠMcM": 2816,
      "Ġréaliser": 2817,
      "Segoe": 2818,
      "Ġмат": 2819,
      "Ġunderstand": 2820,
      "harmonic": 2821,
      "Ġmekan": 2822,
      "alarına": 2823,
      "Ġstratég": 2824,
      "êmio": 2825,
      "ĠJohansson": 2826,
      "Ġacess": 2827,
      "Ġروح": 2828,
      "ĠRönt": 2829,
      "Ġязык": 2830,
      "ĠRöntgen": 2831,
      "hko": 2832,
      "Ġрын": 2833,
      "ĠHttpServer": 2834,
      "ĠBarclay": 2835,
      "Ġgis": 2836,
      "upta": 2837,
      "ĠClément": 2838,
      "Ġayn": 2839,
      "Ġوالاست": 2840,
      "ĠHayes": 2841,
      "instagood": 2842,
      "onaldo": 2843,
      "Ġдруги": 2844,
      "ĠStyleSheet": 2845,
      "ĠGillian": 2846,
      "PILE": 2847,
      "Ġмиллиар": 2848,
      "ický": 2849,
      "adaan": 2850,
      "Ġويت": 2851,
      "ĠFlinders": 2852,
      "Ġвиправи": 2853,
      "ĠSöz": 2854,
      "FromArray": 2855,
      "urk": 2856,
      "Ġخودم": 2857,
      "Ġestup": 2858,
      "DataLoader": 2859,
      "Ġプラス": 2860,
      "ondan": 2861,
      "ĠIgnacio": 2862,
      "Ġchị": 2863,
      "Ġamaz": 2864,
      "fileTool": 2865,
      "ĠKingsley": 2866,
      "nlm": 2867,
      "ĠAbub": 2868,
      "Ġguineas": 2869,
      "Ġrectifier": 2870,
      "CCCCCC": 2871,
      "Ġstraws": 2872,
      "шла": 2873,
      "VIT": 2874,
      "寄せ": 2875,
      "取り寄せ": 2876,
      "ĠIOError": 2877,
      "Ġhumili": 2878,
      "Started": 2879,
      "Ġmortem": 2880,
      "clang": 2881,
      "WHERE": 2882,
      "currentIndex": 2883,
      "went": 2884,
      "റയ": 2885,
      "Ġcurse": 2886,
      "FFSET": 2887,
      "ĠBhatt": 2888,
      "ĠBorderRadius": 2889,
      "Ġപറയ": 2890,
      "isle": 2891,
      "ĠCaliforn": 2892,
      "ĠNatalia": 2893,
      "unarod": 2894,
      "ائيه": 2895,
      "ĠNası": 2896,
      "タップ": 2897,
      "Ġsii": 2898,
      "Ġvenom": 2899,
      "ĠKrish": 2900,
      "Ġprostaglandins": 2901,
      "Ġвикориста": 2902,
      "aduct": 2903,
      "Ġretr": 2904,
      "Ġprensa": 2905,
      "ریان": 2906,
      "goài": 2907,
      "ModelAttribute": 2908,
      "ocrine": 2909,
      "Ġакку": 2910,
      "Ġпредполага": 2911,
      "nungen": 2912,
      "Ġrabies": 2913,
      "osos": 2914,
      "ĠInfine": 2915,
      "daki": 2916,
      "Ġmoc": 2917,
      "Ġالوق": 2918,
      "Ġהיי": 2919,
      "erly": 2920,
      "Ġaesthet": 2921,
      "ربون": 2922,
      "Ġaesthetically": 2923,
      "Ġdui": 2924,
      "endpoint": 2925,
      "flix": 2926,
      "arians": 2927,
      "avers": 2928,
      "ĠdefaultConfig": 2929,
      "Ġgodziny": 2930,
      "ysed": 2931,
      "Ġaque": 2932,
      "Ġminimal": 2933,
      "Ġarmature": 2934,
      "ágenes": 2935,
      "ĠAAP": 2936,
      "Ġdisband": 2937,
      "JsonResponse": 2938,
      "Ġinglesa": 2939,
      "oyeva": 2940,
      "зера": 2941,
      "ĠLyapunov": 2942,
      "阿里": 2943,
      "Ġtsunami": 2944,
      "Ġнарод": 2945,
      "Localized": 2946,
      "adle": 2947,
      "Ġostr": 2948,
      "maw": 2949,
      "ĠVRS": 2950,
      "Ġformat": 2951,
      "Ġglad": 2952,
      "currentToken": 2953,
      "AFD": 2954,
      "ibm": 2955,
      "pam": 2956,
      "rizione": 2957,
      "ĠVou": 2958,
      "ELLE": 2959,
      "ĠTac": 2960,
      "Ġcoi": 2961,
      "Ġdelen": 2962,
      "ĠParigi": 2963,
      "Ġን": 2964,
      "Ġ따": 2965,
      "ጥረ": 2966,
      "ĠCardin": 2967,
      "Ġንጥረ": 2968,
      "ĠCardinals": 2969,
      "SOs": 2970,
      "Ġväl": 2971,
      "Ġslams": 2972,
      "Ġpią": 2973,
      "Ġrank": 2974,
      "anjian": 2975,
      "katan": 2976,
      "mäßig": 2977,
      "luk": 2978,
      "Spare": 2979,
      "ĠRwand": 2980,
      "ĠOtis": 2981,
      "rawberry": 2982,
      "მოს": 2983,
      "inars": 2984,
      "okovic": 2985,
      "ĠParagu": 2986,
      "Ġalkalo": 2987,
      "Ġalkaloids": 2988,
      "ĠNSObject": 2989,
      "Ġhöch": 2990,
      "ĠEuchar": 2991,
      "Ġferro": 2992,
      "etragen": 2993,
      "icultura": 2994,
      "Ġداد": 2995,
      "prepareStatement": 2996,
      "Ġخاطر": 2997,
      "ĠKartik": 2998,
      "Allison": 2999,
      "ĠVIC": 3000,
      "Ġspieg": 3001,
      "HttpMessage": 3002,
      "stelle": 3003,
      "cobra": 3004,
      "єкт": 3005,
      "也就是": 3006,
      "сная": 3007,
      "ĠOUT": 3008,
      "现在": 3009,
      "linkhttpwwwpond": 3010,
      "ERRORTYPE": 3011,
      "ubo": 3012,
      "ĠPakistani": 3013,
      "ĠPenguins": 3014,
      "ĠSQLAlchemy": 3015,
      "新た": 3016,
      "otene": 3017,
      "اضره": 3018,
      "dle": 3019,
      "Ġguér": 3020,
      "やす": 3021,
      "leşik": 3022,
      "сев": 3023,
      "GLISH": 3024,
      "ograd": 3025,
      "тии": 3026,
      "epher": 3027,
      "parametric": 3028,
      "constraintlayout": 3029,
      "ĠConvert": 3030,
      "Ġimpresses": 3031,
      "Ġhypothes": 3032,
      "Hoch": 3033,
      "ĠOSA": 3034,
      "Ġایل": 3035,
      "Ġصاح": 3036,
      "vit": 3037,
      "adari": 3038,
      "ajuan": 3039,
      "ĠSoph": 3040,
      "Ġговорит": 3041,
      "ĠCote": 3042,
      "ezing": 3043,
      "Ġasyncio": 3044,
      "čkog": 3045,
      "Ġbrok": 3046,
      "یٹ": 3047,
      "Ġڈیٹ": 3048,
      "ĠBosco": 3049,
      "Ġsubsidies": 3050,
      "ĠPembroke": 3051,
      "avasti": 3052,
      "pair": 3053,
      "Ġgrit": 3054,
      "Ġquail": 3055,
      "Ġexpires": 3056,
      "tobago": 3057,
      "Ġindol": 3058,
      "ينه": 3059,
      "Ġадре": 3060,
      "amethasone": 3061,
      "jno": 3062,
      "ĠMoab": 3063,
      "ĠFroome": 3064,
      "golang": 3065,
      "Ġprosciutto": 3066,
      "Ġjsx": 3067,
      "ทอง": 3068,
      "ungsl": 3069,
      "Ġconstat": 3070,
      "Ġwyją": 3071,
      "Zach": 3072,
      "uettes": 3073,
      "Ġfacade": 3074,
      "意味着": 3075,
      "rein": 3076,
      "ĠKhao": 3077,
      "iança": 3078,
      "Ġбош": 3079,
      "부분": 3080,
      "isAssignableFrom": 3081,
      "lasm": 3082,
      "Ġpolymorphic": 3083,
      "Ġکرا": 3084,
      "Ġliteral": 3085,
      "Ġeuropeos": 3086,
      "ĠArjuna": 3087,
      "ĠИль": 3088,
      "Juvent": 3089,
      "Ġopcode": 3090,
      "Juventus": 3091,
      "Ġnaa": 3092,
      "Ġتلف": 3093,
      "Ġسەر": 3094,
      "キッチン": 3095,
      "utra": 3096,
      "pern": 3097,
      "ĠPakistan": 3098,
      "atam": 3099,
      "ыска": 3100,
      "Ġreaffirm": 3101,
      "シャツ": 3102,
      "ĠSlim": 3103,
      "opherol": 3104,
      "ijom": 3105,
      "Ġbronchi": 3106,
      "Ġراست": 3107,
      "alanya": 3108,
      "Ġchocol": 3109,
      "กรม": 3110,
      "ĠKhark": 3111,
      "getPackageName": 3112,
      "Ġżyc": 3113,
      "Witt": 3114,
      "ĠGee": 3115,
      "iamiento": 3116,
      "ĠGus": 3117,
      "стову": 3118,
      "Ġвикористову": 3119,
      "nCount": 3120,
      "Ġazért": 3121,
      "ĠVettel": 3122,
      "ناصر": 3123,
      "Ġeyep": 3124,
      "ĠEspecial": 3125,
      "ĠgetUserBy": 3126,
      "Ġecoexpr": 3127,
      "Ġسالم": 3128,
      "uitse": 3129,
      "θεν": 3130,
      "Ġendere": 3131,
      "Ġrámci": 3132,
      "Standalone": 3133,
      "Ġакча": 3134,
      "らない": 3135,
      "Ġbiss": 3136,
      "сион": 3137,
      "Ġنفسي": 3138,
      "そもそも": 3139,
      "īgi": 3140,
      "sterd": 3141,
      "sterdam": 3142,
      "hans": 3143,
      "ënt": 3144,
      "esians": 3145,
      "ĠEphesians": 3146,
      "ĠGuinea": 3147,
      "してみてください": 3148,
      "łych": 3149,
      "OTO": 3150,
      "ĠplayerScore": 3151,
      "гах": 3152,
      "ayouts": 3153,
      "gge": 3154,
      "Ġscand": 3155,
      "URACY": 3156,
      "rtel": 3157,
      "batasan": 3158,
      "OLINA": 3159,
      "Ġsyphilit": 3160,
      "ĠSyrians": 3161,
      "pickMenu": 3162,
      "Ġчином": 3163,
      "Ġveloce": 3164,
      "podob": 3165,
      "Ġمک": 3166,
      "ASD": 3167,
      "Ġmultipl": 3168,
      "Ġsurfact": 3169,
      "ĠPeaceful": 3170,
      "ĠScotia": 3171,
      "gulp": 3172,
      "NER": 3173,
      "Ġvliegt": 3174,
      "Ġnajlepiej": 3175,
      "манда": 3176,
      "ombasa": 3177,
      "zneim": 3178,
      "Ġfacile": 3179,
      "Ġgenießen": 3180,
      "Ġpavattati": 3181,
      "ĠHOMO": 3182,
      "addir": 3183,
      "ĠVerwalt": 3184,
      "Ġpdb": 3185,
      "vVertex": 3186,
      "Ġስ": 3187,
      "iomanip": 3188,
      "ività": 3189,
      "hasa": 3190,
      "ĠROY": 3191,
      "renderSquare": 3192,
      "Kraft": 3193,
      "gamma": 3194,
      "щин": 3195,
      "Neil": 3196,
      "SAFERELEASESTR": 3197,
      "ĠCALLBACK": 3198,
      "менить": 3199,
      "ĠReginald": 3200,
      "pectral": 3201,
      "ServerError": 3202,
      "łości": 3203,
      "Ingrese": 3204,
      "Ġcudd": 3205,
      "addOn": 3206,
      "nex": 3207,
      "ĠNinh": 3208,
      "ĠGPL": 3209,
      "Ġvars": 3210,
      "ティスト": 3211,
      "iseite": 3212,
      "łość": 3213,
      "isempty": 3214,
      "CTL": 3215,
      "Ġoan": 3216,
      "الغ": 3217,
      "rimps": 3218,
      "Ġchipset": 3219,
      "Ġlängst": 3220,
      "ĠSpan": 3221,
      "在中国": 3222,
      "heres": 3223,
      "Ġرکھتا": 3224,
      "Ġgarner": 3225,
      "Ġドライ": 3226,
      "ĠHold": 3227,
      "anians": 3228,
      "ĠCNA": 3229,
      "Ġcomprim": 3230,
      "Ġsandalwood": 3231,
      "Mood": 3232,
      "lei": 3233,
      "ĠSolaris": 3234,
      "Ġperox": 3235,
      "Ġазо": 3236,
      "ĠUlster": 3237,
      "Ġsampah": 3238,
      "イナー": 3239,
      "Ġcuda": 3240,
      "Transfer": 3241,
      "ĠDISCLAIM": 3242,
      "ostante": 3243,
      "BarButtonItem": 3244,
      "стоян": 3245,
      "cosa": 3246,
      "Discipl": 3247,
      "riften": 3248,
      "ĠDoppler": 3249,
      "Ġformalized": 3250,
      "Ġbackdoor": 3251,
      "جاد": 3252,
      "Ġadquir": 3253,
      "ضو": 3254,
      "NotFoundError": 3255,
      "scribed": 3256,
      "ภาย": 3257,
      "coup": 3258,
      "سال": 3259,
      "λία": 3260,
      "enye": 3261,
      "Dependencies": 3262,
      "קות": 3263,
      "Ġبح": 3264,
      "ĠGoldsmith": 3265,
      "MiddleLine": 3266,
      "Ġtiki": 3267,
      "ĠaddTodo": 3268,
      "ędzy": 3269,
      "Ġconcentric": 3270,
      "CCOCC": 3271,
      "Ġønsk": 3272,
      "ANGE": 3273,
      "olarmente": 3274,
      "zilla": 3275,
      "insp": 3276,
      "ĠKak": 3277,
      "Ġaffid": 3278,
      "erapia": 3279,
      "Ġgens": 3280,
      "Ġخدا": 3281,
      "Ġcondi": 3282,
      "Ġmalonyl": 3283,
      "Ġува": 3284,
      "Ġnewly": 3285,
      "culis": 3286,
      "odio": 3287,
      "Ġcourage": 3288,
      "macher": 3289,
      "iega": 3290,
      "Ġteapot": 3291,
      "anyahu": 3292,
      "Ġvergleich": 3293,
      "ĠThak": 3294,
      "произ": 3295,
      "Ġsıral": 3296,
      "ĠÄnder": 3297,
      "inoff": 3298,
      "cameraId": 3299,
      "Ġwaveplay": 3300,
      "ĠCarly": 3301,
      "Ġtätig": 3302,
      "érable": 3303,
      "coOrdinateTuple": 3304,
      "Ġsuperflu": 3305,
      "té": 3306,
      "Ġabsch": 3307,
      "Epis": 3308,
      "atá": 3309,
      "ląd": 3310,
      "Ġmower": 3311,
      "ĠLup": 3312,
      "Ġinvigor": 3313,
      "party": 3314,
      "elter": 3315,
      "izieren": 3316,
      "uline": 3317,
      "ogChoice": 3318,
      "ltu": 3319,
      "Ġporro": 3320,
      "واج": 3321,
      "Ġالجديد": 3322,
      "ĠVersailles": 3323,
      "CONT": 3324,
      "Appear": 3325,
      "imov": 3326,
      "ĠMorm": 3327,
      "ธาน": 3328,
      "ĠPunj": 3329,
      "рики": 3330,
      "occupied": 3331,
      "pn": 3332,
      "щност": 3333,
      "ĠJpn": 3334,
      "вається": 3335,
      "лете": 3336,
      "Ġconvivial": 3337,
      "Ġქ": 3338,
      "lema": 3339,
      "article": 3340,
      "ĠLocalDate": 3341,
      "Ġქვე": 3342,
      "Checking": 3343,
      "browserTarget": 3344,
      "aign": 3345,
      "یتی": 3346,
      "ikala": 3347,
      "Ġconvection": 3348,
      "asto": 3349,
      "ייה": 3350,
      "shapeColor": 3351,
      "чеб": 3352,
      "pSensor": 3353,
      "Ġtav": 3354,
      "romed": 3355,
      "Ġaccred": 3356,
      "inhas": 3357,
      "Ġaccent": 3358,
      "ĠcheckHDROffsets": 3359,
      "Ġeprint": 3360,
      "textSize": 3361,
      "ĠCroatian": 3362,
      "Ġeprintln": 3363,
      "Ġキャ": 3364,
      "elder": 3365,
      "Ġverseny": 3366,
      "деть": 3367,
      "ocf": 3368,
      "ennia": 3369,
      "essoas": 3370,
      "WeekDates": 3371,
      "Ġinadequ": 3372,
      "Ġfacult": 3373,
      "Ġtherewith": 3374,
      "ĠVee": 3375,
      "Ġjabs": 3376,
      "Ġ영": 3377,
      "ĠBish": 3378,
      "Ġvang": 3379,
      "TargetFramework": 3380,
      "ĠDEAL": 3381,
      "ĠListTile": 3382,
      "Ġtia": 3383,
      "ĠVIT": 3384,
      "ĠChatur": 3385,
      "Ġtrampled": 3386,
      "Ġgiác": 3387,
      "Watercolor": 3388,
      "allery": 3389,
      "ولد": 3390,
      "Ġutak": 3391,
      "selectTableX": 3392,
      "ĠJPG": 3393,
      "Ġособен": 3394,
      "Ġréalisé": 3395,
      "adah": 3396,
      "جري": 3397,
      "Ġadqu": 3398,
      "ĠAshraf": 3399,
      "charged": 3400,
      "ĠBacter": 3401,
      "Ġdiscourag": 3402,
      "ticker": 3403,
      "ezas": 3404,
      "dropout": 3405,
      "Ġroost": 3406,
      "Ġmeneg": 3407,
      "ĠCOUR": 3408,
      "Ġlife": 3409,
      "ynet": 3410,
      "пил": 3411,
      "Ġreprehenderit": 3412,
      "광역": 3413,
      "igators": 3414,
      "광역시": 3415,
      "ĠCBI": 3416,
      "ĠMAR": 3417,
      "ĠPrav": 3418,
      "нун": 3419,
      "ĠAbel": 3420,
      "ĠEstonian": 3421,
      "Ġdiscuss": 3422,
      "łącznie": 3423,
      "Ġvong": 3424,
      "Ġsativa": 3425,
      "szlig": 3426,
      "таки": 3427,
      "digest": 3428,
      "Tram": 3429,
      "ĠROUILLER": 3430,
      "Ġül": 3431,
      "ĠDBox": 3432,
      "Ġآثار": 3433,
      "fromUtf": 3434,
      "Ġpół": 3435,
      "ĠExifInterface": 3436,
      "oresizing": 3437,
      "MODKEY": 3438,
      "ندس": 3439,
      "Picture": 3440,
      "setWindowTitle": 3441,
      "ĠTully": 3442,
      "riera": 3443,
      "ĠFannie": 3444,
      "infra": 3445,
      "ĠJudd": 3446,
      "Ġinquis": 3447,
      "ĠJohor": 3448,
      "IMO": 3449,
      "Pou": 3450,
      "Ġbuz": 3451,
      "Ġscrum": 3452,
      "ophytes": 3453,
      "CustomerID": 3454,
      "ulers": 3455,
      "getRuntime": 3456,
      "ĠDoha": 3457,
      "Ġincapacity": 3458,
      "ĠCir": 3459,
      "gever": 3460,
      "rekken": 3461,
      "Ġpulver": 3462,
      "idor": 3463,
      "yesi": 3464,
      "Ġbanal": 3465,
      "varnothing": 3466,
      "人的": 3467,
      "Ġimpot": 3468,
      "groom": 3469,
      "issati": 3470,
      "information": 3471,
      "ĠVaran": 3472,
      "nesia": 3473,
      "ĠReck": 3474,
      "ĠCorners": 3475,
      "aS": 3476,
      "ョン": 3477,
      "ĠHank": 3478,
      "Ġslam": 3479,
      "ĠТе": 3480,
      "ĠREPOR": 3481,
      "ĠNahrung": 3482,
      "ĠWiggins": 3483,
      "iffin": 3484,
      "Ġassort": 3485,
      "Ġpropor": 3486,
      "uthi": 3487,
      "textFont": 3488,
      "Ġκαν": 3489,
      "ذهب": 3490,
      "yil": 3491,
      "riva": 3492,
      "ĠBasil": 3493,
      "ĠGilead": 3494,
      "ĠTark": 3495,
      "FormatException": 3496,
      "ĠdSampleHeight": 3497,
      "SOM": 3498,
      "Ġnahi": 3499,
      "حبه": 3500,
      "compId": 3501,
      "PHPExcel": 3502,
      "ストレ": 3503,
      "Ġpagal": 3504,
      "Ġzeroes": 3505,
      "kraft": 3506,
      "ĠWaterloo": 3507,
      "Ġخلاف": 3508,
      "ĠMarjorie": 3509,
      "ugees": 3510,
      "baseAuth": 3511,
      "Ġrearranging": 3512,
      "زمان": 3513,
      "Ġtai": 3514,
      "ynyt": 3515,
      "Ġkahe": 3516,
      "ĠTreg": 3517,
      "Ġspilled": 3518,
      "ĠSwann": 3519,
      "ĠMalang": 3520,
      "Ġمنصوب": 3521,
      "ĠEtappe": 3522,
      "ĠresetButton": 3523,
      "خب": 3524,
      "ĠRac": 3525,
      "ĠConch": 3526,
      "τικό": 3527,
      "Ġاولمپ": 3528,
      "ادہ": 3529,
      "ĠPeralta": 3530,
      "ökk": 3531,
      "Ġfox": 3532,
      "Mot": 3533,
      "álne": 3534,
      "TrackedDevice": 3535,
      "schr": 3536,
      "Ġsmother": 3537,
      "ークル": 3538,
      "Ġrutrum": 3539,
      "rona": 3540,
      "Ġклу": 3541,
      "isio": 3542,
      "ĠGSR": 3543,
      "quele": 3544,
      "Ġconhe": 3545,
      "ĠTomlinson": 3546,
      "Ġمحک": 3547,
      "reti": 3548,
      "راءة": 3549,
      "maan": 3550,
      "Ġpropagate": 3551,
      "ĠMushrooms": 3552,
      "Ġبتساوي": 3553,
      "tope": 3554,
      "луйста": 3555,
      "łasz": 3556,
      "ĠTabor": 3557,
      "Ġнаход": 3558,
      "Ġペンダント": 3559,
      "inositol": 3560,
      "Ġالتربيع": 3561,
      "Yun": 3562,
      "ijj": 3563,
      "CCP": 3564,
      "Ġtorsional": 3565,
      "Вакансия": 3566,
      "Ġخاندان": 3567,
      "Ġesempl": 3568,
      "sadurdu": 3569,
      "Ġembroiled": 3570,
      "今日": 3571,
      "ຖານ": 3572,
      "Ġdungeon": 3573,
      "Ġcerte": 3574,
      "Ġدرصد": 3575,
      "Ġcelé": 3576,
      "usis": 3577,
      "Adm": 3578,
      "ĠNRG": 3579,
      "Ġгор": 3580,
      "Ġautophagy": 3581,
      "ってい": 3582,
      "AppComponent": 3583,
      "Ġchemokine": 3584,
      "Ġhysteresis": 3585,
      "ĠHMAC": 3586,
      "觉得": 3587,
      "Ġbounding": 3588,
      "Ġboric": 3589,
      "Ġinvertible": 3590,
      "стройка": 3591,
      "ĠHSA": 3592,
      "interest": 3593,
      "ĠPrussians": 3594,
      "Ġподписа": 3595,
      "ĠFlexstr": 3596,
      "ĠSusanne": 3597,
      "centes": 3598,
      "Ġduck": 3599,
      "Ġcoqu": 3600,
      "ĠHAC": 3601,
      "ĠIRA": 3602,
      "adece": 3603,
      "meter": 3604,
      "igual": 3605,
      "tempor": 3606,
      "mlst": 3607,
      "Ġمذہبی": 3608,
      "rije": 3609,
      "Ġspying": 3610,
      "videmment": 3611,
      "Ġкрайней": 3612,
      "utia": 3613,
      "Ġинфра": 3614,
      "artis": 3615,
      "мыми": 3616,
      "Ġnonstop": 3617,
      "Ġurt": 3618,
      "راحة": 3619,
      "drone": 3620,
      "նել": 3621,
      "Ġmaíz": 3622,
      "Loaded": 3623,
      "infodisc": 3624,
      "orters": 3625,
      "Ġtrich": 3626,
      "Ġaws": 3627,
      "Ġdiscontinuation": 3628,
      "Ġआजम": 3629,
      "игра": 3630,
      "exclude": 3631,
      "Ġpalabras": 3632,
      "amyl": 3633,
      "fieldContext": 3634,
      "ĠnumOf": 3635,
      "stero": 3636,
      "Ġundetermined": 3637,
      "ĠKxa": 3638,
      "steroidal": 3639,
      "Ġobses": 3640,
      "ĠArabidopsis": 3641,
      "と考え": 3642,
      "ĠRasterModelGrid": 3643,
      "cił": 3644,
      "Ġambul": 3645,
      "origin": 3646,
      "stitutions": 3647,
      "ĠFanDuel": 3648,
      "ikoa": 3649,
      "ORTS": 3650,
      "Ġmaio": 3651,
      "Ġconsta": 3652,
      "なります": 3653,
      "ĠJacob": 3654,
      "gaxModule": 3655,
      "apetiti": 3656,
      "Ġentf": 3657,
      "mouseover": 3658,
      "ĠBAS": 3659,
      "toh": 3660,
      "ević": 3661,
      "Ġന": 3662,
      "ahrag": 3663,
      "rimidine": 3664,
      "ahraga": 3665,
      "ĠUIView": 3666,
      "ANIM": 3667,
      "Ġразме": 3668,
      "Ġdeğer": 3669,
      "udni": 3670,
      "hteet": 3671,
      "ingModule": 3672,
      "ране": 3673,
      "apanese": 3674,
      "وبات": 3675,
      "owanie": 3676,
      "ukebox": 3677,
      "uttu": 3678,
      "insuku": 3679,
      "handleChange": 3680,
      "Ġinol": 3681,
      "cline": 3682,
      "ởi": 3683,
      "quả": 3684,
      "settes": 3685,
      "Ġwallet": 3686,
      "Ġforskj": 3687,
      "aholic": 3688,
      "Fluent": 3689,
      "Ġsplenic": 3690,
      "ĠRedist": 3691,
      "ĠClifton": 3692,
      "Ġquiver": 3693,
      "ehaus": 3694,
      "codehaus": 3695,
      "final": 3696,
      "ĠACH": 3697,
      "ĠACHIE": 3698,
      "ياب": 3699,
      "ParallelGroup": 3700,
      "lée": 3701,
      "Ġyarg": 3702,
      "MQTT": 3703,
      "داری": 3704,
      "proj": 3705,
      "ští": 3706,
      "dsp": 3707,
      "Ġamerikan": 3708,
      "同學": 3709,
      "seye": 3710,
      "vál": 3711,
      "órd": 3712,
      "ኝነት": 3713,
      "Ġziy": 3714,
      "ĠHuo": 3715,
      "ĠPerson": 3716,
      "Ġcima": 3717,
      "embros": 3718,
      "ĠHeter": 3719,
      "Ġunil": 3720,
      "ĠZuma": 3721,
      "ĠImplement": 3722,
      "пиа": 3723,
      "Ġdeixou": 3724,
      "GUNDABAD": 3725,
      "hej": 3726,
      "Contain": 3727,
      "ланд": 3728,
      "ĠOpus": 3729,
      "asionally": 3730,
      "thione": 3731,
      "наў": 3732,
      "openhagen": 3733,
      "CORD": 3734,
      "Ġinplace": 3735,
      "Mixin": 3736,
      "ĠVega": 3737,
      "circled": 3738,
      "afs": 3739,
      "Bez": 3740,
      "odimensional": 3741,
      "iedade": 3742,
      "deo": 3743,
      "Ġcuidados": 3744,
      "Ġexcited": 3745,
      "Ġфакт": 3746,
      "нных": 3747,
      "ĠMae": 3748,
      "Ġneural": 3749,
      "Ġundergrad": 3750,
      "Ġsupremac": 3751,
      "insertCell": 3752,
      "bromo": 3753,
      "Ġwhanne": 3754,
      "Ġगरज": 3755,
      "Ġfantastical": 3756,
      "Ġberl": 3757,
      "六章": 3758,
      "十六章": 3759,
      "Ġhideous": 3760,
      "ĠGoll": 3761,
      "Ġпарла": 3762,
      "ĠGarvey": 3763,
      "ĠCEF": 3764,
      "ĠGST": 3765,
      "artney": 3766,
      "Ġoste": 3767,
      "нави": 3768,
      "ĠAlltag": 3769,
      "awcy": 3770,
      "idle": 3771,
      "Ġоформи": 3772,
      "ĠKalyan": 3773,
      "Ġhammer": 3774,
      "hiqdev": 3775,
      "estinal": 3776,
      "Ġresent": 3777,
      "Ġjalap": 3778,
      "ajemen": 3779,
      "setVertical": 3780,
      "Ġterroir": 3781,
      "点セット": 3782,
      "Ġdelves": 3783,
      "ĠKENT": 3784,
      "Ġοποία": 3785,
      "ĠFuncParamNum": 3786,
      "রচ": 3787,
      "ギリ": 3788,
      "ギリス": 3789,
      "міні": 3790,
      "etos": 3791,
      "ĠDST": 3792,
      "renees": 3793,
      "aghe": 3794,
      "чила": 3795,
      "Lapangan": 3796,
      "мец": 3797,
      "ĠSGS": 3798,
      "ĠPor": 3799,
      "нын": 3800,
      "Ġpersondata": 3801,
      "PictureBox": 3802,
      "ogens": 3803,
      "icity": 3804,
      "ĠVars": 3805,
      "Ġتحریک": 3806,
      "ĠAmazonas": 3807,
      "Ġbatches": 3808,
      "Ġshaw": 3809,
      "VertexBuffer": 3810,
      "ĠBaiklah": 3811,
      "ibol": 3812,
      "oplayer": 3813,
      "Ġönem": 3814,
      "ulah": 3815,
      "ĠWessex": 3816,
      "Ġбоя": 3817,
      "FileName": 3818,
      "ĠEdvard": 3819,
      "Preprocessing": 3820,
      "ulları": 3821,
      "orul": 3822,
      "Ġrappresent": 3823,
      "Busy": 3824,
      "cket": 3825,
      "Следу": 3826,
      "FBSDKInternal": 3827,
      "inelli": 3828,
      "Ġunsaturated": 3829,
      "profitable": 3830,
      "Ġناحيه": 3831,
      "kumar": 3832,
      "rées": 3833,
      "Ġryth": 3834,
      "ĠOkamoto": 3835,
      "Ġsetia": 3836,
      "ĠKnut": 3837,
      "arkhand": 3838,
      "moi": 3839,
      "zyloxy": 3840,
      "deco": 3841,
      "ĠPeabody": 3842,
      "Ġpigg": 3843,
      "setUrl": 3844,
      "Ġαποφ": 3845,
      "Ġpiggy": 3846,
      "ĠAktien": 3847,
      "simpleTriplet": 3848,
      "jda": 3849,
      "ĠОте": 3850,
      "ĠTransform": 3851,
      "Ġylim": 3852,
      "ĠToken": 3853,
      "Ġentourage": 3854,
      "тельном": 3855,
      "Ġڈاک": 3856,
      "uenta": 3857,
      "タイヤ": 3858,
      "ĠAvis": 3859,
      "โก": 3860,
      "ĠHogg": 3861,
      "คองโก": 3862,
      "intFragmentation": 3863,
      "Ġoriginal": 3864,
      "ĠFuture": 3865,
      "Ġڈیز": 3866,
      "Ġahu": 3867,
      "uyết": 3868,
      "Ġvâr": 3869,
      "Ġtired": 3870,
      "ĠPhysi": 3871,
      "Ġperiodista": 3872,
      "Ġbhikkhu": 3873,
      "ULATIONS": 3874,
      "ĠBereits": 3875,
      "ĠInquisition": 3876,
      "Roaming": 3877,
      "ĠGoff": 3878,
      "moil": 3879,
      "PerTrial": 3880,
      "usable": 3881,
      "quirer": 3882,
      "ρίζ": 3883,
      "iduría": 3884,
      "Ġvip": 3885,
      "Ġmub": 3886,
      "Ġшей": 3887,
      "ĠMoi": 3888,
      "اوی": 3889,
      "менти": 3890,
      "Ġقاسمی": 3891,
      "Ġrắn": 3892,
      "ĠuseContext": 3893,
      "ĠIngg": 3894,
      "Ġdeserving": 3895,
      "Ġвелико": 3896,
      "ĠInggris": 3897,
      "σίας": 3898,
      "ĠpathMatch": 3899,
      "ĠDietrich": 3900,
      "amph": 3901,
      "Ġрада": 3902,
      "UMM": 3903,
      "Ġdisgrace": 3904,
      "ною": 3905,
      "کومت": 3906,
      "Ġelett": 3907,
      "pkins": 3908,
      "otp": 3909,
      "Ġshedding": 3910,
      "printStackTrace": 3911,
      "Avoid": 3912,
      "ĠTurt": 3913,
      "ĠTRA": 3914,
      "ĠGATT": 3915,
      "ĠBard": 3916,
      "Ġlearn": 3917,
      "ETO": 3918,
      "AutoHide": 3919,
      "Ġneutralized": 3920,
      "Ġजहर": 3921,
      "eiß": 3922,
      "ddagger": 3923,
      "Ġماشین": 3924,
      "NGC": 3925,
      "的基础": 3926,
      "lemy": 3927,
      "Ġbash": 3928,
      "itôt": 3929,
      "setdefault": 3930,
      "Ġringan": 3931,
      "astype": 3932,
      "ongyang": 3933,
      "ounters": 3934,
      "ĠTobin": 3935,
      "Ġcrian": 3936,
      "Ġcultur": 3937,
      "Ġajout": 3938,
      "existent": 3939,
      "slidesPerGroup": 3940,
      "гови": 3941,
      "tmpobj": 3942,
      "ĠBritton": 3943,
      "Ġklas": 3944,
      "ést": 3945,
      "Ġvượt": 3946,
      "ouard": 3947,
      "шать": 3948,
      "Ġnovembre": 3949,
      "Ġkilomet": 3950,
      "Manip": 3951,
      "Ġpowering": 3952,
      "ĠFraser": 3953,
      "ĠEhrlich": 3954,
      "SMB": 3955,
      "Ġargparse": 3956,
      "ĠMcKinney": 3957,
      "Ġبلوچ": 3958,
      "Simple": 3959,
      "ĠDac": 3960,
      "زين": 3961,
      "riever": 3962,
      "Ġhuts": 3963,
      "Ġпричина": 3964,
      "ĠBeverly": 3965,
      "ĠInglis": 3966,
      "anka": 3967,
      "قرار": 3968,
      "Ġgrunds": 3969,
      "ButtonPressed": 3970,
      "electronics": 3971,
      "Ġpev": 3972,
      "laration": 3973,
      "ĠBedien": 3974,
      "ĠDharmendra": 3975,
      "โล": 3976,
      "ĠScout": 3977,
      "ĠMcKay": 3978,
      "Ġbaix": 3979,
      "ĠGCP": 3980,
      "ĠESL": 3981,
      "Ġméxico": 3982,
      "Ġzucch": 3983,
      "ベリー": 3984,
      "Ġtieto": 3985,
      "ĠShandong": 3986,
      "bitflag": 3987,
      "Ġچیز": 3988,
      "noon": 3989,
      "tral": 3990,
      "ĠEmer": 3991,
      "GBuf": 3992,
      "Ġdinosaur": 3993,
      "ĠLSM": 3994,
      "Ġнейтра": 3995,
      "Ġcah": 3996,
      "ĠBurnham": 3997,
      "estore": 3998,
      "atories": 3999,
      "Ġáll": 4000,
      "lde": 4001,
      "Ġness": 4002,
      "Ġउमर": 4003,
      "ĠMacedonian": 4004,
      "ĠBolívar": 4005,
      "ĠSwans": 4006,
      "ângulo": 4007,
      "Ġrobust": 4008,
      "bulld": 4009,
      "жко": 4010,
      "バージ": 4011,
      "Ġtenets": 4012,
      "ĠTanner": 4013,
      "ĠPriya": 4014,
      "чом": 4015,
      "Петербург": 4016,
      "ĠMcFarland": 4017,
      "Ġdisrespect": 4018,
      "Ġthửa": 4019,
      "ĠsubTestAvg": 4020,
      "Ġtric": 4021,
      "indeterminate": 4022,
      "Ġالمرك": 4023,
      "ĠFrida": 4024,
      "ĠΠ": 4025,
      "ĠBound": 4026,
      "щении": 4027,
      "ikis": 4028,
      "growth": 4029,
      "entities": 4030,
      "ĠCrank": 4031,
      "tey": 4032,
      "seo": 4033,
      "Ġعبدالع": 4034,
      "ĠTianjin": 4035,
      "muj": 4036,
      "ĠKoon": 4037,
      "ühlen": 4038,
      "Ġtarsi": 4039,
      "мень": 4040,
      "Ġulcerative": 4041,
      "Frm": 4042,
      "ecia": 4043,
      "memberNameLink": 4044,
      "akul": 4045,
      "nosti": 4046,
      "ĠGodfather": 4047,
      "Ġseep": 4048,
      "ĠSamir": 4049,
      "Ġanisotropic": 4050,
      "Введите": 4051,
      "existsSync": 4052,
      "ĠErm": 4053,
      "OUSE": 4054,
      "enem": 4055,
      "itemap": 4056,
      "parin": 4057,
      "Ġየሆነ": 4058,
      "ĠBentley": 4059,
      "Ġdaga": 4060,
      "ptir": 4061,
      "Ġоколо": 4062,
      "ĠHosp": 4063,
      "ensibly": 4064,
      "ĠResponse": 4065,
      "Ġwaxaa": 4066,
      "weather": 4067,
      "Ġcór": 4068,
      "Ġtoll": 4069,
      "InstanceManager": 4070,
      "Ġتاني": 4071,
      "LLCATS": 4072,
      "ĠEMERG": 4073,
      "Ġfamiliarize": 4074,
      "ĠKnesset": 4075,
      "ĠKalam": 4076,
      "ERICA": 4077,
      "ètement": 4078,
      "Ġپیچھے": 4079,
      "ĠВікіпедії": 4080,
      "linestyle": 4081,
      "Ġantisense": 4082,
      "ĠRode": 4083,
      "ادرات": 4084,
      "śla": 4085,
      "ździe": 4086,
      "öffnet": 4087,
      "ĠKLE": 4088,
      "ryk": 4089,
      "nouns": 4090,
      "USINESS": 4091,
      "Ġpptn": 4092,
      "ĠcheckFor": 4093,
      "SKY": 4094,
      "tbLabel": 4095,
      "setObjectName": 4096,
      "ândia": 4097,
      "ską": 4098,
      "embrance": 4099,
      "ísimo": 4100,
      "VST": 4101,
      "זרה": 4102,
      "Ġoffice": 4103,
      "ĠCBR": 4104,
      "Ġparalys": 4105,
      "دود": 4106,
      "Ġentusias": 4107,
      "bandit": 4108,
      "คาร": 4109,
      "ĠMSP": 4110,
      "Ġdren": 4111,
      "ĠDene": 4112,
      "Edt": 4113,
      "Ġحمل": 4114,
      "Ġwalkable": 4115,
      "のでしょう": 4116,
      "νας": 4117,
      "arska": 4118,
      "ĠDonne": 4119,
      "Ġpoor": 4120,
      "ĠManohar": 4121,
      "Ġprotein": 4122,
      "וריה": 4123,
      "ertime": 4124,
      "bestroute": 4125,
      "profitLoss": 4126,
      "Ġposthum": 4127,
      "leyici": 4128,
      "ĠОлимпий": 4129,
      "Ġmexican": 4130,
      "PastPositions": 4131,
      "Ġvenezol": 4132,
      "ĠFhir": 4133,
      "impanan": 4134,
      "Samples": 4135,
      "verständ": 4136,
      "ĠClos": 4137,
      "PPh": 4138,
      "Ġcession": 4139,
      "zadeh": 4140,
      "améli": 4141,
      "Ġcambió": 4142,
      "گران": 4143,
      "ĠrequestId": 4144,
      "ĠHendrick": 4145,
      "Ġστιγ": 4146,
      "Mâ": 4147,
      "точной": 4148,
      "Mâc": 4149,
      "ĠBuildableName": 4150,
      "Ġifstream": 4151,
      "Ġcarinatis": 4152,
      "Ġcarav": 4153,
      "ĠTipper": 4154,
      "ĠController": 4155,
      "ografie": 4156,
      "Ġtrụ": 4157,
      "Ġrekla": 4158,
      "omegranate": 4159,
      "zbek": 4160,
      "ĠUzbek": 4161,
      "iletto": 4162,
      "Ġcoriander": 4163,
      "ĠLoz": 4164,
      "icletas": 4165,
      "Advent": 4166,
      "ريف": 4167,
      "ĠMER": 4168,
      "Ġማድረግ": 4169,
      "ĠMERCHANT": 4170,
      "ifeng": 4171,
      "phrase": 4172,
      "Ġفبراير": 4173,
      "ĠRetry": 4174,
      "Ġсъм": 4175,
      "undering": 4176,
      "central": 4177,
      "kner": 4178,
      "ĠFaul": 4179,
      "Ġolmak": 4180,
      "Ġpalust": 4181,
      "deren": 4182,
      "alankan": 4183,
      "Ġmenjalankan": 4184,
      "ĠFaulkner": 4185,
      "Ġvitamine": 4186,
      "Ġdidik": 4187,
      "techn": 4188,
      "chetti": 4189,
      "Authenticate": 4190,
      "Ġdhin": 4191,
      "Ġfactual": 4192,
      "Ġdhinak": 4193,
      "らず": 4194,
      "Ġartistdata": 4195,
      "Ġevitando": 4196,
      "Trimethyl": 4197,
      "かわらず": 4198,
      "Ġللش": 4199,
      "емого": 4200,
      "least": 4201,
      "Ġzemě": 4202,
      "Ġmutagenesis": 4203,
      "managed": 4204,
      "ĠLavin": 4205,
      "ĠCONTAIN": 4206,
      "ĠLavinia": 4207,
      "acidade": 4208,
      "unary": 4209,
      "ElementName": 4210,
      "frameNStart": 4211,
      "Ġconsc": 4212,
      "érir": 4213,
      "Ġsucht": 4214,
      "ĠErich": 4215,
      "Sound": 4216,
      "ĠDataSet": 4217,
      "aný": 4218,
      "getExternal": 4219,
      "HashTable": 4220,
      "ĠBURE": 4221,
      "Ġtrás": 4222,
      "Ġመሳሪያ": 4223,
      "Ġvastaan": 4224,
      "Ġcalam": 4225,
      "Ġindustrial": 4226,
      "Toc": 4227,
      "wpt": 4228,
      "하려": 4229,
      "schule": 4230,
      "ofo": 4231,
      "Ġkörül": 4232,
      "hk": 4233,
      "ĠVilliers": 4234,
      "iqi": 4235,
      "hkse": 4236,
      "Ġआइट": 4237,
      "zarchiwizowane": 4238,
      "әне": 4239,
      "endees": 4240,
      "rž": 4241,
      "Foundation": 4242,
      "ĠBogdan": 4243,
      "Ġсереди": 4244,
      "ĠKAP": 4245,
      "Ġقر": 4246,
      "Ġhaunts": 4247,
      "Degrees": 4248,
      "ĠACO": 4249,
      "Ġلمع": 4250,
      "LockButton": 4251,
      "llib": 4252,
      "anoia": 4253,
      "アクセ": 4254,
      "Ġunary": 4255,
      "uropa": 4256,
      "คค": 4257,
      "ĠMarx": 4258,
      "คคล": 4259,
      "ĠTSA": 4260,
      "щенко": 4261,
      "pergillus": 4262,
      "ĠPicchu": 4263,
      "rebbe": 4264,
      "ungsk": 4265,
      "getTime": 4266,
      "Ġfanc": 4267,
      "Ġeffluents": 4268,
      "GG": 4269,
      "ĠLHS": 4270,
      "Ġradiographs": 4271,
      "عدد": 4272,
      "bibnamefont": 4273,
      "privileged": 4274,
      "tak": 4275,
      "Veter": 4276,
      "ĠYong": 4277,
      "uyama": 4278,
      "ĠSLOT": 4279,
      "Dice": 4280,
      "razole": 4281,
      "Ġhumiliation": 4282,
      "Ġvoraus": 4283,
      "strnc": 4284,
      "Ġnahilalakip": 4285,
      "peres": 4286,
      "redni": 4287,
      "ĠOPCODE": 4288,
      "Ġfflush": 4289,
      "ارم": 4290,
      "Ġcongru": 4291,
      "انات": 4292,
      "cieron": 4293,
      "Ġake": 4294,
      "ĠWelt": 4295,
      "ĠAmt": 4296,
      "ĠLPC": 4297,
      "jazd": 4298,
      "Ġspäter": 4299,
      "SuppressLint": 4300,
      "natal": 4301,
      "Ġčty": 4302,
      "Ġاستف": 4303,
      "ELTS": 4304,
      "ână": 4305,
      "函数": 4306,
      "Ġläuft": 4307,
      "vět": 4308,
      "istemas": 4309,
      "atürk": 4310,
      "RIGHT": 4311,
      "Ġacredito": 4312,
      "Ġulc": 4313,
      "eliz": 4314,
      "Ġالغ": 4315,
      "Archer": 4316,
      "ĠGuad": 4317,
      "ĠOmb": 4318,
      "Ġdistracted": 4319,
      "gav": 4320,
      "Ġpyt": 4321,
      "salexpr": 4322,
      "Ġgstlal": 4323,
      "aber": 4324,
      "Ġشریف": 4325,
      "Ġnumquam": 4326,
      "Ġconversational": 4327,
      "Ġsillon": 4328,
      "Ġganas": 4329,
      "activation": 4330,
      "gheatmap": 4331,
      "Ġتخت": 4332,
      "ambique": 4333,
      "ĠMec": 4334,
      "Ġconjugacy": 4335,
      "Sender": 4336,
      "Ġbulldozer": 4337,
      "Ġboven": 4338,
      "ĠBudd": 4339,
      "Ġgesam": 4340,
      "ĠIPv": 4341,
      "Ġgrassroots": 4342,
      "honia": 4343,
      "DEBUGFS": 4344,
      "Ġeeu": 4345,
      "Ġwchar": 4346,
      "Ġprover": 4347,
      "HLER": 4348,
      "Ġσυνέ": 4349,
      "permitAll": 4350,
      "ĠKrieg": 4351,
      "labelText": 4352,
      "дился": 4353,
      "breakable": 4354,
      "httpClient": 4355,
      "megapixel": 4356,
      "ĠCTL": 4357,
      "Ġآئینہ": 4358,
      "Ġcott": 4359,
      "ĠDipl": 4360,
      "astically": 4361,
      "Ġmiesią": 4362,
      "bm": 4363,
      "Gast": 4364,
      "ĠDataType": 4365,
      "ĠJuni": 4366,
      "Ġsont": 4367,
      "poč": 4368,
      "Ġnostalg": 4369,
      "ĠPipp": 4370,
      "میان": 4371,
      "instellungen": 4372,
      "lims": 4373,
      "ствий": 4374,
      "ĠGorg": 4375,
      "ittet": 4376,
      "Ġcano": 4377,
      "ĠSé": 4378,
      "owany": 4379,
      "ĠlistItem": 4380,
      "Mas": 4381,
      "ĠBPA": 4382,
      "ipfs": 4383,
      "ibas": 4384,
      "Ġmyopia": 4385,
      "Masukkan": 4386,
      "Ġaudio": 4387,
      "Ġagrup": 4388,
      "Ġseater": 4389,
      "Ġmeager": 4390,
      "Ġsiz": 4391,
      "oyens": 4392,
      "пии": 4393,
      "ולנדי": 4394,
      "ĠByte": 4395,
      "Ġturnkey": 4396,
      "ensely": 4397,
      "bigoplus": 4398,
      "ytocin": 4399,
      "Ġbeds": 4400,
      "sburg": 4401,
      "Ġmqtt": 4402,
      "ників": 4403,
      "γω": 4404,
      "ĠPregn": 4405,
      "ĠDLP": 4406,
      "Ġlear": 4407,
      "queira": 4408,
      "ĠCantonese": 4409,
      "الان": 4410,
      "Ġconco": 4411,
      "veli": 4412,
      "ולה": 4413,
      "ĠVest": 4414,
      "btc": 4415,
      "pital": 4416,
      "Ġaile": 4417,
      "myLabels": 4418,
      "ĠWorte": 4419,
      "feas": 4420,
      "ĠFlugh": 4421,
      "SRPControl": 4422,
      "рна": 4423,
      "lut": 4424,
      "زمین": 4425,
      "Ġnation": 4426,
      "Ġstreet": 4427,
      "yta": 4428,
      "riezmann": 4429,
      "Ġpions": 4430,
      "inck": 4431,
      "Ġshred": 4432,
      "KAKKIAINEN": 4433,
      "essons": 4434,
      "ĠuseEffect": 4435,
      "Ġодном": 4436,
      "hafte": 4437,
      "Ġmetering": 4438,
      "オリ": 4439,
      "ĠBag": 4440,
      "lana": 4441,
      "ylus": 4442,
      "ĠIndexPath": 4443,
      "Don": 4444,
      "aziland": 4445,
      "DataSource": 4446,
      "onomi": 4447,
      "Ġзаб": 4448,
      "Ġсиль": 4449,
      "Ġprolong": 4450,
      "ORITY": 4451,
      "ĠZuh": 4452,
      "hetto": 4453,
      "نگی": 4454,
      "ВД": 4455,
      "throw": 4456,
      "ĠМВД": 4457,
      "ĠBache": 4458,
      "aniu": 4459,
      "ĠSare": 4460,
      "UALA": 4461,
      "hner": 4462,
      "Ġayr": 4463,
      "ĠConfirm": 4464,
      "ĠinputRange": 4465,
      "dört": 4466,
      "ĠOdinga": 4467,
      "moniker": 4468,
      "ĠKeluarga": 4469,
      "eats": 4470,
      "ĠYeats": 4471,
      "ського": 4472,
      "books": 4473,
      "omina": 4474,
      "ĠTarr": 4475,
      "ceded": 4476,
      "mniej": 4477,
      "Ġfrances": 4478,
      "Ġcinematography": 4479,
      "cex": 4480,
      "Ġjuni": 4481,
      "Ġbites": 4482,
      "Ġhort": 4483,
      "cene": 4484,
      "ogène": 4485,
      "porto": 4486,
      "Ġрасстоя": 4487,
      "Ġmaggio": 4488,
      "Ġmascara": 4489,
      "Ġclas": 4490,
      "chit": 4491,
      "skcipher": 4492,
      "ashvili": 4493,
      "Ġrecite": 4494,
      "ayn": 4495,
      "ocom": 4496,
      "Ġacha": 4497,
      "Ġhomotopy": 4498,
      "biz": 4499,
      "orescence": 4500,
      "ilte": 4501,
      "Ġbenthic": 4502,
      "ĠQuint": 4503,
      "ModelAdmin": 4504,
      "StartAddress": 4505,
      "clipboard": 4506,
      "ĠSent": 4507,
      "Ġhin": 4508,
      "ĠEST": 4509,
      "жнему": 4510,
      "Ġcull": 4511,
      "Finding": 4512,
      "elift": 4513,
      "Ġwaxay": 4514,
      "DVRIP": 4515,
      "gca": 4516,
      "avn": 4517,
      "зию": 4518,
      "microseconds": 4519,
      "Ġwaxed": 4520,
      "ovor": 4521,
      "Ġrozpoc": 4522,
      "ĠLucid": 4523,
      "ĠThiago": 4524,
      "Ġpoignant": 4525,
      "uclease": 4526,
      "Ġidéal": 4527,
      "ĠWalsh": 4528,
      "Ġtruff": 4529,
      "ĠATT": 4530,
      "acionais": 4531,
      "Ġtruffle": 4532,
      "riek": 4533,
      "ĠIMC": 4534,
      "ĠsetCart": 4535,
      "Ġsakammak": 4536,
      "Ġbrushless": 4537,
      "Ġbeste": 4538,
      "Ġجلس": 4539,
      "ĠNobles": 4540,
      "nial": 4541,
      "ähän": 4542,
      "monium": 4543,
      "jakan": 4544,
      "ناب": 4545,
      "onacci": 4546,
      "ryside": 4547,
      "Ġundermining": 4548,
      "Ġfid": 4549,
      "ĠLynch": 4550,
      "StringType": 4551,
      "ĠcategoryService": 4552,
      "krä": 4553,
      "ĠBrod": 4554,
      "ĠVac": 4555,
      "포츠": 4556,
      "ĠPAINE": 4557,
      "CreateWall": 4558,
      "adple": 4559,
      "Ġnegoz": 4560,
      "скіх": 4561,
      "Ġbasilaires": 4562,
      "Ġபய": 4563,
      "Unified": 4564,
      "ковка": 4565,
      "refresh": 4566,
      "repet": 4567,
      "ikit": 4568,
      "attled": 4569,
      "ALSE": 4570,
      "Ġforgiving": 4571,
      "ĠSoaException": 4572,
      "stilling": 4573,
      "ĠUrb": 4574,
      "setError": 4575,
      "инг": 4576,
      "ValArr": 4577,
      "copyWith": 4578,
      "issionais": 4579,
      "ĠSaudi": 4580,
      "Ġحکمت": 4581,
      "Bearer": 4582,
      "TIMESTAMPDIFF": 4583,
      "avaju": 4584,
      "DebugType": 4585,
      "Ġdhatunam": 4586,
      "Ġkažd": 4587,
      "BET": 4588,
      "zess": 4589,
      "ovirus": 4590,
      "proken": 4591,
      "rologist": 4592,
      "Ġhydrothermal": 4593,
      "Ġdrawstring": 4594,
      "Ġoznac": 4595,
      "Ġdwind": 4596,
      "Ġrebell": 4597,
      "Ġsuperconductor": 4598,
      "Ġtred": 4599,
      "Ġbipartite": 4600,
      "jecha": 4601,
      "Ġjerk": 4602,
      "WINDOW": 4603,
      "djang": 4604,
      "Ġatthudd": 4605,
      "ĠSpartan": 4606,
      "Ġtama": 4607,
      "Ġflax": 4608,
      "Ġ業務用": 4609,
      "ёшь": 4610,
      "ოველ": 4611,
      "closes": 4612,
      "Ġyapılacak": 4613,
      "Ġپورا": 4614,
      "রপর": 4615,
      "Ġdira": 4616,
      "ĠHaaland": 4617,
      "ĠPolaris": 4618,
      "astopol": 4619,
      "BackPressed": 4620,
      "Појединачна": 4621,
      "menuStrip": 4622,
      "Ġgreg": 4623,
      "Ġالاعداد": 4624,
      "ĠRBI": 4625,
      "ĠHee": 4626,
      "ĠslidesToShow": 4627,
      "DAC": 4628,
      "Ġдисци": 4629,
      "ĠBrack": 4630,
      "Ġaim": 4631,
      "Ġзву": 4632,
      "لومات": 4633,
      "ĠPavlov": 4634,
      "LOTREntity": 4635,
      "ĠMorel": 4636,
      "Ġkraj": 4637,
      "TransactionLog": 4638,
      "ＥＮＡＮＡ": 4639,
      "ＰＥＮＡＮＡ": 4640,
      "icionado": 4641,
      "Named": 4642,
      "ĠBerk": 4643,
      "Adjacent": 4644,
      "بيقات": 4645,
      "Ġfestge": 4646,
      "anty": 4647,
      "Ġcoherent": 4648,
      "FieldNumber": 4649,
      "ĠMonsanto": 4650,
      "loh": 4651,
      "Ġlanjutan": 4652,
      "Ġmenutup": 4653,
      "alkeeper": 4654,
      "ĠFTA": 4655,
      "Ġbirkaç": 4656,
      "ianza": 4657,
      "giers": 4658,
      "SIGN": 4659,
      "Ġквартиры": 4660,
      "ĠReLU": 4661,
      "Ġfrut": 4662,
      "ĠIshikawa": 4663,
      "Ġmiejscu": 4664,
      "pev": 4665,
      "aktion": 4666,
      "Ġnies": 4667,
      "ĠFag": 4668,
      "addon": 4669,
      "Ġويكي": 4670,
      "imbra": 4671,
      "Ġpoured": 4672,
      "Cxt": 4673,
      "ンダー": 4674,
      "Ġspermatozoa": 4675,
      "Ġthủy": 4676,
      "Ġмоей": 4677,
      "Ġfled": 4678,
      "Ġstando": 4679,
      "intValue": 4680,
      "Ġstandoff": 4681,
      "Ġaport": 4682,
      "roweak": 4683,
      "Ġнасколько": 4684,
      "Ġregent": 4685,
      "حدث": 4686,
      "ruman": 4687,
      "BURG": 4688,
      "enay": 4689,
      "ĠVerdun": 4690,
      "Ġsemidefinite": 4691,
      "Ġkıs": 4692,
      "ĠNazar": 4693,
      "spacerItem": 4694,
      "ственном": 4695,
      "etahui": 4696,
      "Ġmicros": 4697,
      "osotros": 4698,
      "ĠTito": 4699,
      "oggled": 4700,
      "Ġbenöt": 4701,
      "Ġاید": 4702,
      "Ġresident": 4703,
      "ĠRens": 4704,
      "ĠГриго": 4705,
      "benef": 4706,
      "Ġtyrant": 4707,
      "nati": 4708,
      "ĠHef": 4709,
      "prem": 4710,
      "Dre": 4711,
      "estan": 4712,
      "ĠMasaki": 4713,
      "Ġdran": 4714,
      "ĠGaruda": 4715,
      "қты": 4716,
      "Ġkurs": 4717,
      "Ġtrùng": 4718,
      "Ġatm": 4719,
      "ĠAndorra": 4720,
      "Ġquenching": 4721,
      "stalk": 4722,
      "atte": 4723,
      "اویز": 4724,
      "Ġheadcount": 4725,
      "Ġcessation": 4726,
      "原子": 4727,
      "openweathermap": 4728,
      "pImage": 4729,
      "Ġকব": 4730,
      "contentText": 4731,
      "گاہ": 4732,
      "Ġbored": 4733,
      "setScale": 4734,
      "Ġconceding": 4735,
      "Ġwedi": 4736,
      "Ġestratég": 4737,
      "counted": 4738,
      "ĠImmaculate": 4739,
      "ĠGriffin": 4740,
      "ĠKew": 4741,
      "Ġبیر": 4742,
      "adf": 4743,
      "Ġnip": 4744,
      "istere": 4745,
      "blichen": 4746,
      "substrate": 4747,
      "Ġhorrendous": 4748,
      "ĠProg": 4749,
      "ቸውን": 4750,
      "Ġالأخير": 4751,
      "wość": 4752,
      "Ġالأخيرة": 4753,
      "repository": 4754,
      "ĠSolid": 4755,
      "Ġminutos": 4756,
      "dió": 4757,
      "рования": 4758,
      "ראל": 4759,
      "ElementSibling": 4760,
      "Ġhangat": 4761,
      "ياء": 4762,
      "rikes": 4763,
      "Ġktórych": 4764,
      "ĠCrosby": 4765,
      "shy": 4766,
      "ĠMART": 4767,
      "Ġfraction": 4768,
      "Ġcyclohex": 4769,
      "рті": 4770,
      "живання": 4771,
      "Ġlegalization": 4772,
      "Ġsubtitles": 4773,
      "apare": 4774,
      "Ġالمع": 4775,
      "Ġtř": 4776,
      "нули": 4777,
      "ĠIPs": 4778,
      "Ġmontagnes": 4779,
      "Ġsquash": 4780,
      "langan": 4781,
      "Ġppb": 4782,
      "Ġcapilla": 4783,
      "ĠaddNew": 4784,
      "urne": 4785,
      "iché": 4786,
      "Google": 4787,
      "ĠRedox": 4788,
      "Ġdredged": 4789,
      "parentId": 4790,
      "liu": 4791,
      "ĠGUIDATA": 4792,
      "jada": 4793,
      "LinkLabel": 4794,
      "MGMT": 4795,
      "Ġolvides": 4796,
      "GetString": 4797,
      "Ġkose": 4798,
      "い方": 4799,
      "使い方": 4800,
      "たは": 4801,
      "または": 4802,
      "Information": 4803,
      "Ġrhomb": 4804,
      "Unity": 4805,
      "ostal": 4806,
      "ixedHeight": 4807,
      "setFixedHeight": 4808,
      "ĠprimarySwatch": 4809,
      "Ġpenatibus": 4810,
      "Ġblaming": 4811,
      "Ġმონ": 4812,
      "マンス": 4813,
      "Ġneum": 4814,
      "omania": 4815,
      "ĠEnseñ": 4816,
      "ylis": 4817,
      "ewo": 4818,
      "Ġturban": 4819,
      "Ġintravascular": 4820,
      "ĠGhan": 4821,
      "Ġwan": 4822,
      "Ġنهایت": 4823,
      "Ġđẳng": 4824,
      "گیری": 4825,
      "winds": 4826,
      "ietnam": 4827,
      "Ġcaliber": 4828,
      "HTMLElement": 4829,
      "Ġneutralize": 4830,
      "setChecked": 4831,
      "Daemon": 4832,
      "vand": 4833,
      "бить": 4834,
      "UIApplication": 4835,
      "Ġtamen": 4836,
      "ĠFaj": 4837,
      "Ġአይደለም": 4838,
      "VED": 4839,
      "uki": 4840,
      "يانة": 4841,
      "carts": 4842,
      "ĠSwarovski": 4843,
      "ĠShelby": 4844,
      "Ġکاربر": 4845,
      "reserv": 4846,
      "wheat": 4847,
      "iniai": 4848,
      "ĠMiddle": 4849,
      "ージェ": 4850,
      "lombok": 4851,
      "QUrl": 4852,
      "Ġchewed": 4853,
      "بط": 4854,
      "Ġtunt": 4855,
      "ĠMaud": 4856,
      "Survey": 4857,
      "ĠHowe": 4858,
      "ĠLloyd": 4859,
      "Ġdoublet": 4860,
      "тування": 4861,
      "anchez": 4862,
      "ĠBxf": 4863,
      "ĠBonifacio": 4864,
      "темати": 4865,
      "uxx": 4866,
      "neq": 4867,
      "راس": 4868,
      "ĠFreeport": 4869,
      "ĠTOEFL": 4870,
      "ĠAAS": 4871,
      "ĠLance": 4872,
      "azos": 4873,
      "oidal": 4874,
      "ĠlineHeight": 4875,
      "ĠTSE": 4876,
      "lery": 4877,
      "ردن": 4878,
      "ĠMaterialApp": 4879,
      "гну": 4880,
      "Ġstyle": 4881,
      "Ġmonop": 4882,
      "Please": 4883,
      "ĠtoNumber": 4884,
      "ĠWhyte": 4885,
      "Ġtrí": 4886,
      "івовано": 4887,
      "Архівовано": 4888,
      "ĠEck": 4889,
      "Ġstrcpy": 4890,
      "Ġrobber": 4891,
      "agate": 4892,
      "ensee": 4893,
      "Ġناب": 4894,
      "ĠЗапад": 4895,
      "Ġhimsayam": 4896,
      "yeh": 4897,
      "ĠOts": 4898,
      "noi": 4899,
      "стрее": 4900,
      "დომ": 4901,
      "alkoz": 4902,
      "жению": 4903,
      "ĠNGF": 4904,
      "brad": 4905,
      "ízo": 4906,
      "educ": 4907,
      "Ġوالح": 4908,
      "Ġhairy": 4909,
      "Ġhoarding": 4910,
      "Ġtrasfer": 4911,
      "ĠactionPerformed": 4912,
      "ói": 4913,
      "Ġरत": 4914,
      "Ġरतन": 4915,
      "Ġeti": 4916,
      "μένων": 4917,
      "gabe": 4918,
      "popo": 4919,
      "كوم": 4920,
      "Ġautoch": 4921,
      "Ġmenjelaskan": 4922,
      "ĠHarc": 4923,
      "ecake": 4924,
      "Ġisotrop": 4925,
      "ĠMaser": 4926,
      "Ġsagittal": 4927,
      "ĠHarcourt": 4928,
      "Ġisotropy": 4929,
      "avasena": 4930,
      "ĠIsl": 4931,
      "ĠMaynard": 4932,
      "ĠCoul": 4933,
      "ithmetic": 4934,
      "actoring": 4935,
      "isho": 4936,
      "Ġpaused": 4937,
      "Ġخاصيه": 4938,
      "Ġausgesch": 4939,
      "Ġviscos": 4940,
      "ĠSynd": 4941,
      "odoxy": 4942,
      "ĠQnrB": 4943,
      "ĠParadis": 4944,
      "ĠLinearLayout": 4945,
      "henti": 4946,
      "Ġtex": 4947,
      "Ġконцу": 4948,
      "heimer": 4949,
      "вість": 4950,
      "BURSE": 4951,
      "Ġhana": 4952,
      "ĠAlbright": 4953,
      "Ġintég": 4954,
      "Ġsobr": 4955,
      "ĠTennyson": 4956,
      "etición": 4957,
      "Ġہمارے": 4958,
      "ırmızı": 4959,
      "beg": 4960,
      "高的": 4961,
      "filter": 4962,
      "IPPING": 4963,
      "Ġالمر": 4964,
      "Telemetry": 4965,
      "Ġmów": 4966,
      "ĠkeyValue": 4967,
      "References": 4968,
      "Nguyen": 4969,
      "Ġpretended": 4970,
      "Ġsubsp": 4971,
      "кті": 4972,
      "Warnings": 4973,
      "amiseks": 4974,
      "hny": 4975,
      "ĠRostock": 4976,
      "epam": 4977,
      "keun": 4978,
      "mdan": 4979,
      "ĠNest": 4980,
      "ĠAtl": 4981,
      "chon": 4982,
      "Ġseed": 4983,
      "Chem": 4984,
      "mmss": 4985,
      "NaN": 4986,
      "antees": 4987,
      "Ġძ": 4988,
      "Ġonload": 4989,
      "Ġძალი": 4990,
      "ĠThur": 4991,
      "bolt": 4992,
      "zhihu": 4993,
      "Ġrestric": 4994,
      "ĠAshes": 4995,
      "ĠSLAs": 4996,
      "SELECTOR": 4997,
      "żliw": 4998,
      "endosi": 4999,
      "Scan": 5000,
      "ĠRxSwift": 5001,
      "ponym": 5002,
      "PropertyChanged": 5003,
      "Ġ지": 5004,
      "Ġeta": 5005,
      "Appropri": 5006,
      "ĠWORK": 5007,
      "Unmarshal": 5008,
      "Ġethane": 5009,
      "bido": 5010,
      "Ġpouches": 5011,
      "ĠSole": 5012,
      "ĠLeila": 5013,
      "methoxy": 5014,
      "ègu": 5015,
      "lehem": 5016,
      "illante": 5017,
      "ĠApprentices": 5018,
      "ègues": 5019,
      "Ġпом": 5020,
      "Ġمصروف": 5021,
      "gfx": 5022,
      "wane": 5023,
      "chtel": 5024,
      "oinette": 5025,
      "Ġযতই": 5026,
      "ĠIraqi": 5027,
      "Ġvéc": 5028,
      "ĠColumn": 5029,
      "Ġvécu": 5030,
      "pathname": 5031,
      "かない": 5032,
      "scripts": 5033,
      "ĠELECTR": 5034,
      "adopt": 5035,
      "ĠBole": 5036,
      "astia": 5037,
      "SecurityCenter": 5038,
      "ĠSina": 5039,
      "spinal": 5040,
      "Ġlocomotive": 5041,
      "Ġintercepted": 5042,
      "ĠCac": 5043,
      "cheon": 5044,
      "cati": 5045,
      "HlavniOkno": 5046,
      "ĠCDI": 5047,
      "Bitt": 5048,
      "ĠSui": 5049,
      "Ġprzer": 5050,
      "akuwa": 5051,
      "ĠDopp": 5052,
      "Ġmidline": 5053,
      "ĠFib": 5054,
      "Ġbeinh": 5055,
      "ĠUran": 5056,
      "Ġphotograph": 5057,
      "anske": 5058,
      "orderEntry": 5059,
      "ĠGiveaway": 5060,
      "Ġtropic": 5061,
      "Ġaccolade": 5062,
      "mortem": 5063,
      "ĠDuff": 5064,
      "شاف": 5065,
      "epress": 5066,
      "Ġantidepress": 5067,
      "Ġdotycz": 5068,
      "Ġdiphtheria": 5069,
      "χρι": 5070,
      "comma": 5071,
      "Ġeuropean": 5072,
      "InputNum": 5073,
      "Ġautocratic": 5074,
      "Ġaceste": 5075,
      "aksud": 5076,
      "وضوع": 5077,
      "aiser": 5078,
      "segments": 5079,
      "orato": 5080,
      "ĠPull": 5081,
      "най": 5082,
      "intis": 5083,
      "वरण": 5084,
      "ĠSayles": 5085,
      "CAPE": 5086,
      "ĠMane": 5087,
      "absorb": 5088,
      "λού": 5089,
      "вис": 5090,
      "textColour": 5091,
      "Ġизо": 5092,
      "ĠMoroccan": 5093,
      "ĠGesù": 5094,
      "ĠAOC": 5095,
      "ĠVAS": 5096,
      "ĠStratford": 5097,
      "Ġsupplic": 5098,
      "Ġemphasis": 5099,
      "anée": 5100,
      "Ġllevo": 5101,
      "plexity": 5102,
      "ĠFOR": 5103,
      "ڈنگ": 5104,
      "Ġdute": 5105,
      "ETERS": 5106,
      "Ġkivy": 5107,
      "ĠRegno": 5108,
      "azoline": 5109,
      "Ġregal": 5110,
      "splitted": 5111,
      "Ġsparsely": 5112,
      "FOR": 5113,
      "ĠLEVEL": 5114,
      "ētu": 5115,
      "thi": 5116,
      "ything": 5117,
      "siege": 5118,
      "Ġsuro": 5119,
      "ĠReykjavik": 5120,
      "ĠHutton": 5121,
      "ĠMercer": 5122,
      "ĠtileSize": 5123,
      "Ġفور": 5124,
      "Ġპრო": 5125,
      "了一眼": 5126,
      "бок": 5127,
      "ĠFIG": 5128,
      "oyama": 5129,
      "Ġريال": 5130,
      "abd": 5131,
      "Ġkró": 5132,
      "obenz": 5133,
      "asati": 5134,
      "ilibus": 5135,
      "ĠKaran": 5136,
      "Ġdeco": 5137,
      "Ġкартина": 5138,
      "الإ": 5139,
      "Tw": 5140,
      "iann": 5141,
      "дун": 5142,
      "Ġtransferencia": 5143,
      "pering": 5144,
      "alamy": 5145,
      "Ġrelem": 5146,
      "pti": 5147,
      "pson": 5148,
      "adu": 5149,
      "Ġnarrowing": 5150,
      "Ġwła": 5151,
      "ĠStateful": 5152,
      "óp": 5153,
      "Ġkelly": 5154,
      "ĠAvner": 5155,
      "Ġsatirical": 5156,
      "Ġsenc": 5157,
      "Ġtux": 5158,
      "ĠTemp": 5159,
      "кции": 5160,
      "Ġcircumfer": 5161,
      "هند": 5162,
      "Ġhozz": 5163,
      "Ġallot": 5164,
      "ActionPerformed": 5165,
      "Ġexistentes": 5166,
      "程度": 5167,
      "ĠStras": 5168,
      "StringBuilder": 5169,
      "Ġhuk": 5170,
      "Ġspyware": 5171,
      "ĠHiggins": 5172,
      "Ġgebruik": 5173,
      "ĠCoriol": 5174,
      "refund": 5175,
      "ĠCoriolis": 5176,
      "Ġwur": 5177,
      "ĠJobList": 5178,
      "okinetic": 5179,
      "änglich": 5180,
      "ĠUITextField": 5181,
      "sab": 5182,
      "ĠCochrane": 5183,
      "сель": 5184,
      "ĠNgọc": 5185,
      "Ġauspicious": 5186,
      "uszt": 5187,
      "Ġhong": 5188,
      "тацию": 5189,
      "グラン": 5190,
      "onglet": 5191,
      "Ġразвед": 5192,
      "ĠSBA": 5193,
      "ĠPVA": 5194,
      "Ġrück": 5195,
      "Ġالوس": 5196,
      "Ġsess": 5197,
      "ĠEsqu": 5198,
      "REX": 5199,
      "Ġseaw": 5200,
      "Ġnedir": 5201,
      "Crane": 5202,
      "Ġjane": 5203,
      "Ġaşağı": 5204,
      "NEG": 5205,
      "idmat": 5206,
      "ght": 5207,
      "wght": 5208,
      "ogat": 5209,
      "Ġparib": 5210,
      "Ġdesalination": 5211,
      "ĠBuckley": 5212,
      "lowing": 5213,
      "Ġpice": 5214,
      "ontiti": 5215,
      "jsoup": 5216,
      "ĠBoard": 5217,
      "になって": 5218,
      "Ġfracking": 5219,
      "setup": 5220,
      "řeb": 5221,
      "Ġdeewana": 5222,
      "RETURNTRANSFER": 5223,
      "gles": 5224,
      "arasi": 5225,
      "Ġalien": 5226,
      "ĠFlip": 5227,
      "Ġआरएफ": 5228,
      "DUNLAND": 5229,
      "ĠNavarre": 5230,
      "alous": 5231,
      "PartOf": 5232,
      "Ġר": 5233,
      "Ġkelt": 5234,
      "ĠNGO": 5235,
      "ĠGericht": 5236,
      "SpringMVCProject": 5237,
      "ĠGMC": 5238,
      "Ġbicolor": 5239,
      "entreprise": 5240,
      "ĠCarlsbad": 5241,
      "Tucker": 5242,
      "license": 5243,
      "ĠPresley": 5244,
      "icone": 5245,
      "мый": 5246,
      "marshalN": 5247,
      "Ġundisturbed": 5248,
      "dings": 5249,
      "eryllium": 5250,
      "roar": 5251,
      "redis": 5252,
      "Ġէ": 5253,
      "ĠHarare": 5254,
      "searchview": 5255,
      "ĠHayden": 5256,
      "Ġէին": 5257,
      "ĠSkysc": 5258,
      "ვა": 5259,
      "ხვა": 5260,
      "Ġfalo": 5261,
      "isso": 5262,
      "Ġioe": 5263,
      "rard": 5264,
      "ĠKipp": 5265,
      "Ġatoi": 5266,
      "ĠGCC": 5267,
      "ĠSine": 5268,
      "Ġveliki": 5269,
      "raž": 5270,
      "ekyll": 5271,
      "ĠHSPB": 5272,
      "liny": 5273,
      "Ġdeton": 5274,
      "ĠPEAR": 5275,
      "spd": 5276,
      "Ġthrex": 5277,
      "hhhh": 5278,
      "simeq": 5279,
      "ĠneighborIndexs": 5280,
      "ĠTORT": 5281,
      "ĠEgan": 5282,
      "ĠWaterford": 5283,
      "hero": 5284,
      "acetyl": 5285,
      "ĠSankt": 5286,
      "Ġnoses": 5287,
      "gebracht": 5288,
      "downcase": 5289,
      "Ġidiosync": 5290,
      "を選": 5291,
      "Ġprópri": 5292,
      "yacute": 5293,
      "Ġgấp": 5294,
      "OCc": 5295,
      "Ġeset": 5296,
      "ĠHaziran": 5297,
      "ぶりに": 5298,
      "ĠdrawSprites": 5299,
      "cgColor": 5300,
      "Ġнаи": 5301,
      "akrishna": 5302,
      "Ġshelving": 5303,
      "arem": 5304,
      "чий": 5305,
      "Decrypt": 5306,
      "ĠRubens": 5307,
      "アレンジ": 5308,
      "itere": 5309,
      "vius": 5310,
      "ĠMycobacterium": 5311,
      "ServiceProvider": 5312,
      "Ġმათ": 5313,
      "ĠPavia": 5314,
      "Ġremove": 5315,
      "RIN": 5316,
      "ويه": 5317,
      "Ġrupani": 5318,
      "Ġвыбира": 5319,
      "Ġcleans": 5320,
      "kho": 5321,
      "radioButton": 5322,
      "ällen": 5323,
      "äser": 5324,
      "Ġfuc": 5325,
      "Ġwong": 5326,
      "Ġénorm": 5327,
      "ĠBoud": 5328,
      "ĠYamazaki": 5329,
      "طيب": 5330,
      "ĠTFS": 5331,
      "iazza": 5332,
      "errorMessage": 5333,
      "Ġmóc": 5334,
      "ĠJur": 5335,
      "issie": 5336,
      "buff": 5337,
      "tements": 5338,
      "ĠWanda": 5339,
      "ĠRouter": 5340,
      "Ġvijf": 5341,
      "イルス": 5342,
      "ggen": 5343,
      "نون": 5344,
      "ĠAbram": 5345,
      "ĠCDA": 5346,
      "Compan": 5347,
      "nvarchar": 5348,
      "Ġresh": 5349,
      "ĠprimaryStage": 5350,
      "sne": 5351,
      "wiek": 5352,
      "unior": 5353,
      "Ġphenolic": 5354,
      "Ġmau": 5355,
      "Ġschool": 5356,
      "alja": 5357,
      "juana": 5358,
      "Cat": 5359,
      "ĠAlma": 5360,
      "Ġmatéri": 5361,
      "Ġtending": 5362,
      "Ġmarbled": 5363,
      "loos": 5364,
      "чивать": 5365,
      "Ġhelic": 5366,
      "ĠhashTable": 5367,
      "ĠAFR": 5368,
      "ĠAvril": 5369,
      "ahiye": 5370,
      "groups": 5371,
      "ndef": 5372,
      "Ġchiam": 5373,
      "ĠGretchen": 5374,
      "ysm": 5375,
      "ĠJillian": 5376,
      "ĠTukey": 5377,
      "ĠReuben": 5378,
      "WindowClass": 5379,
      "ĠviewBox": 5380,
      "Ġژ": 5381,
      "inei": 5382,
      "Ġgetpath": 5383,
      "تمد": 5384,
      "borist": 5385,
      "dok": 5386,
      "vironments": 5387,
      "Ġbaš": 5388,
      "Ġשלנו": 5389,
      "CUSSION": 5390,
      "ioctl": 5391,
      "ĠEllen": 5392,
      "버지": 5393,
      "ĠRTP": 5394,
      "ĠCheby": 5395,
      "ligere": 5396,
      "Ġszok": 5397,
      "ĠChebyshev": 5398,
      "iches": 5399,
      "мое": 5400,
      "apolis": 5401,
      "MATIC": 5402,
      "ĠvalueForKey": 5403,
      "Ġしっかり": 5404,
      "購入": 5405,
      "Ġequid": 5406,
      "Ġвходя": 5407,
      "Ġastron": 5408,
      "Ġrapport": 5409,
      "Ġristor": 5410,
      "ĠPobl": 5411,
      "Ġblinked": 5412,
      "ſon": 5413,
      "ĠShale": 5414,
      "Strafpunkte": 5415,
      "Ġожи": 5416,
      "setBounds": 5417,
      "Ġsconf": 5418,
      "Ġнаві": 5419,
      "iciaire": 5420,
      "Ġverschill": 5421,
      "Ġusc": 5422,
      "Ġконтек": 5423,
      "postdata": 5424,
      "padding": 5425,
      "ĠsuperClass": 5426,
      "ĠСтар": 5427,
      "ungee": 5428,
      "ượu": 5429,
      "angsu": 5430,
      "ĠGoObjectTo": 5431,
      "ĠJiangsu": 5432,
      "Ġveo": 5433,
      "ützen": 5434,
      "ĠNaw": 5435,
      "ĠEverett": 5436,
      "ríamos": 5437,
      "Ġautre": 5438,
      "گاهی": 5439,
      "ĠOW": 5440,
      "Ġnutrit": 5441,
      "ivesse": 5442,
      "ricated": 5443,
      "createElement": 5444,
      "Ġپوری": 5445,
      "زان": 5446,
      "ĠAgustus": 5447,
      "מבר": 5448,
      "örper": 5449,
      "Ġnuo": 5450,
      "ĠNairobi": 5451,
      "вете": 5452,
      "ковое": 5453,
      "ĠWestinghouse": 5454,
      "Ġلاس": 5455,
      "Ġtabindex": 5456,
      "ĠBernd": 5457,
      "Ġnepř": 5458,
      "IllegalArgument": 5459,
      "ciendo": 5460,
      "Ġarbeit": 5461,
      "uana": 5462,
      "leftarrow": 5463,
      "bür": 5464,
      "ĠDuane": 5465,
      "Ġattempt": 5466,
      "Ġстаросног": 5467,
      "numeric": 5468,
      "ĠVign": 5469,
      "Ġschen": 5470,
      "номи": 5471,
      "ánicas": 5472,
      "явля": 5473,
      "akte": 5474,
      "returnData": 5475,
      "Ġcalibr": 5476,
      "ifiziert": 5477,
      "stay": 5478,
      "ĠNeuros": 5479,
      "Ġretrospective": 5480,
      "ĠWhittier": 5481,
      "arriv": 5482,
      "FormsModule": 5483,
      "Ġdesempe": 5484,
      "arrays": 5485,
      "maja": 5486,
      "Ġfaker": 5487,
      "irao": 5488,
      "ĠHIT": 5489,
      "Ġدقی": 5490,
      "Ġschne": 5491,
      "هلا": 5492,
      "eniu": 5493,
      "unctional": 5494,
      "ĠJugend": 5495,
      "uluk": 5496,
      "odal": 5497,
      "ĠANY": 5498,
      "ژه": 5499,
      "ĠPrada": 5500,
      "торию": 5501,
      "Ġhemat": 5502,
      "ĠДуб": 5503,
      "Nep": 5504,
      "ĠPich": 5505,
      "ĠDream": 5506,
      "ĠHashTable": 5507,
      "Ġineff": 5508,
      "ĠMackay": 5509,
      "Ġgraham": 5510,
      "wanath": 5511,
      "ĠDoherty": 5512,
      "Ġthinner": 5513,
      "ĠBajaj": 5514,
      "ĠAVA": 5515,
      "Ġwear": 5516,
      "ĠTavares": 5517,
      "Ġporn": 5518,
      "Ġapice": 5519,
      "Ġcoercion": 5520,
      "silyl": 5521,
      "ĠonCreateView": 5522,
      "lical": 5523,
      "PLAN": 5524,
      "Called": 5525,
      "itäts": 5526,
      "vection": 5527,
      "ώρα": 5528,
      "Ġглавное": 5529,
      "Codec": 5530,
      "Estado": 5531,
      "WIDE": 5532,
      "worthiness": 5533,
      "ĠLTP": 5534,
      "ĠУкраї": 5535,
      "Ġsomb": 5536,
      "eyim": 5537,
      "žete": 5538,
      "ĠCPR": 5539,
      "ĠVetter": 5540,
      "ĠFitzsimmons": 5541,
      "ĠEmerson": 5542,
      "ĠDesmond": 5543,
      "ĠFeCl": 5544,
      "ĠDeuteronomy": 5545,
      "ikation": 5546,
      "ĠOprah": 5547,
      "ogliere": 5548,
      "Ġpihaknya": 5549,
      "beek": 5550,
      "Ġbutler": 5551,
      "Ġباہ": 5552,
      "Ġباہنی": 5553,
      "Ġкакого": 5554,
      "ĠLarissa": 5555,
      "ĠSD": 5556,
      "enei": 5557,
      "Ġkhúc": 5558,
      "ĠPadma": 5559,
      "Ġairlift": 5560,
      "ĠGarr": 5561,
      "Ġmerasakan": 5562,
      "utip": 5563,
      "resents": 5564,
      "числи": 5565,
      "ประกาศ": 5566,
      "Ġsuscept": 5567,
      "Ġanesthesia": 5568,
      "quefois": 5569,
      "رسی": 5570,
      "ĠEastwood": 5571,
      "تباينه": 5572,
      "ĠdSampleWidth": 5573,
      "getBlock": 5574,
      "Ġसत": 5575,
      "ĠFermi": 5576,
      "ĠHumphreys": 5577,
      "control": 5578,
      "ĠWohn": 5579,
      "mento": 5580,
      "Powers": 5581,
      "atau": 5582,
      "hibit": 5583,
      "Ġparis": 5584,
      "ĠCRY": 5585,
      "Ġمسلسل": 5586,
      "Ġअपन": 5587,
      "iligung": 5588,
      "ĠGymn": 5589,
      "atzeko": 5590,
      "sų": 5591,
      "ūsų": 5592,
      "Ġcass": 5593,
      "ĠChac": 5594,
      "mete": 5595,
      "ĠRupert": 5596,
      "Ġfuel": 5597,
      "Ġfoc": 5598,
      "ĠKarth": 5599,
      "права": 5600,
      "Ġctrl": 5601,
      "jež": 5602,
      "ĠhighScore": 5603,
      "Ġeast": 5604,
      "lectionView": 5605,
      "ĠMainland": 5606,
      "onavir": 5607,
      "Ġстрелецкой": 5608,
      "dziel": 5609,
      "chemic": 5610,
      "ĠGesund": 5611,
      "PickerController": 5612,
      "Ġnus": 5613,
      "россий": 5614,
      "Ġacond": 5615,
      "ĠArnaud": 5616,
      "Ġflux": 5617,
      "Foreign": 5618,
      "صار": 5619,
      "Ġkaka": 5620,
      "Ġverpfl": 5621,
      "Ġmengenal": 5622,
      "leine": 5623,
      "Ġprzet": 5624,
      "ĠEmpor": 5625,
      "Ġbina": 5626,
      "Ġvine": 5627,
      "ĠVicer": 5628,
      "Ġpromo": 5629,
      "ĠSperm": 5630,
      "ĠViceroy": 5631,
      "Ġoccupies": 5632,
      "Ġautoestima": 5633,
      "ждествен": 5634,
      "ĠJed": 5635,
      "Ġפון": 5636,
      "ifizieren": 5637,
      "ترى": 5638,
      "uole": 5639,
      "ĠPAOK": 5640,
      "зирован": 5641,
      "hedral": 5642,
      "orak": 5643,
      "rogens": 5644,
      "trick": 5645,
      "ĠTFT": 5646,
      "做一个": 5647,
      "Ġtick": 5648,
      "Ġinconven": 5649,
      "үген": 5650,
      "Invalids": 5651,
      "ĠБүген": 5652,
      "resol": 5653,
      "fest": 5654,
      "بايبي": 5655,
      "Ġحبايبي": 5656,
      "一直": 5657,
      "Ġfatal": 5658,
      "ĠSail": 5659,
      "Specular": 5660,
      "Ġпоследние": 5661,
      "Ġsut": 5662,
      "WMNDA": 5663,
      "ifical": 5664,
      "Ġsculptural": 5665,
      "Ġwwwpond": 5666,
      "ĠЗна": 5667,
      "Ġpyar": 5668,
      "ĠServicePolicy": 5669,
      "Ġthrombosis": 5670,
      "ছর": 5671,
      "Ġmodeller": 5672,
      "Ġmotility": 5673,
      "ĠPig": 5674,
      "ционные": 5675,
      "Ġpozdě": 5676,
      "लखनऊ": 5677,
      "rjust": 5678,
      "Ġmě": 5679,
      "urethane": 5680,
      "ervlak": 5681,
      "ĠEspinosa": 5682,
      "Ġelucidated": 5683,
      "zzel": 5684,
      "Ġге": 5685,
      "Ġaha": 5686,
      "ĠFie": 5687,
      "чре": 5688,
      "Ġrád": 5689,
      "Ġучре": 5690,
      "roma": 5691,
      "Ġلاح": 5692,
      "gameObject": 5693,
      "Ġلاحظ": 5694,
      "лён": 5695,
      "mataspid": 5696,
      "ĠEinwohner": 5697,
      "etum": 5698,
      "ServiceObject": 5699,
      "Ġligula": 5700,
      "nutí": 5701,
      "hoom": 5702,
      "Ġinfused": 5703,
      "Ġhinaus": 5704,
      "Ġbrachte": 5705,
      "byterian": 5706,
      "ikiem": 5707,
      "Ġstaked": 5708,
      "Ġیون": 5709,
      "ĠSchon": 5710,
      "bungen": 5711,
      "ometrical": 5712,
      "Dragging": 5713,
      "ateway": 5714,
      "選手": 5715,
      "ddar": 5716,
      "avi": 5717,
      "ĠMcE": 5718,
      "geven": 5719,
      "indari": 5720,
      "isie": 5721,
      "ĠJadeja": 5722,
      "Ġocupar": 5723,
      "Sicilian": 5724,
      "doll": 5725,
      "Ġഭ": 5726,
      "Ġvár": 5727,
      "Ġഭരണ": 5728,
      "ĠBIR": 5729,
      "ライス": 5730,
      "Ġсемье": 5731,
      "lacht": 5732,
      "aktif": 5733,
      "findung": 5734,
      "Ġzom": 5735,
      "Ben": 5736,
      "až": 5737,
      "ťaž": 5738,
      "ellery": 5739,
      "stylers": 5740,
      "Ġdichloromethane": 5741,
      "dac": 5742,
      "ĠPinto": 5743,
      "ancements": 5744,
      "бия": 5745,
      "ĠScripps": 5746,
      "Ġburg": 5747,
      "Ġpurnama": 5748,
      "Ġmushroom": 5749,
      "ENTE": 5750,
      "FUENTE": 5751,
      "ェル": 5752,
      "ĠBek": 5753,
      "Ġлистопада": 5754,
      "ĠbrowsingStamp": 5755,
      "Ġهيا": 5756,
      "ĠWentworth": 5757,
      "Ġextinguishers": 5758,
      "ilov": 5759,
      "Ġgus": 5760,
      "icke": 5761,
      "rivez": 5762,
      "ĠHakone": 5763,
      "Ġmetod": 5764,
      "ĠWab": 5765,
      "ĠDVR": 5766,
      "ĠFif": 5767,
      "Ġdestro": 5768,
      "peda": 5769,
      "Ġphal": 5770,
      "ofen": 5771,
      "ĠNRI": 5772,
      "SAN": 5773,
      "SANIT": 5774,
      "Ġvår": 5775,
      "SLICE": 5776,
      "Ġsám": 5777,
      "neş": 5778,
      "ĠWeek": 5779,
      "ĠBrief": 5780,
      "ваться": 5781,
      "Ġscout": 5782,
      "urni": 5783,
      "Ġспециальные": 5784,
      "lian": 5785,
      "ĠIso": 5786,
      "ĠSharif": 5787,
      "дил": 5788,
      "issimo": 5789,
      "Ġmiljoen": 5790,
      "ket": 5791,
      "μον": 5792,
      "Доб": 5793,
      "ifel": 5794,
      "Ġrepressive": 5795,
      "rafl": 5796,
      "Ġcaramel": 5797,
      "ĠPirates": 5798,
      "ĠformContext": 5799,
      "slime": 5800,
      "ĠrunApp": 5801,
      "ĠAries": 5802,
      "Origin": 5803,
      "ĠFamilien": 5804,
      "укра": 5805,
      "Ġtanah": 5806,
      "yesters": 5807,
      "Ġплодо": 5808,
      "Ferg": 5809,
      "ĠLobby": 5810,
      "Cook": 5811,
      "Ġalcan": 5812,
      "Ġنفر": 5813,
      "یان": 5814,
      "Into": 5815,
      "Ġremettre": 5816,
      "Ġpericard": 5817,
      "Ġpožad": 5818,
      "ĠSoutheast": 5819,
      "ĠDahl": 5820,
      "Ġthug": 5821,
      "Ġodor": 5822,
      "Ġgiddy": 5823,
      "issive": 5824,
      "minus": 5825,
      "ĠInstall": 5826,
      "ĠSkywalker": 5827,
      "Ġاقتص": 5828,
      "hede": 5829,
      "ocrite": 5830,
      "ĠJános": 5831,
      "かける": 5832,
      "Mqua": 5833,
      "Ġmày": 5834,
      "Ġpronoun": 5835,
      "Ġوالان": 5836,
      "erings": 5837,
      "angkalan": 5838,
      "leş": 5839,
      "ĠKuo": 5840,
      "ваний": 5841,
      "Ġодним": 5842,
      "товые": 5843,
      "жня": 5844,
      "Ġmcc": 5845,
      "Ġوتم": 5846,
      "idio": 5847,
      "gaben": 5848,
      "元拡散方程式": 5849,
      "次元拡散方程式": 5850,
      "Ġወ": 5851,
      "ĠFCM": 5852,
      "גים": 5853,
      "orar": 5854,
      "Ġملازمت": 5855,
      "Ġkicks": 5856,
      "дать": 5857,
      "ეთ": 5858,
      "ეთის": 5859,
      "cza": 5860,
      "tat": 5861,
      "onday": 5862,
      "тивний": 5863,
      "HSV": 5864,
      "akkhan": 5865,
      "Ġيناير": 5866,
      "ĠMeck": 5867,
      "Ġhemicontinuous": 5868,
      "ĠMecklenburg": 5869,
      "Ġconsect": 5870,
      "lowercase": 5871,
      "ĠSunak": 5872,
      "fp": 5873,
      "Ġآدم": 5874,
      "ĠCounc": 5875,
      "Ġzeigte": 5876,
      "Ġinfinites": 5877,
      "itemView": 5878,
      "Ġreign": 5879,
      "endments": 5880,
      "Ġszí": 5881,
      "Ġpictogram": 5882,
      "mluv": 5883,
      "ĠGalapagos": 5884,
      "ĠStan": 5885,
      "Ġкер": 5886,
      "Ġkilobytes": 5887,
      "Ġinstantiate": 5888,
      "ковать": 5889,
      "ĠCuomo": 5890,
      "PagerAdapter": 5891,
      "печат": 5892,
      "パーカー": 5893,
      "Ġugl": 5894,
      "Frances": 5895,
      "benzoim": 5896,
      "रल": 5897,
      "ĠXavier": 5898,
      "Ġباتوں": 5899,
      "Curtis": 5900,
      "NEY": 5901,
      "Ġکمپنی": 5902,
      "Ġنسخ": 5903,
      "Ġdiente": 5904,
      "rawData": 5905,
      "лія": 5906,
      "chym": 5907,
      "ĠPhoton": 5908,
      "エン": 5909,
      "icc": 5910,
      "Ġnectar": 5911,
      "エンジ": 5912,
      "بینی": 5913,
      "Ġschrift": 5914,
      "testTakeVideo": 5915,
      "selectbox": 5916,
      "Ġکنار": 5917,
      "Ġeingesch": 5918,
      "елябин": 5919,
      "ĠЧелябин": 5920,
      "ĠMiddletown": 5921,
      "Ġvividly": 5922,
      "MenuStyle": 5923,
      "ĠMinkowski": 5924,
      "Ġуте": 5925,
      "Ġđoạn": 5926,
      "apurna": 5927,
      "Ġхозяй": 5928,
      "Ġdiced": 5929,
      "Ġتضيفلها": 5930,
      "ĠKxe": 5931,
      "ĠScriptInterface": 5932,
      "Cole": 5933,
      "edio": 5934,
      "ĠBead": 5935,
      "lere": 5936,
      "rme": 5937,
      "Ġpesto": 5938,
      "ĠIran": 5939,
      "Targets": 5940,
      "Ġaureus": 5941,
      "вів": 5942,
      "ĠGay": 5943,
      "ებში": 5944,
      "escu": 5945,
      "ĠBlank": 5946,
      "Ġsiè": 5947,
      "Ġقبضہ": 5948,
      "ĠCulver": 5949,
      "cheng": 5950,
      "ĠBlob": 5951,
      "veh": 5952,
      "Ġnumbness": 5953,
      "теря": 5954,
      "Ġmontañas": 5955,
      "TX": 5956,
      "gium": 5957,
      "美国": 5958,
      "ĠRTX": 5959,
      "IDC": 5960,
      "Ġtapped": 5961,
      "ogger": 5962,
      "henden": 5963,
      "sbin": 5964,
      "Ġenz": 5965,
      "Ġbhakti": 5966,
      "ĠLoyola": 5967,
      "ĠStout": 5968,
      "ními": 5969,
      "нцип": 5970,
      "Ġtrade": 5971,
      "ĠOverse": 5972,
      "vature": 5973,
      "ĠAnyObject": 5974,
      "Ġgraphql": 5975,
      "ĠGeno": 5976,
      "ĠobjRequest": 5977,
      "нику": 5978,
      "anique": 5979,
      "ومان": 5980,
      "linked": 5981,
      "romb": 5982,
      "tikzpicture": 5983,
      "ĠViper": 5984,
      "itzerland": 5985,
      "amaran": 5986,
      "LOAT": 5987,
      "Ġcry": 5988,
      "ĠRoder": 5989,
      "Ġpresso": 5990,
      "Ġappreciates": 5991,
      "Ġrealización": 5992,
      "ĠClement": 5993,
      "десь": 5994,
      "Ġphysic": 5995,
      "Ġdemurrer": 5996,
      "速度": 5997,
      "ĠDICE": 5998,
      "ээр": 5999,
      "Ġwalter": 6000,
      "Ġmiliar": 6001,
      "ĠKPSS": 6002,
      "Ġencounter": 6003,
      "ĠWię": 6004,
      "Ġsubstation": 6005,
      "Ġлаь": 6006,
      "ĠGrail": 6007,
      "akon": 6008,
      "Ġсалу": 6009,
      "Verbose": 6010,
      "Ġlend": 6011,
      "Ġhorrors": 6012,
      "queda": 6013,
      "ĠPohl": 6014,
      "Ġназывают": 6015,
      "amaya": 6016,
      "Ġpoised": 6017,
      "ĠKranken": 6018,
      "Ġdatat": 6019,
      "Ġgenau": 6020,
      "Ġdatatype": 6021,
      "imantan": 6022,
      "FileManager": 6023,
      "ĠMari": 6024,
      "ĠBirken": 6025,
      "Ġrenseign": 6026,
      "Ġnidassanam": 6027,
      "dex": 6028,
      "iculaire": 6029,
      "Ġdecouple": 6030,
      "attamente": 6031,
      "Ġcannula": 6032,
      "Ġarrogant": 6033,
      "avip": 6034,
      "ĠArnav": 6035,
      "Ġpotom": 6036,
      "igkeits": 6037,
      "веде": 6038,
      "ĠHep": 6039,
      "beros": 6040,
      "Ġкакой": 6041,
      "Ġkuch": 6042,
      "ĠNauch": 6043,
      "operasi": 6044,
      "ĠNauchno": 6045,
      "Ġvif": 6046,
      "ĠVul": 6047,
      "бель": 6048,
      "Ġустра": 6049,
      "Notification": 6050,
      "ĠAnglia": 6051,
      "Ġпедаго": 6052,
      "Witam": 6053,
      "reeks": 6054,
      "ĠHoyt": 6055,
      "hydraulic": 6056,
      "Ġpube": 6057,
      "ĠNighting": 6058,
      "ĠNightingale": 6059,
      "ĠIAF": 6060,
      "getProgress": 6061,
      "Ġرحمت": 6062,
      "locatorType": 6063,
      "Ġderr": 6064,
      "ライズ": 6065,
      "ruar": 6066,
      "Ġdvije": 6067,
      "čio": 6068,
      "isert": 6069,
      "uzioni": 6070,
      "SHOT": 6071,
      "のだ": 6072,
      "Ġagat": 6073,
      "Ġвый": 6074,
      "Potential": 6075,
      "Ġpresta": 6076,
      "Ġagosto": 6077,
      "gano": 6078,
      "lette": 6079,
      "getChild": 6080,
      "ĠAdler": 6081,
      "Ġwithdrawing": 6082,
      "ĠColón": 6083,
      "Ġطيب": 6084,
      "WAL": 6085,
      "ĠCourier": 6086,
      "フォーム": 6087,
      "véd": 6088,
      "Ġtros": 6089,
      "Ġroue": 6090,
      "Ġcaratter": 6091,
      "σκο": 6092,
      "ĠMHK": 6093,
      "ĠRIM": 6094,
      "ĠArteta": 6095,
      "Ġmouse": 6096,
      "ĠDres": 6097,
      "Ġgrados": 6098,
      "ThemeProvider": 6099,
      "ĠMiG": 6100,
      "ĠDjibouti": 6101,
      "ĠHunt": 6102,
      "émy": 6103,
      "addRow": 6104,
      "Ġcisplatin": 6105,
      "ĠPus": 6106,
      "ĠBih": 6107,
      "Riga": 6108,
      "rh": 6109,
      "Ġcirrh": 6110,
      "Ġshaved": 6111,
      "ровке": 6112,
      "Ġniezb": 6113,
      "andang": 6114,
      "eseed": 6115,
      "Ġtournament": 6116,
      "hésitez": 6117,
      "ExpireTime": 6118,
      "Ġpedigree": 6119,
      "ĠFAV": 6120,
      "ĠOct": 6121,
      "Ġhirs": 6122,
      "Ġeuer": 6123,
      "ifera": 6124,
      "ĠBuccaneers": 6125,
      "cela": 6126,
      "Hrs": 6127,
      "Ġquartz": 6128,
      "ceptar": 6129,
      "Ġécailles": 6130,
      "Ġtenders": 6131,
      "ĠaHUS": 6132,
      "Ġilə": 6133,
      "Ġjornalista": 6134,
      "igliano": 6135,
      "だけど": 6136,
      "rédients": 6137,
      "Ġsassy": 6138,
      "Ġantiph": 6139,
      "Ġトップス": 6140,
      "Ġanhydride": 6141,
      "Ġمدا": 6142,
      "aufs": 6143,
      "reek": 6144,
      "Ġdesvi": 6145,
      "reetype": 6146,
      "Ġsabot": 6147,
      "Ġներ": 6148,
      "Ġexceeds": 6149,
      "份证": 6150,
      "身份证": 6151,
      "maximizing": 6152,
      "Ġtatto": 6153,
      "ĠNye": 6154,
      "RewardedVideo": 6155,
      "aktiv": 6156,
      "Ġgriego": 6157,
      "Исто": 6158,
      "Ġroux": 6159,
      "ércio": 6160,
      "Ġseres": 6161,
      "Ġgestaltet": 6162,
      "hrmacht": 6163,
      "Ġrunes": 6164,
      "Ġdelinquent": 6165,
      "ulently": 6166,
      "Ġrych": 6167,
      "ubwa": 6168,
      "Ġdragging": 6169,
      "ĠAFB": 6170,
      "ĠPaisley": 6171,
      "Ġtils": 6172,
      "ĠATL": 6173,
      "ĠTCE": 6174,
      "Ġnepot": 6175,
      "hashMap": 6176,
      "ınar": 6177,
      "iéndose": 6178,
      "Ġممكن": 6179,
      "Ġсами": 6180,
      "ĠReddy": 6181,
      "Ġemojis": 6182,
      "FileDialog": 6183,
      "ĠEntre": 6184,
      "turbo": 6185,
      "hype": 6186,
      "Ġkew": 6187,
      "ophil": 6188,
      "ĠИспа": 6189,
      "ĠDais": 6190,
      "ĠFulton": 6191,
      "Ġdiput": 6192,
      "ĠRouse": 6193,
      "Ġdécou": 6194,
      "ĠspaceShip": 6195,
      "Ġisbn": 6196,
      "aná": 6197,
      "ĠSukh": 6198,
      "ĠOreo": 6199,
      "Ġaback": 6200,
      "jsbpmOb": 6201,
      "viendo": 6202,
      "cost": 6203,
      "csproj": 6204,
      "PUBLIC": 6205,
      "Ġkelet": 6206,
      "ĠFreud": 6207,
      "ĠHager": 6208,
      "ĠFusarium": 6209,
      "Ġvirtual": 6210,
      "namento": 6211,
      "aniyam": 6212,
      "arena": 6213,
      "toJson": 6214,
      "Ġsolitaire": 6215,
      "haran": 6216,
      "ùa": 6217,
      "Ġghee": 6218,
      "ĠCHIKV": 6219,
      "Ġreti": 6220,
      "Ġrebord": 6221,
      "Ġhaue": 6222,
      "Ġgallium": 6223,
      "écut": 6224,
      "ĠCasual": 6225,
      "ĠGuildford": 6226,
      "Ġimputation": 6227,
      "Ġprzypad": 6228,
      "hiyan": 6229,
      "InputField": 6230,
      "vanja": 6231,
      "Ġantennae": 6232,
      "этому": 6233,
      "Ġلوگ": 6234,
      "リム": 6235,
      "Ġtelenov": 6236,
      "Ġスリム": 6237,
      "ĠDain": 6238,
      "ერის": 6239,
      "ĠWrigley": 6240,
      "Ġmosquito": 6241,
      "Ġdort": 6242,
      "Ġmagnific": 6243,
      "sendKeys": 6244,
      "Seb": 6245,
      "Tracking": 6246,
      "Guj": 6247,
      "ワゴン": 6248,
      "Ġkahi": 6249,
      "push": 6250,
      "ĠBader": 6251,
      "Ġпарази": 6252,
      "Ġالكسور": 6253,
      "Ġxvii": 6254,
      "ĠInvent": 6255,
      "nere": 6256,
      "ipedia": 6257,
      "Ġthirteen": 6258,
      "ĠServlet": 6259,
      "Ġпоследнего": 6260,
      "ĠFoy": 6261,
      "Ġтопо": 6262,
      "Ġvitro": 6263,
      "Ġgöstere": 6264,
      "Ġgoodies": 6265,
      "በባ": 6266,
      "Ġmids": 6267,
      "Ġአበባ": 6268,
      "NESDAY": 6269,
      "Ġевропей": 6270,
      "Ġاختصاص": 6271,
      "ήμερα": 6272,
      "agal": 6273,
      "Ġكت": 6274,
      "fran": 6275,
      "gst": 6276,
      "Ġtouchpad": 6277,
      "Einz": 6278,
      "imbing": 6279,
      "Ġbial": 6280,
      "ECaut": 6281,
      "Ġshout": 6282,
      "Ġsoftening": 6283,
      "Ġხელისუფ": 6284,
      "ĠСлу": 6285,
      "ĠEV": 6286,
      "Ġsmrt": 6287,
      "ASTM": 6288,
      "Ġföld": 6289,
      "Ġpermittivity": 6290,
      "Ġboto": 6291,
      "legraf": 6292,
      "ĠuserRepository": 6293,
      "Ġsuccinct": 6294,
      "PAss": 6295,
      "Ġchc": 6296,
      "Ġsquirrels": 6297,
      "Ġclings": 6298,
      "UserModel": 6299,
      "uah": 6300,
      "一定": 6301,
      "Ġзеле": 6302,
      "BLIC": 6303,
      "Ġsedimentary": 6304,
      "Fallback": 6305,
      "сни": 6306,
      "Ġmacaw": 6307,
      "nestjs": 6308,
      "Ġadsorbent": 6309,
      "zeta": 6310,
      "alay": 6311,
      "ĠRadha": 6312,
      "ĠBoutique": 6313,
      "Ġtpr": 6314,
      "uska": 6315,
      "Ġسوی": 6316,
      "тьми": 6317,
      "Ġbaşvur": 6318,
      "Ġkeer": 6319,
      "Ġficar": 6320,
      "ouncy": 6321,
      "Ġpainstaking": 6322,
      "graphql": 6323,
      "ওয়": 6324,
      "Ġআওয়": 6325,
      "注意事": 6326,
      "ĠQFile": 6327,
      "NavController": 6328,
      "Ġniekoľ": 6329,
      "umbnails": 6330,
      "ĠCaes": 6331,
      "berger": 6332,
      "addAlignment": 6333,
      "ミア": 6334,
      "ĠFRP": 6335,
      "ĠKxd": 6336,
      "プレミア": 6337,
      "митри": 6338,
      "ĠEldorado": 6339,
      "ĠKRS": 6340,
      "бая": 6341,
      "FromJson": 6342,
      "Ġالهول": 6343,
      "ĠCabrera": 6344,
      "clementine": 6345,
      "Ġzina": 6346,
      "Ġyax": 6347,
      "yama": 6348,
      "ĠTasma": 6349,
      "равни": 6350,
      "OutputFile": 6351,
      "ĠMcCoy": 6352,
      "gave": 6353,
      "irmingham": 6354,
      "resos": 6355,
      "Ġinstanceof": 6356,
      "führung": 6357,
      "Ġtle": 6358,
      "сылка": 6359,
      "Ġarras": 6360,
      "ĠRhine": 6361,
      "çuk": 6362,
      "Ġfick": 6363,
      "Ġмодер": 6364,
      "Ġmerhabalar": 6365,
      "Ġpuiss": 6366,
      "buckets": 6367,
      "клика": 6368,
      "ĠSoto": 6369,
      "Ġlegality": 6370,
      "Ġsuperl": 6371,
      "ıyla": 6372,
      "Ġcậu": 6373,
      "ĠStrap": 6374,
      "ĠCornish": 6375,
      "ĠGigi": 6376,
      "Ġtransferred": 6377,
      "وانه": 6378,
      "usega": 6379,
      "Ġcharge": 6380,
      "sna": 6381,
      "ormais": 6382,
      "ramatic": 6383,
      "Ġدود": 6384,
      "orong": 6385,
      "Ġcarénés": 6386,
      "Ġheml": 6387,
      "Ġباي": 6388,
      "Ġtaala": 6389,
      "therly": 6390,
      "emore": 6391,
      "Ġwinters": 6392,
      "Ġdisappear": 6393,
      "Ġwaived": 6394,
      "uus": 6395,
      "plik": 6396,
      "Ġmaa": 6397,
      "държа": 6398,
      "ĠSIRT": 6399,
      "ĠBouch": 6400,
      "Ġreprim": 6401,
      "Ġsolstice": 6402,
      "Ġيت": 6403,
      "Perc": 6404,
      "FIED": 6405,
      "ĠСан": 6406,
      "ĠSRPGoGetStr": 6407,
      "Ġsayameva": 6408,
      "Ġvery": 6409,
      "ĠKoj": 6410,
      "Nonce": 6411,
      "NPC": 6412,
      "شرات": 6413,
      "بوون": 6414,
      "dete": 6415,
      "Ġnhân": 6416,
      "Ġbost": 6417,
      "Ġmeas": 6418,
      "Ġprofiter": 6419,
      "ĠPatil": 6420,
      "Ġcatastrophic": 6421,
      "گونه": 6422,
      "Ġamort": 6423,
      "ĠWatershed": 6424,
      "ulfate": 6425,
      "Ġвиди": 6426,
      "Ġpotentials": 6427,
      "fair": 6428,
      "Ġdescends": 6429,
      "Ġところ": 6430,
      "andas": 6431,
      "émi": 6432,
      "ĠPEG": 6433,
      "ĠFuss": 6434,
      "ĠHbdm": 6435,
      "тип": 6436,
      "Ġpractic": 6437,
      "ungkin": 6438,
      "ĠelementType": 6439,
      "höhe": 6440,
      "beans": 6441,
      "dataProvider": 6442,
      "Ġмаксимально": 6443,
      "Ġniti": 6444,
      "Ġreception": 6445,
      "endige": 6446,
      "ruise": 6447,
      "buru": 6448,
      "ĠАлексей": 6449,
      "ĠFmat": 6450,
      "halen": 6451,
      "ĠFederación": 6452,
      "Ġsusceptible": 6453,
      "edicine": 6454,
      "cosh": 6455,
      "dden": 6456,
      "Ġdemost": 6457,
      "ĠБалт": 6458,
      "outof": 6459,
      "arby": 6460,
      "gdx": 6461,
      "ĠElias": 6462,
      "Ġcitizens": 6463,
      "Ġpolyn": 6464,
      "Ġrecipro": 6465,
      "ĠYung": 6466,
      "timeInterval": 6467,
      "ĠHagen": 6468,
      "ĠtakePhotoButton": 6469,
      "ĠMoreau": 6470,
      "フォル": 6471,
      "Ġréflex": 6472,
      "cado": 6473,
      "めます": 6474,
      "ĠSalas": 6475,
      "Ġビタミン": 6476,
      "AOrdenar": 6477,
      "Ġlés": 6478,
      "meed": 6479,
      "omid": 6480,
      "ĠmorphOutputComp": 6481,
      "Ġösszef": 6482,
      "periences": 6483,
      "ĠBeatrice": 6484,
      "ĠBACH": 6485,
      "hag": 6486,
      "ĠBounty": 6487,
      "Ġفوټبال": 6488,
      "ậc": 6489,
      "Ġbậc": 6490,
      "ĠHARR": 6491,
      "Newswire": 6492,
      "flatten": 6493,
      "arele": 6494,
      "最初に": 6495,
      "świad": 6496,
      "Ġaloj": 6497,
      "wellery": 6498,
      "ĠSchriftsteller": 6499,
      "Ġاتباع": 6500,
      "Ġمورد": 6501,
      "PerformLayout": 6502,
      "Ġшвид": 6503,
      "rifft": 6504,
      "ĠNagar": 6505,
      "λαδή": 6506,
      "Ġmonotonically": 6507,
      "đenje": 6508,
      "Ġharem": 6509,
      "โรงแรม": 6510,
      "hlas": 6511,
      "IRED": 6512,
      "ĠGrass": 6513,
      "pJPEG": 6514,
      "ísk": 6515,
      "atche": 6516,
      "Ġdick": 6517,
      "Ġarbitrary": 6518,
      "Virtualized": 6519,
      "pJPEGBuf": 6520,
      "drav": 6521,
      "ĠGlu": 6522,
      "Ġunir": 6523,
      "cienze": 6524,
      "wives": 6525,
      "Ġmydict": 6526,
      "Ġarchived": 6527,
      "ĠTRP": 6528,
      "NAMES": 6529,
      "ĠTRPV": 6530,
      "machen": 6531,
      "мато": 6532,
      "Ġoverwhelming": 6533,
      "преки": 6534,
      "lwjglVersion": 6535,
      "Ġnapp": 6536,
      "Ġintron": 6537,
      "ریٹر": 6538,
      "Ġmänner": 6539,
      "ぶりの": 6540,
      "Ġerbjud": 6541,
      "ĠPeltier": 6542,
      "ůže": 6543,
      "ĠKham": 6544,
      "ESCO": 6545,
      "romagnet": 6546,
      "gis": 6547,
      "tbx": 6548,
      "Ġkuiten": 6549,
      "ĠCach": 6550,
      "ĠBadal": 6551,
      "ĠTextInputLayout": 6552,
      "ĠscrollView": 6553,
      "gyp": 6554,
      "ĠWuhan": 6555,
      "CPU": 6556,
      "एसआई": 6557,
      "gypte": 6558,
      "rasc": 6559,
      "Viewport": 6560,
      "ĠCarrasc": 6561,
      "ĠCarrasco": 6562,
      "includegraphics": 6563,
      "orbic": 6564,
      "Ġascorbic": 6565,
      "ĠsetItems": 6566,
      "amai": 6567,
      "accessToken": 6568,
      "gnię": 6569,
      "ウォ": 6570,
      "ônico": 6571,
      "Identity": 6572,
      "Ġtestify": 6573,
      "Ġمشک": 6574,
      "ĠjPanel": 6575,
      "ithing": 6576,
      "Ġdisgust": 6577,
      "ĠMantra": 6578,
      "Ġportavoz": 6579,
      "ĠNiro": 6580,
      "ylen": 6581,
      "Ġулице": 6582,
      "aboutme": 6583,
      "ourglass": 6584,
      "енера": 6585,
      "âmara": 6586,
      "ĠRouen": 6587,
      "Pont": 6588,
      "Ġتعالی": 6589,
      "шер": 6590,
      "Ġflatter": 6591,
      "Ġrifer": 6592,
      "ĠTextFormField": 6593,
      "ICAGO": 6594,
      "ładow": 6595,
      "الق": 6596,
      "Ġenforces": 6597,
      "ĠSeo": 6598,
      "Means": 6599,
      "Ġқили": 6600,
      "ĠCair": 6601,
      "ĠHän": 6602,
      "Ġdehydrated": 6603,
      "akeda": 6604,
      "areader": 6605,
      "ĠByron": 6606,
      "Her": 6607,
      "Ġکری": 6608,
      "Ġxaxis": 6609,
      "Ġআই": 6610,
      "Ġcitizen": 6611,
      "nons": 6612,
      "Ġhastal": 6613,
      "мых": 6614,
      "Ġgroovy": 6615,
      "ĠLaplacian": 6616,
      "getBounding": 6617,
      "úscula": 6618,
      "ĠTug": 6619,
      "ardım": 6620,
      "Ġدعا": 6621,
      "Ġнерав": 6622,
      "Ġfootball": 6623,
      "Land": 6624,
      "ማይ": 6625,
      "Ġöffentlich": 6626,
      "Ġየማይ": 6627,
      "Ġmlad": 6628,
      "ĠScottsdale": 6629,
      "Ġatomizer": 6630,
      "ĠDELLA": 6631,
      "iteits": 6632,
      "ClrType": 6633,
      "któ": 6634,
      "чан": 6635,
      "Ġподроб": 6636,
      "ĠBelize": 6637,
      "Ġimmunoblot": 6638,
      "管理人": 6639,
      "San": 6640,
      "SanPham": 6641,
      "Ġвверх": 6642,
      "beatable": 6643,
      "Feed": 6644,
      "Ġhouse": 6645,
      "Ġhyphen": 6646,
      "Ġlakh": 6647,
      "ционе": 6648,
      "Ġadmissibility": 6649,
      "GlobalSection": 6650,
      "XSSF": 6651,
      "Ġdiaz": 6652,
      "WindowConstants": 6653,
      "arlight": 6654,
      "Ġنحو": 6655,
      "Ġiti": 6656,
      "лле": 6657,
      "وشن": 6658,
      "Ġbov": 6659,
      "ĠkPa": 6660,
      "Ġyojetabbani": 6661,
      "Ġlipos": 6662,
      "ĠCarmel": 6663,
      "Ġвзрос": 6664,
      "Ġfail": 6665,
      "жан": 6666,
      "ĠCortez": 6667,
      "LocalAppData": 6668,
      "Ġأوروبا": 6669,
      "ĠLinde": 6670,
      "Ġpector": 6671,
      "grafoExiste": 6672,
      "Ġseguirá": 6673,
      "leiding": 6674,
      "ĠFenton": 6675,
      "Ġzeros": 6676,
      "Ġخوات": 6677,
      "igarh": 6678,
      "назна": 6679,
      "Ġensimmä": 6680,
      "revista": 6681,
      "Ġfudai": 6682,
      "actica": 6683,
      "Ġrougeâtre": 6684,
      "gène": 6685,
      "ĠMani": 6686,
      "Ġاستح": 6687,
      "Ġhunch": 6688,
      "onesome": 6689,
      "Ġтако": 6690,
      "policy": 6691,
      "isdigit": 6692,
      "issons": 6693,
      "ierrez": 6694,
      "ĠТака": 6695,
      "ĠAbl": 6696,
      "itiert": 6697,
      "edió": 6698,
      "Thể": 6699,
      "Ġsucedió": 6700,
      "ĠStrukt": 6701,
      "ToolStripItem": 6702,
      "Ġприменя": 6703,
      "Ġyên": 6704,
      "ĠRecord": 6705,
      "FTWARE": 6706,
      "ĠEmpres": 6707,
      "ĠMohawk": 6708,
      "úly": 6709,
      "umo": 6710,
      "ĠuserInput": 6711,
      "atakse": 6712,
      "abama": 6713,
      "izmu": 6714,
      "GaAs": 6715,
      "ligen": 6716,
      "Ġmembranes": 6717,
      "úde": 6718,
      "Ġkre": 6719,
      "akiem": 6720,
      "Ġhazır": 6721,
      "prefix": 6722,
      "Ġservlet": 6723,
      "ModuleManager": 6724,
      "Ġpade": 6725,
      "Ġpartic": 6726,
      "ĠAgra": 6727,
      "holt": 6728,
      "жений": 6729,
      "ĠHester": 6730,
      "Ġcreeping": 6731,
      "Ġconseil": 6732,
      "ĠDrape": 6733,
      "ovascular": 6734,
      "IService": 6735,
      "ĠХо": 6736,
      "ĠDrapeau": 6737,
      "Ġhinders": 6738,
      "intestin": 6739,
      "Ġpaliyam": 6740,
      "ĠEllington": 6741,
      "eventId": 6742,
      "ĠKasım": 6743,
      "κλη": 6744,
      "Normdaten": 6745,
      "ĠLid": 6746,
      "Ġروب": 6747,
      "Ġتجمع": 6748,
      "athyroid": 6749,
      "ĠSuresh": 6750,
      "Ġadmi": 6751,
      "losti": 6752,
      "ileage": 6753,
      "ambuf": 6754,
      "Ġkonuşt": 6755,
      "Ġkonuştu": 6756,
      "rasekhar": 6757,
      "Ġchoked": 6758,
      "Ġavenge": 6759,
      "рів": 6760,
      "BF": 6761,
      "dew": 6762,
      "Ġwhisk": 6763,
      "BFAppLink": 6764,
      "ĠSpiel": 6765,
      "Ġdiffract": 6766,
      "eware": 6767,
      "cstdlib": 6768,
      "ceo": 6769,
      "ĠGPIO": 6770,
      "Ġkai": 6771,
      "axal": 6772,
      "helle": 6773,
      "osas": 6774,
      "相关": 6775,
      "Ġpsyched": 6776,
      "Ġrighth": 6777,
      "Ġbör": 6778,
      "ويس": 6779,
      "ĠAzad": 6780,
      "pric": 6781,
      "Ġgroß": 6782,
      "paginate": 6783,
      "ĠDyson": 6784,
      "Html": 6785,
      "pmap": 6786,
      "れています": 6787,
      "Foster": 6788,
      "Ġuner": 6789,
      "ктак": 6790,
      "ذية": 6791,
      "Ġbhavati": 6792,
      "Ġtemplate": 6793,
      "atari": 6794,
      "uruhan": 6795,
      "ĠEuropese": 6796,
      "ĠFinch": 6797,
      "afat": 6798,
      "iern": 6799,
      "ĠКо": 6800,
      "Ġspoof": 6801,
      "ĠSidebar": 6802,
      "ισμού": 6803,
      "ĠWissenschaft": 6804,
      "lections": 6805,
      "indigo": 6806,
      "Ġشرا": 6807,
      "Ġპირ": 6808,
      "Ġопор": 6809,
      "badbreak": 6810,
      "ĠShou": 6811,
      "mere": 6812,
      "ĠPard": 6813,
      "Ġshay": 6814,
      "Ġминут": 6815,
      "Ġtoolbar": 6816,
      "ĠPHE": 6817,
      "DITION": 6818,
      "Ġمختلف": 6819,
      "ziu": 6820,
      "рованных": 6821,
      "etrically": 6822,
      "être": 6823,
      "ĠFoley": 6824,
      "oldCount": 6825,
      "iscing": 6826,
      "ĠMagist": 6827,
      "Ġadipiscing": 6828,
      "puce": 6829,
      "bius": 6830,
      "দম": 6831,
      "ĠAlf": 6832,
      "Ġzoomed": 6833,
      "ĠArchersUnit": 6834,
      "Ġserr": 6835,
      "skih": 6836,
      "Ġacquitted": 6837,
      "Ġauteur": 6838,
      "oacute": 6839,
      "Ġبرف": 6840,
      "inian": 6841,
      "Ġqueridos": 6842,
      "Ġстратегиясе": 6843,
      "ĠLex": 6844,
      "checked": 6845,
      "繋がり": 6846,
      "Ġdolom": 6847,
      "iality": 6848,
      "Ġdistal": 6849,
      "district": 6850,
      "ajan": 6851,
      "inação": 6852,
      "Ġindent": 6853,
      "服务器": 6854,
      "iagn": 6855,
      "Ġgira": 6856,
      "ĠTAYLOR": 6857,
      "Ġolen": 6858,
      "ettiin": 6859,
      "UA": 6860,
      "anah": 6861,
      "étricas": 6862,
      "дает": 6863,
      "Ġinvierno": 6864,
      "Ġbaat": 6865,
      "Ġtrex": 6866,
      "DEBUG": 6867,
      "Ġsdk": 6868,
      "ĠBug": 6869,
      "Ġالمدر": 6870,
      "ckpt": 6871,
      "ĠMone": 6872,
      "Ġсестра": 6873,
      "まる": 6874,
      "Moving": 6875,
      "Ġสถาน": 6876,
      "щите": 6877,
      "Ġmud": 6878,
      "partum": 6879,
      "өрү": 6880,
      "Ġгрома": 6881,
      "Ġمضمون": 6882,
      "ĠPeel": 6883,
      "ătate": 6884,
      "Ġهغه": 6885,
      "ĠAnnotation": 6886,
      "Ġloco": 6887,
      "Ġexplained": 6888,
      "BST": 6889,
      "Ġsilt": 6890,
      "Ġплаты": 6891,
      "pada": 6892,
      "աս": 6893,
      "ĠTruss": 6894,
      "Ġbuttocks": 6895,
      "Ġпривести": 6896,
      "Ġquanta": 6897,
      "ĠLiefer": 6898,
      "ĠHUB": 6899,
      "ĠInsp": 6900,
      "женер": 6901,
      "irane": 6902,
      "Ġката": 6903,
      "Ġcameos": 6904,
      "ĠCDT": 6905,
      "capturePlayer": 6906,
      "Power": 6907,
      "ميل": 6908,
      "aloo": 6909,
      "imai": 6910,
      "npj": 6911,
      "Ġtắc": 6912,
      "Ġfringe": 6913,
      "ĠDryden": 6914,
      "nnc": 6915,
      "ähe": 6916,
      "لوں": 6917,
      "ĠDuck": 6918,
      "ĠGAA": 6919,
      "ĠNähe": 6920,
      "ENSOR": 6921,
      "amese": 6922,
      "ĠGarner": 6923,
      "ASSI": 6924,
      "Ġbilan": 6925,
      "Ġплоща": 6926,
      "ensureEqual": 6927,
      "ĠSAD": 6928,
      "Ġvattabb": 6929,
      "Ġmatur": 6930,
      "ĠIti": 6931,
      "estructura": 6932,
      "Ġნახ": 6933,
      "Flipper": 6934,
      "ĠNago": 6935,
      "Ġtoothpick": 6936,
      "ĠNagoya": 6937,
      "گه": 6938,
      "Ġmerito": 6939,
      "psum": 6940,
      "Lah": 6941,
      "ĠLTC": 6942,
      "čné": 6943,
      "Conf": 6944,
      "utiva": 6945,
      "Ġwaisted": 6946,
      "Ġúltima": 6947,
      "torio": 6948,
      "cylinder": 6949,
      "lif": 6950,
      "Ġඅ": 6951,
      "තර": 6952,
      "Ġඅතර": 6953,
      "าส": 6954,
      "გორ": 6955,
      "ковым": 6956,
      "aduras": 6957,
      "Ġdepleted": 6958,
      "Ġoppressive": 6959,
      "Ġfrictionless": 6960,
      "Ġمجازی": 6961,
      "Ġvenu": 6962,
      "Rectangle": 6963,
      "ĠBartlett": 6964,
      "ultima": 6965,
      "itesse": 6966,
      "ĠConsider": 6967,
      "piel": 6968,
      "ĠBAM": 6969,
      "getResource": 6970,
      "asmussen": 6971,
      "Ġchamb": 6972,
      "Ġhairpin": 6973,
      "ออ": 6974,
      "Ġmág": 6975,
      "Ġпреодо": 6976,
      "Ġเออ": 6977,
      "ĠAlia": 6978,
      "ısında": 6979,
      "MediaPlayer": 6980,
      "yright": 6981,
      "otsu": 6982,
      "Ġbại": 6983,
      "ĠQVector": 6984,
      "ĠMEP": 6985,
      "ĠEIR": 6986,
      "enze": 6987,
      "ærk": 6988,
      "Ġвыбо": 6989,
      "Ġbyt": 6990,
      "strup": 6991,
      "esterol": 6992,
      "ĠSMB": 6993,
      "embali": 6994,
      "Ġsakk": 6995,
      "торое": 6996,
      "Ġmãn": 6997,
      "ĠPCB": 6998,
      "rym": 6999,
      "ĠZab": 7000,
      "Ġimmunos": 7001,
      "Ġmarcas": 7002,
      "ichiro": 7003,
      "ĠPrevent": 7004,
      "LEncoder": 7005,
      "whitelist": 7006,
      "Ġstrike": 7007,
      "Ġжителей": 7008,
      "Philippe": 7009,
      "Ġmieszkańców": 7010,
      "Ġएडम": 7011,
      "kelijke": 7012,
      "endente": 7013,
      "viä": 7014,
      "อยาก": 7015,
      "ĠCapp": 7016,
      "koord": 7017,
      "imc": 7018,
      "Ġmotoc": 7019,
      "addie": 7020,
      "Ġheterocyclic": 7021,
      "Ġchâ": 7022,
      "кте": 7023,
      "propoxy": 7024,
      "ivors": 7025,
      "Ġzasi": 7026,
      "klore": 7027,
      "ĠKoen": 7028,
      "Ġzebra": 7029,
      "Ġпраз": 7030,
      "ĠFamilie": 7031,
      "ĠKoenig": 7032,
      "IBOutlet": 7033,
      "ITIONS": 7034,
      "Ġnarrows": 7035,
      "aeda": 7036,
      "ĠChromeDriver": 7037,
      "ynos": 7038,
      "zeni": 7039,
      "ĠAlberts": 7040,
      "aceuticals": 7041,
      "ĠAvoiding": 7042,
      "ĠBCCI": 7043,
      "vedad": 7044,
      "lorescence": 7045,
      "Ġση": 7046,
      "ĠMFG": 7047,
      "дава": 7048,
      "svr": 7049,
      "бна": 7050,
      "Ġailing": 7051,
      "années": 7052,
      "Jung": 7053,
      "izeit": 7054,
      "ĠLangevin": 7055,
      "ĠFreder": 7056,
      "itake": 7057,
      "quotes": 7058,
      "allclasses": 7059,
      "ADEL": 7060,
      "spicuous": 7061,
      "ISTRY": 7062,
      "надцать": 7063,
      "EIS": 7064,
      "ĠDIEGO": 7065,
      "atop": 7066,
      "ersey": 7067,
      "Ġalkalies": 7068,
      "оби": 7069,
      "Ġقو": 7070,
      "ĠTransp": 7071,
      "ĠMaas": 7072,
      "ĠVishal": 7073,
      "ĠBres": 7074,
      "ĠGamb": 7075,
      "تقاوى": 7076,
      "oland": 7077,
      "ĠDOWN": 7078,
      "requently": 7079,
      "jetbrains": 7080,
      "ραπε": 7081,
      "ĠClaud": 7082,
      "زینه": 7083,
      "ĠSeng": 7084,
      "Ġfaud": 7085,
      "raintree": 7086,
      "ubt": 7087,
      "ĠAap": 7088,
      "Ġmineral": 7089,
      "comings": 7090,
      "Ġbrother": 7091,
      "Ġdala": 7092,
      "Ġtako": 7093,
      "NOWN": 7094,
      "šću": 7095,
      "ĠHorst": 7096,
      "anakk": 7097,
      "internal": 7098,
      "Ġsavk": 7099,
      "Ġetti": 7100,
      "incarn": 7101,
      "WhiteElo": 7102,
      "Ġusurp": 7103,
      "elj": 7104,
      "Ġrecital": 7105,
      "Ġinglés": 7106,
      "Hir": 7107,
      "väl": 7108,
      "шно": 7109,
      "ĠPamp": 7110,
      "setzung": 7111,
      "aurus": 7112,
      "ĠIntelli": 7113,
      "RAIT": 7114,
      "Ġبش": 7115,
      "ĠBewert": 7116,
      "Ġsubordination": 7117,
      "nas": 7118,
      "Ġoncologist": 7119,
      "ĠPueblo": 7120,
      "agat": 7121,
      "ivism": 7122,
      "assoc": 7123,
      "Ġpalt": 7124,
      "geordnet": 7125,
      "Ġweigh": 7126,
      "iosas": 7127,
      "exempt": 7128,
      "atthena": 7129,
      "riba": 7130,
      "Ġtimestep": 7131,
      "Ġerkek": 7132,
      "Ġpredstav": 7133,
      "Ġsobra": 7134,
      "veyor": 7135,
      "enol": 7136,
      "ithe": 7137,
      "undur": 7138,
      "žas": 7139,
      "owice": 7140,
      "getBy": 7141,
      "Ġsupposed": 7142,
      "Ġoutsource": 7143,
      "خصة": 7144,
      "Ġrahe": 7145,
      "Ġgrep": 7146,
      "beard": 7147,
      "Ġആ": 7148,
      "voie": 7149,
      "Ġsilice": 7150,
      "Ġtov": 7151,
      "ĠDurban": 7152,
      "Bench": 7153,
      "kbar": 7154,
      "Ġقاب": 7155,
      "Ġcec": 7156,
      "Ġtransatlantic": 7157,
      "drawcountery": 7158,
      "Ġსაკ": 7159,
      "ĠCBE": 7160,
      "tit": 7161,
      "radiated": 7162,
      "ArrowToggle": 7163,
      "matica": 7164,
      "ToGoResult": 7165,
      "стью": 7166,
      "ذاب": 7167,
      "バイス": 7168,
      "Ġtetrah": 7169,
      "çay": 7170,
      "Ġdilem": 7171,
      "ĠPaste": 7172,
      "лав": 7173,
      "ĠStrugg": 7174,
      "тна": 7175,
      "Ġshingles": 7176,
      "Ġsecl": 7177,
      "Annotation": 7178,
      "рожден": 7179,
      "ParaPackage": 7180,
      "supset": 7181,
      "ĠNotiflix": 7182,
      "Ġšta": 7183,
      "message": 7184,
      "ĠIGBT": 7185,
      "curidad": 7186,
      "Ġoscuridad": 7187,
      "Ġkhoản": 7188,
      "édez": 7189,
      "ĠBrune": 7190,
      "ĠConsoleKey": 7191,
      "Opportunities": 7192,
      "Ġraiding": 7193,
      "Ġصوب": 7194,
      "Ġacompañ": 7195,
      "ĠPrometheus": 7196,
      "OCUS": 7197,
      "greSQL": 7198,
      "ĠCasta": 7199,
      "ĠJard": 7200,
      "dh": 7201,
      "کروچ": 7202,
      "otically": 7203,
      "ĠChowdh": 7204,
      "edu": 7205,
      "ĠConley": 7206,
      "opre": 7207,
      "Ġvalign": 7208,
      "Ġакы": 7209,
      "ylim": 7210,
      "Ġseag": 7211,
      "Ġהנו": 7212,
      "Pict": 7213,
      "ĠSCI": 7214,
      "щён": 7215,
      "esity": 7216,
      "Ġprij": 7217,
      "ειο": 7218,
      "fes": 7219,
      "PSG": 7220,
      "Ġkring": 7221,
      "ĠYangtze": 7222,
      "ናወ": 7223,
      "ከናወ": 7224,
      "Ġbarbe": 7225,
      "dragging": 7226,
      "Ġemotive": 7227,
      "ĠSalerno": 7228,
      "gebung": 7229,
      "Ġfastener": 7230,
      "ワー": 7231,
      "тап": 7232,
      "Ġcomod": 7233,
      "рян": 7234,
      "sound": 7235,
      "tender": 7236,
      "Ġउबर": 7237,
      "дование": 7238,
      "Ġkés": 7239,
      "ĠKogi": 7240,
      "Ġbenches": 7241,
      "Ġrédu": 7242,
      "Ġالسف": 7243,
      "Ġlaurea": 7244,
      "openia": 7245,
      "Ġfob": 7246,
      "getNome": 7247,
      "swiper": 7248,
      "diaz": 7249,
      "Ġfør": 7250,
      "ĠБого": 7251,
      "上げた": 7252,
      "Ġducha": 7253,
      "ĠSIP": 7254,
      "ĠMAKE": 7255,
      "Ġспу": 7256,
      "Ġhandcuffs": 7257,
      "schap": 7258,
      "TabData": 7259,
      "noy": 7260,
      "νης": 7261,
      "agis": 7262,
      "posX": 7263,
      "ĠplayerData": 7264,
      "Ġworsh": 7265,
      "Ġparecía": 7266,
      "adikan": 7267,
      "Ġsubl": 7268,
      "ništ": 7269,
      "usely": 7270,
      "targetReference": 7271,
      "ĠCURL": 7272,
      "Ġinneh": 7273,
      "ayakan": 7274,
      "Ġpresided": 7275,
      "uedata": 7276,
      "ĠOffices": 7277,
      "ĠILO": 7278,
      "ĠTagore": 7279,
      "Ġinasmuch": 7280,
      "keyPressed": 7281,
      "लट": 7282,
      "zieć": 7283,
      "ĠGérard": 7284,
      "cię": 7285,
      "ldg": 7286,
      "iertos": 7287,
      "indexOf": 7288,
      "Ġcán": 7289,
      "ersonal": 7290,
      "ĠVeracruz": 7291,
      "ĠKähler": 7292,
      "jate": 7293,
      "Ġbith": 7294,
      "Ġبطور": 7295,
      "Ġświe": 7296,
      "cev": 7297,
      "ĠBaumann": 7298,
      "женности": 7299,
      "ĠJop": 7300,
      "ĠDeja": 7301,
      "PlainText": 7302,
      "vspace": 7303,
      "wire": 7304,
      "Ġshirt": 7305,
      "ermanent": 7306,
      "returnSystemCall": 7307,
      "recen": 7308,
      "ĠCallOptions": 7309,
      "Ġالمملكة": 7310,
      "ĠHose": 7311,
      "Ġplufieurs": 7312,
      "Ġконкурса": 7313,
      "ĠShields": 7314,
      "hevik": 7315,
      "のではない": 7316,
      "myd": 7317,
      "chod": 7318,
      "Ġinterven": 7319,
      "Ġayı": 7320,
      "RiteOfThe": 7321,
      "ნდა": 7322,
      "ouli": 7323,
      "اتو": 7324,
      "rezent": 7325,
      "itech": 7326,
      "тивна": 7327,
      "Ġzgod": 7328,
      "raciones": 7329,
      "Ġخصوص": 7330,
      "Locator": 7331,
      "Ġtecnológ": 7332,
      "čkom": 7333,
      "anzia": 7334,
      "cid": 7335,
      "pid": 7336,
      "ĠSling": 7337,
      "Ġcrass": 7338,
      "oughby": 7339,
      "lighthouse": 7340,
      "iazione": 7341,
      "xia": 7342,
      "усть": 7343,
      "かに": 7344,
      "ĠПусть": 7345,
      "Ġmemberi": 7346,
      "damageCount": 7347,
      "mata": 7348,
      "relu": 7349,
      "ĠlistView": 7350,
      "ĠTsche": 7351,
      "ليات": 7352,
      "ゴル": 7353,
      "ゴルフ": 7354,
      "APK": 7355,
      "Zoom": 7356,
      "pase": 7357,
      "ĠIsis": 7358,
      "quête": 7359,
      "ĠDou": 7360,
      "Ġraff": 7361,
      "Ġontv": 7362,
      "ĠPadres": 7363,
      "GISLATIVE": 7364,
      "Ġanz": 7365,
      "Ġbeschäftigen": 7366,
      "gget": 7367,
      "ateboard": 7368,
      "Ġприведен": 7369,
      "ĠWeston": 7370,
      "quirements": 7371,
      "celles": 7372,
      "Ġудо": 7373,
      "κρα": 7374,
      "apest": 7375,
      "plain": 7376,
      "offsetX": 7377,
      "Ġdiagonalizable": 7378,
      "ĠTull": 7379,
      "хал": 7380,
      "Ġبیټینګ": 7381,
      "Ġügy": 7382,
      "Ġþing": 7383,
      "compens": 7384,
      "Ġfün": 7385,
      "apay": 7386,
      "が表示": 7387,
      "Ġpse": 7388,
      "feer": 7389,
      "DeleteMapping": 7390,
      "ĠBennet": 7391,
      "akana": 7392,
      "ĠAppropriate": 7393,
      "MORDOR": 7394,
      "Ġdüz": 7395,
      "songs": 7396,
      "Ġjato": 7397,
      "Ġfreck": 7398,
      "Ġgodzin": 7399,
      "CFBundle": 7400,
      "Ġмая": 7401,
      "Ġpeanuts": 7402,
      "Ġназвать": 7403,
      "Ġсне": 7404,
      "Ġбас": 7405,
      "obedience": 7406,
      "рет": 7407,
      "ĠWestwood": 7408,
      "TLE": 7409,
      "Ġchopped": 7410,
      "Ġphishing": 7411,
      "Bromo": 7412,
      "session": 7413,
      "GPIOA": 7414,
      "Weblinks": 7415,
      "Ġایف": 7416,
      "ových": 7417,
      "Ġrufis": 7418,
      "ĠThinQ": 7419,
      "utm": 7420,
      "Ġalé": 7421,
      "ĠArmenia": 7422,
      "경된": 7423,
      "변경된": 7424,
      "ĠSwe": 7425,
      "INH": 7426,
      "omerase": 7427,
      "ĠMonro": 7428,
      "iby": 7429,
      "Ġtheor": 7430,
      "Ġконкурс": 7431,
      "apha": 7432,
      "ĠEDTA": 7433,
      "Ġappare": 7434,
      "patched": 7435,
      "azas": 7436,
      "Ġunsur": 7437,
      "ĠLaub": 7438,
      "Ġdapp": 7439,
      "ĠDend": 7440,
      "levi": 7441,
      "ĠSerg": 7442,
      "Ġavut": 7443,
      "bels": 7444,
      "ĠShenz": 7445,
      "Ġმას": 7446,
      "ковой": 7447,
      "ĠShenzhen": 7448,
      "čke": 7449,
      "ĠDDo": 7450,
      "Ġporch": 7451,
      "ĠDDoS": 7452,
      "Ġcuch": 7453,
      "Ġlyd": 7454,
      "veston": 7455,
      "Ġknapp": 7456,
      "sourceforge": 7457,
      "ющая": 7458,
      "支持": 7459,
      "ĠJas": 7460,
      "Ġgrü": 7461,
      "Ġúnic": 7462,
      "Ġلوبو": 7463,
      "ĠCalcd": 7464,
      "cccs": 7465,
      "lichting": 7466,
      "ĠPalaiseau": 7467,
      "cester": 7468,
      "milk": 7469,
      "ıdır": 7470,
      "rota": 7471,
      "Ġherum": 7472,
      "ĠRegener": 7473,
      "طا": 7474,
      "ĠUILabel": 7475,
      "Ġعطا": 7476,
      "rague": 7477,
      "цам": 7478,
      "Ġконструк": 7479,
      "liz": 7480,
      "Ġداشت": 7481,
      "Ġوہاں": 7482,
      "ĠSylvie": 7483,
      "shells": 7484,
      "Ġالسب": 7485,
      "Ġleopards": 7486,
      "ileno": 7487,
      "azón": 7488,
      "readystate": 7489,
      "iguation": 7490,
      "ULTY": 7491,
      "Lic": 7492,
      "Patch": 7493,
      "ĠAppet": 7494,
      "ირი": 7495,
      "Ġзабезпе": 7496,
      "женного": 7497,
      "ĠDubois": 7498,
      "Ġvya": 7499,
      "Concurrency": 7500,
      "ĠSTAND": 7501,
      "ĠPythag": 7502,
      "โทษ": 7503,
      "ĠdoneProcessAvg": 7504,
      "Ġpelvis": 7505,
      "ĠKhalil": 7506,
      "ردو": 7507,
      "ĠUserManager": 7508,
      "akty": 7509,
      "ĠПодо": 7510,
      "ústria": 7511,
      "Ġcompacto": 7512,
      "articles": 7513,
      "ĠTeil": 7514,
      "Ġпоследнее": 7515,
      "χαν": 7516,
      "playerPosition": 7517,
      "Ġfüggvény": 7518,
      "стане": 7519,
      "Ġصہیونی": 7520,
      "Ġmultilevel": 7521,
      "Ġokaz": 7522,
      "Ġimmobilized": 7523,
      "ĠВеликобрита": 7524,
      "Ġfences": 7525,
      "hay": 7526,
      "Ġorthogon": 7527,
      "ATTA": 7528,
      "Ġrese": 7529,
      "HEX": 7530,
      "loot": 7531,
      "ĠMontserrat": 7532,
      "distan": 7533,
      "ĠJMJ": 7534,
      "Ġmasculin": 7535,
      "ĠJMJD": 7536,
      "FLICT": 7537,
      "Ġnyil": 7538,
      "Ġnetherlands": 7539,
      "лово": 7540,
      "Ġblanchâtre": 7541,
      "Ġbenchmarking": 7542,
      "umbing": 7543,
      "Ġהוד": 7544,
      "startswith": 7545,
      "ĠIRC": 7546,
      "рок": 7547,
      "IRQHandler": 7548,
      "ggak": 7549,
      "ĠPOL": 7550,
      "iential": 7551,
      "Ġredondo": 7552,
      "ĠSRPObject": 7553,
      "ĠDSL": 7554,
      "ĠREACTORS": 7555,
      "jez": 7556,
      "cated": 7557,
      "kker": 7558,
      "ĠJacoby": 7559,
      "uenti": 7560,
      "ScheduledAction": 7561,
      "CY": 7562,
      "čku": 7563,
      "Ġкоторая": 7564,
      "ĠBridgewater": 7565,
      "ĠdidReceive": 7566,
      "CYCL": 7567,
      "ĠPRC": 7568,
      "ĠBatter": 7569,
      "тыми": 7570,
      "Ġodm": 7571,
      "achev": 7572,
      "Ġbeş": 7573,
      "ngo": 7574,
      "Ġpriori": 7575,
      "Ġgetchar": 7576,
      "Ġسته": 7577,
      "Ġusers": 7578,
      "arial": 7579,
      "Ġnoemen": 7580,
      "Touchable": 7581,
      "Ġканцеля": 7582,
      "ĠGenn": 7583,
      "chte": 7584,
      "Ġlagged": 7585,
      "Ġjoka": 7586,
      "дым": 7587,
      "Ġ되": 7588,
      "ĠBabb": 7589,
      "Ġвесь": 7590,
      "Ġওমর": 7591,
      "ĠVitt": 7592,
      "ĠBerman": 7593,
      "DataType": 7594,
      "Ġمثبت": 7595,
      "ĠJovi": 7596,
      "Ġinertial": 7597,
      "Ġbuddh": 7598,
      "Ġcreencias": 7599,
      "PropertyName": 7600,
      "丈夫": 7601,
      "大丈夫": 7602,
      "Ġhend": 7603,
      "Ġannak": 7604,
      "Ġsolu": 7605,
      "ĠMär": 7606,
      "Ġtien": 7607,
      "ĠAED": 7608,
      "ĠStev": 7609,
      "rinsim": 7610,
      "yank": 7611,
      "Ġвнесен": 7612,
      "Ġmultiprocessing": 7613,
      "apac": 7614,
      "ĠBreak": 7615,
      "UART": 7616,
      "resel": 7617,
      "EMANN": 7618,
      "Ġاسرائیلی": 7619,
      "пта": 7620,
      "TextView": 7621,
      "hehi": 7622,
      "ĠParagon": 7623,
      "FromServer": 7624,
      "tega": 7625,
      "ĠMets": 7626,
      "Ġexpans": 7627,
      "Ġnonchal": 7628,
      "Ġappendages": 7629,
      "ؤول": 7630,
      "Ġلگانا": 7631,
      "Ġlitro": 7632,
      "Ġایست": 7633,
      "selectedValue": 7634,
      "Ġclots": 7635,
      "óź": 7636,
      "Ġpóź": 7637,
      "ገር": 7638,
      "Ġነገር": 7639,
      "itent": 7640,
      "Ġsensibilities": 7641,
      "ĠBuscar": 7642,
      "menuid": 7643,
      "Span": 7644,
      "お客様": 7645,
      "peau": 7646,
      "childNodes": 7647,
      "ĠLia": 7648,
      "Ġovertaken": 7649,
      "mavros": 7650,
      "ĠDand": 7651,
      "arnas": 7652,
      "gruntled": 7653,
      "tand": 7654,
      "oxych": 7655,
      "тено": 7656,
      "functions": 7657,
      "ustat": 7658,
      "ĠGuadeloupe": 7659,
      "Ġfortiter": 7660,
      "ĠJoule": 7661,
      "Permutacji": 7662,
      "Ġdiciembre": 7663,
      "үр": 7664,
      "ĠCanning": 7665,
      "Ġclôt": 7666,
      "Ġтүр": 7667,
      "Ġوزیراعظم": 7668,
      "ioners": 7669,
      "orgeous": 7670,
      "Ġured": 7671,
      "agree": 7672,
      "Ġpretrial": 7673,
      "Lambert": 7674,
      "WAS": 7675,
      "っちゃ": 7676,
      "Ġeos": 7677,
      "ĠBeale": 7678,
      "Ġحفاظ": 7679,
      "zac": 7680,
      "児島": 7681,
      "鹿児島": 7682,
      "ljik": 7683,
      "Ġugljik": 7684,
      "nexus": 7685,
      "ĠBering": 7686,
      "ĠPlayboy": 7687,
      "StarParaPkgBody": 7688,
      "Ġgrated": 7689,
      "katana": 7690,
      "Ġquát": 7691,
      "Ġacuer": 7692,
      "Ġroya": 7693,
      "zze": 7694,
      "Ġጥ": 7695,
      "ቅም": 7696,
      "Ġticked": 7697,
      "ĠSRC": 7698,
      "Ġጥቅም": 7699,
      "cand": 7700,
      "Ġcüm": 7701,
      "Ġpisc": 7702,
      "Ġaswell": 7703,
      "ocomm": 7704,
      "awatt": 7705,
      "Ġindemnify": 7706,
      "ocommit": 7707,
      "ĠNEM": 7708,
      "prung": 7709,
      "doors": 7710,
      "мей": 7711,
      "Ġأبري": 7712,
      "Ġfallacy": 7713,
      "Ġأبريل": 7714,
      "ĠDolom": 7715,
      "fromRGBO": 7716,
      "ĠSald": 7717,
      "AIT": 7718,
      "ĠTant": 7719,
      "neas": 7720,
      "Ġoprac": 7721,
      "Ġdijeron": 7722,
      "abba": 7723,
      "holen": 7724,
      "Shir": 7725,
      "roduce": 7726,
      "ອກ": 7727,
      "ອອກ": 7728,
      "ĠPTS": 7729,
      "راط": 7730,
      "dao": 7731,
      "bp": 7732,
      "Ġfarine": 7733,
      "odore": 7734,
      "ccbp": 7735,
      "ლებელია": 7736,
      "DLJ": 7737,
      "ĠNorthrop": 7738,
      "Ġeconôm": 7739,
      "ĠVerstappen": 7740,
      "ĠConstitu": 7741,
      "lighter": 7742,
      "Ġisp": 7743,
      "odymyr": 7744,
      "Bach": 7745,
      "Ġmisfort": 7746,
      "ĠAAU": 7747,
      "ouz": 7748,
      "pieces": 7749,
      "Ġswift": 7750,
      "ĠCots": 7751,
      "ĠHust": 7752,
      "USART": 7753,
      "Bounce": 7754,
      "Ġsanguin": 7755,
      "blood": 7756,
      "ĠSchle": 7757,
      "iferous": 7758,
      "Ġالمعل": 7759,
      "ĠSarge": 7760,
      "exit": 7761,
      "itudine": 7762,
      "Ġjezik": 7763,
      "sop": 7764,
      "الله": 7765,
      "Ġgold": 7766,
      "yns": 7767,
      "ihilation": 7768,
      "ListPage": 7769,
      "Ġktórej": 7770,
      "lir": 7771,
      "Ġsongs": 7772,
      "iselle": 7773,
      "ibatkan": 7774,
      "iều": 7775,
      "arları": 7776,
      "omics": 7777,
      "шила": 7778,
      "itemBackground": 7779,
      "ĠCoup": 7780,
      "XMLLoader": 7781,
      "ĠFXMLLoader": 7782,
      "يدات": 7783,
      "Ġétages": 7784,
      "Forest": 7785,
      "Ġفنا": 7786,
      "ktur": 7787,
      "olol": 7788,
      "Ġattractor": 7789,
      "BackgroundTask": 7790,
      "iativa": 7791,
      "ĠPackage": 7792,
      "attham": 7793,
      "Ġgennaio": 7794,
      "Ġjakie": 7795,
      "ineda": 7796,
      "Advisor": 7797,
      "totime": 7798,
      "leetcode": 7799,
      "ĠPrelude": 7800,
      "Ġclust": 7801,
      "ković": 7802,
      "spare": 7803,
      "tsConfig": 7804,
      "ĠSeigneur": 7805,
      "acchi": 7806,
      "fileupload": 7807,
      "Ġmeson": 7808,
      "ĠFullHD": 7809,
      "Ġcork": 7810,
      "Ġbushings": 7811,
      "Ġprofiss": 7812,
      "Ġallegory": 7813,
      "лыгы": 7814,
      "غال": 7815,
      "стки": 7816,
      "ĠsetSnackbar": 7817,
      "CHANGE": 7818,
      "ĠАрхиви": 7819,
      "Ġمرك": 7820,
      "ĠMendel": 7821,
      "Ġinterloc": 7822,
      "NaHCO": 7823,
      "obst": 7824,
      "Ġpotenti": 7825,
      "یدی": 7826,
      "ہیم": 7827,
      "Ġابرا": 7828,
      "Ġابراہیم": 7829,
      "utables": 7830,
      "aughter": 7831,
      "ĠРоссийской": 7832,
      "Ġnombre": 7833,
      "icality": 7834,
      "ĠChatter": 7835,
      "šnje": 7836,
      "getcwd": 7837,
      "ĠChandler": 7838,
      "Ġproz": 7839,
      "Ġapropri": 7840,
      "ĠGuernsey": 7841,
      "Ġprodukt": 7842,
      "Ġtalaga": 7843,
      "vata": 7844,
      "erView": 7845,
      "Ġshalt": 7846,
      "Ġindulg": 7847,
      "ĠCrypto": 7848,
      "ĠTiber": 7849,
      "DisplayStyle": 7850,
      "ocracy": 7851,
      "pyplot": 7852,
      "Ġferret": 7853,
      "თავ": 7854,
      "Ġgubit": 7855,
      "angin": 7856,
      "ugel": 7857,
      "Ġvoet": 7858,
      "ĠCAD": 7859,
      "ĠMugh": 7860,
      "ĠAlg": 7861,
      "ĠTecn": 7862,
      "wiz": 7863,
      "カーボン": 7864,
      "projectView": 7865,
      "setOn": 7866,
      "ieß": 7867,
      "читать": 7868,
      "итету": 7869,
      "oyin": 7870,
      "Ġентитету": 7871,
      "Ġvõimal": 7872,
      "Phot": 7873,
      "isors": 7874,
      "ابعة": 7875,
      "ĠBUD": 7876,
      "DataContext": 7877,
      "Ġboo": 7878,
      "Ġcontinue": 7879,
      "TableViewCell": 7880,
      "Ġstries": 7881,
      "Ġphận": 7882,
      "ĠMcNeil": 7883,
      "Ġkeren": 7884,
      "Ġworks": 7885,
      "Ġbranching": 7886,
      "ĠFamily": 7887,
      "Ġjunk": 7888,
      "serialize": 7889,
      "ĠtpVar": 7890,
      "Ġcrackdown": 7891,
      "ODBA": 7892,
      "Ġeased": 7893,
      "Ġzna": 7894,
      "Ġعرب": 7895,
      "ĠKuz": 7896,
      "Ġleggera": 7897,
      "Ġswoim": 7898,
      "Ġmân": 7899,
      "Ġkapan": 7900,
      "Ġgrec": 7901,
      "inching": 7902,
      "Ġweathering": 7903,
      "Ġannihilated": 7904,
      "INFO": 7905,
      "Ġvoork": 7906,
      "ĠHilton": 7907,
      "agrave": 7908,
      "ĠBelvedere": 7909,
      "Ġ있다는": 7910,
      "ĠWaring": 7911,
      "لنا": 7912,
      "heus": 7913,
      "довать": 7914,
      "umbles": 7915,
      "ĠcreateContext": 7916,
      "Ġву": 7917,
      "Ġnamam": 7918,
      "liance": 7919,
      "tsk": 7920,
      "jwt": 7921,
      "anatory": 7922,
      "ĠGarry": 7923,
      "ĠVolker": 7924,
      "ես": 7925,
      "պես": 7926,
      "getColumn": 7927,
      "домо": 7928,
      "adamia": 7929,
      "Breakpoint": 7930,
      "Ġdexter": 7931,
      "Ġbode": 7932,
      "adip": 7933,
      "adus": 7934,
      "igold": 7935,
      "riso": 7936,
      "ĠDLL": 7937,
      "Ġantérieure": 7938,
      "село": 7939,
      "цах": 7940,
      "scriptop": 7941,
      "Ġtransferência": 7942,
      "ĠCris": 7943,
      "irani": 7944,
      "ĠYal": 7945,
      "Ġmegfelelő": 7946,
      "LOUISE": 7947,
      "ĠobjectForKey": 7948,
      "inyin": 7949,
      "Ġatha": 7950,
      "Ġбере": 7951,
      "xcodep": 7952,
      "ĠJunta": 7953,
      "Ġزائدا": 7954,
      "opoulos": 7955,
      "ĠAmiri": 7956,
      "Ġhotel": 7957,
      "CustomGlareDef": 7958,
      "Gul": 7959,
      "jalpha": 7960,
      "ghan": 7961,
      "odora": 7962,
      "Ġsmelly": 7963,
      "erja": 7964,
      "Ġfaci": 7965,
      "Kabhi": 7966,
      "Ġhalter": 7967,
      "aaaa": 7968,
      "ĠSRM": 7969,
      "Ġdoš": 7970,
      "fasterxml": 7971,
      "engono": 7972,
      "Ġphóng": 7973,
      "lookandfeel": 7974,
      "ĠYukawa": 7975,
      "Ġなかっ": 7976,
      "lungen": 7977,
      "Ġplasmids": 7978,
      "ĠLew": 7979,
      "aiset": 7980,
      "ĠAscot": 7981,
      "тация": 7982,
      "izzie": 7983,
      "Ġالنسب": 7984,
      "AboutDlg": 7985,
      "rylic": 7986,
      "TermObjectDefer": 7987,
      "Ġähn": 7988,
      "ĠIPM": 7989,
      "Ġსახ": 7990,
      "Neighbors": 7991,
      "тове": 7992,
      "ويل": 7993,
      "Ġprostit": 7994,
      "ujar": 7995,
      "कलन": 7996,
      "ensory": 7997,
      "Ġeight": 7998,
      "lough": 7999,
      "ĠBosnia": 8000,
      "ĠCarlyle": 8001,
      "modified": 8002,
      "Ġgrasped": 8003,
      "Ġспокойно": 8004,
      "čne": 8005,
      "itul": 8006,
      "ilmiş": 8007,
      "essie": 8008,
      "шев": 8009,
      "чний": 8010,
      "ренко": 8011,
      "Retry": 8012,
      "Ġbritann": 8013,
      "Ġnata": 8014,
      "Ġwitty": 8015,
      "ĠNKG": 8016,
      "Ġvalam": 8017,
      "Ġشہری": 8018,
      "Ġweapon": 8019,
      "Logan": 8020,
      "Ġанглий": 8021,
      "khart": 8022,
      "Ġниж": 8023,
      "AMSUNG": 8024,
      "Ġvrat": 8025,
      "Ġleisten": 8026,
      "Ġorigami": 8027,
      "ček": 8028,
      "urts": 8029,
      "Ġlih": 8030,
      "ĠDriver": 8031,
      "Ġzählen": 8032,
      "Ġякая": 8033,
      "rugs": 8034,
      "ĠCognito": 8035,
      "リック": 8036,
      "Ġteinture": 8037,
      "bolos": 8038,
      "Tabuleiro": 8039,
      "owsky": 8040,
      "ĠSerge": 8041,
      "realistic": 8042,
      "ilaire": 8043,
      "ță": 8044,
      "uruan": 8045,
      "Ġatrophy": 8046,
      "Ġfață": 8047,
      "абаров": 8048,
      "ĠLIA": 8049,
      "ĠSchloss": 8050,
      "SourceObject": 8051,
      "ĠХабаров": 8052,
      "ĠFoot": 8053,
      "Ġagregado": 8054,
      "Ġdipping": 8055,
      "Ġvikt": 8056,
      "으로써": 8057,
      "ĠMSCI": 8058,
      "TOOLBAR": 8059,
      "quee": 8060,
      "rosyn": 8061,
      "entor": 8062,
      "Ġphenotypic": 8063,
      "úblic": 8064,
      "ĠCrowe": 8065,
      "arabangsa": 8066,
      "Farm": 8067,
      "bilir": 8068,
      "ĠRemb": 8069,
      "randt": 8070,
      "ĠRembrandt": 8071,
      "hla": 8072,
      "ыта": 8073,
      "Ġпыта": 8074,
      "fgScrollView": 8075,
      "lipstick": 8076,
      "Ġټینس": 8077,
      "translate": 8078,
      "Ġpeny": 8079,
      "ruvic": 8080,
      "Forgot": 8081,
      "Ġsauvage": 8082,
      "mandu": 8083,
      "Ġcero": 8084,
      "ĠSBC": 8085,
      "ĠActivity": 8086,
      "ĠSaleh": 8087,
      "ĠSmol": 8088,
      "ĠYokohama": 8089,
      "Trick": 8090,
      "Vij": 8091,
      "making": 8092,
      "Ġfossa": 8093,
      "igm": 8094,
      "ozy": 8095,
      "Ġseventeen": 8096,
      "Brien": 8097,
      "Ġforfeiture": 8098,
      "ARROW": 8099,
      "Ġautores": 8100,
      "Ġjih": 8101,
      "Ġدرجة": 8102,
      "рик": 8103,
      "Ġskillet": 8104,
      "attie": 8105,
      "PathParam": 8106,
      "clientID": 8107,
      "Ġboja": 8108,
      "ecture": 8109,
      "noh": 8110,
      "Ġchuck": 8111,
      "ByType": 8112,
      "ĠStaten": 8113,
      "aliśmy": 8114,
      "roveň": 8115,
      "ĠSpartans": 8116,
      "Ġföretag": 8117,
      "ĠTitan": 8118,
      "ĠJor": 8119,
      "Ġmocked": 8120,
      "odbc": 8121,
      "Ġмл": 8122,
      "Ġټول": 8123,
      "ĠGOOD": 8124,
      "ResourceType": 8125,
      "Ġuntouch": 8126,
      "ndor": 8127,
      "Ġassay": 8128,
      "runk": 8129,
      "wiki": 8130,
      "Ġномер": 8131,
      "Ġwayside": 8132,
      "onedDateTime": 8133,
      "ĠBowser": 8134,
      "Ġthoại": 8135,
      "キュ": 8136,
      "Amount": 8137,
      "キュリティ": 8138,
      "Ġenvision": 8139,
      "Ġfod": 8140,
      "Ġsweaty": 8141,
      "labels": 8142,
      "antara": 8143,
      "ldon": 8144,
      "Ġsome": 8145,
      "ĠBass": 8146,
      "стаў": 8147,
      "Ġالبح": 8148,
      "feats": 8149,
      "感觉": 8150,
      "Ġشف": 8151,
      "aucet": 8152,
      "бой": 8153,
      "чко": 8154,
      "ĠSSB": 8155,
      "Ġschak": 8156,
      "eptic": 8157,
      "Ġмаги": 8158,
      "Ġcargo": 8159,
      "Ġlust": 8160,
      "Ġabril": 8161,
      "nament": 8162,
      "Ġsanc": 8163,
      "Ġvissza": 8164,
      "Ġdard": 8165,
      "attho": 8166,
      "Ġtherefrom": 8167,
      "べて": 8168,
      "ĠLumpur": 8169,
      "quig": 8170,
      "ĠRegist": 8171,
      "rightsquig": 8172,
      "awang": 8173,
      "Ġkiló": 8174,
      "UPD": 8175,
      "Friendly": 8176,
      "มง": 8177,
      "โมง": 8178,
      "yiz": 8179,
      "Ġcag": 8180,
      "Griff": 8181,
      "Ġrong": 8182,
      "ementerian": 8183,
      "dinner": 8184,
      "ĠWoodrow": 8185,
      "Ġsauerkraut": 8186,
      "ĠЧар": 8187,
      "NHK": 8188,
      "のように": 8189,
      "uose": 8190,
      "Ġshí": 8191,
      "щихся": 8192,
      "ĠLom": 8193,
      "IGet": 8194,
      "зра": 8195,
      "ĠIke": 8196,
      "Invariant": 8197,
      "водить": 8198,
      "izzeria": 8199,
      "ĠRSP": 8200,
      "Ġablation": 8201,
      "Ġtease": 8202,
      "Ġetkin": 8203,
      "Ġuw": 8204,
      "Ġbleached": 8205,
      "まとめて": 8206,
      "Ġthatch": 8207,
      "ĠВме": 8208,
      "RefManager": 8209,
      "Ġsist": 8210,
      "Ġstále": 8211,
      "ĠApex": 8212,
      "Illust": 8213,
      "Ġrepatriation": 8214,
      "Ġasymptomatic": 8215,
      "ĠFörder": 8216,
      "Ġстру": 8217,
      "کړئ": 8218,
      "之外": 8219,
      "此之外": 8220,
      "Ġوکړئ": 8221,
      "ragonal": 8222,
      "akaian": 8223,
      "ĠPearson": 8224,
      "Ġtetragonal": 8225,
      "tochy": 8226,
      "Ġeighty": 8227,
      "ApiOperation": 8228,
      "ParentObject": 8229,
      "ĠLyme": 8230,
      "blk": 8231,
      "ĠMaxPooling": 8232,
      "елефон": 8233,
      "ulie": 8234,
      "rue": 8235,
      "Ġshroud": 8236,
      "eches": 8237,
      "Ġpendulum": 8238,
      "Ġkyl": 8239,
      "custId": 8240,
      "Ġanthracene": 8241,
      "arini": 8242,
      "Arthur": 8243,
      "Ġbiodegrad": 8244,
      "ĠMagellan": 8245,
      "nextProps": 8246,
      "ĠÁlvaro": 8247,
      "Ġblí": 8248,
      "henius": 8249,
      "alahan": 8250,
      "ayı": 8251,
      "Ġsnout": 8252,
      "Ġbetrayal": 8253,
      "Ġbotan": 8254,
      "uarine": 8255,
      "二氧": 8256,
      "Ġसफ": 8257,
      "Ġcarcin": 8258,
      "二氧化": 8259,
      "Ġcanh": 8260,
      "colorChoice": 8261,
      "ĠTatum": 8262,
      "Ġspecif": 8263,
      "ĠTrier": 8264,
      "rocket": 8265,
      "Ġspro": 8266,
      "Ġimpair": 8267,
      "Ġsuperoxide": 8268,
      "timeouts": 8269,
      "ĠBOARDS": 8270,
      "Ġlangue": 8271,
      "Ġпомощ": 8272,
      "Embarked": 8273,
      "ĠBOARDSIZE": 8274,
      "Ġkaik": 8275,
      "xCoordinate": 8276,
      "appcompat": 8277,
      "Ġmutter": 8278,
      "ĠShia": 8279,
      "ĠEspañ": 8280,
      "autorBinding": 8281,
      "instance": 8282,
      "Ġdeceleration": 8283,
      "すご": 8284,
      "ĠRaina": 8285,
      "cherichia": 8286,
      "Ġوبركاته": 8287,
      "Ġלהת": 8288,
      "ĠAal": 8289,
      "ĠFay": 8290,
      "Ġcomprehens": 8291,
      "Ġجوہری": 8292,
      "Ġsuccul": 8293,
      "ĠGIR": 8294,
      "Ġwirken": 8295,
      "Ġirrev": 8296,
      "就是要": 8297,
      "Ġブラウン": 8298,
      "Ġirrevoc": 8299,
      "erous": 8300,
      "othiaz": 8301,
      "ConstPtr": 8302,
      "Ġfissure": 8303,
      "eseorang": 8304,
      "Ġконца": 8305,
      "Ġpolled": 8306,
      "zeros": 8307,
      "Ġveil": 8308,
      "ĠMicah": 8309,
      "Ġbrane": 8310,
      "phalt": 8311,
      "urais": 8312,
      "minLength": 8313,
      "чества": 8314,
      "篇文章": 8315,
      "ajna": 8316,
      "Ġجمه": 8317,
      "ĠNortheast": 8318,
      "ĠIUE": 8319,
      "Ġاروپ": 8320,
      "Ġاروپا": 8321,
      "ĠHall": 8322,
      "ĠBalliye": 8323,
      "windowFixedWidth": 8324,
      "Ġcatechol": 8325,
      "的情": 8326,
      "ĠGegen": 8327,
      "Ġzami": 8328,
      "armos": 8329,
      "Ġbacter": 8330,
      "answered": 8331,
      "ĠGori": 8332,
      "Ġvoltam": 8333,
      "shower": 8334,
      "ĠAmbul": 8335,
      "beelding": 8336,
      "Ġâmbito": 8337,
      "gangenheit": 8338,
      "ísmo": 8339,
      "ützt": 8340,
      "кансер": 8341,
      "ĠODBC": 8342,
      "Ġberi": 8343,
      "Ġродо": 8344,
      "Ġлюбую": 8345,
      "Ġsout": 8346,
      "ĠXOR": 8347,
      "Only": 8348,
      "Yon": 8349,
      "ライト": 8350,
      "ისი": 8351,
      "ĠChinatown": 8352,
      "Ġpedic": 8353,
      "ĠSosa": 8354,
      "ijks": 8355,
      "Ġpedicure": 8356,
      "Neal": 8357,
      "числя": 8358,
      "ĠVerlust": 8359,
      "ĠMaier": 8360,
      "Ġкафе": 8361,
      "Ġorifices": 8362,
      "ĠLoyalty": 8363,
      "nxt": 8364,
      "Ġمرح": 8365,
      "Ġоформ": 8366,
      "uzen": 8367,
      "ĠEze": 8368,
      "Ġbeteg": 8369,
      "Ġkoa": 8370,
      "AVL": 8371,
      "ĠPendleton": 8372,
      "ĠCis": 8373,
      "Ġkuulu": 8374,
      "Ġhyperfine": 8375,
      "φων": 8376,
      "нэ": 8377,
      "ште": 8378,
      "нэт": 8379,
      "Ġisotype": 8380,
      "aconit": 8381,
      "omyelitis": 8382,
      "нного": 8383,
      "Ġpfs": 8384,
      "ĠTew": 8385,
      "gah": 8386,
      "ĠBento": 8387,
      "Ġferrite": 8388,
      "Ġസമര": 8389,
      "ĠBim": 8390,
      "нией": 8391,
      "STER": 8392,
      "rafos": 8393,
      "Ġovercame": 8394,
      "Ġhesitated": 8395,
      "amante": 8396,
      "fitted": 8397,
      "CreateSaveFolder": 8398,
      "Ġspout": 8399,
      "anean": 8400,
      "ĠBowen": 8401,
      "ĠplayerCards": 8402,
      "ĠBoxLayout": 8403,
      "codone": 8404,
      "Ġtoggle": 8405,
      "ĠDocument": 8406,
      "IVACON": 8407,
      "Ġnaï": 8408,
      "Ġکنکریاں": 8409,
      "Fig": 8410,
      "ennium": 8411,
      "žené": 8412,
      "sped": 8413,
      "Ġquint": 8414,
      "Ġcreș": 8415,
      "Ġtiro": 8416,
      "Ġруб": 8417,
      "Ġcement": 8418,
      "ĠKMS": 8419,
      "ĠContador": 8420,
      "ĠManik": 8421,
      "Ġnozzle": 8422,
      "説明": 8423,
      "Ġairs": 8424,
      "Hitting": 8425,
      "étrique": 8426,
      "ausea": 8427,
      "Baj": 8428,
      "ściej": 8429,
      "acritic": 8430,
      "Ġminer": 8431,
      "Ġdvara": 8432,
      "ĠPLIST": 8433,
      "ĠDoremi": 8434,
      "ĠByrd": 8435,
      "ĠRowland": 8436,
      "бов": 8437,
      "urid": 8438,
      "Ġvelcro": 8439,
      "withTrashed": 8440,
      "请输入": 8441,
      "ĠSteffen": 8442,
      "Ġособо": 8443,
      "ATURES": 8444,
      "ĠAER": 8445,
      "gpg": 8446,
      "ĠACR": 8447,
      "ĠRudi": 8448,
      "Ġpozy": 8449,
      "ień": 8450,
      "ĠYear": 8451,
      "Ġdelays": 8452,
      "leneck": 8453,
      "imą": 8454,
      "ĠHaj": 8455,
      "ĠCommission": 8456,
      "Ġsma": 8457,
      "adaş": 8458,
      "Ġкоторой": 8459,
      "hensible": 8460,
      "Ġborough": 8461,
      "FileType": 8462,
      "Ġروست": 8463,
      "اة": 8464,
      "ikations": 8465,
      "ĠDoct": 8466,
      "ĠJamm": 8467,
      "ĠJammu": 8468,
      "histos": 8469,
      "Bay": 8470,
      "apabb": 8471,
      "ленным": 8472,
      "ĠTempl": 8473,
      "Ġتعلمنا": 8474,
      "Courier": 8475,
      "ĠRuman": 8476,
      "ĠOTHER": 8477,
      "olet": 8478,
      "ллю": 8479,
      "urus": 8480,
      "Ġlahan": 8481,
      "Ġиллю": 8482,
      "Ġسپاه": 8483,
      "Ġlesquels": 8484,
      "azir": 8485,
      "wanza": 8486,
      "Ġrab": 8487,
      "FCO": 8488,
      "rette": 8489,
      "Ġancol": 8490,
      "Suspend": 8491,
      "woven": 8492,
      "adı": 8493,
      "SetParameter": 8494,
      "ĠworldRank": 8495,
      "amientos": 8496,
      "ayad": 8497,
      "isometric": 8498,
      "ĠNIL": 8499,
      "ĠMessageBox": 8500,
      "کس": 8501,
      "ĠBoot": 8502,
      "жая": 8503,
      "Ġامن": 8504,
      "Ġوغير": 8505,
      "Ġzáp": 8506,
      "imee": 8507,
      "انية": 8508,
      "QRCode": 8509,
      "ĠProduk": 8510,
      "pués": 8511,
      "zeme": 8512,
      "Proguard": 8513,
      "ĠmainMenu": 8514,
      "ĠAstral": 8515,
      "ĠFGD": 8516,
      "вець": 8517,
      "CLIP": 8518,
      "Ġimmunoprec": 8519,
      "ĠCrest": 8520,
      "ĠWSA": 8521,
      "lords": 8522,
      "ultipl": 8523,
      "間違い": 8524,
      "LinkClicked": 8525,
      "staaten": 8526,
      "Vo": 8527,
      "Ġerhält": 8528,
      "Ġtracheal": 8529,
      "uştur": 8530,
      "ковых": 8531,
      "weh": 8532,
      "ĠMiocene": 8533,
      "adins": 8534,
      "develop": 8535,
      "epower": 8536,
      "COC": 8537,
      "うち": 8538,
      "Ġmier": 8539,
      "Ġcongreg": 8540,
      "ĠHälfte": 8541,
      "Ġcourt": 8542,
      "тения": 8543,
      "steel": 8544,
      "ĠLampang": 8545,
      "Ġmenggel": 8546,
      "Ġчему": 8547,
      "یسم": 8548,
      "tellers": 8549,
      "брать": 8550,
      "BlackElo": 8551,
      "iners": 8552,
      "ĠImmac": 8553,
      "Ġbezieht": 8554,
      "thebibliography": 8555,
      "incremental": 8556,
      "Ġascor": 8557,
      "UTS": 8558,
      "ínez": 8559,
      "메이": 8560,
      "Ġsatu": 8561,
      "Ġistem": 8562,
      "메이션": 8563,
      "akot": 8564,
      "ouser": 8565,
      "ĠitemList": 8566,
      "Ġsempl": 8567,
      "ığınız": 8568,
      "Ġbestät": 8569,
      "Ġdeği": 8570,
      "Ġgeldiniz": 8571,
      "yCoordinate": 8572,
      "グル": 8573,
      "stery": 8574,
      "Ġпосо": 8575,
      "aitre": 8576,
      "ĠisIn": 8577,
      "assim": 8578,
      "Ġantip": 8579,
      "ingleton": 8580,
      "Ġmiesz": 8581,
      "ĠEpit": 8582,
      "Ġ그렇": 8583,
      "ĠNowak": 8584,
      "стые": 8585,
      "Ġtemu": 8586,
      "Ġfastball": 8587,
      "ukov": 8588,
      "underbrace": 8589,
      "ĠReinhard": 8590,
      "торая": 8591,
      "ĠAer": 8592,
      "Ġinforma": 8593,
      "Ġapplication": 8594,
      "ĠKnudsen": 8595,
      "riques": 8596,
      "ביע": 8597,
      "GoString": 8598,
      "TOR": 8599,
      "ĠmTOR": 8600,
      "Ġchutes": 8601,
      "เรา": 8602,
      "Ġfay": 8603,
      "ĠBons": 8604,
      "ivní": 8605,
      "Blur": 8606,
      "HttpSecurity": 8607,
      "Ġsorpresa": 8608,
      "ĠDHA": 8609,
      "тельного": 8610,
      "ĠFleet": 8611,
      "Soup": 8612,
      "ĠSculpt": 8613,
      "tet": 8614,
      "EndOf": 8615,
      "nok": 8616,
      "ICLES": 8617,
      "ĠgameObject": 8618,
      "ıntı": 8619,
      "ĠBuster": 8620,
      "Ġcolect": 8621,
      "hetes": 8622,
      "ěstí": 8623,
      "ĠPseud": 8624,
      "Ġindestruct": 8625,
      "Pid": 8626,
      "nese": 8627,
      "Ġenero": 8628,
      "ходе": 8629,
      "روس": 8630,
      "Ġuncontroll": 8631,
      "Ġgrenades": 8632,
      "ivano": 8633,
      "ceğim": 8634,
      "ความ": 8635,
      "ĠGolgi": 8636,
      "Ġթ": 8637,
      "щу": 8638,
      "վական": 8639,
      "osur": 8640,
      "Ġощу": 8641,
      "Kennedy": 8642,
      "Ġթվական": 8643,
      "Ġprendere": 8644,
      "Webhook": 8645,
      "Ġproportional": 8646,
      "даря": 8647,
      "ĠSqlConnection": 8648,
      "Ġgreenhouses": 8649,
      "CFLAGS": 8650,
      "ĠMannes": 8651,
      "ĠBangkok": 8652,
      "afio": 8653,
      "Ġdinyatakan": 8654,
      "DefaultFor": 8655,
      "Ġhef": 8656,
      "Ġhefyd": 8657,
      "Ġmism": 8658,
      "ĠDirk": 8659,
      "ónio": 8660,
      "ATEG": 8661,
      "woocommerce": 8662,
      "Ġovershoot": 8663,
      "ĠLithuanian": 8664,
      "Ġہندوستان": 8665,
      "Ġingred": 8666,
      "eksiyon": 8667,
      "Ġfibras": 8668,
      "Ġفونٹ": 8669,
      "Ġhep": 8670,
      "cooked": 8671,
      "ĠLCS": 8672,
      "Fel": 8673,
      "ĠVARCHAR": 8674,
      "Ġgrau": 8675,
      "ĠJérôme": 8676,
      "adex": 8677,
      "Ġsoundness": 8678,
      "oarthritis": 8679,
      "自転": 8680,
      "Ġhereditary": 8681,
      "自転車": 8682,
      "Ġzure": 8683,
      "Ġસમજ": 8684,
      "חד": 8685,
      "ĠDeutsch": 8686,
      "Ps": 8687,
      "Ġapprais": 8688,
      "atron": 8689,
      "ĠPenang": 8690,
      "lec": 8691,
      "ĠEben": 8692,
      "ĠGustaf": 8693,
      "ĠMoura": 8694,
      "Ġlia": 8695,
      "ĠEngel": 8696,
      "ĠPRET": 8697,
      "Ġviolently": 8698,
      "Ġتقدر": 8699,
      "йон": 8700,
      "ĠdirBL": 8701,
      "ĠRadio": 8702,
      "Ġamnesty": 8703,
      "Pixel": 8704,
      "Ġkoi": 8705,
      "ruitment": 8706,
      "Ġდიდ": 8707,
      "ĠMichelangelo": 8708,
      "ສາມາດ": 8709,
      "Ġоцен": 8710,
      "riks": 8711,
      "Ġمیز": 8712,
      "ĠSilas": 8713,
      "copic": 8714,
      "loir": 8715,
      "ĠDimit": 8716,
      "ĠBIC": 8717,
      "Ġisop": 8718,
      "Ġbond": 8719,
      "лаш": 8720,
      "ĠGators": 8721,
      "ahuasca": 8722,
      "álló": 8723,
      "Ġdreary": 8724,
      "ĠIngle": 8725,
      "riol": 8726,
      "epic": 8727,
      "ĠCashback": 8728,
      "ĠTakashi": 8729,
      "Ġgacchatiti": 8730,
      "śnie": 8731,
      "ĠNose": 8732,
      "igungs": 8733,
      "hoek": 8734,
      "Ġkarşınız": 8735,
      "ยอ": 8736,
      "Ġsurpasses": 8737,
      "κος": 8738,
      "Ġjang": 8739,
      "ooky": 8740,
      "ĠGAO": 8741,
      "Ġrevêt": 8742,
      "abilecek": 8743,
      "ĠBulldogs": 8744,
      "يں": 8745,
      "Ġنہيں": 8746,
      "nance": 8747,
      "Ġdimer": 8748,
      "ĠJoni": 8749,
      "Ġplain": 8750,
      "boe": 8751,
      "Ġcies": 8752,
      "setBorder": 8753,
      "ógicas": 8754,
      "ĠHillsborough": 8755,
      "Ġescritório": 8756,
      "ĠНиж": 8757,
      "Ġالرجال": 8758,
      "QUADS": 8759,
      "Stern": 8760,
      "aqs": 8761,
      "ጥነት": 8762,
      "ソッド": 8763,
      "ĠDRN": 8764,
      "чия": 8765,
      "CBN": 8766,
      "Ġdraggable": 8767,
      "Ġcockro": 8768,
      "Ġそ": 8769,
      "Proceed": 8770,
      "Ġnarcot": 8771,
      "کور": 8772,
      "ĠNeuro": 8773,
      "Ġanter": 8774,
      "ĠuseNavigate": 8775,
      "çant": 8776,
      "Ġgant": 8777,
      "umd": 8778,
      "yscrapers": 8779,
      "ordinal": 8780,
      "Ġpotenz": 8781,
      "ulously": 8782,
      "users": 8783,
      "smithy": 8784,
      "Ġduv": 8785,
      "ĠSOL": 8786,
      "nera": 8787,
      "rlen": 8788,
      "Ġmédic": 8789,
      "isPreview": 8790,
      "ogne": 8791,
      "ĠHAND": 8792,
      "ĠDIFFIC": 8793,
      "funktion": 8794,
      "ĠGPA": 8795,
      "tau": 8796,
      "ĠSaty": 8797,
      "Ġkyun": 8798,
      "aville": 8799,
      "THE": 8800,
      "atasaray": 8801,
      "Ġjong": 8802,
      "Ġunites": 8803,
      "Ġuncondition": 8804,
      "anju": 8805,
      "purecounter": 8806,
      "зло": 8807,
      "ichero": 8808,
      "ĠInorg": 8809,
      "Ġarrows": 8810,
      "Ġprip": 8811,
      "Ġtriển": 8812,
      "Ġזיי": 8813,
      "Ġquinquina": 8814,
      "styr": 8815,
      "CodeAttribute": 8816,
      "ĠBhopal": 8817,
      "<UNK>": 8818
    },
    "old_vocab": {
      "!": 0,
      "\"": 1,
      "#": 2,
      "$": 3,
      "%": 4,
      "&": 5,
      "'": 6,
      "(": 7,
      ")": 8,
      "*": 9,
      "+": 10,
      ",": 11,
      "-": 12,
      ".": 13,
      "/": 14,
      "0": 15,
      "1": 16,
      "2": 17,
      "3": 18,
      "4": 19,
      "5": 20,
      "6": 21,
      "7": 22,
      "8": 23,
      "9": 24,
      ":": 25,
      ";": 26,
      "<": 27,
      "=": 28,
      ">": 29,
      "?": 30,
      "@": 31,
      "A": 32,
      "B": 33,
      "C": 34,
      "D": 35,
      "E": 36,
      "F": 37,
      "G": 38,
      "H": 39,
      "I": 40,
      "J": 41,
      "K": 42,
      "L": 43,
      "M": 44,
      "N": 45,
      "O": 46,
      "P": 47,
      "Q": 48,
      "R": 49,
      "S": 50,
      "T": 51,
      "U": 52,
      "V": 53,
      "W": 54,
      "X": 55,
      "Y": 56,
      "Z": 57,
      "[": 58,
      "\\": 59,
      "]": 60,
      "^": 61,
      "_": 62,
      "`": 63,
      "a": 64,
      "b": 65,
      "c": 66,
      "d": 67,
      "e": 68,
      "f": 69,
      "g": 70,
      "h": 71,
      "i": 72,
      "j": 73,
      "k": 74,
      "l": 75,
      "m": 76,
      "n": 77,
      "o": 78,
      "p": 79,
      "q": 80,
      "r": 81,
      "s": 82,
      "t": 83,
      "u": 84,
      "v": 85,
      "w": 86,
      "x": 87,
      "y": 88,
      "z": 89,
      "{": 90,
      "|": 91,
      "}": 92,
      "~": 93,
      "¡": 94,
      "¢": 95,
      "£": 96,
      "¤": 97,
      "¥": 98,
      "¦": 99,
      "§": 100,
      "¨": 101,
      "©": 102,
      "ª": 103,
      "«": 104,
      "¬": 105,
      "®": 106,
      "¯": 107,
      "°": 108,
      "±": 109,
      "²": 110,
      "³": 111,
      "´": 112,
      "µ": 113,
      "¶": 114,
      "·": 115,
      "¸": 116,
      "¹": 117,
      "º": 118,
      "»": 119,
      "¼": 120,
      "½": 121,
      "¾": 122,
      "¿": 123,
      "À": 124,
      "Á": 125,
      "Â": 126,
      "Ã": 127,
      "Ä": 128,
      "Å": 129,
      "Æ": 130,
      "Ç": 131,
      "È": 132,
      "É": 133,
      "Ê": 134,
      "Ë": 135,
      "Ì": 136,
      "Í": 137,
      "Î": 138,
      "Ï": 139,
      "Ð": 140,
      "Ñ": 141,
      "Ò": 142,
      "Ó": 143,
      "Ô": 144,
      "Õ": 145,
      "Ö": 146,
      "×": 147,
      "Ø": 148,
      "Ù": 149,
      "Ú": 150,
      "Û": 151,
      "Ü": 152,
      "Ý": 153,
      "Þ": 154,
      "ß": 155,
      "à": 156,
      "á": 157,
      "â": 158,
      "ã": 159,
      "ä": 160,
      "å": 161,
      "æ": 162,
      "ç": 163,
      "è": 164,
      "é": 165,
      "ê": 166,
      "ë": 167,
      "ì": 168,
      "í": 169,
      "î": 170,
      "ï": 171,
      "ð": 172,
      "ñ": 173,
      "ò": 174,
      "ó": 175,
      "ô": 176,
      "õ": 177,
      "ö": 178,
      "÷": 179,
      "ø": 180,
      "ù": 181,
      "ú": 182,
      "û": 183,
      "ü": 184,
      "ý": 185,
      "þ": 186,
      "ÿ": 187,
      "Ā": 188,
      "ā": 189,
      "Ă": 190,
      "ă": 191,
      "Ą": 192,
      "ą": 193,
      "Ć": 194,
      "ć": 195,
      "Ĉ": 196,
      "ĉ": 197,
      "Ċ": 198,
      "ċ": 199,
      "Č": 200,
      "č": 201,
      "Ď": 202,
      "ď": 203,
      "Đ": 204,
      "đ": 205,
      "Ē": 206,
      "ē": 207,
      "Ĕ": 208,
      "ĕ": 209,
      "Ė": 210,
      "ė": 211,
      "Ę": 212,
      "ę": 213,
      "Ě": 214,
      "ě": 215,
      "Ĝ": 216,
      "ĝ": 217,
      "Ğ": 218,
      "ğ": 219,
      "Ġ": 220,
      "ġ": 221,
      "Ģ": 222,
      "ģ": 223,
      "Ĥ": 224,
      "ĥ": 225,
      "Ħ": 226,
      "ħ": 227,
      "Ĩ": 228,
      "ĩ": 229,
      "Ī": 230,
      "ī": 231,
      "Ĭ": 232,
      "ĭ": 233,
      "Į": 234,
      "į": 235,
      "İ": 236,
      "ı": 237,
      "Ĳ": 238,
      "ĳ": 239,
      "Ĵ": 240,
      "ĵ": 241,
      "Ķ": 242,
      "ķ": 243,
      "ĸ": 244,
      "Ĺ": 245,
      "ĺ": 246,
      "Ļ": 247,
      "ļ": 248,
      "Ľ": 249,
      "ľ": 250,
      "Ŀ": 251,
      "ŀ": 252,
      "Ł": 253,
      "ł": 254,
      "Ń": 255,
      "ń": 256,
      "ņ": 257,
      "ň": 258,
      "ō": 259,
[...]
