{
  "version": "1.0",
  "truncation": null,
  "padding": null,
  "added_tokens": [
    {
      "id": 5298,
      "content": "<UNK>",
      "single_word": false,
      "lstrip": false,
      "rstrip": false,
      "normalized": true,
      "special": true
    },
    {
      "id": 5299,
      "content": "<｜end▁of▁sentence｜>",
      "single_word": false,
      "lstrip": false,
      "rstrip": false,
      "normalized": true,
      "special": true
    },
    {
      "id": 5300,
      "content": "<｜pad｜>",
      "single_word": false,
      "lstrip": false,
      "rstrip": false,
      "normalized": true,
      "special": true
    },
    {
      "id": 5301,
      "content": "<｜begin▁of▁sentence｜>",
      "single_word": false,
      "lstrip": false,
      "rstrip": false,
      "normalized": true,
      "special": true
    }
  ],
  "normalizer": {
    "type": "Sequence",
    "normalizers": []
  },
  "pre_tokenizer": {
    "type": "Sequence",
    "pretokenizers": [
      {
        "type": "Split",
        "pattern": {
          "Regex": "[\\r\\n]"
        },
        "behavior": "Isolated",
        "invert": false
      },
      {
        "type": "Split",
        "pattern": {
          "Regex": "\\s?[A-Za-zµÀ-ÖØ-öø-ƺƼ-ƿǄ-ʓʕ-ʯͰ-ͳͶͷͻ-ͽͿΆΈ-ΊΌΎ-ΡΣ-ϵϷ-ҁҊ-ԯԱ-ՖႠ-ჅᎠ-Ᏽᏸ-ᏽᲐ-ᲺᲽ-Ჿᴀ-ᴫᵫ-ᵷᵹ-ᶚḀ-ἕἘ-Ἕἠ-ὅὈ-Ὅὐ-ὗὙὛὝὟ-ώᾀ-ᾴᾶ-ᾼιῂ-ῄῆ-ῌῐ-ΐῖ-Ίῠ-Ῥῲ-ῴῶ-ῼℂℇℊ-ℓℕℙ-ℝℤΩℨK-ℭℯ-ℴℹℼ-ℿⅅ-ⅉⅎↃↄⰀ-ⱻⱾ-ⳤⳫ-ⳮⳲⳳꙀ-ꙭꚀ-ꚛꜢ-ꝯꝱ-ꞇꞋ-ꞎꭰ-ꮿﬀ-ﬆﬓ-ﬗＡ-Ｚａ-ｚ𐐀-𐑏𐒰-𐓓𐓘-𐓻𐲀-𐲲𐳀-𐳲𑢠-𑣟𞤀-𞥃]+"
        },
        "behavior": "Isolated",
        "invert": false
      },
      {
        "type": "Split",
        "pattern": {
          "Regex": "\\s?[!-/:-~！-／：-～‘-‟　-。]+"
        },
        "behavior": "Isolated",
        "invert": false
      },
      {
        "type": "Split",
        "pattern": {
          "Regex": "\\s+$"
        },
        "behavior": "Isolated",
        "invert": false
      },
      {
        "type": "Split",
        "pattern": {
          "Regex": "[一-龥ࠀ-一가-퟿]+"
        },
        "behavior": "Isolated",
        "invert": false
      },
      {
        "type": "Digits",
        "individual_digits": true
      },
      {
        "type": "ByteLevel",
        "add_prefix_space": false,
        "trim_offsets": true,
        "use_regex": false
      }
    ]
  },
  "post_processor": {
    "type": "ByteLevel",
    "add_prefix_space": true,
    "trim_offsets": false,
    "use_regex": true
  },
  "decoder": {
    "type": "ByteLevel",
    "add_prefix_space": true,
    "trim_offsets": true,
    "use_regex": true
  },
  "model": {
    "type": "BPE",
    "dropout": null,
    "unk_token": "<UNK>",
    "continuing_subword_prefix": null,
    "end_of_word_suffix": null,
    "fuse_unk": false,
    "byte_fallback": false,
    "ignore_merges": false,
    "bMax_frequency": true,
    "max_frequency": 254107538,
    "vocab": {
      "ivă": 0,
      "ĠAyurved": 1,
      "يال": 2,
      "Ġdilig": 3,
      "fn": 4,
      "orphisms": 5,
      "ĠGonz": 6,
      "ekom": 7,
      "links": 8,
      "Ġtut": 9,
      "Ġრომ": 10,
      "xf": 11,
      "oteca": 12,
      "Ġhav": 13,
      "Ġél": 14,
      "Fullscreen": 15,
      "Ġশ": 16,
      "emporary": 17,
      "kim": 18,
      "Ġiş": 19,
      "fc": 20,
      "Ġcentrifug": 21,
      "arlow": 22,
      "Ġstup": 23,
      "ющие": 24,
      "ĠВе": 25,
      "slash": 26,
      "pps": 27,
      "Ġcritic": 28,
      "zeg": 29,
      "Ġgev": 30,
      "Ġveter": 31,
      "ĠPul": 32,
      "ertura": 33,
      "ĠPle": 34,
      "Ġcalor": 35,
      "Section": 36,
      "boy": 37,
      "Ġبوا": 38,
      "binicons": 39,
      "عا": 40,
      "Ġellips": 41,
      "Ġinsan": 42,
      "ĠSadd": 43,
      "setH": 44,
      "Controls": 45,
      "ствием": 46,
      "izowane": 47,
      "Ġretin": 48,
      "lime": 49,
      "ocarc": 50,
      "ocarcinoma": 51,
      "icator": 52,
      "Spot": 53,
      "テリア": 54,
      "Locale": 55,
      "varn": 56,
      "osal": 57,
      "ĠAlt": 58,
      "ĠPract": 59,
      "amel": 60,
      "лат": 61,
      "ĠLjub": 62,
      "сок": 63,
      "Blitz": 64,
      "wig": 65,
      "nienia": 66,
      "Ġsplic": 67,
      "Ġglyc": 68,
      "country": 69,
      "ĠScott": 70,
      "дача": 71,
      "Gordon": 72,
      "flows": 73,
      "kten": 74,
      "fw": 75,
      "arya": 76,
      "Ġmotion": 77,
      "eddy": 78,
      "Ġasoci": 79,
      "Ġó": 80,
      "ĠMcFadden": 81,
      "cze": 82,
      "Ġкоро": 83,
      "зем": 84,
      "ięcy": 85,
      "চরণ": 86,
      "Ġppt": 87,
      "Ġslow": 88,
      "ética": 89,
      "мережа": 90,
      "Assembl": 91,
      "зі": 92,
      "irmer": 93,
      "iali": 94,
      "edef": 95,
      "DUCTION": 96,
      "idge": 97,
      "ühl": 98,
      "enance": 99,
      "надца": 100,
      "henium": 101,
      "Ġwhit": 102,
      "elocity": 103,
      "Ġбай": 104,
      "onka": 105,
      "oisin": 106,
      "okin": 107,
      "ocur": 108,
      "Ġбиз": 109,
      "ĠJson": 110,
      "Wnd": 111,
      "antium": 112,
      "Ġвремен": 113,
      "Ġsalic": 114,
      "Ġcher": 115,
      "Ġvoll": 116,
      "unnel": 117,
      "jak": 118,
      "Ġкарти": 119,
      "Ġrefriger": 120,
      "Ġوالط": 121,
      "mä": 122,
      "outing": 123,
      "intas": 124,
      "atie": 125,
      "ucco": 126,
      "ặng": 127,
      "Ġgün": 128,
      "lice": 129,
      "neigh": 130,
      "łop": 131,
      "يو": 132,
      "Ds": 133,
      "imbus": 134,
      "Ġבמ": 135,
      "ĠJer": 136,
      "ampling": 137,
      "Ġly": 138,
      "ตร": 139,
      "Ġpari": 140,
      "ambio": 141,
      "Ġعم": 142,
      "Ġmagas": 143,
      "ouver": 144,
      "Ġлі": 145,
      "ĠIl": 146,
      "Gi": 147,
      "Roi": 148,
      "Ġkiss": 149,
      "Ġopport": 150,
      "WinCounter": 151,
      "ertools": 152,
      "ADER": 153,
      "Ġchemot": 154,
      "Ġmenjal": 155,
      "vt": 156,
      "ROUND": 157,
      "ĠIdent": 158,
      "anesulf": 159,
      "FACT": 160,
      "ĠConstit": 161,
      "GU": 162,
      "Ġazi": 163,
      "header": 164,
      "Ġovip": 165,
      "onnen": 166,
      "FERENCES": 167,
      "Ġtund": 168,
      "uzione": 169,
      "ECK": 170,
      "Compliance": 171,
      "ĠFr": 172,
      "progress": 173,
      "rå": 174,
      "Ġпроду": 175,
      "auche": 176,
      "alak": 177,
      "iram": 178,
      "impi": 179,
      "tesy": 180,
      "жит": 181,
      "itattu": 182,
      "osexual": 183,
      "кты": 184,
      "Ġprésent": 185,
      "ymers": 186,
      "ogenesis": 187,
      "ĠISP": 188,
      "alin": 189,
      "xxxx": 190,
      "esehen": 191,
      "Ġрод": 192,
      "egd": 193,
      "like": 194,
      "Ġacab": 195,
      "Ġfles": 196,
      "gend": 197,
      "тва": 198,
      "OnInit": 199,
      "Ġunderst": 200,
      "UDE": 201,
      "اني": 202,
      "inea": 203,
      "ipine": 204,
      "ORTH": 205,
      "atting": 206,
      "Ġrearr": 207,
      "دائي": 208,
      "ầm": 209,
      "ĠVas": 210,
      "ĠstateMutability": 211,
      "Ġjedno": 212,
      "Ġplur": 213,
      "anye": 214,
      "ĠSale": 215,
      "ĠWak": 216,
      "Ġpad": 217,
      "ĠDest": 218,
      "Ġrar": 219,
      "Ġfav": 220,
      "AIN": 221,
      "ĠUk": 222,
      "Ġwszyst": 223,
      "اوى": 224,
      "ifestyle": 225,
      "Ġterj": 226,
      "eed": 227,
      "Ġinnoc": 228,
      "öyle": 229,
      "Ġversion": 230,
      "ўцаў": 231,
      "angaroo": 232,
      "xiv": 233,
      "selectTable": 234,
      "Ġالل": 235,
      "Ordinate": 236,
      "Ġشر": 237,
      "Ġdigest": 238,
      "weathermap": 239,
      "ypse": 240,
      "elesa": 241,
      "ultats": 242,
      "Ġdesper": 243,
      "ĠHT": 244,
      "Ġpredomin": 245,
      "Ġkand": 246,
      "cano": 247,
      "Ġuro": 248,
      "ĠVall": 249,
      "ĠItem": 250,
      "hlung": 251,
      "unteer": 252,
      "ĠНата": 253,
      "MOD": 254,
      "soever": 255,
      "ینس": 256,
      "correlated": 257,
      "driver": 258,
      "ufth": 259,
      "ографи": 260,
      "ogramDetails": 261,
      "Ġpopul": 262,
      "バッグ": 263,
      "Ġillumin": 264,
      "Ġdere": 265,
      "Ġbounc": 266,
      "Ġasegur": 267,
      "Visible": 268,
      "idcoin": 269,
      "uerite": 270,
      "getFull": 271,
      "Ġoppress": 272,
      "ĠZanz": 273,
      "ولة": 274,
      "Ġposterior": 275,
      "xin": 276,
      "bern": 277,
      "TF": 278,
      "olith": 279,
      "こちら": 280,
      "лена": 281,
      "lify": 282,
      "RIST": 283,
      "Ġaccus": 284,
      "unton": 285,
      "Ġbraz": 286,
      "üks": 287,
      "ĠIO": 288,
      "cool": 289,
      "اونلوډ": 290,
      "Ġamp": 291,
      "ĠGon": 292,
      "CLion": 293,
      "mov": 294,
      "utat": 295,
      "upu": 296,
      "KAKKIA": 297,
      "Ġdin": 298,
      "pered": 299,
      "Ġbag": 300,
      "lica": 301,
      "nání": 302,
      "rosoft": 303,
      "Ġrech": 304,
      "Ġstandard": 305,
      "atthakathayam": 306,
      "paper": 307,
      "ĠCPM": 308,
      "toire": 309,
      "Description": 310,
      "ել": 311,
      "Ġexhaust": 312,
      "poz": 313,
      "FBSDKApp": 314,
      "大家": 315,
      "Ġrus": 316,
      "стой": 317,
      "Tax": 318,
      "ĠDMS": 319,
      "LElement": 320,
      "ophage": 321,
      "Ġstor": 322,
      "ĠEsh": 323,
      "ĠFrem": 324,
      "Ġvolunt": 325,
      "reshold": 326,
      "jour": 327,
      "ieni": 328,
      "Ġспи": 329,
      "ято": 330,
      "Ġzost": 331,
      "person": 332,
      "ZielPanel": 333,
      "nisse": 334,
      "тите": 335,
      "ryption": 336,
      "comment": 337,
      "דים": 338,
      "Ġcompr": 339,
      "instell": 340,
      "ibre": 341,
      "AQ": 342,
      "letion": 343,
      "ĠVern": 344,
      "لين": 345,
      "Ġhat": 346,
      "Ġпользова": 347,
      "ĠBod": 348,
      "Ġベ": 349,
      "formance": 350,
      "Intensity": 351,
      "Ġmily": 352,
      "moid": 353,
      "Ġيحت": 354,
      "Ġraft": 355,
      "וא": 356,
      "ewöhn": 357,
      "ieties": 358,
      "ĠNik": 359,
      "ewell": 360,
      "Ġpaint": 361,
      "LuaPush": 362,
      "iren": 363,
      "Ġañad": 364,
      "Prod": 365,
      "Ġunre": 366,
      "定的": 367,
      "isInt": 368,
      "arcode": 369,
      "ĠNO": 370,
      "Ġdwell": 371,
      "Ġалы": 372,
      "Ġmatrim": 373,
      "simple": 374,
      "ĠDick": 375,
      "Ġunpre": 376,
      "ĠIND": 377,
      "Ġwab": 378,
      "ayati": 379,
      "genstein": 380,
      "Ġокру": 381,
      "isely": 382,
      "unctive": 383,
      "setImage": 384,
      "وعة": 385,
      "jan": 386,
      "naud": 387,
      "Ġtrache": 388,
      "Ġdeğiş": 389,
      "Language": 390,
      "Ġفیصل": 391,
      "Ġstraight": 392,
      "obian": 393,
      "Ġeffectu": 394,
      "Ġincap": 395,
      "ステン": 396,
      "Ġско": 397,
      "eşit": 398,
      "आर": 399,
      "لع": 400,
      "GRect": 401,
      "Ġxvi": 402,
      "umlah": 403,
      "Ġmund": 404,
      "scient": 405,
      "ĠGest": 406,
      "gio": 407,
      "ноп": 408,
      "Ġinflu": 409,
      "izard": 410,
      "лән": 411,
      "mier": 412,
      "osome": 413,
      "itability": 414,
      "ouvre": 415,
      "TypeDef": 416,
      "yendo": 417,
      "rible": 418,
      "Ġconcept": 419,
      "Lower": 420,
      "scape": 421,
      "toHave": 422,
      "oodles": 423,
      "ASC": 424,
      "Ġgiorn": 425,
      "ưới": 426,
      "Ġcalc": 427,
      "Ġفونب": 428,
      "Ġamer": 429,
      "hrlich": 430,
      "ugu": 431,
      "jeta": 432,
      "工作": 433,
      "Ġауто": 434,
      "大き": 435,
      "permission": 436,
      "Ġexplo": 437,
      "datab": 438,
      "Ġpdelay": 439,
      "orian": 440,
      "imals": 441,
      "ĠPsych": 442,
      "خر": 443,
      "risto": 444,
      "Ġredirect": 445,
      "Ġdisqual": 446,
      "диви": 447,
      "еты": 448,
      "Ġshould": 449,
      "bled": 450,
      "Ġкар": 451,
      "Assets": 452,
      "ượt": 453,
      "Ġвстреча": 454,
      "ogr": 455,
      "atem": 456,
      "クセ": 457,
      "ĠMAN": 458,
      "треб": 459,
      "ippi": 460,
      "appen": 461,
      "Ġپرو": 462,
      "şa": 463,
      "uttle": 464,
      "Ġcenter": 465,
      "chelles": 466,
      "pole": 467,
      "ikian": 468,
      "angel": 469,
      "AKA": 470,
      "ĠQxg": 471,
      "centaje": 472,
      "Ġуро": 473,
      "Ġэксп": 474,
      "Pres": 475,
      "isional": 476,
      "ĠAnnot": 477,
      "clamation": 478,
      "Ġbing": 479,
      "ıyor": 480,
      "गत": 481,
      "ĠMcEl": 482,
      "itva": 483,
      "actus": 484,
      "wang": 485,
      "arna": 486,
      "fre": 487,
      "awanda": 488,
      "udes": 489,
      "юн": 490,
      "Ġolvid": 491,
      "Ġfaith": 492,
      "cats": 493,
      "Ġзабо": 494,
      "ابق": 495,
      "نین": 496,
      "ĠKamp": 497,
      "ングル": 498,
      "jorie": 499,
      "Ġimpres": 500,
      "lr": 501,
      "Ġآب": 502,
      "wem": 503,
      "ĠVitor": 504,
      "adies": 505,
      "erva": 506,
      "desPort": 507,
      "ĠSnow": 508,
      "italization": 509,
      "NeedConnect": 510,
      "Ġnigg": 511,
      "arses": 512,
      "させ": 513,
      "cit": 514,
      "sth": 515,
      "فته": 516,
      "role": 517,
      "Ġخات": 518,
      "Pherson": 519,
      "ovy": 520,
      "ableView": 521,
      "Ġ여": 522,
      "ciutto": 523,
      "inker": 524,
      "gql": 525,
      "ĠJez": 526,
      "ockets": 527,
      "ĠDocs": 528,
      "Blue": 529,
      "pekt": 530,
      "Ġtuj": 531,
      "Ġwyk": 532,
      "visor": 533,
      "ĠCCP": 534,
      "ĠImp": 535,
      "zung": 536,
      "flake": 537,
      "ĠPac": 538,
      "Ġgacch": 539,
      "Ġquest": 540,
      "Ġсмарт": 541,
      "ĠБелару": 542,
      "ĠSuss": 543,
      "ствие": 544,
      "Ġconnect": 545,
      "Ġmenu": 546,
      "datat": 547,
      "Ġprejud": 548,
      "orty": 549,
      "overing": 550,
      "Pred": 551,
      "смотрим": 552,
      "ücks": 553,
      "onwealth": 554,
      "jectory": 555,
      "Ġyandan": 556,
      "member": 557,
      "ienie": 558,
      "ĠDard": 559,
      "desc": 560,
      "ĠFranc": 561,
      "Ġdear": 562,
      "Ġtinc": 563,
      "glRaster": 564,
      "γγ": 565,
      "rocytes": 566,
      "haya": 567,
      "ĠEMB": 568,
      "ĠEMBO": 569,
      "Ġtath": 570,
      "inja": 571,
      "Ġgeld": 572,
      "ĠRead": 573,
      "icates": 574,
      "CTIONS": 575,
      "Ġтерри": 576,
      "fung": 577,
      "fif": 578,
      "ritten": 579,
      "ieu": 580,
      "izada": 581,
      "Kay": 582,
      "INA": 583,
      "adav": 584,
      "Ġprep": 585,
      "Ġкоюм": 586,
      "ouro": 587,
      "Ġكلم": 588,
      "StaticHandler": 589,
      "Ġerv": 590,
      "ساس": 591,
      "ĠLou": 592,
      "ĠDCM": 593,
      "ynh": 594,
      "Ġرح": 595,
      "法律": 596,
      "asone": 597,
      "に関する法律": 598,
      "ecek": 599,
      "andus": 600,
      "ompe": 601,
      "Ġyuè": 602,
      "Ġende": 603,
      "them": 604,
      "Ġbund": 605,
      "employ": 606,
      "ĠJun": 607,
      "ĠVog": 608,
      "beitet": 609,
      "ĠBeth": 610,
      "die": 611,
      "getti": 612,
      "gwood": 613,
      "ĠGand": 614,
      "бин": 615,
      "ĠVir": 616,
      "arious": 617,
      "ĠMaced": 618,
      "ĠSid": 619,
      "benius": 620,
      "слі": 621,
      "Ġоказа": 622,
      "Ġböl": 623,
      "Ġpud": 624,
      "chat": 625,
      "inib": 626,
      "ulas": 627,
      "rido": 628,
      "Ġgiov": 629,
      "Ġsap": 630,
      "nios": 631,
      "ĠApi": 632,
      "ختلف": 633,
      "Ġcloudinary": 634,
      "ruptcy": 635,
      "itionally": 636,
      "asters": 637,
      "atti": 638,
      "Ġмеха": 639,
      "Ġincrement": 640,
      "icated": 641,
      "Ġgeb": 642,
      "inuation": 643,
      "rapped": 644,
      "wxyz": 645,
      "opal": 646,
      "Alarm": 647,
      "εις": 648,
      "ivement": 649,
      "Ġجان": 650,
      "oreau": 651,
      "idian": 652,
      "Ġcomputer": 653,
      "ĠKomm": 654,
      "ählt": 655,
      "Ġagon": 656,
      "MIN": 657,
      "rika": 658,
      "Ġuncon": 659,
      "ĠShapiro": 660,
      "стья": 661,
      "Ġрекомен": 662,
      "ĠRena": 663,
      "CCESS": 664,
      "Ġfound": 665,
      "ümer": 666,
      "rocess": 667,
      "coverageStat": 668,
      "Ġalign": 669,
      "opor": 670,
      "endas": 671,
      "univers": 672,
      "κο": 673,
      "ерез": 674,
      "Ġengine": 675,
      "Ġdiffic": 676,
      "жли": 677,
      "etas": 678,
      "Ġnanop": 679,
      "楽し": 680,
      "なかった": 681,
      "ĠSeah": 682,
      "는데": 683,
      "lp": 684,
      "itin": 685,
      "anus": 686,
      "صول": 687,
      "Bitmap": 688,
      "Ġantico": 689,
      "Ġгу": 690,
      "Ġreconoc": 691,
      "вая": 692,
      "IPS": 693,
      "Ġفو": 694,
      "テゴ": 695,
      "iav": 696,
      "Ġerr": 697,
      "ensin": 698,
      "Ġвикори": 699,
      "loadNpm": 700,
      "apé": 701,
      "фо": 702,
      "Ġدوس": 703,
      "帳に追加": 704,
      "jid": 705,
      "ĠKum": 706,
      "Ġrèg": 707,
      "ammam": 708,
      "хозяй": 709,
      "ieves": 710,
      "Qual": 711,
      "annes": 712,
      "tm": 713,
      "Ġtyran": 714,
      "Ġvenen": 715,
      "руг": 716,
      "Ġالمرس": 717,
      "Ġdial": 718,
      "amide": 719,
      "ĠPercent": 720,
      "ESTAMP": 721,
      "Ġpej": 722,
      "snow": 723,
      "ĠConfig": 724,
      "ollar": 725,
      "τρο": 726,
      "itius": 727,
      "uerdo": 728,
      "illery": 729,
      "Ġselected": 730,
      "ĠProgress": 731,
      "Ġши": 732,
      "amorph": 733,
      "част": 734,
      "Ol": 735,
      "ĠKap": 736,
      "ographer": 737,
      "жде": 738,
      "гов": 739,
      "Ġlept": 740,
      "roqu": 741,
      "ĠKarim": 742,
      "Ġcater": 743,
      "atat": 744,
      "Ġоч": 745,
      "ienti": 746,
      "ERSON": 747,
      "ως": 748,
      "arlane": 749,
      "Ġspett": 750,
      "idirectional": 751,
      "ĠНиколай": 752,
      "мой": 753,
      "ĠCost": 754,
      "Ġfores": 755,
      "anco": 756,
      "bies": 757,
      "Ġvoul": 758,
      "ĠGron": 759,
      "ului": 760,
      "edDevice": 761,
      "ĠDiv": 762,
      "calup": 763,
      "hawks": 764,
      "ihad": 765,
      "Ġship": 766,
      "angleOf": 767,
      "Big": 768,
      "ehl": 769,
      "RT": 770,
      "icuous": 771,
      "ĠGrim": 772,
      "Ġbead": 773,
      "ĠDesc": 774,
      "ფორ": 775,
      "isterschaft": 776,
      "ustellen": 777,
      "Ġсня": 778,
      "Ġци": 779,
      "cée": 780,
      "emony": 781,
      "aes": 782,
      "ENGTH": 783,
      "ንዳ": 784,
      "ĠNeigh": 785,
      "rious": 786,
      "ваць": 787,
      "ریشن": 788,
      "ĠEnglish": 789,
      "CES": 790,
      "Ġtattoo": 791,
      "Ġoutput": 792,
      "InOut": 793,
      "Ġtrium": 794,
      "ĠAD": 795,
      "Ġsolen": 796,
      "ospod": 797,
      "ĠAny": 798,
      "рый": 799,
      "ĠHCP": 800,
      "uspended": 801,
      "الث": 802,
      "Ġburl": 803,
      "Ġsangu": 804,
      "第一": 805,
      "usun": 806,
      "nego": 807,
      "ossz": 808,
      "Ġkapcs": 809,
      "rowave": 810,
      "ivided": 811,
      "Ġtempl": 812,
      "jaan": 813,
      "wis": 814,
      "riers": 815,
      "arkeit": 816,
      "Ġbulld": 817,
      "enig": 818,
      "Ġverwend": 819,
      "יר": 820,
      "utzt": 821,
      "Flags": 822,
      "Ġpredict": 823,
      "Ġorder": 824,
      "ĠMedic": 825,
      "Ġтова": 826,
      "Ġbals": 827,
      "Ġдоба": 828,
      "メリ": 829,
      "ĠBrow": 830,
      "TN": 831,
      "Margin": 832,
      "ĠBrice": 833,
      "reon": 834,
      "ĠKom": 835,
      "قدم": 836,
      "auty": 837,
      "inak": 838,
      "Ġэкра": 839,
      "compat": 840,
      "হইত": 841,
      "Ġgac": 842,
      "Ġjal": 843,
      "rieben": 844,
      "ĠAnsp": 845,
      "Ġrepre": 846,
      "ĠTab": 847,
      "Ġconcl": 848,
      "radle": 849,
      "orzyst": 850,
      "чность": 851,
      "Ġmoist": 852,
      "ighthouse": 853,
      "empat": 854,
      "Ġrud": 855,
      "beeld": 856,
      "ĠUIF": 857,
      "Ġserial": 858,
      "Ġeloqu": 859,
      "year": 860,
      "Convert": 861,
      "ĠSait": 862,
      "ĠTaj": 863,
      "uiten": 864,
      "ĠnewValue": 865,
      "ĠLakshmi": 866,
      "Ġчу": 867,
      "amata": 868,
      "Ġgru": 869,
      "rican": 870,
      "выя": 871,
      "keygen": 872,
      "Ġdü": 873,
      "ojana": 874,
      "student": 875,
      "ĠNAD": 876,
      "usz": 877,
      "じめ": 878,
      "Ġkaps": 879,
      "Ġrecal": 880,
      "ripción": 881,
      "ッシ": 882,
      "site": 883,
      "ventory": 884,
      "Integr": 885,
      "jati": 886,
      "inic": 887,
      "amant": 888,
      "orsz": 889,
      "Ġeukary": 890,
      "asley": 891,
      "Ġtack": 892,
      "ATEC": 893,
      "Ġsyph": 894,
      "Ġmiss": 895,
      "ĠMaul": 896,
      "Ġscram": 897,
      "amarin": 898,
      "Zaw": 899,
      "atrol": 900,
      "alb": 901,
      "ĠNob": 902,
      "Arist": 903,
      "ucin": 904,
      "ilitary": 905,
      "uza": 906,
      "Ġპ": 907,
      "ĠWalt": 908,
      "awatir": 909,
      "ricts": 910,
      "Ġизвест": 911,
      "صر": 912,
      "Ġmenget": 913,
      "Ġкни": 914,
      "Ġвопро": 915,
      "hey": 916,
      "Ġእንዲሁ": 917,
      "Ġmening": 918,
      "ogeneous": 919,
      "ვის": 920,
      "iksi": 921,
      "ンドウ": 922,
      "সম": 923,
      "onese": 924,
      "clusions": 925,
      "ności": 926,
      "reenshots": 927,
      "Ġpeine": 928,
      "iais": 929,
      "Ġچک": 930,
      "Ġpromin": 931,
      "olian": 932,
      "REAM": 933,
      "ერთი": 934,
      "Ġméc": 935,
      "Ġपर": 936,
      "atro": 937,
      "ĠDong": 938,
      "dued": 939,
      "ASA": 940,
      "ĠNagy": 941,
      "Ġned": 942,
      "ollis": 943,
      "hil": 944,
      "pillar": 945,
      "Ġkaut": 946,
      "Ht": 947,
      "HtIdx": 948,
      "Ġuncont": 949,
      "Ġrealizz": 950,
      "ollary": 951,
      "Ġlett": 952,
      "ImgBoard": 953,
      "thorne": 954,
      "ipple": 955,
      "ການ": 956,
      "کان": 957,
      "Trace": 958,
      "aden": 959,
      "ylem": 960,
      "mbito": 961,
      "urate": 962,
      "esco": 963,
      "Ġamph": 964,
      "Ġtac": 965,
      "Ġregular": 966,
      "щего": 967,
      "ViewById": 968,
      "SCH": 969,
      "pin": 970,
      "хода": 971,
      "гей": 972,
      "Mask": 973,
      "ĠLO": 974,
      "ĠbeerCount": 975,
      "ropa": 976,
      "putted": 977,
      "LAGS": 978,
      "ertown": 979,
      "MovieModal": 980,
      "anke": 981,
      "ĠStra": 982,
      "Ġneglig": 983,
      "ogon": 984,
      "olded": 985,
      "UTE": 986,
      "Ġintellect": 987,
      "ĠKait": 988,
      "ĠPris": 989,
      "Ġfresh": 990,
      "Ġepit": 991,
      "ologists": 992,
      "Ġpurch": 993,
      "ytically": 994,
      "shop": 995,
      "utions": 996,
      "Import": 997,
      "прави": 998,
      "iplier": 999,
      "URAL": 1000,
      "стран": 1001,
      "час": 1002,
      "ichtet": 1003,
      "ospace": 1004,
      "ĠPelic": 1005,
      "Ġaplic": 1006,
      "Ġpict": 1007,
      "Ġによ": 1008,
      "Ġbesch": 1009,
      "ltal": 1010,
      "uscar": 1011,
      "Ġgioc": 1012,
      "AME": 1013,
      "Ġmenik": 1014,
      "อด": 1015,
      "itters": 1016,
      "いい": 1017,
      "Swift": 1018,
      "Ġfat": 1019,
      "Ġzeb": 1020,
      "فاع": 1021,
      "Ġvascul": 1022,
      "ädchen": 1023,
      "Std": 1024,
      "ĠСпо": 1025,
      "esia": 1026,
      "Ġconsequat": 1027,
      "acterium": 1028,
      "ηση": 1029,
      "ками": 1030,
      "ting": 1031,
      "skl": 1032,
      "CTime": 1033,
      "anyu": 1034,
      "еле": 1035,
      "rasse": 1036,
      "ekan": 1037,
      "Anc": 1038,
      "brakk": 1039,
      "Ġcrank": 1040,
      "abella": 1041,
      "indent": 1042,
      "ilden": 1043,
      "FFFF": 1044,
      "Ġchat": 1045,
      "Ġند": 1046,
      "hagen": 1047,
      "ĠJeh": 1048,
      "OPT": 1049,
      "čet": 1050,
      "oleon": 1051,
      "Ġsignific": 1052,
      "imetable": 1053,
      "OTTOM": 1054,
      "Ġhech": 1055,
      "aturing": 1056,
      "dinger": 1057,
      "вата": 1058,
      "LOAD": 1059,
      "Ġralph": 1060,
      "erns": 1061,
      "elihood": 1062,
      "adeh": 1063,
      "Hit": 1064,
      "วน": 1065,
      "ĠAssoci": 1066,
      "ーター": 1067,
      "nitt": 1068,
      "Ng": 1069,
      "Ġри": 1070,
      "Elements": 1071,
      "Ġprzep": 1072,
      "Ġobvi": 1073,
      "Alt": 1074,
      "noj": 1075,
      "icch": 1076,
      "annon": 1077,
      "hanahu": 1078,
      "uyor": 1079,
      "ĠCi": 1080,
      "ĠMTL": 1081,
      "ĠRan": 1082,
      "Ġheav": 1083,
      "파일": 1084,
      "Ġнедо": 1085,
      "vari": 1086,
      "yard": 1087,
      "Has": 1088,
      "ylmethyl": 1089,
      "ettivo": 1090,
      "Free": 1091,
      "ingles": 1092,
      "Ġearn": 1093,
      "Ġrefle": 1094,
      "lollipop": 1095,
      "ophila": 1096,
      "ĠSloven": 1097,
      "Ġhil": 1098,
      "ACTOR": 1099,
      "Ġالاست": 1100,
      "Ġbrag": 1101,
      "Ġمذہ": 1102,
      "Ġdelic": 1103,
      "apses": 1104,
      "ambre": 1105,
      "Prom": 1106,
      "NUM": 1107,
      "ĠCAG": 1108,
      "atlar": 1109,
      "uffled": 1110,
      "ĠXV": 1111,
      "dish": 1112,
      "idalgo": 1113,
      "Extensions": 1114,
      "americ": 1115,
      "ların": 1116,
      "Ġbienven": 1117,
      "Raz": 1118,
      "nel": 1119,
      "avorites": 1120,
      "ITIES": 1121,
      "ĠPrep": 1122,
      "vp": 1123,
      "ahanga": 1124,
      "Ġ売": 1125,
      "Ġ売場面積": 1126,
      "ĠGött": 1127,
      "conc": 1128,
      "äischen": 1129,
      "enf": 1130,
      "Ġdiscip": 1131,
      "صفوف": 1132,
      "pod": 1133,
      "azioni": 1134,
      "iO": 1135,
      "orro": 1136,
      "Ġmencion": 1137,
      "луу": 1138,
      "Suy": 1139,
      "arium": 1140,
      "lander": 1141,
      "Ġinstinct": 1142,
      "strass": 1143,
      "phon": 1144,
      "лый": 1145,
      "Ġceremon": 1146,
      "Ġمرب": 1147,
      "Ġvie": 1148,
      "PON": 1149,
      "owied": 1150,
      "Ġdatas": 1151,
      "Ġdescrib": 1152,
      "legg": 1153,
      "точно": 1154,
      "buf": 1155,
      "unnable": 1156,
      "ĠTanj": 1157,
      "asana": 1158,
      "Ġunsett": 1159,
      "Ga": 1160,
      "English": 1161,
      "ություն": 1162,
      "ssf": 1163,
      "ĠGile": 1164,
      "ინისტრ": 1165,
      "elers": 1166,
      "кров": 1167,
      "Ġαυ": 1168,
      "امر": 1169,
      "RefIn": 1170,
      "rams": 1171,
      "اعری": 1172,
      "Ġ나오": 1173,
      "Ġdys": 1174,
      "Ġspin": 1175,
      "bic": 1176,
      "ĠSund": 1177,
      "CAT": 1178,
      "Ġpavatt": 1179,
      "odil": 1180,
      "Ġadul": 1181,
      "Ġquick": 1182,
      "ческо": 1183,
      "idak": 1184,
      "uned": 1185,
      "anium": 1186,
      "Ġrig": 1187,
      "pliance": 1188,
      "Ġبھ": 1189,
      "üne": 1190,
      "decor": 1191,
      "Ġイン": 1192,
      "binding": 1193,
      "cheid": 1194,
      "orrer": 1195,
      "imension": 1196,
      "SaveFolder": 1197,
      "Ġdañ": 1198,
      "Ġalak": 1199,
      "ophagy": 1200,
      "Ġفونی": 1201,
      "Ġالقر": 1202,
      "უალ": 1203,
      "Ġweek": 1204,
      "ften": 1205,
      "metros": 1206,
      "Ġdry": 1207,
      "Ġprecip": 1208,
      "Ġbrut": 1209,
      "Ġобразова": 1210,
      "Ġinhal": 1211,
      "kowicz": 1212,
      "onan": 1213,
      "Ġhop": 1214,
      "Ġсим": 1215,
      "لوبی": 1216,
      "Ġولوبی": 1217,
      "ĠStur": 1218,
      "Ġسای": 1219,
      "section": 1220,
      "ĠStrick": 1221,
      "ishi": 1222,
      "تحان": 1223,
      "Ġпай": 1224,
      "Ġμα": 1225,
      "ULTS": 1226,
      "ĠOce": 1227,
      "amis": 1228,
      "ету": 1229,
      "wpilib": 1230,
      "Und": 1231,
      "pyraz": 1232,
      "IED": 1233,
      "Holder": 1234,
      "мого": 1235,
      "Ġzust": 1236,
      "ĠDPR": 1237,
      "glomer": 1238,
      "ospor": 1239,
      "ĠTimberwolves": 1240,
      "ĠMaher": 1241,
      "undi": 1242,
      "Ġrém": 1243,
      "sbParams": 1244,
      "ĠKyr": 1245,
      "indelijk": 1246,
      "oons": 1247,
      "sruhe": 1248,
      "inii": 1249,
      "ĠGesch": 1250,
      "ĠUnder": 1251,
      "ĠSant": 1252,
      "atera": 1253,
      "uitEnCPP": 1254,
      "Ġestado": 1255,
      "efined": 1256,
      "ocard": 1257,
      "зви": 1258,
      "цев": 1259,
      "Ġsurvey": 1260,
      "ĠArist": 1261,
      "الية": 1262,
      "ĠZel": 1263,
      "Ġglut": 1264,
      "Ġdox": 1265,
      "erequis": 1266,
      "Tocco": 1267,
      "azo": 1268,
      "ewski": 1269,
      "Pal": 1270,
      "Assignable": 1271,
      "alaikums": 1272,
      "copy": 1273,
      "propertyPath": 1274,
      "вгу": 1275,
      "Ġавгу": 1276,
      "ĠAsc": 1277,
      "Ġзве": 1278,
      "Ġforn": 1279,
      "ских": 1280,
      "ĠSebastián": 1281,
      "Ġniem": 1282,
      "Gradient": 1283,
      "erez": 1284,
      "Ġ대": 1285,
      "Ġruh": 1286,
      "Ġsummar": 1287,
      "anders": 1288,
      "newswire": 1289,
      "inston": 1290,
      "رية": 1291,
      "Ġrequest": 1292,
      "وار": 1293,
      "üsse": 1294,
      "чня": 1295,
      "fang": 1296,
      "Ġunus": 1297,
      "ĠCru": 1298,
      "存在": 1299,
      "程序": 1300,
      "osilicate": 1301,
      "Ġartific": 1302,
      "Ġمث": 1303,
      "Ġculp": 1304,
      "èv": 1305,
      "लम": 1306,
      "ችላ": 1307,
      "Ġይችላ": 1308,
      "isbury": 1309,
      "Ġçalış": 1310,
      "ĠMora": 1311,
      "Ġcanaliculato": 1312,
      "Ġorchest": 1313,
      "үн": 1314,
      "тами": 1315,
      "Ġrevel": 1316,
      "wech": 1317,
      "Ġolmad": 1318,
      "Ġpint": 1319,
      "ícia": 1320,
      "OHC": 1321,
      "Ġantonio": 1322,
      "aptic": 1323,
      "kjav": 1324,
      "ivated": 1325,
      "Ġcham": 1326,
      "Ġmarb": 1327,
      "orer": 1328,
      "Fin": 1329,
      "GER": 1330,
      "lessis": 1331,
      "cepted": 1332,
      "没有": 1333,
      "Ġgood": 1334,
      "Ġکش": 1335,
      "inesh": 1336,
      "Ġnob": 1337,
      "Ġguan": 1338,
      "osse": 1339,
      "Ġpage": 1340,
      "ilized": 1341,
      "χε": 1342,
      "Ġunbe": 1343,
      "ĠUIS": 1344,
      "нача": 1345,
      "uyu": 1346,
      "ĠKimura": 1347,
      "enio": 1348,
      "Ġroot": 1349,
      "hoot": 1350,
      "MessageBox": 1351,
      "มาะ": 1352,
      "Trad": 1353,
      "Ġイ": 1354,
      "acious": 1355,
      "Ġbás": 1356,
      "wares": 1357,
      "ayle": 1358,
      "Ġмы": 1359,
      "FlowNode": 1360,
      "ĠRud": 1361,
      "regar": 1362,
      "ĠSchrö": 1363,
      "ĠLithuan": 1364,
      "writer": 1365,
      "ĠTal": 1366,
      "Ġdehyd": 1367,
      "Ġconos": 1368,
      "Badge": 1369,
      "optim": 1370,
      "Ġبالف": 1371,
      "sonaro": 1372,
      "Bibli": 1373,
      "ĠOD": 1374,
      "гато": 1375,
      "Ġmies": 1376,
      "ĠChurch": 1377,
      "ecast": 1378,
      "Fran": 1379,
      "clave": 1380,
      "дій": 1381,
      "urnya": 1382,
      "esan": 1383,
      "fNil": 1384,
      "stellung": 1385,
      "HR": 1386,
      "нкт": 1387,
      "lene": 1388,
      "ánt": 1389,
      "ioxide": 1390,
      "ãng": 1391,
      "aptop": 1392,
      "pository": 1393,
      "opher": 1394,
      "ĠCater": 1395,
      "ectable": 1396,
      "ñez": 1397,
      "Ġbenz": 1398,
      "ĠRefer": 1399,
      "Ġpecul": 1400,
      "Ġgerçek": 1401,
      "TYPE": 1402,
      "ĠOBJECTTYPE": 1403,
      "vidia": 1404,
      "jack": 1405,
      "ĠMenz": 1406,
      "yses": 1407,
      "ifferent": 1408,
      "Dt": 1409,
      "izzo": 1410,
      "mii": 1411,
      "Ġgland": 1412,
      "Debugger": 1413,
      "クリ": 1414,
      "verter": 1415,
      "PlayerSelector": 1416,
      "Round": 1417,
      "uning": 1418,
      "ayi": 1419,
      "asking": 1420,
      "quete": 1421,
      "May": 1422,
      "стри": 1423,
      "HDROffsets": 1424,
      "Ġsensit": 1425,
      "Ġcytoplas": 1426,
      "гляд": 1427,
      "Ġgripper": 1428,
      "building": 1429,
      "Ġduct": 1430,
      "ĠALL": 1431,
      "æng": 1432,
      "нала": 1433,
      "Ġvertex": 1434,
      "áles": 1435,
      "Ġprih": 1436,
      "ĠoldCount": 1437,
      "aspid": 1438,
      "Ġwzgl": 1439,
      "hoff": 1440,
      "urit": 1441,
      "Ġcomplic": 1442,
      "KUR": 1443,
      "ockey": 1444,
      "ĠCopp": 1445,
      "Ġantagon": 1446,
      "mek": 1447,
      "سان": 1448,
      "Func": 1449,
      "ipkan": 1450,
      "eward": 1451,
      "letas": 1452,
      "Ġโ": 1453,
      "Ġinsol": 1454,
      "kates": 1455,
      "rosis": 1456,
      "tools": 1457,
      "ması": 1458,
      "sted": 1459,
      "acidad": 1460,
      "ĠPSO": 1461,
      "μφ": 1462,
      "ĠReh": 1463,
      "yip": 1464,
      "bec": 1465,
      "ндай": 1466,
      "Ġblind": 1467,
      "ĠretShape": 1468,
      "ombok": 1469,
      "бир": 1470,
      "Ġpriorit": 1471,
      "Ġcompan": 1472,
      "ismiss": 1473,
      "Ġהא": 1474,
      "Implement": 1475,
      "leen": 1476,
      "entieth": 1477,
      "lead": 1478,
      "твер": 1479,
      "aec": 1480,
      "Ġcardi": 1481,
      "heroku": 1482,
      "ージャ": 1483,
      "byshire": 1484,
      "eled": 1485,
      "бері": 1486,
      "נים": 1487,
      "ถาน": 1488,
      "ĠCTC": 1489,
      "อน": 1490,
      "ĠWilt": 1491,
      "Ġfring": 1492,
      "っくり": 1493,
      "Inner": 1494,
      "טי": 1495,
      "дца": 1496,
      "ĠWellesley": 1497,
      "epo": 1498,
      "Ġново": 1499,
      "Ġpross": 1500,
      "یلی": 1501,
      "ĠQuant": 1502,
      "erical": 1503,
      "дио": 1504,
      "mán": 1505,
      "Ġhex": 1506,
      "iores": 1507,
      "rystals": 1508,
      "ysi": 1509,
      "stitial": 1510,
      "vasion": 1511,
      "Ġuniform": 1512,
      "itm": 1513,
      "ĠBanglades": 1514,
      "okine": 1515,
      "azem": 1516,
      "VO": 1517,
      "Ġtiges": 1518,
      "utterstock": 1519,
      "ibia": 1520,
      "onential": 1521,
      "ראש": 1522,
      "Ġrecycl": 1523,
      "iyu": 1524,
      "iffany": 1525,
      "estyle": 1526,
      "Ġinsuff": 1527,
      "illas": 1528,
      "Ġcris": 1529,
      "imir": 1530,
      "inkel": 1531,
      "ревнова": 1532,
      "Ġنفس": 1533,
      "について": 1534,
      "Ġattenu": 1535,
      "Ġfác": 1536,
      "ĠPhyll": 1537,
      "ĠNews": 1538,
      "iliz": 1539,
      "Ġplaint": 1540,
      "Ġmessage": 1541,
      "blastoma": 1542,
      "cienza": 1543,
      "oyu": 1544,
      "çon": 1545,
      "Ġsost": 1546,
      "isher": 1547,
      "ĠtotalBlockUsed": 1548,
      "endants": 1549,
      "Ġfent": 1550,
      "бур": 1551,
      "liert": 1552,
      "GTBase": 1553,
      "alie": 1554,
      "msg": 1555,
      "riez": 1556,
      "Ġника": 1557,
      "geocode": 1558,
      "proof": 1559,
      "فظ": 1560,
      "represent": 1561,
      "ValuePair": 1562,
      "iscilla": 1563,
      "bbox": 1564,
      "wana": 1565,
      "èdes": 1566,
      "ancies": 1567,
      "ĠSadler": 1568,
      "match": 1569,
      "Ġgaler": 1570,
      "appings": 1571,
      "cir": 1572,
      "dan": 1573,
      "boards": 1574,
      "Ġな": 1575,
      "InitFlag": 1576,
      "aniy": 1577,
      "indagi": 1578,
      "ндары": 1579,
      "umlahan": 1580,
      "foam": 1581,
      "Ġrever": 1582,
      "менты": 1583,
      "ĠLip": 1584,
      "Ġмеся": 1585,
      "rocyte": 1586,
      "でも": 1587,
      "катери": 1588,
      "IsMethod": 1589,
      "Ġ사용": 1590,
      "Locations": 1591,
      "Ġkir": 1592,
      "Ġneu": 1593,
      "uzzy": 1594,
      "ĠIh": 1595,
      "Ġапре": 1596,
      "Ġστε": 1597,
      "ząd": 1598,
      "navig": 1599,
      "Ġdigniss": 1600,
      "lang": 1601,
      "รวจ": 1602,
      "νον": 1603,
      "azzo": 1604,
      "eka": 1605,
      "ecd": 1606,
      "hasFocus": 1607,
      "хід": 1608,
      "atre": 1609,
      "Ġвто": 1610,
      "ridor": 1611,
      "Ġricht": 1612,
      "haba": 1613,
      "initely": 1614,
      "duce": 1615,
      "сур": 1616,
      "Ġmlij": 1617,
      "ausal": 1618,
      "rana": 1619,
      "Ġimpuls": 1620,
      "Ġincid": 1621,
      "رمان": 1622,
      "Ġдолж": 1623,
      "icken": 1624,
      "ĠBhos": 1625,
      "Ġbrill": 1626,
      "éral": 1627,
      "SizeMode": 1628,
      "FRINGEMENT": 1629,
      "ibrate": 1630,
      "Ġsched": 1631,
      "ĠCFT": 1632,
      "Ġanticip": 1633,
      "Ġsoz": 1634,
      "出了": 1635,
      "help": 1636,
      "Ġzer": 1637,
      "образи": 1638,
      "igte": 1639,
      "ILD": 1640,
      "coef": 1641,
      "redi": 1642,
      "Ġcomplement": 1643,
      "рода": 1644,
      "lidean": 1645,
      "oppy": 1646,
      "ĠWILL": 1647,
      "ĠMethod": 1648,
      "avlj": 1649,
      "Ġфев": 1650,
      "ưa": 1651,
      "trad": 1652,
      "ismod": 1653,
      "فو": 1654,
      "Ġsöyl": 1655,
      "فوظ": 1656,
      "Ġsensibil": 1657,
      "ань": 1658,
      "يها": 1659,
      "Ġerkl": 1660,
      "Lo": 1661,
      "Ġsembl": 1662,
      "Ġفار": 1663,
      "ozione": 1664,
      "ivery": 1665,
      "ĠAIP": 1666,
      "ijuana": 1667,
      "ĠCho": 1668,
      "ĠBrew": 1669,
      "VIE": 1670,
      "Ġsme": 1671,
      "Ġwoj": 1672,
      "herst": 1673,
      "Ġlle": 1674,
      "ibul": 1675,
      "Ġtö": 1676,
      "ĠTan": 1677,
      "رشف": 1678,
      "Warning": 1679,
      "outen": 1680,
      "Ġrenormal": 1681,
      "omotor": 1682,
      "iname": 1683,
      "ĠPag": 1684,
      "pless": 1685,
      "Ġseason": 1686,
      "andae": 1687,
      "learn": 1688,
      "йма": 1689,
      "商品": 1690,
      "icited": 1691,
      "ionary": 1692,
      "Ġniez": 1693,
      "Ġpig": 1694,
      "ում": 1695,
      "Classes": 1696,
      "わり": 1697,
      "ynku": 1698,
      "omorphism": 1699,
      "Ġstal": 1700,
      "ビー": 1701,
      "Ġsce": 1702,
      "irsty": 1703,
      "vals": 1704,
      "Ġsteep": 1705,
      "Ġpří": 1706,
      "Ther": 1707,
      "gré": 1708,
      "ĠWoch": 1709,
      "шение": 1710,
      "تق": 1711,
      "ĠBand": 1712,
      "tob": 1713,
      "шие": 1714,
      "Ġnorth": 1715,
      "HW": 1716,
      "Ġbere": 1717,
      "ebu": 1718,
      "یتے": 1719,
      "Ġspez": 1720,
      "DAO": 1721,
      "fd": 1722,
      "ĠHeid": 1723,
      "Ġyapıl": 1724,
      "Ġsaff": 1725,
      "efois": 1726,
      "того": 1727,
      "Ġration": 1728,
      "omers": 1729,
      "ĠHicks": 1730,
      "Ġnational": 1731,
      "Ġհ": 1732,
      "ĠMcBride": 1733,
      "Ġîn": 1734,
      "parsed": 1735,
      "ギー": 1736,
      "ĠCaj": 1737,
      "Ġвозду": 1738,
      "bracket": 1739,
      "amate": 1740,
      "Ġвоен": 1741,
      "Ġbrib": 1742,
      "lion": 1743,
      "ansson": 1744,
      "Da": 1745,
      "hten": 1746,
      "eared": 1747,
      "ouw": 1748,
      "<0x69>": 1749,
      "roj": 1750,
      "Ġcush": 1751,
      "stance": 1752,
      "Ġruth": 1753,
      "imcoords": 1754,
      "Ġfist": 1755,
      "epsilon": 1756,
      "larak": 1757,
      "راع": 1758,
      "Ġconna": 1759,
      "ĠNh": 1760,
      "THER": 1761,
      "الت": 1762,
      "ueva": 1763,
      "Ġford": 1764,
      "clar": 1765,
      "Ġkep": 1766,
      "temp": 1767,
      "rieve": 1768,
      "Ġappet": 1769,
      "Ġrencont": 1770,
      "Ġinhom": 1771,
      "オン": 1772,
      "UAGE": 1773,
      "glise": 1774,
      "ĠNem": 1775,
      "context": 1776,
      "getNumberOf": 1777,
      "dar": 1778,
      "neau": 1779,
      "DAR": 1780,
      "Ġponctu": 1781,
      "urp": 1782,
      "Ġlaiss": 1783,
      "γκε": 1784,
      "Ġانج": 1785,
      "Ġоси": 1786,
      "Ġseiz": 1787,
      "ächlich": 1788,
      "ĠREGI": 1789,
      "ogenous": 1790,
      "Ġextinguish": 1791,
      "ĠOri": 1792,
      "UTR": 1793,
      "ĠReven": 1794,
      "Still": 1795,
      "ヂストン": 1796,
      "òa": 1797,
      "пусти": 1798,
      "ĠRou": 1799,
      "Storage": 1800,
      "Ġangi": 1801,
      "urel": 1802,
      "ftime": 1803,
      "Pham": 1804,
      "wunsch": 1805,
      "Ġkim": 1806,
      "lycer": 1807,
      "Ġbypass": 1808,
      "نى": 1809,
      "代码": 1810,
      "тар": 1811,
      "نين": 1812,
      "pling": 1813,
      "ĠRecogn": 1814,
      "ĠGhana": 1815,
      "agens": 1816,
      "Ġchh": 1817,
      "лег": 1818,
      "ítulo": 1819,
      "antine": 1820,
      "Ġcient": 1821,
      "Acceler": 1822,
      "ponder": 1823,
      "umas": 1824,
      "attlist": 1825,
      "iation": 1826,
      "Ġتم": 1827,
      "illier": 1828,
      "ĠPill": 1829,
      "ĠPent": 1830,
      "виа": 1831,
      "Ġсум": 1832,
      "одо": 1833,
      "Ġçık": 1834,
      "ofield": 1835,
      "Ġизпол": 1836,
      "ĠMenu": 1837,
      "им": 1838,
      "ortal": 1839,
      "Ġips": 1840,
      "gado": 1841,
      "Ġzás": 1842,
      "ußer": 1843,
      "Ġbig": 1844,
      "нтен": 1845,
      "Ġالممل": 1846,
      "Ġbusiness": 1847,
      "Ġjaû": 1848,
      "Ġanunci": 1849,
      "SIM": 1850,
      "stellen": 1851,
      "Ġуров": 1852,
      "дель": 1853,
      "יית": 1854,
      "ĠUtd": 1855,
      "intes": 1856,
      "aguchi": 1857,
      "RAchievement": 1858,
      "Ġfluor": 1859,
      "ipotent": 1860,
      "achine": 1861,
      "urban": 1862,
      "DES": 1863,
      "ĠignoreString": 1864,
      "uslar": 1865,
      "ptăm": 1866,
      "jam": 1867,
      "Ġкол": 1868,
      "Ġdeleg": 1869,
      "ĠMir": 1870,
      "ôle": 1871,
      "ĠtimeCounter": 1872,
      "zyme": 1873,
      "ناه": 1874,
      "ĠIBM": 1875,
      "Attr": 1876,
      "irá": 1877,
      "Ġyıld": 1878,
      "ومت": 1879,
      "ĠParticip": 1880,
      "appy": 1881,
      "emek": 1882,
      "Ġbronch": 1883,
      "ĠBroncos": 1884,
      "Ġkaç": 1885,
      "When": 1886,
      "ĠDoncaster": 1887,
      "Ġasync": 1888,
      "ĠVaugh": 1889,
      "Answer": 1890,
      "ĠpopOperand": 1891,
      "ĠЛе": 1892,
      "Brows": 1893,
      "ĠCN": 1894,
      "ĠElytres": 1895,
      "RefItem": 1896,
      "Surv": 1897,
      "ourge": 1898,
      "sko": 1899,
      "jsdel": 1900,
      "Ġالال": 1901,
      "ログ": 1902,
      "aceted": 1903,
      "фі": 1904,
      "izia": 1905,
      "enyl": 1906,
      "Ġtcp": 1907,
      "Ġmaneuver": 1908,
      "Ġпогре": 1909,
      "Ġaxi": 1910,
      "ąda": 1911,
      "Ġtelesc": 1912,
      "خوان": 1913,
      "ilh": 1914,
      "зіно": 1915,
      "Ġsinn": 1916,
      "allic": 1917,
      "roads": 1918,
      "Ġاد": 1919,
      "Ġdemand": 1920,
      "ĠNPV": 1921,
      "lah": 1922,
      "ené": 1923,
      "azam": 1924,
      "former": 1925,
      "ethoxy": 1926,
      "rips": 1927,
      "дат": 1928,
      "ancellation": 1929,
      "Ġابت": 1930,
      "Ġingles": 1931,
      "ĠCOP": 1932,
      "uckle": 1933,
      "ohar": 1934,
      "Ġبالن": 1935,
      "ĠHayashi": 1936,
      "ĠNex": 1937,
      "Ġυπ": 1938,
      "Ġunin": 1939,
      "Coordinate": 1940,
      "rón": 1941,
      "anwhile": 1942,
      "umatic": 1943,
      "Ġdaim": 1944,
      "idefinite": 1945,
      "Permissions": 1946,
      "ihil": 1947,
      "Ġنوف": 1948,
      "Ġفريبي": 1949,
      "Ġвзять": 1950,
      "ĠBibli": 1951,
      "ندو": 1952,
      "ederal": 1953,
      "Ġoy": 1954,
      "temper": 1955,
      "ĠBartholom": 1956,
      "naz": 1957,
      "cak": 1958,
      "Ġexamin": 1959,
      "ignation": 1960,
      "ruci": 1961,
      "electric": 1962,
      "Ġauxqu": 1963,
      "owią": 1964,
      "บบ": 1965,
      "ĠJut": 1966,
      "xon": 1967,
      "MaxScaler": 1968,
      "ushrooms": 1969,
      "Ġcontamin": 1970,
      "зей": 1971,
      "نيا": 1972,
      "гут": 1973,
      "ifai": 1974,
      "nounc": 1975,
      "CodeDom": 1976,
      "ческие": 1977,
      "tration": 1978,
      "urities": 1979,
      "Ġpurpos": 1980,
      "дини": 1981,
      "Ġpreserv": 1982,
      "meric": 1983,
      "zych": 1984,
      "getPackage": 1985,
      "Ġathlet": 1986,
      "ews": 1987,
      "Ġколиче": 1988,
      "niest": 1989,
      "Ġclock": 1990,
      "liquidacion": 1991,
      "ĠChau": 1992,
      "ĠdistX": 1993,
      "lemente": 1994,
      "ĠPra": 1995,
      "лады": 1996,
      "ĠSW": 1997,
      "itti": 1998,
      "ositol": 1999,
      "ĠRiv": 2000,
      "Ġrif": 2001,
      "LA": 2002,
      "λλη": 2003,
      "参数向量中": 2004,
      "Ġсотруд": 2005,
      "Ġfak": 2006,
      "nagy": 2007,
      "ityManager": 2008,
      "antiation": 2009,
      "Ġjoy": 2010,
      "åller": 2011,
      "slan": 2012,
      "ĠSus": 2013,
      "liament": 2014,
      "omethyl": 2015,
      "emailer": 2016,
      "ллер": 2017,
      "CallSettings": 2018,
      "Ġhaul": 2019,
      "Ġconting": 2020,
      "ĠHew": 2021,
      "Ġкри": 2022,
      "ましたが": 2023,
      "uries": 2024,
      "unea": 2025,
      "дения": 2026,
      "opot": 2027,
      "ensation": 2028,
      "ĠLang": 2029,
      "Ġquam": 2030,
      "ĠScouts": 2031,
      "かも": 2032,
      "ewnętr": 2033,
      "inité": 2034,
      "ĠMér": 2035,
      "lini": 2036,
      "ipps": 2037,
      "を見": 2038,
      "eko": 2039,
      "الي": 2040,
      "DUCT": 2041,
      "אטורק": 2042,
      "טאטורק": 2043,
      "Ġhttp": 2044,
      "ensit": 2045,
      "ercolor": 2046,
      "LOB": 2047,
      "AIM": 2048,
      "unders": 2049,
      "iland": 2050,
      "ĠBBB": 2051,
      "Ġperi": 2052,
      "ĠGDP": 2053,
      "irds": 2054,
      "zare": 2055,
      "ĠIth": 2056,
      "árez": 2057,
      "ripe": 2058,
      "HAOAVOA": 2059,
      "Ġdél": 2060,
      "Ġsare": 2061,
      "Ġacadém": 2062,
      "pera": 2063,
      "Widgets": 2064,
      "racket": 2065,
      "Ġдела": 2066,
      "hető": 2067,
      "forderung": 2068,
      "CHEMY": 2069,
      "etheus": 2070,
      "estruct": 2071,
      "onate": 2072,
      "ĠReform": 2073,
      "icl": 2074,
      "apis": 2075,
      "amiliar": 2076,
      "шлай": 2077,
      "orylation": 2078,
      "avno": 2079,
      "nika": 2080,
      "QRST": 2081,
      "ários": 2082,
      "aksi": 2083,
      "Ġdegr": 2084,
      "кус": 2085,
      "ĠJak": 2086,
      "Internal": 2087,
      "ĠJa": 2088,
      "フォルト": 2089,
      "chars": 2090,
      "ĠNAC": 2091,
      "corpor": 2092,
      "where": 2093,
      "ĠSorrent": 2094,
      "Ġconh": 2095,
      "צו": 2096,
      "Ġagric": 2097,
      "čas": 2098,
      "Ġander": 2099,
      "ĠBank": 2100,
      "Ġsubstit": 2101,
      "essive": 2102,
      "ორცი": 2103,
      "Ġsolid": 2104,
      "Jlc": 2105,
      "Ġrhe": 2106,
      "Ġcomenz": 2107,
      "Ġشنا": 2108,
      "Ġprzec": 2109,
      "Ġобна": 2110,
      "Cr": 2111,
      "мости": 2112,
      "itary": 2113,
      "Ġsettim": 2114,
      "ĠCool": 2115,
      "sendPluginResult": 2116,
      "ティング": 2117,
      "trashItem": 2118,
      "Ġreve": 2119,
      "Ġtah": 2120,
      "Clicked": 2121,
      "ség": 2122,
      "reiben": 2123,
      "Ġбло": 2124,
      "ltk": 2125,
      "Ġargument": 2126,
      "Ġfour": 2127,
      "pot": 2128,
      "ละ": 2129,
      "Ġdelinqu": 2130,
      "QN": 2131,
      "ĠDQN": 2132,
      "<0x4": 2133,
      "Ġпредо": 2134,
      "Ġexcell": 2135,
      "bez": 2136,
      "oarece": 2137,
      "Ġдиза": 2138,
      "ĠAyr": 2139,
      "ợi": 2140,
      "ĠWnd": 2141,
      "Ġstrict": 2142,
      "Ġfich": 2143,
      "Ġsimp": 2144,
      "Objects": 2145,
      "achelor": 2146,
      "Ġpayment": 2147,
      "oju": 2148,
      "ĠChatham": 2149,
      "ĠLept": 2150,
      "ĠLichten": 2151,
      "ĠbitOp": 2152,
      "ultat": 2153,
      "ropic": 2154,
      "Ġslurry": 2155,
      "ído": 2156,
      "ĠLab": 2157,
      "ерт": 2158,
      "ricies": 2159,
      "Ġswo": 2160,
      "ractic": 2161,
      "Ġjinfo": 2162,
      "ermott": 2163,
      "baka": 2164,
      "enticate": 2165,
      "ColorBit": 2166,
      "tery": 2167,
      "ضور": 2168,
      "untas": 2169,
      "ازه": 2170,
      "arms": 2171,
      "Ġodk": 2172,
      "ĠNorthumberland": 2173,
      "Ġtight": 2174,
      "Ġorganis": 2175,
      "rile": 2176,
      "Gap": 2177,
      "бя": 2178,
      "ammak": 2179,
      "abeled": 2180,
      "ĠnewInput": 2181,
      "ланы": 2182,
      "FIG": 2183,
      "Ġstabil": 2184,
      "Ġcran": 2185,
      "rieden": 2186,
      "valho": 2187,
      "tene": 2188,
      "fait": 2189,
      "Ġمخ": 2190,
      "ammers": 2191,
      "mnopqr": 2192,
      "Ġconcaten": 2193,
      "iov": 2194,
      "ებული": 2195,
      "ährend": 2196,
      "мера": 2197,
      "Ġучастка": 2198,
      "ĠUIA": 2199,
      "вершен": 2200,
      "udir": 2201,
      "Ġelong": 2202,
      "Ġendors": 2203,
      "Ġremedi": 2204,
      "ortic": 2205,
      "rators": 2206,
      "ческого": 2207,
      "ĠBex": 2208,
      "root": 2209,
      "avourite": 2210,
      "ĠSudan": 2211,
      "rien": 2212,
      "たちの": 2213,
      "eking": 2214,
      "ĠSoy": 2215,
      "лянчук": 2216,
      "elting": 2217,
      "ñas": 2218,
      "Ġअव": 2219,
      "araham": 2220,
      "GRESS": 2221,
      "ĠsConfig": 2222,
      "ographie": 2223,
      "jima": 2224,
      "ĠEc": 2225,
      "COUN": 2226,
      "Ġобла": 2227,
      "êté": 2228,
      "фектив": 2229,
      "ድረ": 2230,
      "zeit": 2231,
      "Ġdeme": 2232,
      "生活": 2233,
      "ivable": 2234,
      "Sequ": 2235,
      "elapse": 2236,
      "resso": 2237,
      "ĠSDR": 2238,
      "Соц": 2239,
      "ialmente": 2240,
      "update": 2241,
      "jaa": 2242,
      "Ġایکس": 2243,
      "emento": 2244,
      "Ġassist": 2245,
      "aculate": 2246,
      "Ġएम": 2247,
      "Ġflood": 2248,
      "Ġreciproc": 2249,
      "십니까": 2250,
      "ceptible": 2251,
      "Databaze": 2252,
      "Ġ우": 2253,
      "ĠChester": 2254,
      "Ġ우리": 2255,
      "enske": 2256,
      "الات": 2257,
      "Ġmoy": 2258,
      "Ġexh": 2259,
      "Ġملي": 2260,
      "Ġingl": 2261,
      "нес": 2262,
      "Ġgrasp": 2263,
      "ĠDCC": 2264,
      "Ġcheg": 2265,
      "iedad": 2266,
      "urnama": 2267,
      "cust": 2268,
      "Ġموجود": 2269,
      "Ġamely": 2270,
      "urtis": 2271,
      "Meal": 2272,
      "Transaction": 2273,
      "Ġsqueez": 2274,
      "fony": 2275,
      "uties": 2276,
      "Ġbout": 2277,
      "Ġinstal": 2278,
      "Ġشور": 2279,
      "ロン": 2280,
      "usnya": 2281,
      "ĠCarg": 2282,
      "ahlen": 2283,
      "Ġcomorbid": 2284,
      "Variable": 2285,
      "appendText": 2286,
      "Ġespecíf": 2287,
      "Ġпес": 2288,
      "kina": 2289,
      "っぱり": 2290,
      "Ġexposure": 2291,
      "cuts": 2292,
      "ĠNSC": 2293,
      "Namara": 2294,
      "Ġللد": 2295,
      "ราช": 2296,
      "Ġreiter": 2297,
      "CHAR": 2298,
      "iscuit": 2299,
      "ipient": 2300,
      "essi": 2301,
      "ĠDowney": 2302,
      "été": 2303,
      "Ġعارف": 2304,
      "ნიშვნ": 2305,
      "Ġживо": 2306,
      "owi": 2307,
      "esa": 2308,
      "Ġfris": 2309,
      "EPT": 2310,
      "数据": 2311,
      "bours": 2312,
      "IAMS": 2313,
      "Ġsucceed": 2314,
      "を受": 2315,
      "oger": 2316,
      "orschungs": 2317,
      "Ġhemorrh": 2318,
      "Ġtémo": 2319,
      "Ġscrew": 2320,
      "ĠBY": 2321,
      "ldecode": 2322,
      "celain": 2323,
      "áfér": 2324,
      "áférés": 2325,
      "ĠCirc": 2326,
      "ukes": 2327,
      "acies": 2328,
      "LinkedList": 2329,
      "Success": 2330,
      "ンプル": 2331,
      "pher": 2332,
      "Ġبود": 2333,
      "Ġktóry": 2334,
      "ATA": 2335,
      "ymethyl": 2336,
      "ンダント": 2337,
      "usting": 2338,
      "Ġacrylonitrile": 2339,
      "Ġبچ": 2340,
      "ousand": 2341,
      "uttab": 2342,
      "ços": 2343,
      "atl": 2344,
      "arranty": 2345,
      "Ġсезо": 2346,
      "AX": 2347,
      "olina": 2348,
      "ĠNuGet": 2349,
      "ugoslav": 2350,
      "чета": 2351,
      "шым": 2352,
      "ĠInit": 2353,
      "ecraft": 2354,
      "Ġdescub": 2355,
      "Ġजन": 2356,
      "เล": 2357,
      "Ġالتش": 2358,
      "Ġالنه": 2359,
      "raron": 2360,
      "lights": 2361,
      "Ġmolyb": 2362,
      "embled": 2363,
      "Ġössz": 2364,
      "きます": 2365,
      "Ġホ": 2366,
      "Ġquinoa": 2367,
      "dire": 2368,
      "ատ": 2369,
      "ierre": 2370,
      "weig": 2371,
      "Ġrele": 2372,
      "ĠVive": 2373,
      "Ġgeliş": 2374,
      "rians": 2375,
      "ikin": 2376,
      "uben": 2377,
      "nick": 2378,
      "Ġparec": 2379,
      "Ġکی": 2380,
      "рому": 2381,
      "eki": 2382,
      "czne": 2383,
      "Ġmelan": 2384,
      "шот": 2385,
      "udsman": 2386,
      "uvent": 2387,
      "tg": 2388,
      "chia": 2389,
      "ωση": 2390,
      "Ġсъ": 2391,
      "Ġpatip": 2392,
      "Ġveget": 2393,
      "inguished": 2394,
      "Performed": 2395,
      "ляць": 2396,
      "Ġrhyth": 2397,
      "Ġundist": 2398,
      "ĠNass": 2399,
      "Ġincumb": 2400,
      "ĠHez": 2401,
      "egno": 2402,
      "Ġкаттоо": 2403,
      "ców": 2404,
      "Ġdibuj": 2405,
      "anjutan": 2406,
      "Ġέ": 2407,
      "ooney": 2408,
      "ivre": 2409,
      "Hozz": 2410,
      "ĠLocal": 2411,
      "Ġmirac": 2412,
      "ACY": 2413,
      "MG": 2414,
      "共和": 2415,
      "共和国": 2416,
      "Damage": 2417,
      "Rewarded": 2418,
      "followers": 2419,
      "Ġhero": 2420,
      "qrt": 2421,
      "Ġкаче": 2422,
      "Ġthromb": 2423,
      "ĠDink": 2424,
      "にお": 2425,
      "kiej": 2426,
      "ĠSB": 2427,
      "Thought": 2428,
      "Ġinert": 2429,
      "ólica": 2430,
      "Ġumo": 2431,
      "Cred": 2432,
      "RNA": 2433,
      "laki": 2434,
      "краё": 2435,
      "iewicz": 2436,
      "ложение": 2437,
      "sent": 2438,
      "Ġrame": 2439,
      "Ġwspół": 2440,
      "ĠFCS": 2441,
      "omone": 2442,
      "ixels": 2443,
      "ĠDocsity": 2444,
      "ĠDix": 2445,
      "gment": 2446,
      "ĠGuang": 2447,
      "nehmen": 2448,
      "ibbean": 2449,
      "Celltype": 2450,
      "geo": 2451,
      "orka": 2452,
      "variable": 2453,
      "Ġanthrop": 2454,
      "yecto": 2455,
      "Ġware": 2456,
      "ĠFit": 2457,
      "Ġcoin": 2458,
      "Ġproiz": 2459,
      "वन": 2460,
      "ĠRTC": 2461,
      "uyen": 2462,
      "Ġوالف": 2463,
      "üyada": 2464,
      "ĠHSP": 2465,
      "Ġкрай": 2466,
      "Ġapi": 2467,
      "тифика": 2468,
      "mce": 2469,
      "loop": 2470,
      "Ġwitness": 2471,
      "yam": 2472,
      "estine": 2473,
      "Ġуго": 2474,
      "Ġfingert": 2475,
      "factor": 2476,
      "Ġжүкт": 2477,
      "ĠXanth": 2478,
      "Ġbede": 2479,
      "Ġcapill": 2480,
      "Ġцвет": 2481,
      "Ġsbag": 2482,
      "ĠSaratoga": 2483,
      "Ġmož": 2484,
      "ística": 2485,
      "ostrar": 2486,
      "TARG": 2487,
      "Ġbranch": 2488,
      "Ġfebru": 2489,
      "вид": 2490,
      "Ġgetc": 2491,
      "seite": 2492,
      "rän": 2493,
      "idł": 2494,
      "gate": 2495,
      "Ġnaz": 2496,
      "uty": 2497,
      "ĠSlov": 2498,
      "Ġsynchron": 2499,
      "Typ": 2500,
      "წერ": 2501,
      "Ġthuring": 2502,
      "angsa": 2503,
      "Ġаутох": 2504,
      "ModelGrid": 2505,
      "Ġкіль": 2506,
      "ций": 2507,
      "uncil": 2508,
      "على": 2509,
      "станти": 2510,
      "ève": 2511,
      "Ġard": 2512,
      "ĠWithers": 2513,
      "inoc": 2514,
      "Ġvist": 2515,
      "ĠДмит": 2516,
      "toggle": 2517,
      "oom": 2518,
      "LT": 2519,
      "saan": 2520,
      "ículos": 2521,
      "ĠSalesLT": 2522,
      "arantadhatu": 2523,
      "のよう": 2524,
      "ĠAUTH": 2525,
      "тье": 2526,
      "oys": 2527,
      "ĠEGF": 2528,
      "jets": 2529,
      "ensing": 2530,
      "iede": 2531,
      "ahrt": 2532,
      "Ġполно": 2533,
      "mouseX": 2534,
      "ilen": 2535,
      "ĠSchaefer": 2536,
      "archiw": 2537,
      "Ġvector": 2538,
      "ĠKind": 2539,
      "である": 2540,
      "onso": 2541,
      "ieme": 2542,
      "ĠSN": 2543,
      "engen": 2544,
      "ĠBran": 2545,
      "lint": 2546,
      "ierz": 2547,
      "Ġי": 2548,
      "Ġпротивопо": 2549,
      "ĠGive": 2550,
      "adə": 2551,
      "Ġobst": 2552,
      "сног": 2553,
      "ilot": 2554,
      "askan": 2555,
      "Ġveritable": 2556,
      "Ġrepell": 2557,
      "ĠWhitt": 2558,
      "AAF": 2559,
      "Ġreluct": 2560,
      "Ġdahin": 2561,
      "hdf": 2562,
      "luc": 2563,
      "Ġenvis": 2564,
      "ĠDET": 2565,
      "Ġdic": 2566,
      "zag": 2567,
      "Ġπο": 2568,
      "ectin": 2569,
      "Ġane": 2570,
      "ĠMaeda": 2571,
      "ães": 2572,
      "Ġextrap": 2573,
      "петров": 2574,
      "ĠDuss": 2575,
      "iliary": 2576,
      "Ġlast": 2577,
      "utung": 2578,
      "vió": 2579,
      "ặt": 2580,
      "ĠAndrés": 2581,
      "стру": 2582,
      "Ġbias": 2583,
      "ultures": 2584,
      "hiy": 2585,
      "стного": 2586,
      "alingrad": 2587,
      "ickey": 2588,
      "ሉም": 2589,
      "herjee": 2590,
      "obra": 2591,
      "uates": 2592,
      "CSE": 2593,
      "ĠSCC": 2594,
      "ovolta": 2595,
      "rimidin": 2596,
      "amard": 2597,
      "ĠDaph": 2598,
      "Ġwhereupon": 2599,
      "olip": 2600,
      "ussions": 2601,
      "oğlu": 2602,
      "issen": 2603,
      "ubei": 2604,
      "ptionPane": 2605,
      "Ġawak": 2606,
      "encement": 2607,
      "ĠOswego": 2608,
      "Ġnim": 2609,
      "şağı": 2610,
      "Ġabras": 2611,
      "łaś": 2612,
      "adeira": 2613,
      "alars": 2614,
      "ĠWitt": 2615,
      "ĠGres": 2616,
      "んだ": 2617,
      "unctions": 2618,
      "とも": 2619,
      "Ġписа": 2620,
      "леко": 2621,
      "getBlue": 2622,
      "izza": 2623,
      "Ġкеңсе": 2624,
      "Ġpneum": 2625,
      "Ġtempt": 2626,
      "ĠSaleem": 2627,
      "ĠDarm": 2628,
      "AGEmoji": 2629,
      "hati": 2630,
      "mart": 2631,
      "ethylene": 2632,
      "стром": 2633,
      "osters": 2634,
      "occup": 2635,
      "Ġпода": 2636,
      "Bech": 2637,
      "Bechyné": 2638,
      "raphic": 2639,
      "apine": 2640,
      "beitung": 2641,
      "Ġgesp": 2642,
      "zaXR": 2643,
      "Bank": 2644,
      "Ġmédec": 2645,
      "rifice": 2646,
      "Ġkem": 2647,
      "endor": 2648,
      "rapping": 2649,
      "Address": 2650,
      "phasis": 2651,
      "يني": 2652,
      "onnell": 2653,
      "Ġfres": 2654,
      "issor": 2655,
      "ildir": 2656,
      "ĠAmit": 2657,
      "ĠDCP": 2658,
      "hesia": 2659,
      "Ġenferm": 2660,
      "ラック": 2661,
      "1>": 2662,
      "vor": 2663,
      "Ġразобра": 2664,
      "riere": 2665,
      "Dist": 2666,
      "Ġinters": 2667,
      "avourites": 2668,
      "ĠNom": 2669,
      "ший": 2670,
      "ubat": 2671,
      "Ġریا": 2672,
      "Ġpä": 2673,
      "encephal": 2674,
      "Ġالنا": 2675,
      "Ġвыпол": 2676,
      "otherapy": 2677,
      "astră": 2678,
      "Ġtomon": 2679,
      "Ġవ": 2680,
      "iniert": 2681,
      "akses": 2682,
      "ĠShare": 2683,
      "겠습니다": 2684,
      "Ġaufs": 2685,
      "ナル": 2686,
      "royo": 2687,
      "कत": 2688,
      "ắt": 2689,
      "ĠLong": 2690,
      "aos": 2691,
      "Ġtransport": 2692,
      "lvm": 2693,
      "Ġtumb": 2694,
      "ئین": 2695,
      "Ġbhfu": 2696,
      "romy": 2697,
      "Ġratt": 2698,
      "Ġisomer": 2699,
      "Ġزینت": 2700,
      "rogate": 2701,
      "Ġболу": 2702,
      "upar": 2703,
      "diol": 2704,
      "ikuti": 2705,
      "ómago": 2706,
      "innt": 2707,
      "ĠDhwast": 2708,
      "сий": 2709,
      "MI": 2710,
      "ĠJin": 2711,
      "ocr": 2712,
      "ĠDess": 2713,
      "дик": 2714,
      "Ġcens": 2715,
      "security": 2716,
      "íns": 2717,
      "enton": 2718,
      "usetts": 2719,
      "Ġlag": 2720,
      "Db": 2721,
      "routing": 2722,
      "iline": 2723,
      "ĠSDL": 2724,
      "ტის": 2725,
      "Ġlistop": 2726,
      "artner": 2727,
      "rapie": 2728,
      "WeakTable": 2729,
      "Ġimagin": 2730,
      "onis": 2731,
      "Author": 2732,
      "ourc": 2733,
      "ствуйте": 2734,
      "FocusBracketing": 2735,
      "osov": 2736,
      "ĠUpdate": 2737,
      "UiThread": 2738,
      "φος": 2739,
      "ĠPub": 2740,
      "InfoPlist": 2741,
      "ĠIndust": 2742,
      "Ġbloss": 2743,
      "ĠRahul": 2744,
      "Ġparas": 2745,
      "Ġactual": 2746,
      "lastval": 2747,
      "InstanceOf": 2748,
      "Ġвнутрен": 2749,
      "Ġseverance": 2750,
      "Ġscream": 2751,
      "aeskeygen": 2752,
      "IVATE": 2753,
      "uidade": 2754,
      "Ġtrov": 2755,
      "ospheric": 2756,
      "opss": 2757,
      "Ġbody": 2758,
      "обре": 2759,
      "hene": 2760,
      "iae": 2761,
      "ابط": 2762,
      "intah": 2763,
      "Ġcôt": 2764,
      "stag": 2765,
      "Ġperman": 2766,
      "acional": 2767,
      "ignant": 2768,
      "Ġbeque": 2769,
      "lynk": 2770,
      "ĠEduc": 2771,
      "ĠВайлдберриз": 2772,
      "alnız": 2773,
      "ĠJord": 2774,
      "Ġunsub": 2775,
      "rones": 2776,
      "ĠSpear": 2777,
      "ĠHoll": 2778,
      "izon": 2779,
      "vict": 2780,
      "coon": 2781,
      "valuation": 2782,
      "adeIn": 2783,
      "OKA": 2784,
      "Ġactu": 2785,
      "大的": 2786,
      "Ġхра": 2787,
      "ichael": 2788,
      "Available": 2789,
      "fü": 2790,
      "Ġfamí": 2791,
      "Ġباسک": 2792,
      "prises": 2793,
      "Ġпротя": 2794,
      "ĠMerr": 2795,
      "rogram": 2796,
      "ĠTam": 2797,
      "astricht": 2798,
      "ĠFract": 2799,
      "жем": 2800,
      "avit": 2801,
      "ulators": 2802,
      "Ġkotlin": 2803,
      "Ġangr": 2804,
      "alten": 2805,
      "Ġpromulg": 2806,
      "zení": 2807,
      "ĠWH": 2808,
      "Ġunanim": 2809,
      "رحب": 2810,
      "Ġactive": 2811,
      "っいて": 2812,
      "Ġalloc": 2813,
      "Ġsupplement": 2814,
      "Ġfluct": 2815,
      "を持": 2816,
      "Nome": 2817,
      "шенные": 2818,
      "ehicle": 2819,
      "etype": 2820,
      "Ġenunci": 2821,
      "vard": 2822,
      "ĠSmooth": 2823,
      "Ġemoc": 2824,
      "rctx": 2825,
      "Ġintoxic": 2826,
      "тельно": 2827,
      "ĠCPP": 2828,
      "чный": 2829,
      "uhà": 2830,
      "کت": 2831,
      "Ġmerk": 2832,
      "ĠTrip": 2833,
      "ordinates": 2834,
      "ĠVish": 2835,
      "oho": 2836,
      "ollo": 2837,
      "irar": 2838,
      "baden": 2839,
      "MessageNow": 2840,
      "ĠPapua": 2841,
      "Shader": 2842,
      "Ġditer": 2843,
      "ocyte": 2844,
      "ادر": 2845,
      "xRtList": 2846,
      "ermeister": 2847,
      "rivastava": 2848,
      "ulars": 2849,
      "Ġواق": 2850,
      "Ġالسعود": 2851,
      "IDENTAL": 2852,
      "Ġproporcion": 2853,
      "ipboard": 2854,
      "ITOR": 2855,
      "MAT": 2856,
      "calcul": 2857,
      "ĠVerl": 2858,
      "ikir": 2859,
      "Ġlater": 2860,
      "рим": 2861,
      "сии": 2862,
      "oters": 2863,
      "établ": 2864,
      "ixeira": 2865,
      "Ġنی": 2866,
      "iquant": 2867,
      "ibouti": 2868,
      "Ġслова": 2869,
      "Ġforfe": 2870,
      "できます": 2871,
      "ĠLau": 2872,
      "ĠTool": 2873,
      "ሳሪያ": 2874,
      "ração": 2875,
      "ĠSpons": 2876,
      "uere": 2877,
      "yes": 2878,
      "unpriv": 2879,
      "nab": 2880,
      "ysty": 2881,
      "Ġespect": 2882,
      "ĠJournal": 2883,
      "uram": 2884,
      "STRACT": 2885,
      "ومة": 2886,
      "ĠStream": 2887,
      "ĠАна": 2888,
      "érica": 2889,
      "hension": 2890,
      "uye": 2891,
      "ĠImage": 2892,
      "etian": 2893,
      "JKLMNOP": 2894,
      "ĠCOR": 2895,
      "Ġpubbl": 2896,
      "кей": 2897,
      "პერ": 2898,
      "жим": 2899,
      "Ġbell": 2900,
      "gono": 2901,
      "Ġчелове": 2902,
      "Ġaven": 2903,
      "lementine": 2904,
      "лко": 2905,
      "ремя": 2906,
      "altet": 2907,
      "ytics": 2908,
      "Ġstir": 2909,
      "closed": 2910,
      "asonal": 2911,
      "opaedia": 2912,
      "ラク": 2913,
      "ĠSUB": 2914,
      "Ġround": 2915,
      "addin": 2916,
      "Ġпери": 2917,
      "aments": 2918,
      "Ġmej": 2919,
      "ysse": 2920,
      "Ġグ": 2921,
      "ეს": 2922,
      "ärts": 2923,
      "यर": 2924,
      "ĠUnc": 2925,
      "ĠKieran": 2926,
      "Ġrelativ": 2927,
      "ectady": 2928,
      "Ġaprove": 2929,
      "rames": 2930,
      "ناء": 2931,
      "Ġwor": 2932,
      "stä": 2933,
      "шње": 2934,
      "ezet": 2935,
      "ệm": 2936,
      "Ġинтере": 2937,
      "ĠRuh": 2938,
      "Flex": 2939,
      "usement": 2940,
      "fox": 2941,
      "inho": 2942,
      "Ġмет": 2943,
      "Mk": 2944,
      "Mkv": 2945,
      "Ġبند": 2946,
      "elan": 2947,
      "ibal": 2948,
      "Ġdismant": 2949,
      "Ġexcit": 2950,
      "adec": 2951,
      "Connell": 2952,
      "Ġعبد": 2953,
      "debug": 2954,
      "ĠGran": 2955,
      "plit": 2956,
      "thet": 2957,
      "rivate": 2958,
      "ዎች": 2959,
      "以上": 2960,
      "ourses": 2961,
      "Ġполови": 2962,
      "venir": 2963,
      "ccoli": 2964,
      "መሳ": 2965,
      "ሳይ": 2966,
      "መሳሳይ": 2967,
      "Ġprefque": 2968,
      "breviations": 2969,
      "Ġinsign": 2970,
      "ésus": 2971,
      "Ġوالمع": 2972,
      "ĠON": 2973,
      "MLL": 2974,
      "ĠSimp": 2975,
      "Destroy": 2976,
      "Ġpak": 2977,
      "ĠEmory": 2978,
      "ĠDiff": 2979,
      "arti": 2980,
      "ĠTrab": 2981,
      "Beg": 2982,
      "RL": 2983,
      "Ġcomput": 2984,
      "сей": 2985,
      "midt": 2986,
      "Ġcompat": 2987,
      "convolve": 2988,
      "eluarkan": 2989,
      "walle": 2990,
      "steller": 2991,
      "ĠShank": 2992,
      "ulai": 2993,
      "Ġinduct": 2994,
      "ĠJoseph": 2995,
      "ATUS": 2996,
      "rán": 2997,
      "Ġfrust": 2998,
      "zim": 2999,
      "webContents": 3000,
      "ходят": 3001,
      "ytical": 3002,
      "сик": 3003,
      "angered": 3004,
      "ĠFat": 3005,
      "ləşdir": 3006,
      "сыз": 3007,
      "DEFGHI": 3008,
      "Ġfilos": 3009,
      "Ġrostr": 3010,
      "Сма": 3011,
      "ToShow": 3012,
      "Ġčin": 3013,
      "იან": 3014,
      "halb": 3015,
      "Ġstep": 3016,
      "iculis": 3017,
      "Slide": 3018,
      "odynamic": 3019,
      "ding": 3020,
      "Ġintrac": 3021,
      "ĠICR": 3022,
      "hearted": 3023,
      "Ġelectroly": 3024,
      "हल": 3025,
      "ĠDud": 3026,
      "obuf": 3027,
      "Ġمرتب": 3028,
      "Ġmote": 3029,
      "чиго": 3030,
      "Ġchromed": 3031,
      "Ġsomm": 3032,
      "inez": 3033,
      "clock": 3034,
      "Ġatmos": 3035,
      "bard": 3036,
      "elite": 3037,
      "gency": 3038,
      "uvial": 3039,
      "стых": 3040,
      "Ġerm": 3041,
      "Ġübern": 3042,
      "ForRule": 3043,
      "ĠlineColor": 3044,
      "Batch": 3045,
      "joen": 3046,
      "στη": 3047,
      "Ġaç": 3048,
      "ĠSic": 3049,
      "evin": 3050,
      "ictal": 3051,
      "úmer": 3052,
      "otea": 3053,
      "Ġappoint": 3054,
      "orea": 3055,
      "ioane": 3056,
      "ammed": 3057,
      "Ġclean": 3058,
      "Ġreinst": 3059,
      "ellem": 3060,
      "Ġbipart": 3061,
      "ofy": 3062,
      "écn": 3063,
      "akti": 3064,
      "uya": 3065,
      "Ġнев": 3066,
      "zir": 3067,
      "riors": 3068,
      "Ġبرخ": 3069,
      "ritical": 3070,
      "ĠCRC": 3071,
      "してお": 3072,
      "omét": 3073,
      "ournals": 3074,
      "week": 3075,
      "roite": 3076,
      "Ġloos": 3077,
      "bright": 3078,
      "iai": 3079,
      "Ġcollo": 3080,
      "ći": 3081,
      "ĠTuk": 3082,
      "ratulations": 3083,
      "ESO": 3084,
      "ĠBuck": 3085,
      "Touching": 3086,
      "лого": 3087,
      "MVCProject": 3088,
      "Ġоши": 3089,
      "attern": 3090,
      "Ġстоимо": 3091,
      "Ġструк": 3092,
      "Ġiv": 3093,
      "ciente": 3094,
      "IVERY": 3095,
      "acement": 3096,
      "Email": 3097,
      "جاج": 3098,
      "ereco": 3099,
      "Ġferv": 3100,
      "ayson": 3101,
      "ĠMcLean": 3102,
      "Neigh": 3103,
      "ClF": 3104,
      "ĠParker": 3105,
      "hamdul": 3106,
      "Ġстек": 3107,
      "ĠCIS": 3108,
      "igd": 3109,
      "Ġflavono": 3110,
      "Ġadult": 3111,
      "Ġrealizar": 3112,
      "Ġmoe": 3113,
      "httpwwwpond": 3114,
      "zelf": 3115,
      "fetchAll": 3116,
      "ĠlocalVarHTTP": 3117,
      "Ġлет": 3118,
      "érrez": 3119,
      "gon": 3120,
      "ĠPompe": 3121,
      "onnay": 3122,
      "ĠVoy": 3123,
      "Ess": 3124,
      "Ġಬ": 3125,
      "ウェ": 3126,
      "نوع": 3127,
      "ylül": 3128,
      "RANT": 3129,
      "ĠGroningen": 3130,
      "äre": 3131,
      "Ġजलन": 3132,
      "MDEw": 3133,
      "frey": 3134,
      "гаа": 3135,
      "ĠMcManus": 3136,
      "Ġméth": 3137,
      "скай": 3138,
      "ĠSomm": 3139,
      "ierno": 3140,
      "روچ": 3141,
      "borderRadius": 3142,
      "dot": 3143,
      "Memory": 3144,
      "Ġpept": 3145,
      "imuth": 3146,
      "icao": 3147,
      "folio": 3148,
      "ĠSah": 3149,
      "část": 3150,
      "ĠMTS": 3151,
      "asketball": 3152,
      "ĠDBT": 3153,
      "Ġyok": 3154,
      "ransfer": 3155,
      "ын": 3156,
      "Velocity": 3157,
      "ĠAllgeme": 3158,
      "原始": 3159,
      "原始内容": 3160,
      "าศ": 3161,
      "óż": 3162,
      "ĠMust": 3163,
      "ĠCG": 3164,
      "ولت": 3165,
      "ositions": 3166,
      "дино": 3167,
      "iddleware": 3168,
      "igue": 3169,
      "Ġالمؤ": 3170,
      "aktan": 3171,
      "ĠAzer": 3172,
      "Ġfooth": 3173,
      "tained": 3174,
      "ancias": 3175,
      "raying": 3176,
      "utérus": 3177,
      "CodeDict": 3178,
      "λευτα": 3179,
      "Ġintrav": 3180,
      "LVector": 3181,
      "ĠIntern": 3182,
      "ĠInvestig": 3183,
      "lusconi": 3184,
      "Ġcér": 3185,
      "Ġimmers": 3186,
      "Ġexcret": 3187,
      "abr": 3188,
      "iduciary": 3189,
      "anath": 3190,
      "ätzlich": 3191,
      "ảy": 3192,
      "Ġinterf": 3193,
      "νοι": 3194,
      "Ġدن": 3195,
      "odend": 3196,
      "Else": 3197,
      "Ġvault": 3198,
      "Ġosm": 3199,
      "ĠprimaryLanguage": 3200,
      "افيه": 3201,
      "ariski": 3202,
      "ĠMcClure": 3203,
      "itaea": 3204,
      "Ġbrach": 3205,
      "uton": 3206,
      "Ġinoc": 3207,
      "Ġwicht": 3208,
      "ĠAtom": 3209,
      "AUTH": 3210,
      "PEND": 3211,
      "ットン": 3212,
      "ĠCin": 3213,
      "ĠSchw": 3214,
      "ĠDaw": 3215,
      "Ġمعا": 3216,
      "Ġofrec": 3217,
      "rived": 3218,
      "ĠCamero": 3219,
      "لیسی": 3220,
      "Ġsigu": 3221,
      "ontinuous": 3222,
      "Ġавтомо": 3223,
      "бло": 3224,
      "toLocale": 3225,
      "ĠSCS": 3226,
      "iotsit": 3227,
      "newData": 3228,
      "AuthConfig": 3229,
      "ucha": 3230,
      "Ġpren": 3231,
      "ĠPend": 3232,
      "Ġaeros": 3233,
      "ffine": 3234,
      "anjang": 3235,
      "riqu": 3236,
      "ATES": 3237,
      "estep": 3238,
      "ossip": 3239,
      "Ġhipp": 3240,
      "acerb": 3241,
      "şim": 3242,
      "Ġстанов": 3243,
      "osx": 3244,
      "INAL": 3245,
      "ceres": 3246,
      "Ġвстречаются": 3247,
      "タリア": 3248,
      "Ġwrong": 3249,
      "Ġвме": 3250,
      "Ġprobl": 3251,
      "اوم": 3252,
      "Ġнео": 3253,
      "aise": 3254,
      "ricane": 3255,
      "ravel": 3256,
      "ilig": 3257,
      "案馆": 3258,
      "档案馆": 3259,
      "ĠIS": 3260,
      "IZE": 3261,
      "збе": 3262,
      "σιμοποι": 3263,
      "Ġpréal": 3264,
      "Ġوزی": 3265,
      "ĠWer": 3266,
      "ivered": 3267,
      "arbij": 3268,
      "axis": 3269,
      "óry": 3270,
      "betriebnahme": 3271,
      "awk": 3272,
      "Ġloud": 3273,
      "ĠBurb": 3274,
      "Ġβ": 3275,
      "тем": 3276,
      "ĠCour": 3277,
      "Ġaph": 3278,
      "شاء": 3279,
      "اريخ": 3280,
      "won": 3281,
      "Ġнена": 3282,
      "Ġshack": 3283,
      "nuxt": 3284,
      "argar": 3285,
      "onuclease": 3286,
      "oS": 3287,
      "ĠtopLine": 3288,
      "iorari": 3289,
      "ears": 3290,
      "Ġcursor": 3291,
      "Ġaband": 3292,
      "ndrome": 3293,
      "incre": 3294,
      "rição": 3295,
      "ائن": 3296,
      "ensively": 3297,
      "emporal": 3298,
      "forced": 3299,
      "ニング": 3300,
      "pare": 3301,
      "Ġia": 3302,
      "Ġexch": 3303,
      "бора": 3304,
      "Ġgiri": 3305,
      "Ġgymn": 3306,
      "Ġنها": 3307,
      "irthday": 3308,
      "Ġphilosoph": 3309,
      "liced": 3310,
      "icolo": 3311,
      "ĠShab": 3312,
      "oundButton": 3313,
      "كون": 3314,
      "dm": 3315,
      "σε": 3316,
      "Ġmdl": 3317,
      "Ġнепро": 3318,
      "consc": 3319,
      "antung": 3320,
      "onomous": 3321,
      "Ġбуд": 3322,
      "ĠTSS": 3323,
      "ĠKear": 3324,
      "Enable": 3325,
      "nee": 3326,
      "Ġالخام": 3327,
      "opardy": 3328,
      "ĠNPTypeCode": 3329,
      "Patient": 3330,
      "Ġinactivació": 3331,
      "Ġvass": 3332,
      "ĠGabon": 3333,
      "นาะ": 3334,
      "نګه": 3335,
      "Ġoverl": 3336,
      "Ġيعطيكم": 3337,
      "ıştır": 3338,
      "ürd": 3339,
      "тие": 3340,
      "خاب": 3341,
      "Ġpouv": 3342,
      "ĠEthiop": 3343,
      "ığımız": 3344,
      "ondon": 3345,
      "ayton": 3346,
      "uarios": 3347,
      "descript": 3348,
      "Ġglomer": 3349,
      "ynarod": 3350,
      "ทาง": 3351,
      "oxing": 3352,
      "ĠresTmp": 3353,
      "orado": 3354,
      "طلع": 3355,
      "pst": 3356,
      "Ġclaim": 3357,
      "Ġrecurs": 3358,
      "Ġirres": 3359,
      "Ġproduk": 3360,
      "ĠMyc": 3361,
      "Ġstaff": 3362,
      "Ġvrt": 3363,
      "evším": 3364,
      "ELDS": 3365,
      "uscular": 3366,
      "ĠJullie": 3367,
      "ALTERN": 3368,
      "viene": 3369,
      "DUN": 3370,
      "Ġстеп": 3371,
      "scriptions": 3372,
      "pex": 3373,
      "Ġgeg": 3374,
      "ĠNE": 3375,
      "اریخ": 3376,
      "спользова": 3377,
      "гү": 3378,
      "ĠCarb": 3379,
      "yteArray": 3380,
      "Ġitiner": 3381,
      "ĠTas": 3382,
      "ĠTart": 3383,
      "Ġestadounid": 3384,
      "jne": 3385,
      "Ġالفر": 3386,
      "ricos": 3387,
      "Ġoperand": 3388,
      "ustainability": 3389,
      "ĠCSM": 3390,
      "Ġsham": 3391,
      "OTAL": 3392,
      "ĠЯ": 3393,
      "ĠglTex": 3394,
      "Ġمنص": 3395,
      "Pager": 3396,
      "ĠMunicip": 3397,
      "Ġforc": 3398,
      "vcx": 3399,
      "elta": 3400,
      "şan": 3401,
      "ĠCPA": 3402,
      "Ġrét": 3403,
      "iyorum": 3404,
      "orrag": 3405,
      "zeichnet": 3406,
      "isks": 3407,
      "şlar": 3408,
      "ificant": 3409,
      "itamin": 3410,
      "arias": 3411,
      "affirm": 3412,
      "Swatch": 3413,
      "miš": 3414,
      "ĠPadova": 3415,
      "istler": 3416,
      "acja": 3417,
      "ntl": 3418,
      "quierda": 3419,
      "ermak": 3420,
      "ρχ": 3421,
      "ĠHaus": 3422,
      "Ġию": 3423,
      "тпу": 3424,
      "phabet": 3425,
      "Ġmarket": 3426,
      "ĠPath": 3427,
      "pageToken": 3428,
      "Ġcs": 3429,
      "Ġруково": 3430,
      "στα": 3431,
      "Ġcumpl": 3432,
      "солю": 3433,
      "IGENCE": 3434,
      "ICS": 3435,
      "Ġquarter": 3436,
      "ĠTwe": 3437,
      "tta": 3438,
      "мести": 3439,
      "Ġاخذ": 3440,
      "стю": 3441,
      "ĠHait": 3442,
      "udarstv": 3443,
      "ennyj": 3444,
      "udarstvennyj": 3445,
      "chers": 3446,
      "usty": 3447,
      "BES": 3448,
      "ĠPAC": 3449,
      "BESCHREIBUNG": 3450,
      "Watch": 3451,
      "uetooth": 3452,
      "ウンド": 3453,
      "ĠYork": 3454,
      "ĠCoon": 3455,
      "ĠKub": 3456,
      "Ġkult": 3457,
      "ĠNCP": 3458,
      "kog": 3459,
      "פון": 3460,
      "Initial": 3461,
      "Extra": 3462,
      "Ġتعد": 3463,
      "ConfigureArg": 3464,
      "رید": 3465,
      "を行": 3466,
      "Insets": 3467,
      "ĠSearch": 3468,
      "ouches": 3469,
      "arz": 3470,
      "Ġarteri": 3471,
      "ĠCPS": 3472,
      "ELEASES": 3473,
      "ELEASESTR": 3474,
      "Ġperkara": 3475,
      "Ġquím": 3476,
      "zor": 3477,
      "Ġassur": 3478,
      "avings": 3479,
      "iggs": 3480,
      "OrdinateTuple": 3481,
      "Ġjab": 3482,
      "ĠАйдз": 3483,
      "irrahim": 3484,
      "Deb": 3485,
      "gboost": 3486,
      "eterminate": 3487,
      "Ġlibr": 3488,
      "ющий": 3489,
      "oppers": 3490,
      "Ġგამო": 3491,
      "xton": 3492,
      "yszer": 3493,
      "Ġarchitect": 3494,
      "ainless": 3495,
      "ICLE": 3496,
      "istical": 3497,
      "ovit": 3498,
      "ewith": 3499,
      "ensitive": 3500,
      "Ġemboss": 3501,
      "ою": 3502,
      "assanam": 3503,
      "Ġkarş": 3504,
      "ício": 3505,
      "Ġент": 3506,
      "ocou": 3507,
      "Ġilm": 3508,
      "Ġተ": 3509,
      "allo": 3510,
      "kok": 3511,
      "Template": 3512,
      "ミュ": 3513,
      "Ġcomport": 3514,
      "ĠSoa": 3515,
      "DetailUIJob": 3516,
      "VIDED": 3517,
      "lık": 3518,
      "erald": 3519,
      "achel": 3520,
      "ibir": 3521,
      "national": 3522,
      "DIS": 3523,
      "yers": 3524,
      "onial": 3525,
      "upun": 3526,
      "ittä": 3527,
      "tember": 3528,
      "allbacks": 3529,
      "IManager": 3530,
      "Ġwaar": 3531,
      "iciente": 3532,
      "ähl": 3533,
      "Millan": 3534,
      "リーン": 3535,
      "FoldoutGC": 3536,
      "wheel": 3537,
      "ĠNath": 3538,
      "Ġannex": 3539,
      "dyl": 3540,
      "пан": 3541,
      "więks": 3542,
      "ạng": 3543,
      "personal": 3544,
      "araan": 3545,
      "Ġগ": 3546,
      "Ġخود": 3547,
      "วก": 3548,
      "ĠWall": 3549,
      "Ġdop": 3550,
      "ĠKrist": 3551,
      "Ġshar": 3552,
      "Ġedific": 3553,
      "gets": 3554,
      "ĠMHC": 3555,
      "Ġللف": 3556,
      "Ġپاورپوینت": 3557,
      "inafter": 3558,
      "Ġpick": 3559,
      "ching": 3560,
      "čiau": 3561,
      "ურთი": 3562,
      "ĠRag": 3563,
      "ĠGaul": 3564,
      "ucci": 3565,
      "Ġtech": 3566,
      "ĠReykjav": 3567,
      "κτή": 3568,
      "Ġдаль": 3569,
      "rera": 3570,
      "Ġlimit": 3571,
      "elni": 3572,
      "Ġcatast": 3573,
      "ικο": 3574,
      "Ġdup": 3575,
      "apopt": 3576,
      "isOnTimer": 3577,
      "Stub": 3578,
      "besie": 3579,
      "FocusValue": 3580,
      "Ġhydraul": 3581,
      "yLint": 3582,
      "Dij": 3583,
      "дро": 3584,
      "Ġgek": 3585,
      "ebox": 3586,
      "ĠIrv": 3587,
      "Ġdub": 3588,
      "Ġdép": 3589,
      "یشه": 3590,
      "Fac": 3591,
      "Ġlavor": 3592,
      "ĠBlackhawks": 3593,
      "icules": 3594,
      "ĠMöglich": 3595,
      "LookAndFe": 3596,
      "ipse": 3597,
      "prisingly": 3598,
      "Ġopér": 3599,
      "面的": 3600,
      "ĠHeg": 3601,
      "Ġplabic": 3602,
      "سبة": 3603,
      "újo": 3604,
      "Ġlav": 3605,
      "iyah": 3606,
      "Ġwomen": 3607,
      "anstalt": 3608,
      "Ġstell": 3609,
      "ということ": 3610,
      "abolic": 3611,
      "empre": 3612,
      "ANIA": 3613,
      "audio": 3614,
      "bridge": 3615,
      "raq": 3616,
      "lein": 3617,
      "Ġполуча": 3618,
      "Ġcau": 3619,
      "Ġје": 3620,
      "лос": 3621,
      "ĠECD": 3622,
      "Ġbers": 3623,
      "При": 3624,
      "FERENCE": 3625,
      "arkMode": 3626,
      "Ġerw": 3627,
      "QUEST": 3628,
      "Ġdepart": 3629,
      "alloc": 3630,
      "otrexate": 3631,
      "ennies": 3632,
      "Ġimpregn": 3633,
      "нде": 3634,
      "Ġpotash": 3635,
      "hev": 3636,
      "лец": 3637,
      "зий": 3638,
      "молча": 3639,
      "Har": 3640,
      "VHTree": 3641,
      "ĠBVHTree": 3642,
      "ável": 3643,
      "oppable": 3644,
      "thole": 3645,
      "inist": 3646,
      "ĠGeme": 3647,
      "ĠSpect": 3648,
      "ĠGibb": 3649,
      "Ġtoken": 3650,
      "opropyl": 3651,
      "mf": 3652,
      "URCH": 3653,
      "Ġunr": 3654,
      "ogun": 3655,
      "Ġнаписа": 3656,
      "Ġоте": 3657,
      "UserManager": 3658,
      "RIAL": 3659,
      "angement": 3660,
      "ềm": 3661,
      "oths": 3662,
      "ĠPfeiffer": 3663,
      "スペ": 3664,
      "øre": 3665,
      "DataXYZ": 3666,
      "Moles": 3667,
      "Ġinaug": 3668,
      "Ġfinanci": 3669,
      "ureth": 3670,
      "ĠAlvar": 3671,
      "Ġdigit": 3672,
      "Ġpanne": 3673,
      "ARRAY": 3674,
      "hattis": 3675,
      "Ġguard": 3676,
      "Ġkör": 3677,
      "nea": 3678,
      "ĠBON": 3679,
      "Ġajust": 3680,
      "Acet": 3681,
      "agnes": 3682,
      "Instrument": 3683,
      "trecht": 3684,
      "лик": 3685,
      "PATH": 3686,
      "Helper": 3687,
      "Ġ것": 3688,
      "Ġدور": 3689,
      "paste": 3690,
      "Ġkonus": 3691,
      "СР": 3692,
      "jskim": 3693,
      "avni": 3694,
      "ydon": 3695,
      "ĠEnerg": 3696,
      "Ġgradio": 3697,
      "пли": 3698,
      "PERATURE": 3699,
      "thern": 3700,
      "ĠAachen": 3701,
      "ĠCat": 3702,
      "bh": 3703,
      "ĠDok": 3704,
      "ĠИта": 3705,
      "Ġesf": 3706,
      "henderit": 3707,
      "Ġпід": 3708,
      "ĠMainPage": 3709,
      "Ġzaw": 3710,
      "ouche": 3711,
      "ĠJah": 3712,
      "Ġcuest": 3713,
      "Ġsprint": 3714,
      "owner": 3715,
      "еру": 3716,
      "ileSize": 3717,
      "angleright": 3718,
      "iors": 3719,
      "Ġznam": 3720,
      "ovod": 3721,
      "ủng": 3722,
      "Ġعلي": 3723,
      "Ġatmosph": 3724,
      "მას": 3725,
      "モンド": 3726,
      "Ġpru": 3727,
      "হরণ": 3728,
      "Ġattent": 3729,
      "ircraft": 3730,
      "ĠSussex": 3731,
      "lepiej": 3732,
      "ĠAdin": 3733,
      "otions": 3734,
      "CLUD": 3735,
      "ĠNON": 3736,
      "Ġentraî": 3737,
      "ĠfileCopy": 3738,
      "Ġوالد": 3739,
      "Ġwart": 3740,
      "icina": 3741,
      "setImageResource": 3742,
      "тах": 3743,
      "Ġvil": 3744,
      "Ġcentral": 3745,
      "thym": 3746,
      "templ": 3747,
      "Ġ하": 3748,
      "ĠКи": 3749,
      "Ġstroke": 3750,
      "ĠUlm": 3751,
      "getP": 3752,
      "不是": 3753,
      "ificent": 3754,
      "sst": 3755,
      "وپ": 3756,
      "urier": 3757,
      "Tim": 3758,
      "FLAG": 3759,
      "idir": 3760,
      "știg": 3761,
      "Ġعن": 3762,
      "permissionid": 3763,
      "rophys": 3764,
      "state": 3765,
      "Ġsech": 3766,
      "пом": 3767,
      "änner": 3768,
      "VCTargetsPath": 3769,
      "iez": 3770,
      "امات": 3771,
      "lassical": 3772,
      "لات": 3773,
      "udal": 3774,
      "OwnProperty": 3775,
      "Ġанг": 3776,
      "Ġخلص": 3777,
      "сер": 3778,
      "uples": 3779,
      "Ġcoeff": 3780,
      "Ġвікі": 3781,
      "ece": 3782,
      "Ġspor": 3783,
      "rotic": 3784,
      "そも": 3785,
      "Ġlind": 3786,
      "Ġпон": 3787,
      "تمل": 3788,
      "Rot": 3789,
      "Ġplasm": 3790,
      "Lat": 3791,
      "ĠdueDate": 3792,
      "Ġnač": 3793,
      "ırl": 3794,
      "Ġcontroll": 3795,
      "angolo": 3796,
      "jed": 3797,
      "áus": 3798,
      "ExtensionsPath": 3799,
      "cox": 3800,
      "Ġgio": 3801,
      "ĠBxe": 3802,
      "enness": 3803,
      "otron": 3804,
      "elist": 3805,
      "ĠPros": 3806,
      "Ġшу": 3807,
      "MeshVD": 3808,
      "paralle": 3809,
      "ĠGabri": 3810,
      "ijo": 3811,
      "ImageBeforeText": 3812,
      "ötzlich": 3813,
      "راه": 3814,
      "output": 3815,
      "puri": 3816,
      "eple": 3817,
      "Ġabol": 3818,
      "lert": 3819,
      "Ġż": 3820,
      "ĠDAM": 3821,
      "Ġhetuk": 3822,
      "Ġfx": 3823,
      "abetes": 3824,
      "orneys": 3825,
      "Ġrecru": 3826,
      "ulatory": 3827,
      "Counters": 3828,
      "LoginID": 3829,
      "Ġpond": 3830,
      "Ġفاط": 3831,
      "itorial": 3832,
      "popupIsOpen": 3833,
      "yaar": 3834,
      "amt": 3835,
      "ĠVID": 3836,
      "кри": 3837,
      "шим": 3838,
      "ĠNavar": 3839,
      "იდ": 3840,
      "inken": 3841,
      "ĠПри": 3842,
      "loz": 3843,
      "prus": 3844,
      "Temper": 3845,
      "ĠAcceler": 3846,
      "aui": 3847,
      "Ġвсе": 3848,
      "Ġوالص": 3849,
      "ików": 3850,
      "irtschaft": 3851,
      "واق": 3852,
      "ĠGit": 3853,
      "ijl": 3854,
      "rando": 3855,
      "algar": 3856,
      "imestre": 3857,
      "clear": 3858,
      "ỗi": 3859,
      "izoph": 3860,
      "Ġorphan": 3861,
      "чных": 3862,
      "ricultural": 3863,
      "ĠHard": 3864,
      "icism": 3865,
      "itchen": 3866,
      "Ġely": 3867,
      "Blank": 3868,
      "ĠTheme": 3869,
      "fert": 3870,
      "velopp": 3871,
      "忙時間": 3872,
      "繁忙時間": 3873,
      "ĠPHA": 3874,
      "phor": 3875,
      "ayeva": 3876,
      "ILITIES": 3877,
      "Ġonder": 3878,
      "Ġjer": 3879,
      "Associ": 3880,
      "stehen": 3881,
      "сный": 3882,
      "のでは": 3883,
      "apace": 3884,
      "Fhir": 3885,
      "adh": 3886,
      "들이": 3887,
      "self": 3888,
      "faul": 3889,
      "faulse": 3890,
      "skins": 3891,
      "idental": 3892,
      "ĠGeschäft": 3893,
      "țin": 3894,
      "ĠWoodford": 3895,
      "ĠNTR": 3896,
      "licht": 3897,
      "atings": 3898,
      "ievable": 3899,
      "ждать": 3900,
      "Ġчасти": 3901,
      "макра": 3902,
      "ankton": 3903,
      "viously": 3904,
      "TempVal": 3905,
      "mäß": 3906,
      "inka": 3907,
      "Ġvisual": 3908,
      "ifique": 3909,
      "aixa": 3910,
      "ĠPinn": 3911,
      "Ġbulun": 3912,
      "Ġhomolog": 3913,
      "irim": 3914,
      "вить": 3915,
      "Ġanci": 3916,
      "IRON": 3917,
      "agues": 3918,
      "Ġdate": 3919,
      "ajte": 3920,
      "Ġadvoc": 3921,
      "idopsis": 3922,
      "áy": 3923,
      "ypad": 3924,
      "hotra": 3925,
      "Ġfood": 3926,
      "Ġněkol": 3927,
      "reddit": 3928,
      "upplement": 3929,
      "ded": 3930,
      "enças": 3931,
      "utzen": 3932,
      "stat": 3933,
      "راض": 3934,
      "ĠnumberWith": 3935,
      "znac": 3936,
      "izin": 3937,
      "oretical": 3938,
      "neys": 3939,
      "iguous": 3940,
      "Ġsynerg": 3941,
      "vidence": 3942,
      "Ġtecnolog": 3943,
      "があります": 3944,
      "Ġاند": 3945,
      "ĠMVC": 3946,
      "Ġaccol": 3947,
      "чай": 3948,
      "ymmetry": 3949,
      "ipro": 3950,
      "aints": 3951,
      "Ġhic": 3952,
      "ProcessAvg": 3953,
      "ruzione": 3954,
      "buk": 3955,
      "Ġmulticellular": 3956,
      "fels": 3957,
      "Ġdenom": 3958,
      "zol": 3959,
      "ógł": 3960,
      "Ġсі": 3961,
      "ogui": 3962,
      "oln": 3963,
      "incoln": 3964,
      "czas": 3965,
      "Ġlocom": 3966,
      "кви": 3967,
      "ĠVe": 3968,
      "Ġtrá": 3969,
      "ĠTay": 3970,
      "ilarity": 3971,
      "hips": 3972,
      "Ġkäytt": 3973,
      "اخت": 3974,
      "Ġعلم": 3975,
      "Ġvhod": 3976,
      "chets": 3977,
      "hma": 3978,
      "Ġchor": 3979,
      "Ġthé": 3980,
      "legiate": 3981,
      "vät": 3982,
      "Protected": 3983,
      "velope": 3984,
      "reibung": 3985,
      "ustos": 3986,
      "cadia": 3987,
      "reading": 3988,
      "ĠStud": 3989,
      "რი": 3990,
      "geführt": 3991,
      "Goto": 3992,
      "ĠGriffith": 3993,
      "hezza": 3994,
      "Ġcompagn": 3995,
      "hrm": 3996,
      "Ġmarqu": 3997,
      "Ġvro": 3998,
      "اية": 3999,
      "fäh": 4000,
      "Gos": 4001,
      "ĠPott": 4002,
      "Ġлег": 4003,
      "amingo": 4004,
      "سل": 4005,
      "Ġbold": 4006,
      "vv": 4007,
      "Ġéconom": 4008,
      "Ġالرج": 4009,
      "ĠContent": 4010,
      "บา": 4011,
      "Ġestr": 4012,
      "ĠRedmond": 4013,
      "ксана": 4014,
      "EnglishMarks": 4015,
      "this": 4016,
      "Teller": 4017,
      "Ġبه": 4018,
      "ĠLDH": 4019,
      "Ġوی": 4020,
      "existingConcept": 4021,
      "يذ": 4022,
      "TakePhoto": 4023,
      "prove": 4024,
      "Ġfore": 4025,
      "lán": 4026,
      "Ġpurg": 4027,
      "tsó": 4028,
      "ujah": 4029,
      "ScrollPane": 4030,
      "Ġtreat": 4031,
      "quiao": 4032,
      "δα": 4033,
      "angelo": 4034,
      "める": 4035,
      "avg": 4036,
      "iktok": 4037,
      "Ġпредпо": 4038,
      "ارے": 4039,
      "れます": 4040,
      "Ġmener": 4041,
      "Ġpull": 4042,
      "UGIN": 4043,
      "Ġразлич": 4044,
      "Ġİl": 4045,
      "Ġстрате": 4046,
      "Ġисп": 4047,
      "Ġиспы": 4048,
      "ĠDowning": 4049,
      "éraires": 4050,
      "ĠIngl": 4051,
      "قطه": 4052,
      "었다": 4053,
      "ishable": 4054,
      "ĠFerg": 4055,
      "Ġovercrow": 4056,
      "Ġکمپ": 4057,
      "arel": 4058,
      "Administ": 4059,
      "Ġsports": 4060,
      "raut": 4061,
      "ierung": 4062,
      "uestro": 4063,
      "Ġלה": 4064,
      "iknya": 4065,
      "ssymb": 4066,
      "Ġخال": 4067,
      "Ġspongy": 4068,
      "ĠRoy": 4069,
      "FFA": 4070,
      "Ġrip": 4071,
      "Duplicate": 4072,
      "Ġsound": 4073,
      "arte": 4074,
      "Ġtene": 4075,
      "UCKY": 4076,
      "Ġsint": 4077,
      "Ġanastom": 4078,
      "Organ": 4079,
      "إنجليزية": 4080,
      "Links": 4081,
      "少なく": 4082,
      "Ġgeng": 4083,
      "ĠCatholic": 4084,
      "Ġenh": 4085,
      "Ġслуж": 4086,
      "pal": 4087,
      "Ġstagn": 4088,
      "rzed": 4089,
      "ĠThunder": 4090,
      "นะ": 4091,
      "ĠBorges": 4092,
      "Ġtransg": 4093,
      "shund": 4094,
      "Af": 4095,
      "ĠExamin": 4096,
      "Ġkész": 4097,
      "croll": 4098,
      "auft": 4099,
      "Ġsuic": 4100,
      "стон": 4101,
      "ĠSilv": 4102,
      "Sleep": 4103,
      "Composite": 4104,
      "innamon": 4105,
      "ariance": 4106,
      "ĠDup": 4107,
      "ỏa": 4108,
      "unggu": 4109,
      "Ġgrap": 4110,
      "ørn": 4111,
      "aas": 4112,
      "ریم": 4113,
      "athl": 4114,
      "Ġdesconoc": 4115,
      "ános": 4116,
      "ían": 4117,
      "Ġwarp": 4118,
      "ĠArchers": 4119,
      "bud": 4120,
      "ĠNCC": 4121,
      "ĠWhis": 4122,
      "hores": 4123,
      "ifred": 4124,
      "riven": 4125,
      "Hex": 4126,
      "core": 4127,
      "odial": 4128,
      "çaise": 4129,
      "ovic": 4130,
      "θηκε": 4131,
      "auv": 4132,
      "ĠKur": 4133,
      "Ġnying": 4134,
      "vertical": 4135,
      "Ġüzer": 4136,
      "steacher": 4137,
      "ĠDeepak": 4138,
      "Ġbuen": 4139,
      "Ġsurround": 4140,
      "seudo": 4141,
      "itant": 4142,
      "BUG": 4143,
      "loadConst": 4144,
      "トップス": 4145,
      "ĠDire": 4146,
      "Ġaute": 4147,
      "ifon": 4148,
      "inine": 4149,
      "égek": 4150,
      "inence": 4151,
      "Ġpangkat": 4152,
      "Aligned": 4153,
      "ĠMidlands": 4154,
      "boro": 4155,
      "ราย": 4156,
      "EDB": 4157,
      "wiat": 4158,
      "Ġمسئ": 4159,
      "Ġyak": 4160,
      "pathetic": 4161,
      "ĠLah": 4162,
      "PopMatrix": 4163,
      "Ġhemic": 4164,
      "oraus": 4165,
      "ligt": 4166,
      "henko": 4167,
      "ĠFAQ": 4168,
      "stairs": 4169,
      "ITS": 4170,
      "یات": 4171,
      "Ġmarsh": 4172,
      "landers": 4173,
      "Ġflaw": 4174,
      "Ġфинан": 4175,
      "onha": 4176,
      "rama": 4177,
      "uvieron": 4178,
      "notes": 4179,
      "Ġdeliber": 4180,
      "Ġcaps": 4181,
      "cession": 4182,
      "illage": 4183,
      "ĠChem": 4184,
      "Ġquis": 4185,
      "ribu": 4186,
      "Ġtid": 4187,
      "endir": 4188,
      "льные": 4189,
      "azio": 4190,
      "파일명": 4191,
      "ĠGem": 4192,
      "Ġdefer": 4193,
      "يش": 4194,
      "Ġудоволь": 4195,
      "ience": 4196,
      "Ġфору": 4197,
      "ĠEgypt": 4198,
      "peut": 4199,
      "FilesIn": 4200,
      "atho": 4201,
      "ReLU": 4202,
      "rugada": 4203,
      "ĠAns": 4204,
      "throp": 4205,
      "Ġtrip": 4206,
      "null": 4207,
      "allax": 4208,
      "ubble": 4209,
      "ença": 4210,
      "Ġthr": 4211,
      "PrototypeOf": 4212,
      "שים": 4213,
      "ốt": 4214,
      "otle": 4215,
      "ĠIvan": 4216,
      "device": 4217,
      "iul": 4218,
      "ahat": 4219,
      "asured": 4220,
      "ameth": 4221,
      "Ġsong": 4222,
      "Ġالحد": 4223,
      "racker": 4224,
      "Ġfenomen": 4225,
      "Ġélect": 4226,
      "TRANS": 4227,
      "TRANSFER": 4228,
      "Ġrode": 4229,
      "ått": 4230,
      "athering": 4231,
      "ĠBologna": 4232,
      "Ġsouth": 4233,
      "ísticas": 4234,
      "localVarPath": 4235,
      "Ġ오": 4236,
      "Ġالعم": 4237,
      "ĠFerrara": 4238,
      "ắp": 4239,
      "liferation": 4240,
      "zada": 4241,
      "Zobacz": 4242,
      "Ġrupam": 4243,
      "ĠWigan": 4244,
      "Ġuj": 4245,
      "Ġscav": 4246,
      "Cs": 4247,
      "Ġجه": 4248,
      "Ġוו": 4249,
      "ĠPesh": 4250,
      "addField": 4251,
      "lej": 4252,
      "Ġrestruct": 4253,
      "cian": 4254,
      "nard": 4255,
      "bekoru": 4256,
      "ĠLUMP": 4257,
      "aleza": 4258,
      "vadipine": 4259,
      "ablanca": 4260,
      "assed": 4261,
      "TaskPojo": 4262,
      "lared": 4263,
      "UsedError": 4264,
      "VSL": 4265,
      "porters": 4266,
      "VSLU": 4267,
      "nil": 4268,
      "اردوش": 4269,
      "rystalline": 4270,
      "afel": 4271,
      "Ġépars": 4272,
      "ружи": 4273,
      "جھ": 4274,
      "Ġcommod": 4275,
      "ĠAGA": 4276,
      "feitura": 4277,
      "ĠFullerton": 4278,
      "jem": 4279,
      "Ġذہ": 4280,
      "Ġteh": 4281,
      "stituting": 4282,
      "CUIT": 4283,
      "duration": 4284,
      "specified": 4285,
      "Ġabbreviation": 4286,
      "Ġconviv": 4287,
      "ASCADE": 4288,
      "Ġsamb": 4289,
      "Ġphi": 4290,
      "راہ": 4291,
      "ĠLaus": 4292,
      "Ġdeuter": 4293,
      "ĠNeed": 4294,
      "лети": 4295,
      "IOD": 4296,
      "Ġultim": 4297,
      "Ġmengg": 4298,
      "Ġосигура": 4299,
      "Ġmús": 4300,
      "alık": 4301,
      "ĠSPAR": 4302,
      "ĠBor": 4303,
      "Ġtron": 4304,
      "anley": 4305,
      "ród": 4306,
      "adisu": 4307,
      "ĠEngine": 4308,
      "Ġepisod": 4309,
      "atiques": 4310,
      "ĠselectedCard": 4311,
      "ESH": 4312,
      "ingle": 4313,
      "ĠSarg": 4314,
      "ĠRee": 4315,
      "ără": 4316,
      "itriangular": 4317,
      "Ġglyph": 4318,
      "Ġوبر": 4319,
      "ĠRenato": 4320,
      "ĠMMM": 4321,
      "に対": 4322,
      "Ġodp": 4323,
      "Ġihū": 4324,
      "endance": 4325,
      "jiv": 4326,
      "Ġpoc": 4327,
      "Ġリ": 4328,
      "agam": 4329,
      "Ġstap": 4330,
      "ĠDMT": 4331,
      "jest": 4332,
      "Ġträ": 4333,
      "йня": 4334,
      "erad": 4335,
      "Ġidi": 4336,
      "Ġgmin": 4337,
      "ĠpushedAt": 4338,
      "トリ": 4339,
      "Ġhern": 4340,
      "Cu": 4341,
      "ĠFire": 4342,
      "بین": 4343,
      "Ġوالن": 4344,
      "ĠApplic": 4345,
      "Ġновы": 4346,
      "たり": 4347,
      "Vari": 4348,
      "Ġlign": 4349,
      "selected": 4350,
      "itez": 4351,
      "DataDiv": 4352,
      "utscher": 4353,
      "Ġadel": 4354,
      "USS": 4355,
      "Buffered": 4356,
      "ösen": 4357,
      "upné": 4358,
      "Ġprotect": 4359,
      "ĠZak": 4360,
      "ĠCass": 4361,
      "ĠSUS": 4362,
      "лятор": 4363,
      "ĠGavin": 4364,
      "ochrome": 4365,
      "Ġincont": 4366,
      "Ġavoc": 4367,
      "ĠXer": 4368,
      "leh": 4369,
      "orders": 4370,
      "стное": 4371,
      "icially": 4372,
      "Ġquar": 4373,
      "りました": 4374,
      "lle": 4375,
      "aną": 4376,
      "ainers": 4377,
      "ĠTy": 4378,
      "ĠChronicles": 4379,
      "coeff": 4380,
      "ĠUICtrl": 4381,
      "ственных": 4382,
      "最初": 4383,
      "inky": 4384,
      "getto": 4385,
      "ileen": 4386,
      "стики": 4387,
      "ributor": 4388,
      "Ġcertific": 4389,
      "atak": 4390,
      "ersche": 4391,
      "ege": 4392,
      "inyl": 4393,
      "бран": 4394,
      "inkle": 4395,
      "ĠSTUD": 4396,
      "EEE": 4397,
      "Ġfrü": 4398,
      "Ġata": 4399,
      "ewhat": 4400,
      "affa": 4401,
      "ondere": 4402,
      "Ġcircun": 4403,
      "Ġbore": 4404,
      "ставить": 4405,
      "his": 4406,
      "unik": 4407,
      "ALY": 4408,
      "如果": 4409,
      "いただ": 4410,
      "msford": 4411,
      "ayside": 4412,
      "miques": 4413,
      "ĠMODKEY": 4414,
      "PLEX": 4415,
      "Ġالأم": 4416,
      "Air": 4417,
      "ہیں": 4418,
      "ĠBxh": 4419,
      "Ġdevelop": 4420,
      "ärm": 4421,
      "iculata": 4422,
      "ائے": 4423,
      "Ġphosphat": 4424,
      "Ġsubm": 4425,
      "ibald": 4426,
      "Ġencapsulation": 4427,
      "assignment": 4428,
      "tsy": 4429,
      "Ġواب": 4430,
      "preneur": 4431,
      "NOT": 4432,
      "Ġdecoup": 4433,
      "Ġshellcheck": 4434,
      "ataka": 4435,
      "ĠSard": 4436,
      "ადა": 4437,
      "Ġlaborator": 4438,
      "acia": 4439,
      "lysis": 4440,
      "ENU": 4441,
      "ĠNovi": 4442,
      "iazep": 4443,
      "ĠCyrus": 4444,
      "gart": 4445,
      "transl": 4446,
      "једи": 4447,
      "једина": 4448,
      "Ġvaik": 4449,
      "กรรม": 4450,
      "coherent": 4451,
      "blem": 4452,
      "ксим": 4453,
      "ĠМаксим": 4454,
      "ijs": 4455,
      "terre": 4456,
      "ĠCel": 4457,
      "Ġstron": 4458,
      "Ġkülönböz": 4459,
      "ĠEpoxy": 4460,
      "Ġafirm": 4461,
      "RetJpegLen": 4462,
      "тят": 4463,
      "Ġluis": 4464,
      "Ġخوش": 4465,
      "Ġgrup": 4466,
      "љено": 4467,
      "uscript": 4468,
      "исленность": 4469,
      "Ġscouts": 4470,
      "Ġodbior": 4471,
      "Ġergonom": 4472,
      "フィー": 4473,
      "AREL": 4474,
      "ĠRUTAREL": 4475,
      "ĠMcCullo": 4476,
      "Ġcoû": 4477,
      "GIN": 4478,
      "ზე": 4479,
      "earance": 4480,
      "Assembly": 4481,
      "Ġtrigon": 4482,
      "Ġlaat": 4483,
      "getCQL": 4484,
      "function": 4485,
      "iguë": 4486,
      "payable": 4487,
      "śred": 4488,
      "ĠComment": 4489,
      "たちは": 4490,
      "ĠTSR": 4491,
      "rx": 4492,
      "CallOptions": 4493,
      "ebab": 4494,
      "ッズ": 4495,
      "elijke": 4496,
      "gers": 4497,
      "icoter": 4498,
      "ĠHou": 4499,
      "elecimento": 4500,
      "ステル": 4501,
      "aupt": 4502,
      "stadt": 4503,
      "ĠTransl": 4504,
      "Ġsä": 4505,
      "efa": 4506,
      "Receive": 4507,
      "liers": 4508,
      "agasc": 4509,
      "agascar": 4510,
      "axial": 4511,
      "Ġнай": 4512,
      "zahl": 4513,
      "ään": 4514,
      "ologne": 4515,
      "ullivan": 4516,
      "ĠKidman": 4517,
      "ĠSuy": 4518,
      "graphHead": 4519,
      "Ġimprison": 4520,
      "navbar": 4521,
      "ĠNakamura": 4522,
      "Ġ나오고": 4523,
      "ambar": 4524,
      "issippi": 4525,
      "Ġכ": 4526,
      "Ġestudi": 4527,
      "ĠArvind": 4528,
      "capture": 4529,
      "áci": 4530,
      "Ġalgu": 4531,
      "ján": 4532,
      "ĠDrinfeld": 4533,
      "מים": 4534,
      "Ġصح": 4535,
      "ĠLoh": 4536,
      "ブル": 4537,
      "Ġملا": 4538,
      "echen": 4539,
      "Ġyanlı": 4540,
      "ĠBild": 4541,
      "एएस": 4542,
      "endment": 4543,
      "ĠPrint": 4544,
      "alass": 4545,
      "Ġrefin": 4546,
      "ĠAGR": 4547,
      "Ġeus": 4548,
      "ĠHU": 4549,
      "ĠKre": 4550,
      "sendFile": 4551,
      "Ġکود": 4552,
      "Any": 4553,
      "reement": 4554,
      "aimana": 4555,
      "Extension": 4556,
      "gegen": 4557,
      "Ġպ": 4558,
      "omaly": 4559,
      "Ġպատ": 4560,
      "arrerol": 4561,
      "Ġgole": 4562,
      "Ġunamb": 4563,
      "งาน": 4564,
      "通販": 4565,
      "setRoi": 4566,
      "resid": 4567,
      "pentine": 4568,
      "endon": 4569,
      "zló": 4570,
      "Ġcrist": 4571,
      "coproteins": 4572,
      "Ġunsc": 4573,
      "зни": 4574,
      "ơi": 4575,
      "aneiro": 4576,
      "abo": 4577,
      "Ġprocéd": 4578,
      "isode": 4579,
      "Ġjour": 4580,
      "azzi": 4581,
      "iyaç": 4582,
      "mani": 4583,
      "Bounding": 4584,
      "UIntValue": 4585,
      "Ġstd": 4586,
      "ideon": 4587,
      "ĠCogn": 4588,
      "Ét": 4589,
      "Ġsuddh": 4590,
      "Ġsuddhak": 4591,
      "urrent": 4592,
      "indrome": 4593,
      "Ġpequ": 4594,
      "laughter": 4595,
      "DCT": 4596,
      "eke": 4597,
      "side": 4598,
      "Run": 4599,
      "Ġотли": 4600,
      "bil": 4601,
      "Ġللب": 4602,
      "fass": 4603,
      "Ġchunk": 4604,
      "ĠBoyd": 4605,
      "YC": 4606,
      "ysok": 4607,
      "destroy": 4608,
      "ĠSimpson": 4609,
      "あった": 4610,
      "Ġcate": 4611,
      "Ġstric": 4612,
      "osterone": 4613,
      "ვენ": 4614,
      "Ġmillion": 4615,
      "Grunt": 4616,
      "ymal": 4617,
      "пня": 4618,
      "ĠWoj": 4619,
      "OfDeathCondition": 4620,
      "Agg": 4621,
      "asus": 4622,
      "StartState": 4623,
      "atee": 4624,
      "amentos": 4625,
      "coles": 4626,
      "lux": 4627,
      "ĠTar": 4628,
      "วด": 4629,
      "initComponents": 4630,
      "slant": 4631,
      "навли": 4632,
      "μβ": 4633,
      "ĠLeb": 4634,
      "ectar": 4635,
      "aneously": 4636,
      "ĠBraunsch": 4637,
      "mess": 4638,
      "gqlgen": 4639,
      "нва": 4640,
      "Ġянва": 4641,
      "ĠCCOc": 4642,
      "níku": 4643,
      "fach": 4644,
      "cito": 4645,
      "Ġсемей": 4646,
      "ĠNSA": 4647,
      "Paused": 4648,
      "ĠAG": 4649,
      "нение": 4650,
      "Assert": 4651,
      "asuk": 4652,
      "ensington": 4653,
      "を読": 4654,
      "を読む": 4655,
      "rosion": 4656,
      "Ġoph": 4657,
      "ھوں": 4658,
      "гле": 4659,
      "ĠFalcons": 4660,
      "Ġdez": 4661,
      "Ġpernik": 4662,
      "ansk": 4663,
      "ĠMond": 4664,
      "liw": 4665,
      "outheast": 4666,
      "Ġработа": 4667,
      "gomery": 4668,
      "erek": 4669,
      "Ġpreorder": 4670,
      "umbria": 4671,
      "itatively": 4672,
      "erving": 4673,
      "Cele": 4674,
      "ĠpreviewBuilder": 4675,
      "rific": 4676,
      "ĠDors": 4677,
      "bps": 4678,
      "ĠCubs": 4679,
      "orgh": 4680,
      "qa": 4681,
      "eggi": 4682,
      "ĠvertexList": 4683,
      "ĠAbsch": 4684,
      "Ġмакси": 4685,
      "Ġequil": 4686,
      "レクト": 4687,
      "ალა": 4688,
      "thyl": 4689,
      "OOD": 4690,
      "Ġویک": 4691,
      "λικ": 4692,
      "guan": 4693,
      "ĠHatt": 4694,
      "aland": 4695,
      "Ġenorm": 4696,
      "Ġparadig": 4697,
      "ĠRashford": 4698,
      "ہاں": 4699,
      "Ġرب": 4700,
      "ĠGerr": 4701,
      "ĠPod": 4702,
      "Stand": 4703,
      "үз": 4704,
      "Ġveng": 4705,
      "Ġchlor": 4706,
      "Ġlubric": 4707,
      "عال": 4708,
      "Ġmonoton": 4709,
      "ĠjobSearch": 4710,
      "anjay": 4711,
      "Ġá": 4712,
      "ĠGaff": 4713,
      "thermal": 4714,
      "Ġargu": 4715,
      "Ġteam": 4716,
      "Ġany": 4717,
      "apixel": 4718,
      "Ġinstrument": 4719,
      "offsetWidth": 4720,
      "Users": 4721,
      "uyện": 4722,
      "olving": 4723,
      "Ġcray": 4724,
      "quoise": 4725,
      "ĠMuller": 4726,
      "imoto": 4727,
      "мена": 4728,
      "ческой": 4729,
      "ĠArgo": 4730,
      "Ġчлен": 4731,
      "glades": 4732,
      "mett": 4733,
      "ĠGross": 4734,
      "akur": 4735,
      "apsedTime": 4736,
      "Ġکول": 4737,
      "ствова": 4738,
      "spacePad": 4739,
      "ĠSchum": 4740,
      "Ġcombust": 4741,
      "ĠBrah": 4742,
      "ediakan": 4743,
      "Ġjedną": 4744,
      "Ġантен": 4745,
      "Ġrued": 4746,
      "ότε": 4747,
      "iless": 4748,
      "ifiable": 4749,
      "AKE": 4750,
      "ibar": 4751,
      "ĠNieder": 4752,
      "otypes": 4753,
      "Ġunequiv": 4754,
      "ĠLamb": 4755,
      "jik": 4756,
      "ofl": 4757,
      "Ġsharp": 4758,
      "хай": 4759,
      "Ġphénom": 4760,
      "Ġlac": 4761,
      "ĠFoster": 4762,
      "Ġantid": 4763,
      "Ġএক": 4764,
      "kunft": 4765,
      "associ": 4766,
      "Ġrangka": 4767,
      "Ġгеро": 4768,
      "Ġundis": 4769,
      "ampton": 4770,
      "ulté": 4771,
      "ieres": 4772,
      "Ġsmach": 4773,
      "amus": 4774,
      "ependence": 4775,
      "menos": 4776,
      "Ġequival": 4777,
      "mea": 4778,
      "Ġconte": 4779,
      "Ġcontral": 4780,
      "algia": 4781,
      "execution": 4782,
      "ĠPaddington": 4783,
      "enary": 4784,
      "import": 4785,
      "Ġimpen": 4786,
      "Ġഅ": 4787,
      "opathy": 4788,
      "atitis": 4789,
      "Ġsott": 4790,
      "ĠLincoln": 4791,
      "kez": 4792,
      "xym": 4793,
      "Ġrain": 4794,
      "olphin": 4795,
      "validator": 4796,
      "Been": 4797,
      "ierte": 4798,
      "Tor": 4799,
      "ĠKishore": 4800,
      "writers": 4801,
      "Ġارت": 4802,
      "fnamefont": 4803,
      "териа": 4804,
      "Ġdeced": 4805,
      "лиза": 4806,
      "ĠAppMethodBeat": 4807,
      "quarters": 4808,
      "andu": 4809,
      "Ġmotor": 4810,
      "Ġالمح": 4811,
      "Ġقب": 4812,
      "gie": 4813,
      "mort": 4814,
      "Phil": 4815,
      "änger": 4816,
      "delete": 4817,
      "मलव": 4818,
      "ĠTon": 4819,
      "ĠServiceNow": 4820,
      "GOR": 4821,
      "Drv": 4822,
      "uary": 4823,
      "ycji": 4824,
      "čki": 4825,
      "iemann": 4826,
      "Ġpupp": 4827,
      "дим": 4828,
      "zien": 4829,
      "cii": 4830,
      "ữa": 4831,
      "едера": 4832,
      "ajib": 4833,
      "cji": 4834,
      "Ġharn": 4835,
      "Ġdech": 4836,
      "Ġterce": 4837,
      "Ġdechlor": 4838,
      "Ġماش": 4839,
      "ugas": 4840,
      "Ġcontext": 4841,
      "thebetter": 4842,
      "ĠVerst": 4843,
      "rasile": 4844,
      "Ġnidd": 4845,
      "onego": 4846,
      "Ġактив": 4847,
      "лой": 4848,
      "ancellor": 4849,
      "Ġplead": 4850,
      "ĠDTS": 4851,
      "Ġein": 4852,
      "ững": 4853,
      "امة": 4854,
      "ölker": 4855,
      "Ignore": 4856,
      "フィック": 4857,
      "ĠDip": 4858,
      "ĠTarant": 4859,
      "Ġкня": 4860,
      "igua": 4861,
      "ĠSed": 4862,
      "ĠLAN": 4863,
      "classAttribute": 4864,
      "ücken": 4865,
      "avadoc": 4866,
      "ampler": 4867,
      "Ġmie": 4868,
      "Ġmulticast": 4869,
      "Ġmake": 4870,
      "legen": 4871,
      "Ġassimil": 4872,
      "ĠSaud": 4873,
      "ĠGrizz": 4874,
      "igneur": 4875,
      "ĠRandom": 4876,
      "teous": 4877,
      "सन": 4878,
      "aternion": 4879,
      "anjing": 4880,
      "named": 4881,
      "образ": 4882,
      "Ġopin": 4883,
      "Eug": 4884,
      "octrl": 4885,
      "wydd": 4886,
      "Ġsymmet": 4887,
      "Ġfar": 4888,
      "ĠlocalVarAccept": 4889,
      "الة": 4890,
      "arka": 4891,
      "argas": 4892,
      "adion": 4893,
      "читы": 4894,
      "Ġعمان": 4895,
      "hbar": 4896,
      "razier": 4897,
      "Ġtras": 4898,
      "ĠgetN": 4899,
      "TDto": 4900,
      "Ġвозмо": 4901,
      "Ġesqu": 4902,
      "Ġgor": 4903,
      "Ġوصل": 4904,
      "imeters": 4905,
      "Ġretrou": 4906,
      "ぶり": 4907,
      "sar": 4908,
      "Ġcun": 4909,
      "ireless": 4910,
      "хов": 4911,
      "сії": 4912,
      "reras": 4913,
      "ĠBridg": 4914,
      "setHora": 4915,
      "lado": 4916,
      "umpang": 4917,
      "Ġофор": 4918,
      "aranteed": 4919,
      "lien": 4920,
      "кет": 4921,
      "Side": 4922,
      "ĠFleurit": 4923,
      "OLYBD": 4924,
      "thora": 4925,
      "ĠMDL": 4926,
      "وتر": 4927,
      "Ġcerv": 4928,
      "миз": 4929,
      "ordu": 4930,
      "Ġreview": 4931,
      "redients": 4932,
      "Ġअस": 4933,
      "ĠMIF": 4934,
      "ovní": 4935,
      "ĠKnow": 4936,
      "Tasks": 4937,
      "Ġburden": 4938,
      "ểu": 4939,
      "ĠArund": 4940,
      "ROSS": 4941,
      "に行": 4942,
      "ذلك": 4943,
      "Ġtört": 4944,
      "Ġpsychos": 4945,
      "ToGoObject": 4946,
      "Ġсостоя": 4947,
      "PLAYS": 4948,
      "hement": 4949,
      "cala": 4950,
      "heartedly": 4951,
      "ĠHenri": 4952,
      "Ġmember": 4953,
      "Avl": 4954,
      "Ġдія": 4955,
      "dynam": 4956,
      "Ġآه": 4957,
      "Ġссы": 4958,
      "Ġيقوم": 4959,
      "qlist": 4960,
      "UMN": 4961,
      "avoz": 4962,
      "riwal": 4963,
      "Ġroh": 4964,
      "Relative": 4965,
      "íctor": 4966,
      "ĠVíctor": 4967,
      "ĠВиктор": 4968,
      "Ġотри": 4969,
      "šten": 4970,
      "RAMM": 4971,
      "Ġروز": 4972,
      "ĠNiels": 4973,
      "ĠTai": 4974,
      "дика": 4975,
      "政府": 4976,
      "Abasis": 4977,
      "ĠDMP": 4978,
      "outer": 4979,
      "React": 4980,
      "lies": 4981,
      "Ġdong": 4982,
      "Ġπερι": 4983,
      "ĠOrt": 4984,
      "ĠDob": 4985,
      "дото": 4986,
      "ĠLuxemb": 4987,
      "Ġvíct": 4988,
      "Ġunle": 4989,
      "יה": 4990,
      "ịp": 4991,
      "ranton": 4992,
      "ĠTav": 4993,
      "bump": 4994,
      "Ġправи": 4995,
      "ございます": 4996,
      "ərbay": 4997,
      "Ġкомпо": 4998,
      "WH": 4999,
      "égal": 5000,
      "Ġsoh": 5001,
      "Ġtreffen": 5002,
      "Ġсмер": 5003,
      "ドライ": 5004,
      "AppState": 5005,
      "Ġค": 5006,
      "Арх": 5007,
      "ĠFahr": 5008,
      "Ġماين": 5009,
      "achts": 5010,
      "ハンド": 5011,
      "同时": 5012,
      "ricas": 5013,
      "ĠMurd": 5014,
      "ینو": 5015,
      "ayne": 5016,
      "ismos": 5017,
      "Ġdisposit": 5018,
      "ĠBrad": 5019,
      "oirs": 5020,
      "ropolit": 5021,
      "Ġnozzles": 5022,
      "lando": 5023,
      "iarism": 5024,
      "Ġbilg": 5025,
      "GAL": 5026,
      "BlitzID": 5027,
      "Ġunpack": 5028,
      "ილი": 5029,
      "ĠRod": 5030,
      "ikä": 5031,
      "heer": 5032,
      "Ġrestaur": 5033,
      "Buen": 5034,
      "Ġdiagonal": 5035,
      "Ġtrue": 5036,
      "night": 5037,
      "andowski": 5038,
      "uretics": 5039,
      "omotive": 5040,
      "Interop": 5041,
      "ნენ": 5042,
      "ĠSPD": 5043,
      "opian": 5044,
      "لے": 5045,
      "anet": 5046,
      "Ġdifíc": 5047,
      "Ġirr": 5048,
      "ĠGP": 5049,
      "houses": 5050,
      "ĠSouthampton": 5051,
      "شاد": 5052,
      "usas": 5053,
      "Ġneurop": 5054,
      "Ġnou": 5055,
      "چھے": 5056,
      "She": 5057,
      "czny": 5058,
      "Gs": 5059,
      "absValue": 5060,
      "kyt": 5061,
      "sede": 5062,
      "tid": 5063,
      "っても": 5064,
      "anners": 5065,
      "SSF": 5066,
      "Ġphilanth": 5067,
      "OrFail": 5068,
      "ocamp": 5069,
      "hemy": 5070,
      "anças": 5071,
      "server": 5072,
      "NonNull": 5073,
      "RecordPtr": 5074,
      "لار": 5075,
      "nosi": 5076,
      "Ġredund": 5077,
      "Ġbelir": 5078,
      "owaną": 5079,
      "ighters": 5080,
      "мини": 5081,
      "ĠDiagn": 5082,
      "kad": 5083,
      "Ġsklad": 5084,
      "ĠBev": 5085,
      "anthin": 5086,
      "inalg": 5087,
      "bly": 5088,
      "âce": 5089,
      "ĠTop": 5090,
      "ĠTiw": 5091,
      "ĠTiwari": 5092,
      "Ġnymph": 5093,
      "ισε": 5094,
      "verage": 5095,
      "ontium": 5096,
      "יים": 5097,
      "λει": 5098,
      "mlung": 5099,
      "Ġgrid": 5100,
      "Ġscale": 5101,
      "Ġше": 5102,
      "ართველოს": 5103,
      "Canc": 5104,
      "Ġlap": 5105,
      "Ġyıll": 5106,
      "jsx": 5107,
      "aison": 5108,
      "なくな": 5109,
      "ĠHerrmann": 5110,
      "Ġnibbac": 5111,
      "EMPL": 5112,
      "ĠMans": 5113,
      "ffff": 5114,
      "ĠDigest": 5115,
      "nag": 5116,
      "plicated": 5117,
      "ieri": 5118,
      "имуще": 5119,
      "Ġperpend": 5120,
      "ĠFu": 5121,
      "ٹی": 5122,
      "ừa": 5123,
      "Ġdumb": 5124,
      "ĠLehmann": 5125,
      "ĠMarse": 5126,
      "Ġአይደ": 5127,
      "Ġrespir": 5128,
      "Pooling": 5129,
      "ĠMall": 5130,
      "ĠPusen": 5131,
      "Discovery": 5132,
      "ĠPusenk": 5133,
      "qar": 5134,
      "亚克": 5135,
      "尼亚克": 5136,
      "ritte": 5137,
      "oing": 5138,
      "attery": 5139,
      "rivia": 5140,
      "UNI": 5141,
      "Ġกราบ": 5142,
      "FlightID": 5143,
      "webserv": 5144,
      "motion": 5145,
      "xan": 5146,
      "Ġraies": 5147,
      "ĠmatchList": 5148,
      "Ġتحد": 5149,
      "roidism": 5150,
      "ToMany": 5151,
      "我們": 5152,
      "Portal": 5153,
      "AsyncKeyState": 5154,
      "ellate": 5155,
      "ongan": 5156,
      "Ġenthus": 5157,
      "Ġ아": 5158,
      "ándor": 5159,
      "racks": 5160,
      "FcmError": 5161,
      "Ġناق": 5162,
      "Ġeut": 5163,
      "ostics": 5164,
      "LayerView": 5165,
      "Ġsod": 5166,
      "Ġdiz": 5167,
      "ktion": 5168,
      "ĠKirst": 5169,
      "want": 5170,
      "Ġпровер": 5171,
      "Prefab": 5172,
      "áver": 5173,
      "ĠGill": 5174,
      "âr": 5175,
      "angkah": 5176,
      "ellschaft": 5177,
      "Ġprosecut": 5178,
      "Constructor": 5179,
      "Approved": 5180,
      "Ġabsc": 5181,
      "Ġtě": 5182,
      "ил": 5183,
      "appear": 5184,
      "Ġrapid": 5185,
      "PolicyQuery": 5186,
      "λλά": 5187,
      "rema": 5188,
      "Ġlok": 5189,
      "essex": 5190,
      "egna": 5191,
      "jord": 5192,
      "PopupWindow": 5193,
      "блю": 5194,
      "Ġdend": 5195,
      "uskan": 5196,
      "ĠIly": 5197,
      "ĠCMA": 5198,
      "ĠReturnVal": 5199,
      "ĠGenova": 5200,
      "Ġroy": 5201,
      "ĠRoch": 5202,
      "Ġthym": 5203,
      "reath": 5204,
      "тук": 5205,
      "하여": 5206,
      "Ġatte": 5207,
      "Ġirm": 5208,
      "icar": 5209,
      "Ġoverse": 5210,
      "itime": 5211,
      "eboard": 5212,
      "Ġword": 5213,
      "ĠProt": 5214,
      "ètres": 5215,
      "inke": 5216,
      "ellige": 5217,
      "getMin": 5218,
      "かもし": 5219,
      "好的": 5220,
      "otive": 5221,
      "strij": 5222,
      "ĠMCS": 5223,
      "apist": 5224,
      "تاب": 5225,
      "ainte": 5226,
      "ĠTTC": 5227,
      "ynthetic": 5228,
      "Ġupdate": 5229,
      "Pksc": 5230,
      "ecal": 5231,
      "Ġrbuf": 5232,
      "ITED": 5233,
      "hank": 5234,
      "Browsable": 5235,
      "anish": 5236,
      "Ġsorg": 5237,
      "Ġevid": 5238,
      "прово": 5239,
      "obal": 5240,
      "Ġочере": 5241,
      "ĠCLP": 5242,
      "férences": 5243,
      "ĠStruct": 5244,
      "ĠPryor": 5245,
      "Delegate": 5246,
      "ocond": 5247,
      "strMeal": 5248,
      "igrade": 5249,
      "つけて": 5250,
      "soc": 5251,
      "ĠAleppo": 5252,
      "apek": 5253,
      "ufe": 5254,
      "FBSDKError": 5255,
      "berts": 5256,
      "ĠKimber": 5257,
      "ĠImo": 5258,
      "라이": 5259,
      "라이언": 5260,
      "ĠМо": 5261,
      "Ġquies": 5262,
      "ატი": 5263,
      "bone": 5264,
      "ného": 5265,
      "atán": 5266,
      "Ġmycursor": 5267,
      "ĠSRPGoGet": 5268,
      "Ġinclus": 5269,
      "ucapkan": 5270,
      "ahoma": 5271,
      "lude": 5272,
      "dispatch": 5273,
      "доров": 5274,
      "Ġyüz": 5275,
      "ڈی": 5276,
      "ası": 5277,
      "ACON": 5278,
      "ieur": 5279,
      "ĠArbe": 5280,
      "Ġdistinguish": 5281,
      "ĠCRP": 5282,
      "صیل": 5283,
      "ĠDPS": 5284,
      "Ġунивер": 5285,
      "Ġquotid": 5286,
      "ộc": 5287,
      "azon": 5288,
      "ĠHM": 5289,
      "Desp": 5290,
      "Ġsuced": 5291,
      "Ġgst": 5292,
      "ĠJBL": 5293,
      "Ġуважа": 5294,
      "ospital": 5295,
      "انیہ": 5296,
      "ადი": 5297,
      "<UNK>": 5298
    },
    "old_vocab": {
      "!": 0,
      "\"": 1,
      "#": 2,
      "$": 3,
      "%": 4,
      "&": 5,
      "'": 6,
      "(": 7,
      ")": 8,
      "*": 9,
      "+": 10,
      ",": 11,
      "-": 12,
      ".": 13,
      "/": 14,
      "0": 15,
      "1": 16,
      "2": 17,
      "3": 18,
      "4": 19,
      "5": 20,
      "6": 21,
      "7": 22,
      "8": 23,
      "9": 24,
      ":": 25,
      ";": 26,
      "<": 27,
      "=": 28,
      ">": 29,
      "?": 30,
      "@": 31,
      "A": 32,
      "B": 33,
      "C": 34,
      "D": 35,
      "E": 36,
      "F": 37,
      "G": 38,
      "H": 39,
      "I": 40,
      "J": 41,
      "K": 42,
      "L": 43,
      "M": 44,
      "N": 45,
      "O": 46,
      "P": 47,
      "Q": 48,
      "R": 49,
      "S": 50,
      "T": 51,
      "U": 52,
      "V": 53,
      "W": 54,
      "X": 55,
      "Y": 56,
      "Z": 57,
      "[": 58,
      "\\": 59,
      "]": 60,
      "^": 61,
      "_": 62,
      "`": 63,
      "a": 64,
      "b": 65,
      "c": 66,
      "d": 67,
      "e": 68,
      "f": 69,
      "g": 70,
      "h": 71,
      "i": 72,
      "j": 73,
      "k": 74,
      "l": 75,
      "m": 76,
      "n": 77,
      "o": 78,
      "p": 79,
      "q": 80,
      "r": 81,
      "s": 82,
      "t": 83,
      "u": 84,
      "v": 85,
      "w": 86,
      "x": 87,
      "y": 88,
      "z": 89,
      "{": 90,
      "|": 91,
      "}": 92,
      "~": 93,
      "¡": 94,
      "¢": 95,
      "£": 96,
      "¤": 97,
      "¥": 98,
      "¦": 99,
      "§": 100,
      "¨": 101,
      "©": 102,
      "ª": 103,
      "«": 104,
      "¬": 105,
      "®": 106,
      "¯": 107,
      "°": 108,
      "±": 109,
      "²": 110,
      "³": 111,
      "´": 112,
      "µ": 113,
      "¶": 114,
      "·": 115,
      "¸": 116,
      "¹": 117,
      "º": 118,
      "»": 119,
      "¼": 120,
      "½": 121,
      "¾": 122,
      "¿": 123,
      "À": 124,
      "Á": 125,
      "Â": 126,
      "Ã": 127,
      "Ä": 128,
      "Å": 129,
      "Æ": 130,
      "Ç": 131,
      "È": 132,
      "É": 133,
      "Ê": 134,
      "Ë": 135,
      "Ì": 136,
      "Í": 137,
      "Î": 138,
      "Ï": 139,
      "Ð": 140,
      "Ñ": 141,
      "Ò": 142,
      "Ó": 143,
      "Ô": 144,
      "Õ": 145,
      "Ö": 146,
      "×": 147,
      "Ø": 148,
      "Ù": 149,
      "Ú": 150,
      "Û": 151,
      "Ü": 152,
      "Ý": 153,
      "Þ": 154,
      "ß": 155,
      "à": 156,
      "á": 157,
      "â": 158,
      "ã": 159,
      "ä": 160,
      "å": 161,
      "æ": 162,
      "ç": 163,
      "è": 164,
      "é": 165,
      "ê": 166,
      "ë": 167,
      "ì": 168,
      "í": 169,
      "î": 170,
      "ï": 171,
      "ð": 172,
      "ñ": 173,
      "ò": 174,
      "ó": 175,
      "ô": 176,
      "õ": 177,
      "ö": 178,
      "÷": 179,
      "ø": 180,
      "ù": 181,
      "ú": 182,
      "û": 183,
      "ü": 184,
      "ý": 185,
      "þ": 186,
      "ÿ": 187,
      "Ā": 188,
      "ā": 189,
      "Ă": 190,
      "ă": 191,
      "Ą": 192,
      "ą": 193,
      "Ć": 194,
      "ć": 195,
      "Ĉ": 196,
      "ĉ": 197,
      "Ċ": 198,
      "ċ": 199,
      "Č": 200,
      "č": 201,
      "Ď": 202,
      "ď": 203,
      "Đ": 204,
      "đ": 205,
      "Ē": 206,
      "ē": 207,
      "Ĕ": 208,
      "ĕ": 209,
      "Ė": 210,
      "ė": 211,
      "Ę": 212,
      "ę": 213,
      "Ě": 214,
      "ě": 215,
      "Ĝ": 216,
      "ĝ": 217,
      "Ğ": 218,
      "ğ": 219,
      "Ġ": 220,
      "ġ": 221,
      "Ģ": 222,
      "ģ": 223,
      "Ĥ": 224,
      "ĥ": 225,
      "Ħ": 226,
      "ħ": 227,
      "Ĩ": 228,
      "ĩ": 229,
      "Ī": 230,
      "ī": 231,
      "Ĭ": 232,
      "ĭ": 233,
      "Į": 234,
      "į": 235,
      "İ": 236,
      "ı": 237,
      "Ĳ": 238,
      "ĳ": 239,
      "Ĵ": 240,
      "ĵ": 241,
      "Ķ": 242,
      "ķ": 243,
      "ĸ": 244,
      "Ĺ": 245,
      "ĺ": 246,
      "Ļ": 247,
      "ļ": 248,
      "Ľ": 249,
      "ľ": 250,
      "Ŀ": 251,
      "ŀ": 252,
      "Ł": 253,
      "ł": 254,
      "Ń": 255,
      "ń": 256,
      "ņ": 257,
      "ň": 258,
      "ō": 259,
      "ő": 260,
      "œ": 261,
      "ř": 262,
      "Ś": 263,
      "ś": 264,
      "Ş": 265,
      "ş": 266,
      "Š": 267,
      "š": 268,
      "ţ": 269,
      "ť": 270,
      "ũ": 271,
      "ū": 272,
      "ŭ": 273,
      "ů": 274,
      "ű": 275,
      "ų": 276,
      "ź": 277,
      "ż": 278,
      "ž": 279,
      "ſ": 280,
      "ơ": 281,
      "Ư": 282,
      "ư": 283,
      "ǎ": 284,
      "ǒ": 285,
      "ș": 286,
      "ț": 287,
      "ə": 288,
      "Α": 289,
      "Γ": 290,
      "Δ": 291,
      "Ε": 292,
      "Κ": 293,
      "Μ": 294,
      "Π": 295,
      "Σ": 296,
      "ά": 297,
      "έ": 298,
      "ή": 299,
      "ί": 300,
      "α": 301,
      "β": 302,
      "γ": 303,
      "δ": 304,
      "ε": 305,
      "ζ": 306,
      "η": 307,
      "θ": 308,
      "ι": 309,
      "κ": 310,
      "λ": 311,
      "μ": 312,
      "ν": 313,
      "ξ": 314,
      "ο": 315,
      "π": 316,
      "ρ": 317,
      "ς": 318,
      "σ": 319,
      "τ": 320,
      "υ": 321,
      "φ": 322,
      "χ": 323,
      "ψ": 324,
      "ω": 325,
      "ϊ": 326,
      "ό": 327,
      "ύ": 328,
      "ώ": 329,
      "Є": 330,
      "І": 331,
      "А": 332,
      "Б": 333,
      "В": 334,
      "Г": 335,
      "Д": 336,
      "Е": 337,
      "Ж": 338,
      "З": 339,
      "И": 340,
      "К": 341,
      "Л": 342,
      "М": 343,
      "Н": 344,
      "О": 345,
      "П": 346,
      "Р": 347,
      "С": 348,
      "Т": 349,
      "У": 350,
      "Ф": 351,
      "Х": 352,
      "Ц": 353,
      "Ч": 354,
      "Ш": 355,
      "Ь": 356,
      "Э": 357,
      "Ю": 358,
      "Я": 359,
      "а": 360,
      "б": 361,
      "в": 362,
      "г": 363,
      "д": 364,
      "е": 365,
      "ж": 366,
      "з": 367,
      "и": 368,
      "й": 369,
      "к": 370,
      "л": 371,
      "м": 372,
      "н": 373,
      "о": 374,
      "п": 375,
      "р": 376,
      "с": 377,
      "т": 378,
      "у": 379,
      "ф": 380,
      "х": 381,
      "ц": 382,
      "ч": 383,
      "ш": 384,
      "щ": 385,
      "ъ": 386,
      "ы": 387,
      "ь": 388,
      "э": 389,
      "ю": 390,
      "я": 391,
      "ё": 392,
      "ђ": 393,
      "є": 394,
      "і": 395,
      "ї": 396,
      "ј": 397,
      "љ": 398,
      "њ": 399,
      "ћ": 400,
      "ў": 401,
      "ғ": 402,
      "җ": 403,
      "қ": 404,
      "ң": 405,
      "ү": 406,
      "ҳ": 407,
      "һ": 408,
      "Ӏ": 409,
      "ә": 410,
      "ө": 411,
      "ա": 412,
      "գ": 413,
      "դ": 414,
      "ե": 415,
      "զ": 416,
      "է": 417,
      "ը": 418,
      "թ": 419,
      "ի": 420,
      "լ": 421,
      "ծ": 422,
      "կ": 423,
      "հ": 424,
      "մ": 425,
      "յ": 426,
      "ն": 427,
      "ո": 428,
      "չ": 429,
      "պ": 430,
      "ջ": 431,
      "ռ": 432,
      "ս": 433,
      "վ": 434,
      "տ": 435,
      "ր": 436,
      "ց": 437,
      "ւ": 438,
      "ք": 439,
      "א": 440,
      "ב": 441,
      "ג": 442,
      "ד": 443,
      "ה": 444,
      "ו": 445,
      "ז": 446,
      "ח": 447,
      "ט": 448,
      "י": 449,
      "ך": 450,
      "כ": 451,
      "ל": 452,
      "ם": 453,
      "מ": 454,
      "ן": 455,
      "נ": 456,
      "ס": 457,
      "ע": 458,
      "פ": 459,
      "צ": 460,
      "ק": 461,
      "ר": 462,
      "ש": 463,
      "ת": 464,
      "ء": 465,
      "آ": 466,
      "أ": 467,
      "ؤ": 468,
      "إ": 469,
      "ئ": 470,
      "ا": 471,
      "ب": 472,
      "ة": 473,
      "ت": 474,
      "ث": 475,
      "ج": 476,
      "ح": 477,
      "خ": 478,
      "د": 479,
      "ذ": 480,
      "ر": 481,
      "ز": 482,
      "س": 483,
      "ش": 484,
      "ص": 485,
      "ض": 486,
      "ط": 487,
      "ظ": 488,
      "ع": 489,
      "غ": 490,
      "ـ": 491,
      "ف": 492,
      "ق": 493,
      "ك": 494,
      "ل": 495,
      "م": 496,
      "ن": 497,
      "ه": 498,
      "و": 499,
      "ى": 500,
      "ي": 501,
      "ٹ": 502,
      "ټ": 503,
      "پ": 504,
      "ځ": 505,
      "څ": 506,
      "چ": 507,
      "ڈ": 508,
      "ډ": 509,
      "ڑ": 510,
      "ړ": 511,
      "ږ": 512,
      "ژ": 513,
      "ک": 514,
      "ڪ": 515,
      "ګ": 516,
      "ڭ": 517,
      "گ": 518,
      "ں": 519,
      "ڻ": 520,
      "ھ": 521,
      "ۀ": 522,
      "ہ": 523,
      "ی": 524,
      "ۍ": 525,
      "ێ": 526,
      "ې": 527,
      "ے": 528,
      "ە": 529,
      "अ": 530,
      "आ": 531,
      "इ": 532,
      "ई": 533,
      "उ": 534,
      "ऊ": 535,
      "ऋ": 536,
      "ए": 537,
      "ऑ": 538,
      "ओ": 539,
      "औ": 540,
      "क": 541,
      "ख": 542,
      "ग": 543,
      "घ": 544,
      "च": 545,
      "ज": 546,
      "झ": 547,
      "ट": 548,
      "ठ": 549,
      "ड": 550,
      "ढ": 551,
      "ण": 552,
      "त": 553,
      "थ": 554,
      "द": 555,
      "ध": 556,
      "न": 557,
      "प": 558,
      "फ": 559,
      "ब": 560,
      "भ": 561,
      "म": 562,
      "य": 563,
      "र": 564,
      "ल": 565,
      "ळ": 566,
      "व": 567,
      "श": 568,
      "ष": 569,
      "स": 570,
      "ह": 571,
      "ज़": 572,
      "ड़": 573,
      "অ": 574,
      "আ": 575,
      "ই": 576,
      "উ": 577,
      "এ": 578,
      "ও": 579,
      "ঔ": 580,
      "ক": 581,
      "খ": 582,
      "গ": 583,
      "ঘ": 584,
      "চ": 585,
      "ছ": 586,
      "জ": 587,
      "ট": 588,
      "ঠ": 589,
      "ণ": 590,
      "ত": 591,
      "থ": 592,
      "দ": 593,
      "ধ": 594,
      "ন": 595,
      "প": 596,
      "ফ": 597,
      "ব": 598,
      "ভ": 599,
      "ম": 600,
      "য": 601,
      "র": 602,
      "ল": 603,
      "শ": 604,
      "ষ": 605,
      "স": 606,
      "হ": 607,
      "ৎ": 608,
      "ড়": 609,
      "য়": 610,
      "ਆ": 611,
      "ਕ": 612,
      "ਣ": 613,
      "ਨ": 614,
      "ਪ": 615,
      "ਰ": 616,
      "અ": 617,
      "આ": 618,
      "ઉ": 619,
      "ક": 620,
      "ખ": 621,
      "ગ": 622,
      "જ": 623,
      "ણ": 624,
      "ત": 625,
      "દ": 626,
      "ન": 627,
      "પ": 628,
      "ફ": 629,
      "ભ": 630,
      "મ": 631,
      "ય": 632,
      "ર": 633,
      "લ": 634,
      "ળ": 635,
      "વ": 636,
      "સ": 637,
      "அ": 638,
      "ஆ": 639,
      "இ": 640,
      "உ": 641,
      "க": 642,
      "ச": 643,
      "ட": 644,
      "ண": 645,
      "த": 646,
      "ந": 647,
      "ன": 648,
      "ப": 649,
      "ம": 650,
      "ய": 651,
      "ர": 652,
      "ற": 653,
      "ல": 654,
      "ழ": 655,
      "வ": 656,
      "ఆ": 657,
      "ఇ": 658,
      "క": 659,
      "ఘ": 660,
      "చ": 661,
      "ట": 662,
      "డ": 663,
      "ణ": 664,
      "త": 665,
      "న": 666,
      "య": 667,
      "ర": 668,
      "ల": 669,
      "వ": 670,
      "ಅ": 671,
      "ಇ": 672,
      "ಎ": 673,
      "ಒ": 674,
      "ಔ": 675,
      "ಕ": 676,
      "ಗ": 677,
      "ಜ": 678,
      "ಡ": 679,
      "ಣ": 680,
      "ತ": 681,
      "ದ": 682,
      "ಧ": 683,
      "ನ": 684,
      "ಬ": 685,
      "ಮ": 686,
      "ಯ": 687,
      "ರ": 688,
      "ಲ": 689,
      "ಳ": 690,
      "ವ": 691,
      "ಷ": 692,
      "ಸ": 693,
      "ಹ": 694,
      "അ": 695,
      "ആ": 696,
      "ഉ": 697,
      "ക": 698,
      "ഘ": 699,
      "ട": 700,
      "ണ": 701,
      "ത": 702,
      "ന": 703,
      "പ": 704,
      "ഭ": 705,
      "മ": 706,
      "യ": 707,
      "ര": 708,
      "റ": 709,
      "ഴ": 710,
      "വ": 711,
      "ശ": 712,
      "ഷ": 713,
      "സ": 714,
      "ൻ": 715,
      "ർ": 716,
      "ൽ": 717,
      "අ": 718,
      "ඔ": 719,
      "ක": 720,
      "ඟ": 721,
      "ට": 722,
      "ණ": 723,
      "ත": 724,
      "න": 725,
      "ප": 726,
      "බ": 727,
      "ම": 728,
      "ර": 729,
      "ස": 730,
      "ก": 731,
      "ข": 732,
      "ค": 733,
      "ง": 734,
      "จ": 735,
      "ฉ": 736,
      "ช": 737,
      "ซ": 738,
      "ญ": 739,
      "ฐ": 740,
      "ณ": 741,
      "ด": 742,
      "ต": 743,
      "ถ": 744,
      "ท": 745,
      "ธ": 746,
      "น": 747,
      "บ": 748,
      "ป": 749,
      "ผ": 750,
      "พ": 751,
      "ฟ": 752,
      "ภ": 753,
      "ม": 754,
      "ย": 755,
      "ร": 756,
      "ล": 757,
      "ว": 758,
      "ศ": 759,
      "ษ": 760,
      "ส": 761,
      "ห": 762,
      "อ": 763,
      "ะ": 764,
      "า": 765,
      "ำ": 766,
      "เ": 767,
      "แ": 768,
      "โ": 769,
      "ใ": 770,
      "ไ": 771,
      "ๆ": 772,
      "ກ": 773,
      "ຂ": 774,
      "ຄ": 775,
      "ງ": 776,
      "ຈ": 777,
      "ຍ": 778,
      "ດ": 779,
      "ຕ": 780,
      "ຖ": 781,
      "ທ": 782,
      "ນ": 783,
      "ບ": 784,
      "ປ": 785,
      "ຜ": 786,
      "ພ": 787,
      "ມ": 788,
      "ລ": 789,
      "ວ": 790,
      "ສ": 791,
      "ຫ": 792,
      "ອ": 793,
      "ຮ": 794,
      "ະ": 795,
      "າ": 796,
      "ເ": 797,
      "ແ": 798,
      "ໂ": 799,
      "ໜ": 800,
      "ა": 801,
      "ბ": 802,
      "გ": 803,
      "დ": 804,
      "ე": 805,
      "ვ": 806,
      "ზ": 807,
      "თ": 808,
      "ი": 809,
      "კ": 810,
      "ლ": 811,
      "მ": 812,
      "ნ": 813,
      "ო": 814,
      "პ": 815,
      "რ": 816,
      "ს": 817,
      "ტ": 818,
      "უ": 819,
      "ფ": 820,
      "ქ": 821,
      "ღ": 822,
      "ყ": 823,
      "შ": 824,
      "ჩ": 825,
      "ც": 826,
      "ძ": 827,
      "წ": 828,
      "ჭ": 829,
      "ხ": 830,
      "ჯ": 831,
      "ሁ": 832,
      "ሂ": 833,
      "ሃ": 834,
      "ህ": 835,
      "ሆ": 836,
      "ለ": 837,
      "ሉ": 838,
      "ላ": 839,
      "ሌ": 840,
      "ል": 841,
      "ሎ": 842,
      "መ": 843,
      "ሚ": 844,
      "ማ": 845,
      "ም": 846,
      "ረ": 847,
      "ሪ": 848,
      "ራ": 849,
      "ር": 850,
      "ሮ": 851,
      "ሰ": 852,
      "ሱ": 853,
      "ሳ": 854,
      "ሴ": 855,
      "ስ": 856,
      "ሽ": 857,
      "ቀ": 858,
      "ቃ": 859,
      "ቅ": 860,
      "በ": 861,
      "ባ": 862,
      "ብ": 863,
      "ተ": 864,
      "ታ": 865,
      "ት": 866,
      "ቶ": 867,
      "ቸ": 868,
      "ች": 869,
      "ኋ": 870,
      "ነ": 871,
      "ኒ": 872,
      "ና": 873,
      "ኔ": 874,
      "ን": 875,
      "ኘ": 876,
      "ኛ": 877,
      "ኝ": 878,
      "አ": 879,
      "እ": 880,
      "ከ": 881,
      "ካ": 882,
      "ክ": 883,
      "ኳ": 884,
      "ወ": 885,
      "ው": 886,
      "ዎ": 887,
      "ዐ": 888,
      "ዓ": 889,
      "ዙ": 890,
      "ዚ": 891,
      "የ": 892,
      "ዩ": 893,
      "ያ": 894,
      "ይ": 895,
      "ደ": 896,
      "ዱ": 897,
      "ዲ": 898,
      "ዳ": 899,
      "ዴ": 900,
      "ድ": 901,
      "ጀ": 902,
      "ጃ": 903,
      "ገ": 904,
      "ጊ": 905,
      "ጋ": 906,
      "ግ": 907,
      "ጠ": 908,
      "ጣ": 909,
      "ጥ": 910,
      "ጨ": 911,
      "ፈ": 912,
      "ፊ": 913,
      "ፋ": 914,
      "ፍ": 915,
      "ṇ": 916,
      "ạ": 917,
      "Ả": 918,
      "ả": 919,
      "ấ": 920,
      "ầ": 921,
      "ẩ": 922,
      "ẫ": 923,
      "ậ": 924,
      "ắ": 925,
      "ằ": 926,
      "ẳ": 927,
      "ẵ": 928,
      "ặ": 929,
      "ẹ": 930,
      "ẻ": 931,
      "ế": 932,
      "ề": 933,
      "ể": 934,
      "ễ": 935,
      "ệ": 936,
      "ỉ": 937,
      "ị": 938,
      "ọ": 939,
      "ỏ": 940,
      "ố": 941,
      "ồ": 942,
      "ổ": 943,
      "ỗ": 944,
      "ộ": 945,
      "ớ": 946,
      "ờ": 947,
      "ở": 948,
      "ỡ": 949,
      "ợ": 950,
      "ụ": 951,
      "ủ": 952,
      "ứ": 953,
      "ừ": 954,
      "ử": 955,
      "ữ": 956,
      "ự": 957,
      "ỳ": 958,
      "ỹ": 959,
      "ὴ": 960,
      "ὶ": 961,
      "ὸ": 962,
      "ῦ": 963,
      "ῶ": 964,
      "々": 965,
      "あ": 966,
      "い": 967,
      "う": 968,
      "え": 969,
      "お": 970,
      "か": 971,
      "が": 972,
      "き": 973,
      "ぎ": 974,
      "く": 975,
      "ぐ": 976,
      "け": 977,
      "げ": 978,
      "こ": 979,
      "ご": 980,
      "さ": 981,
      "ざ": 982,
      "し": 983,
      "じ": 984,
      "す": 985,
      "ず": 986,
      "せ": 987,
      "そ": 988,
      "ぞ": 989,
      "た": 990,
      "だ": 991,
      "ち": 992,
      "っ": 993,
      "つ": 994,
      "づ": 995,
      "て": 996,
      "で": 997,
      "と": 998,
      "ど": 999,
      "な": 1000,
      "に": 1001,
      "ぬ": 1002,
      "ね": 1003,
      "の": 1004,
      "は": 1005,
      "ば": 1006,
      "ぱ": 1007,
      "ひ": 1008,
      "び": 1009,
      "ぴ": 1010,
      "ぶ": 1011,
      "ぷ": 1012,
      "べ": 1013,
      "ほ": 1014,
      "ぽ": 1015,
      "ま": 1016,
      "み": 1017,
      "む": 1018,
      "め": 1019,
      "も": 1020,
      "ゃ": 1021,
      "や": 1022,
      "ゆ": 1023,
      "ょ": 1024,
      "よ": 1025,
      "ら": 1026,
      "り": 1027,
      "る": 1028,
      "れ": 1029,
      "ろ": 1030,
      "わ": 1031,
      "を": 1032,
      "ん": 1033,
      "ァ": 1034,
      "ア": 1035,
      "ィ": 1036,
      "イ": 1037,
      "ゥ": 1038,
      "ウ": 1039,
      "ェ": 1040,
      "エ": 1041,
      "ォ": 1042,
      "オ": 1043,
      "カ": 1044,
      "ガ": 1045,
      "キ": 1046,
      "ギ": 1047,
      "ク": 1048,
      "グ": 1049,
      "ケ": 1050,
      "ゲ": 1051,
      "コ": 1052,
      "ゴ": 1053,
      "サ": 1054,
      "ザ": 1055,
      "シ": 1056,
      "ジ": 1057,
      "ス": 1058,
      "ズ": 1059,
      "セ": 1060,
      "ゼ": 1061,
      "ソ": 1062,
      "ゾ": 1063,
      "タ": 1064,
      "ダ": 1065,
      "チ": 1066,
      "ヂ": 1067,
      "ッ": 1068,
      "ツ": 1069,
      "テ": 1070,
      "デ": 1071,
      "ト": 1072,
      "ド": 1073,
      "ナ": 1074,
      "ニ": 1075,
      "ネ": 1076,
      "ノ": 1077,
      "ハ": 1078,
      "バ": 1079,
      "パ": 1080,
      "ヒ": 1081,
      "ビ": 1082,
      "ピ": 1083,
      "フ": 1084,
      "ブ": 1085,
      "プ": 1086,
      "ヘ": 1087,
      "ベ": 1088,
      "ペ": 1089,
      "ホ": 1090,
      "ボ": 1091,
      "ポ": 1092,
      "マ": 1093,
      "ミ": 1094,
      "ム": 1095,
      "メ": 1096,
      "モ": 1097,
      "ャ": 1098,
      "ヤ": 1099,
      "ュ": 1100,
      "ユ": 1101,
      "ョ": 1102,
      "ヨ": 1103,
      "ラ": 1104,
      "リ": 1105,
      "ル": 1106,
      "レ": 1107,
      "ロ": 1108,
      "ワ": 1109,
      "ン": 1110,
      "ヴ": 1111,
      "ー": 1112,
      "ㅋ": 1113,
      "一": 1114,
      "丁": 1115,
      "七": 1116,
      "万": 1117,
      "丈": 1118,
      "三": 1119,
      "上": 1120,
      "下": 1121,
      "不": 1122,
      "与": 1123,
      "专": 1124,
      "世": 1125,
      "业": 1126,
      "东": 1127,
      "两": 1128,
      "严": 1129,
      "並": 1130,
      "个": 1131,
      "中": 1132,
      "丰": 1133,
      "串": 1134,
      "为": 1135,
      "主": 1136,
      "丽": 1137,
      "么": 1138,
      "义": 1139,
      "之": 1140,
      "乐": 1141,
      "九": 1142,
      "也": 1143,
      "习": 1144,
      "书": 1145,
      "了": 1146,
      "争": 1147,
      "事": 1148,
      "二": 1149,
      "于": 1150,
      "云": 1151,
      "互": 1152,
      "五": 1153,
      "亚": 1154,
      "些": 1155,
      "交": 1156,
      "产": 1157,
      "京": 1158,
      "亮": 1159,
      "人": 1160,
      "亿": 1161,
      "什": 1162,
      "仅": 1163,
      "今": 1164,
      "介": 1165,
      "仕": 1166,
      "他": 1167,
      "付": 1168,
      "代": 1169,
      "令": 1170,
      "以": 1171,
      "们": 1172,
      "件": 1173,
      "价": 1174,
      "任": 1175,
      "份": 1176,
      "企": 1177,
      "伍": 1178,
      "众": 1179,
      "优": 1180,
      "伙": 1181,
      "会": 1182,
      "伝": 1183,
      "传": 1184,
      "伯": 1185,
      "伴": 1186,
      "似": 1187,
      "但": 1188,
      "位": 1189,
      "住": 1190,
      "体": 1191,
      "何": 1192,
      "作": 1193,
      "你": 1194,
      "佳": 1195,
      "使": 1196,
      "來": 1197,
      "例": 1198,
      "供": 1199,
      "便": 1200,
      "係": 1201,
      "俄": 1202,
      "保": 1203,
      "信": 1204,
      "俱": 1205,
      "個": 1206,
      "們": 1207,
      "候": 1208,
      "値": 1209,
      "值": 1210,
      "做": 1211,
      "停": 1212,
      "健": 1213,
      "備": 1214,
      "催": 1215,
      "像": 1216,
      "優": 1217,
      "儿": 1218,
      "允": 1219,
      "元": 1220,
      "充": 1221,
      "先": 1222,
      "克": 1223,
      "児": 1224,
      "党": 1225,
      "入": 1226,
      "全": 1227,
      "八": 1228,
      "公": 1229,
      "六": 1230,
      "共": 1231,
      "关": 1232,
      "兴": 1233,
      "其": 1234,
      "具": 1235,
      "典": 1236,
      "内": 1237,
      "円": 1238,
      "再": 1239,
      "写": 1240,
      "冲": 1241,
      "决": 1242,
      "况": 1243,
      "准": 1244,
      "凝": 1245,
      "出": 1246,
      "函": 1247,
      "分": 1248,
      "切": 1249,
      "列": 1250,
      "则": 1251,
      "创": 1252,
      "初": 1253,
      "別": 1254,
      "利": 1255,
      "别": 1256,
      "到": 1257,
      "制": 1258,
      "券": 1259,
      "前": 1260,
      "剧": 1261,
      "剩": 1262,
      "副": 1263,
      "劇": 1264,
      "力": 1265,
      "办": 1266,
      "功": 1267,
      "加": 1268,
      "务": 1269,
      "动": 1270,
      "助": 1271,
      "効": 1272,
      "動": 1273,
      "務": 1274,
      "募": 1275,
      "包": 1276,
      "化": 1277,
      "北": 1278,
      "区": 1279,
      "十": 1280,
      "午": 1281,
      "半": 1282,
      "华": 1283,
      "协": 1284,
      "单": 1285,
      "南": 1286,
      "単": 1287,
      "博": 1288,
      "卡": 1289,
      "却": 1290,
      "历": 1291,
      "原": 1292,
      "厳": 1293,
      "去": 1294,
      "叁": 1295,
      "参": 1296,
      "及": 1297,
      "友": 1298,
      "収": 1299,
      "发": 1300,
      "取": 1301,
      "受": 1302,
      "变": 1303,
      "口": 1304,
      "古": 1305,
      "句": 1306,
      "另": 1307,
      "只": 1308,
      "可": 1309,
      "台": 1310,
      "史": 1311,
      "右": 1312,
      "号": 1313,
      "司": 1314,
      "各": 1315,
      "合": 1316,
      "同": 1317,
      "名": 1318,
      "后": 1319,
      "向": 1320,
      "否": 1321,
      "含": 1322,
      "听": 1323,
      "告": 1324,
      "员": 1325,
      "周": 1326,
      "味": 1327,
      "呼": 1328,
      "命": 1329,
      "和": 1330,
      "品": 1331,
      "哈": 1332,
      "响": 1333,
      "員": 1334,
      "哥": 1335,
      "哪": 1336,
      "唯": 1337,
      "商": 1338,
      "問": 1339,
      "喜": 1340,
      "営": 1341,
      "器": 1342,
      "四": 1343,
      "回": 1344,
      "因": 1345,
      "园": 1346,
      "囲": 1347,
      "図": 1348,
      "围": 1349,
      "国": 1350,
      "图": 1351,
      "圈": 1352,
      "園": 1353,
      "土": 1354,
      "在": 1355,
      "地": 1356,
      "圳": 1357,
      "场": 1358,
      "块": 1359,
      "坡": 1360,
      "型": 1361,
      "城": 1362,
      "域": 1363,
      "基": 1364,
      "埼": 1365,
      "報": 1366,
      "場": 1367,
      "塔": 1368,
      "境": 1369,
      "增": 1370,
      "墨": 1371,
      "士": 1372,
      "声": 1373,
      "売": 1374,
      "壹": 1375,
      "处": 1376,
      "备": 1377,
      "変": 1378,
      "复": 1379,
      "外": 1380,
      "多": 1381,
      "够": 1382,
      "大": 1383,
      "天": 1384,
      "太": 1385,
      "夫": 1386,
      "失": 1387,
      "头": 1388,
      "夹": 1389,
      "奈": 1390,
      "女": 1391,
      "好": 1392,
      "如": 1393,
      "始": 1394,
      "委": 1395,
      "娱": 1396,
      "嬉": 1397,
      "子": 1398,
      "字": 1399,
      "存": 1400,
      "学": 1401,
      "孩": 1402,
      "學": 1403,
      "它": 1404,
      "安": 1405,
      "完": 1406,
      "定": 1407,
      "宝": 1408,
      "实": 1409,
      "実": 1410,
      "客": 1411,
      "室": 1412,
      "宮": 1413,
      "家": 1414,
      "容": 1415,
      "寄": 1416,
      "富": 1417,
      "實": 1418,
      "寧": 1419,
      "对": 1420,
      "导": 1421,
      "対": 1422,
      "専": 1423,
      "将": 1424,
      "小": 1425,
      "少": 1426,
      "尔": 1427,
      "尤": 1428,
      "就": 1429,
      "尼": 1430,
      "尽": 1431,
      "尿": 1432,
      "局": 1433,
      "层": 1434,
      "届": 1435,
      "屋": 1436,
      "展": 1437,
      "属": 1438,
      "層": 1439,
      "島": 1440,
      "川": 1441,
      "工": 1442,
      "巧": 1443,
      "巨": 1444,
      "差": 1445,
      "己": 1446,
      "已": 1447,
      "巴": 1448,
      "币": 1449,
      "市": 1450,
      "布": 1451,
      "师": 1452,
      "希": 1453,
      "带": 1454,
      "帳": 1455,
      "常": 1456,
      "幅": 1457,
      "平": 1458,
      "年": 1459,
      "并": 1460,
      "幼": 1461,
      "广": 1462,
      "庁": 1463,
      "広": 1464,
      "序": 1465,
      "库": 1466,
      "应": 1467,
      "底": 1468,
      "店": 1469,
      "府": 1470,
      "度": 1471,
      "康": 1472,
      "建": 1473,
      "开": 1474,
      "式": 1475,
      "引": 1476,
      "强": 1477,
      "当": 1478,
      "录": 1479,
      "形": 1480,
      "影": 1481,
      "役": 1482,
      "待": 1483,
      "很": 1484,
      "律": 1485,
      "後": 1486,
      "従": 1487,
      "得": 1488,
      "微": 1489,
      "徴": 1490,
      "心": 1491,
      "必": 1492,
      "忍": 1493,
      "志": 1494,
      "忙": 1495,
      "応": 1496,
      "念": 1497,
      "态": 1498,
      "怎": 1499,
      "思": 1500,
      "性": 1501,
      "总": 1502,
      "息": 1503,
      "悉": 1504,
      "您": 1505,
      "情": 1506,
      "想": 1507,
      "意": 1508,
      "愛": 1509,
      "感": 1510,
      "愿": 1511,
      "態": 1512,
      "戏": 1513,
      "成": 1514,
      "我": 1515,
      "或": 1516,
      "戲": 1517,
      "户": 1518,
      "房": 1519,
      "所": 1520,
      "手": 1521,
      "才": 1522,
      "打": 1523,
      "払": 1524,
      "找": 1525,
      "承": 1526,
      "技": 1527,
      "把": 1528,
      "投": 1529,
      "択": 1530,
      "护": 1531,
      "担": 1532,
      "拉": 1533,
      "招": 1534,
      "拟": 1535,
      "拡": 1536,
      "择": 1537,
      "括": 1538,
      "拿": 1539,
      "持": 1540,
      "指": 1541,
      "振": 1542,
      "捌": 1543,
      "换": 1544,
      "据": 1545,
      "排": 1546,
      "採": 1547,
      "接": 1548,
      "控": 1549,
      "推": 1550,
      "提": 1551,
      "搜": 1552,
      "摄": 1553,
      "撒": 1554,
      "操": 1555,
      "擎": 1556,
      "支": 1557,
      "改": 1558,
      "政": 1559,
      "故": 1560,
      "效": 1561,
      "教": 1562,
      "散": 1563,
      "数": 1564,
      "整": 1565,
      "敵": 1566,
      "數": 1567,
      "文": 1568,
      "料": 1569,
      "断": 1570,
      "斯": 1571,
      "新": 1572,
      "方": 1573,
      "施": 1574,
      "无": 1575,
      "日": 1576,
      "时": 1577,
      "明": 1578,
      "易": 1579,
      "是": 1580,
      "显": 1581,
      "時": 1582,
      "普": 1583,
      "晴": 1584,
      "智": 1585,
      "暖": 1586,
      "暮": 1587,
      "曲": 1588,
      "更": 1589,
      "書": 1590,
      "最": 1591,
      "會": 1592,
      "月": 1593,
      "有": 1594,
      "朋": 1595,
      "服": 1596,
      "朗": 1597,
      "望": 1598,
      "期": 1599,
      "未": 1600,
      "本": 1601,
      "术": 1602,
      "机": 1603,
      "杂": 1604,
      "材": 1605,
      "束": 1606,
      "条": 1607,
      "来": 1608,
      "杯": 1609,
      "東": 1610,
      "构": 1611,
      "果": 1612,
      "柒": 1613,
      "染": 1614,
      "柔": 1615,
      "标": 1616,
      "校": 1617,
      "株": 1618,
      "样": 1619,
      "核": 1620,
      "格": 1621,
      "案": 1622,
      "档": 1623,
      "梅": 1624,
      "森": 1625,
      "業": 1626,
      "極": 1627,
      "楽": 1628,
      "概": 1629,
      "榜": 1630,
      "様": 1631,
      "模": 1632,
      "樣": 1633,
      "権": 1634,
      "機": 1635,
      "次": 1636,
      "欢": 1637,
      "欲": 1638,
      "款": 1639,
      "正": 1640,
      "此": 1641,
      "步": 1642,
      "殊": 1643,
      "段": 1644,
      "每": 1645,
      "比": 1646,
      "毕": 1647,
      "民": 1648,
      "気": 1649,
      "氧": 1650,
      "求": 1651,
      "污": 1652,
      "決": 1653,
      "沒": 1654,
      "没": 1655,
      "河": 1656,
      "治": 1657,
      "況": 1658,
      "法": 1659,
      "波": 1660,
      "注": 1661,
      "洋": 1662,
      "活": 1663,
      "流": 1664,
      "浏": 1665,
      "海": 1666,
      "消": 1667,
      "涉": 1668,
      "深": 1669,
      "混": 1670,
      "添": 1671,
      "游": 1672,
      "源": 1673,
      "满": 1674,
      "滤": 1675,
      "漂": 1676,
      "潛": 1677,
      "澳": 1678,
      "炉": 1679,
      "点": 1680,
      "為": 1681,
      "無": 1682,
      "然": 1683,
      "照": 1684,
      "熟": 1685,
      "爱": 1686,
      "片": 1687,
      "版": 1688,
      "牌": 1689,
      "牙": 1690,
      "物": 1691,
      "特": 1692,
      "状": 1693,
      "独": 1694,
      "献": 1695,
      "獲": 1696,
      "率": 1697,
      "玉": 1698,
      "玖": 1699,
      "环": 1700,
      "现": 1701,
      "班": 1702,
      "現": 1703,
      "球": 1704,
      "理": 1705,
      "甚": 1706,
      "生": 1707,
      "用": 1708,
      "由": 1709,
      "申": 1710,
      "电": 1711,
      "男": 1712,
      "画": 1713,
      "界": 1714,
      "異": 1715,
      "疫": 1716,
      "病": 1717,
      "発": 1718,
      "登": 1719,
      "白": 1720,
      "百": 1721,
      "的": 1722,
      "皆": 1723,
      "监": 1724,
      "目": 1725,
      "直": 1726,
      "相": 1727,
      "省": 1728,
      "看": 1729,
      "県": 1730,
      "真": 1731,
      "眼": 1732,
      "着": 1733,
      "督": 1734,
      "知": 1735,
      "石": 1736,
      "码": 1737,
      "研": 1738,
      "础": 1739,
      "确": 1740,
      "確": 1741,
      "示": 1742,
      "社": 1743,
      "神": 1744,
      "离": 1745,
      "秀": 1746,
      "私": 1747,
      "种": 1748,
      "科": 1749,
      "称": 1750,
      "程": 1751,
      "稚": 1752,
      "種": 1753,
      "稳": 1754,
      "積": 1755,
      "究": 1756,
      "空": 1757,
      "立": 1758,
      "竞": 1759,
      "章": 1760,
      "端": 1761,
      "笔": 1762,
      "符": 1763,
      "第": 1764,
      "等": 1765,
      "筑": 1766,
      "简": 1767,
      "算": 1768,
      "管": 1769,
      "篇": 1770,
      "簡": 1771,
      "簽": 1772,
      "米": 1773,
      "类": 1774,
      "精": 1775,
      "糖": 1776,
      "系": 1777,
      "素": 1778,
      "索": 1779,
      "紫": 1780,
      "細": 1781,
      "紹": 1782,
      "終": 1783,
      "組": 1784,
      "経": 1785,
      "結": 1786,
      "絡": 1787,
      "給": 1788,
      "絶": 1789,
      "続": 1790,
      "綺": 1791,
      "緒": 1792,
      "線": 1793,
      "締": 1794,
      "繁": 1795,
      "繋": 1796,
      "繰": 1797,
      "级": 1798,
      "线": 1799,
      "组": 1800,
      "织": 1801,
      "绍": 1802,
      "经": 1803,
      "结": 1804,
      "给": 1805,
      "络": 1806,
      "统": 1807,
      "继": 1808,
      "续": 1809,
      "维": 1810,
      "缓": 1811,
      "编": 1812,
      "网": 1813,
      "罗": 1814,
      "置": 1815,
      "美": 1816,
      "考": 1817,
      "者": 1818,
      "而": 1819,
      "耶": 1820,
      "联": 1821,
      "聞": 1822,
      "肆": 1823,
      "股": 1824,
      "肯": 1825,
      "育": 1826,
      "能": 1827,
      "腕": 1828,
      "自": 1829,
      "至": 1830,
      "致": 1831,
      "航": 1832,
      "般": 1833,
      "良": 1834,
      "色": 1835,
      "艺": 1836,
      "节": 1837,
      "英": 1838,
      "范": 1839,
      "获": 1840,
      "萄": 1841,
      "营": 1842,
      "落": 1843,
      "著": 1844,
      "葡": 1845,
      "董": 1846,
      "虑": 1847,
      "虚": 1848,
      "蛋": 1849,
      "行": 1850,
      "術": 1851,
      "衣": 1852,
      "表": 1853,
      "被": 1854,
      "裙": 1855,
      "裡": 1856,
      "製": 1857,
      "複": 1858,
      "西": 1859,
      "要": 1860,
      "見": 1861,
      "規": 1862,
      "視": 1863,
      "覚": 1864,
      "覧": 1865,
      "覺": 1866,
      "见": 1867,
      "观": 1868,
      "规": 1869,
      "视": 1870,
      "览": 1871,
      "觉": 1872,
      "角": 1873,
      "解": 1874,
      "言": 1875,
      "計": 1876,
      "記": 1877,
      "設": 1878,
      "許": 1879,
      "詳": 1880,
      "認": 1881,
      "誕": 1882,
      "語": 1883,
      "說": 1884,
      "説": 1885,
      "読": 1886,
      "調": 1887,
      "講": 1888,
      "謝": 1889,
      "證": 1890,
      "議": 1891,
      "讓": 1892,
      "计": 1893,
      "认": 1894,
      "让": 1895,
      "记": 1896,
      "许": 1897,
      "论": 1898,
      "设": 1899,
      "访": 1900,
      "证": 1901,
      "识": 1902,
      "诉": 1903,
      "词": 1904,
      "译": 1905,
      "话": 1906,
      "该": 1907,
      "误": 1908,
      "说": 1909,
      "请": 1910,
      "读": 1911,
      "谓": 1912,
      "豊": 1913,
      "象": 1914,
      "財": 1915,
      "販": 1916,
      "買": 1917,
      "費": 1918,
      "質": 1919,
      "購": 1920,
      "贈": 1921,
      "负": 1922,
      "责": 1923,
      "质": 1924,
      "购": 1925,
      "费": 1926,
      "资": 1927,
      "赤": 1928,
      "起": 1929,
      "超": 1930,
      "越": 1931,
      "趣": 1932,
      "足": 1933,
      "跟": 1934,
      "路": 1935,
      "身": 1936,
      "車": 1937,
      "転": 1938,
      "軽": 1939,
      "較": 1940,
      "輸": 1941,
      "车": 1942,
      "转": 1943,
      "软": 1944,
      "轻": 1945,
      "较": 1946,
      "辑": 1947,
      "输": 1948,
      "辨": 1949,
      "込": 1950,
      "达": 1951,
      "过": 1952,
      "迎": 1953,
      "运": 1954,
      "近": 1955,
      "返": 1956,
      "还": 1957,
      "这": 1958,
      "进": 1959,
      "连": 1960,
      "迪": 1961,
      "追": 1962,
      "送": 1963,
      "适": 1964,
      "选": 1965,
      "逊": 1966,
      "這": 1967,
      "通": 1968,
      "速": 1969,
      "造": 1970,
      "連": 1971,
      "遇": 1972,
      "遊": 1973,
      "過": 1974,
      "道": 1975,
      "違": 1976,
      "適": 1977,
      "選": 1978,
      "還": 1979,
      "那": 1980,
      "邮": 1981,
      "部": 1982,
      "都": 1983,
      "配": 1984,
      "酒": 1985,
      "采": 1986,
      "里": 1987,
      "重": 1988,
      "量": 1989,
      "金": 1990,
      "録": 1991,
      "链": 1992,
      "销": 1993,
      "错": 1994,
      "键": 1995,
      "長": 1996,
      "长": 1997,
      "門": 1998,
      "開": 1999,
      "間": 2000,
      "関": 2001,
      "閲": 2002,
      "關": 2003,
      "门": 2004,
      "问": 2005,
      "间": 2006,
      "阅": 2007,
      "防": 2008,
      "阿": 2009,
      "附": 2010,
      "际": 2011,
      "限": 2012,
      "院": 2013,
      "除": 2014,
      "隐": 2015,
      "際": 2016,
      "雅": 2017,
      "集": 2018,
      "難": 2019,
      "雰": 2020,
      "零": 2021,
      "電": 2022,
      "需": 2023,
      "青": 2024,
      "非": 2025,
      "面": 2026,
      "音": 2027,
      "響": 2028,
      "頂": 2029,
      "項": 2030,
      "頭": 2031,
      "題": 2032,
      "願": 2033,
      "類": 2034,
      "页": 2035,
      "项": 2036,
      "须": 2037,
      "领": 2038,
      "题": 2039,
      "额": 2040,
      "食": 2041,
      "飲": 2042,
      "館": 2043,
      "馆": 2044,
      "駅": 2045,
      "駐": 2046,
      "马": 2047,
      "验": 2048,
      "高": 2049,
      "鹿": 2050,
      "麗": 2051,
      "麼": 2052,
      "黑": 2053,
      "가": 2054,
      "각": 2055,
      "간": 2056,
      "감": 2057,
      "갑": 2058,
      "같": 2059,
      "개": 2060,
      "갤": 2061,
      "거": 2062,
      "건": 2063,
      "겁": 2064,
      "것": 2065,
      "게": 2066,
      "겠": 2067,
      "결": 2068,
      "경": 2069,
      "계": 2070,
      "고": 2071,
      "곱": 2072,
      "공": 2073,
      "과": 2074,
      "관": 2075,
      "광": 2076,
      "굉": 2077,
      "교": 2078,
      "구": 2079,
      "국": 2080,
      "그": 2081,
      "글": 2082,
      "금": 2083,
      "기": 2084,
      "길": 2085,
      "까": 2086,
      "나": 2087,
      "난": 2088,
      "내": 2089,
      "너": 2090,
      "네": 2091,
      "넷": 2092,
      "년": 2093,
      "녕": 2094,
      "노": 2095,
      "는": 2096,
      "늘": 2097,
      "능": 2098,
      "니": 2099,
      "님": 2100,
      "다": 2101,
      "단": 2102,
      "답": 2103,
      "당": 2104,
      "대": 2105,
      "더": 2106,
      "데": 2107,
      "도": 2108,
      "동": 2109,
      "되": 2110,
      "된": 2111,
      "됩": 2112,
      "드": 2113,
      "든": 2114,
      "들": 2115,
      "등": 2116,
      "디": 2117,
      "따": 2118,
      "때": 2119,
      "떻": 2120,
      "라": 2121,
      "람": 2122,
      "랍": 2123,
      "래": 2124,
      "랜": 2125,
      "램": 2126,
      "랫": 2127,
      "러": 2128,
      "럭": 2129,
      "런": 2130,
      "럼": 2131,
      "렇": 2132,
      "레": 2133,
      "려": 2134,
      "련": 2135,
      "령": 2136,
      "로": 2137,
      "록": 2138,
      "롤": 2139,
      "르": 2140,
      "른": 2141,
      "를": 2142,
      "름": 2143,
      "리": 2144,
      "릭": 2145,
      "린": 2146,
      "립": 2147,
      "마": 2148,
      "막": 2149,
      "만": 2150,
      "말": 2151,
      "머": 2152,
      "메": 2153,
      "며": 2154,
      "면": 2155,
      "명": 2156,
      "모": 2157,
      "무": 2158,
      "문": 2159,
      "뭐": 2160,
      "미": 2161,
      "민": 2162,
      "바": 2163,
      "반": 2164,
      "발": 2165,
      "밝": 2166,
      "방": 2167,
      "버": 2168,
      "벌": 2169,
      "법": 2170,
      "베": 2171,
      "벤": 2172,
      "변": 2173,
      "별": 2174,
      "보": 2175,
      "본": 2176,
      "볼": 2177,
      "봅": 2178,
      "부": 2179,
      "북": 2180,
      "분": 2181,
      "불": 2182,
      "브": 2183,
      "블": 2184,
      "비": 2185,
      "빠": 2186,
      "사": 2187,
      "산": 2188,
      "살": 2189,
      "삼": 2190,
      "삽": 2191,
      "상": 2192,
      "새": 2193,
      "생": 2194,
      "서": 2195,
      "선": 2196,
      "설": 2197,
      "세": 2198,
      "션": 2199,
      "소": 2200,
      "수": 2201,
      "순": 2202,
      "스": 2203,
      "습": 2204,
      "슷": 2205,
      "시": 2206,
      "식": 2207,
      "신": 2208,
      "실": 2209,
      "심": 2210,
      "십": 2211,
      "써": 2212,
      "씀": 2213,
      "아": 2214,
      "안": 2215,
      "않": 2216,
      "알": 2217,
      "암": 2218,
      "았": 2219,
      "앞": 2220,
      "야": 2221,
      "양": 2222,
      "얘": 2223,
      "어": 2224,
      "언": 2225,
      "얼": 2226,
      "업": 2227,
      "없": 2228,
      "었": 2229,
      "에": 2230,
      "여": 2231,
      "역": 2232,
      "열": 2233,
      "였": 2234,
      "영": 2235,
      "예": 2236,
      "오": 2237,
      "온": 2238,
      "와": 2239,
      "완": 2240,
      "요": 2241,
      "용": 2242,
      "우": 2243,
      "운": 2244,
      "울": 2245,
      "움": 2246,
      "워": 2247,
      "원": 2248,
      "위": 2249,
      "유": 2250,
      "으": 2251,
      "은": 2252,
      "을": 2253,
      "음": 2254,
      "의": 2255,
      "이": 2256,
      "인": 2257,
      "일": 2258,
      "입": 2259,
      "있": 2260,
      "자": 2261,
      "작": 2262,
      "잖": 2263,
      "장": 2264,
      "재": 2265,
      "적": 2266,
      "전": 2267,
      "점": 2268,
      "정": 2269,
      "제": 2270,
      "젝": 2271,
      "조": 2272,
      "존": 2273,
      "좋": 2274,
      "죠": 2275,
      "주": 2276,
      "준": 2277,
      "줍": 2278,
      "중": 2279,
      "즈": 2280,
      "지": 2281,
      "진": 2282,
      "쪽": 2283,
      "차": 2284,
      "찬": 2285,
      "처": 2286,
      "체": 2287,
      "최": 2288,
      "츠": 2289,
      "카": 2290,
      "캐": 2291,
      "컨": 2292,
      "컴": 2293,
      "코": 2294,
      "콘": 2295,
      "크": 2296,
      "키": 2297,
      "타": 2298,
      "탄": 2299,
      "태": 2300,
      "터": 2301,
      "털": 2302,
      "테": 2303,
      "텐": 2304,
      "템": 2305,
      "토": 2306,
      "통": 2307,
      "튜": 2308,
      "트": 2309,
      "특": 2310,
      "파": 2311,
      "페": 2312,
      "펴": 2313,
      "포": 2314,
      "폼": 2315,
      "퓨": 2316,
      "프": 2317,
      "플": 2318,
      "필": 2319,
      "하": 2320,
      "학": 2321,
      "한": 2322,
      "할": 2323,
      "함": 2324,
      "합": 2325,
      "해": 2326,
      "했": 2327,
      "향": 2328,
      "혔": 2329,
      "형": 2330,
      "홈": 2331,
      "확": 2332,
      "회": 2333,
      "히": 2334,
      "Ａ": 2335,
      "Ｅ": 2336,
      "Ｎ": 2337,
      "Ｐ": 2338,
      "er": 2339,
      "in": 2340,
      "en": 2341,
      "on": 2342,
      "an": 2343,
      "es": 2344,
      "at": 2345,
      "ar": 2346,
      "al": 2347,
      "or": 2348,
      "ed": 2349,
      "st": 2350,
      "it": 2351,
      "ic": 2352,
      "re": 2353,
      "Ġc": 2354,
      "Ġp": 2355,
      "Ġs": 2356,
      "le": 2357,
      "ing": 2358,
      "ro": 2359,
      "et": 2360,
      "is": 2361,
      "el": 2362,
      "ent": 2363,
      "ion": 2364,
      "ra": 2365,
      "Ġd": 2366,
      "ch": 2367,
      "as": 2368,
      "un": 2369,
      "am": 2370,
      "il": 2371,
      "Ġm": 2372,
      "Ġt": 2373,
      "ol": 2374,
      "ad": 2375,
      "ĠS": 2376,
      "ur": 2377,
      "om": 2378,
      "ut": 2379,
      "ĠC": 2380,
      "ac": 2381,
      "Ġb": 2382,
      "id": 2383,
      "us": 2384,
      "em": 2385,
      "os": 2386,
      "im": 2387,
      "ul": 2388,
      "ĠM": 2389,
      "Ġf": 2390,
      "ig": 2391,
      "ct": 2392,
      "ĠP": 2393,
      "ĠA": 2394,
      "ĠB": 2395,
      "ab": 2396,
      "ag": 2397,
      "ot": 2398,
      "ri": 2399,
      "Ġg": 2400,
      "um": 2401,
      "ap": 2402,
      "Ġh": 2403,
      "iv": 2404,
      "ers": 2405,
      "od": 2406,
      "Ġv": 2407,
      "ir": 2408,
      "qu": 2409,
      "ation": 2410,
      "Ġn": 2411,
      "ĠD": 2412,
      "est": 2413,
      "ĠT": 2414,
      "Ġl": 2415,
      "ĠR": 2416,
      "oc": 2417,
      "Ġin": 2418,
      "Ġre": 2419,
      "ie": 2420,
      "op": 2421,
      "ex": 2422,
      "ce": 2423,
      "Ġk": 2424,
      "ak": 2425,
      "ant": 2426,
      "ĠG": 2427,
      "ist": 2428,
      "and": 2429,
      "ĠH": 2430,
      "ال": 2431,
      "ĠE": 2432,
      "ess": 2433,
      "ec": 2434,
      "ow": 2435,
      "ter": 2436,
      "ay": 2437,
      "ĠF": 2438,
      "og": 2439,
      "ĠL": 2440,
      "ly": 2441,
      "ia": 2442,
      "ate": 2443,
      "iz": 2444,
      "ст": 2445,
      "Ġr": 2446,
      "av": 2447,
      "if": 2448,
      "end": 2449,
      "ov": 2450,
      "Ġw": 2451,
      "ip": 2452,
      "ĠN": 2453,
      "Ġcon": 2454,
      "up": 2455,
      "Ġп": 2456,
      "ub": 2457,
      "ang": 2458,
      "ĠK": 2459,
      "th": 2460,
      "eg": 2461,
      "In": 2462,
      "ен": 2463,
      "ud": 2464,
      "ib": 2465,
      "ik": 2466,
      "ра": 2467,
      "ĠW": 2468,
      "Ġال": 2469,
      "te": 2470,
      "ob": 2471,
      "ect": 2472,
      "ine": 2473,
      "ff": 2474,
      "pl": 2475,
      "ah": 2476,
      "Ġa": 2477,
      "Ġst": 2478,
      "ов": 2479,
      "ert": 2480,
      "art": 2481,
      "ug": 2482,
      "ep": 2483,
      "ens": 2484,
      "ell": 2485,
      "ĠV": 2486,
      "ph": 2487,
      "ast": 2488,
      "ard": 2489,
      "ok": 2490,
      "io": 2491,
      "ill": 2492,
      "ass": 2493,
      "ont": 2494,
      "ev": 2495,
      "ort": 2496,
      "uc": 2497,
      "und": 2498,
      "Ġpro": 2499,
      "ies": 2500,
      "ht": 2501,
      "pt": 2502,
      "ment": 2503,
      "ity": 2504,
      "ial": 2505,
      "all": 2506,
      "Ġj": 2507,
      "но": 2508,
      "на": 2509,
      "ian": 2510,
      "Ġch": 2511,
      "ef": 2512,
      "eb": 2513,
      "Ġс": 2514,
      "ne": 2515,
      "able": 2516,
      "ath": 2517,
      "ер": 2518,
      "ĠO": 2519,
      "ĠI": 2520,
      "ind": 2521,
      "St": 2522,
      "ive": 2523,
      "ĠJ": 2524,
      "omp": 2525,
      "ung": 2526,
      "ро": 2527,
      "ran": 2528,
      "age": 2529,
      "se": 2530,
      "ord": 2531,
      "ко": 2532,
      "int": 2533,
      "pe": 2534,
      "Ġex": 2535,
      "cl": 2536,
      "he": 2537,
      "res": 2538,
      "ng": 2539,
      "our": 2540,
      "Ġم": 2541,
      "ust": 2542,
      "Ġun": 2543,
      "get": 2544,
      "Ġe": 2545,
      "ost": 2546,
      "ult": 2547,
      "orm": 2548,
      "ure": 2549,
      "ek": 2550,
      "ric": 2551,
      "yl": 2552,
      "enc": 2553,
      "ка": 2554,
      "erm": 2555,
      "out": 2556,
      "ни": 2557,
      "ire": 2558,
      "ри": 2559,
      "ER": 2560,
      "ated": 2561,
      "Ġв": 2562,
      "ue": 2563,
      "ach": 2564,
      "ack": 2565,
      "Ġо": 2566,
      "ll": 2567,
      "ier": 2568,
      "ان": 2569,
      "az": 2570,
      "ey": 2571,
      "Ġz": 2572,
      "ĠU": 2573,
      "ors": 2574,
      "ре": 2575,
      "ain": 2576,
      "ли": 2577,
      "ou": 2578,
      "Ġsp": 2579,
      "ile": 2580,
      "ew": 2581,
      "att": 2582,
      "ous": 2583,
      "ла": 2584,
      "ry": 2585,
      "ions": 2586,
      "sp": 2587,
      "ond": 2588,
      "aw": 2589,
      "ox": 2590,
      "ons": 2591,
      "ON": 2592,
      "act": 2593,
      "uk": 2594,
      "per": 2595,
      "ich": 2596,
      "aj": 2597,
      "erv": 2598,
      "Ġdis": 2599,
      "ет": 2600,
      "ann": 2601,
      "ار": 2602,
      "rit": 2603,
      "ele": 2604,
      "ical": 2605,
      "nd": 2606,
      "Ġب": 2607,
      "ci": 2608,
      "Ġpr": 2609,
      "ĠCh": 2610,
      "ern": 2611,
      "ext": 2612,
      "ish": 2613,
      "Ġпо": 2614,
      "ru": 2615,
      "ign": 2616,
      "ick": 2617,
      "eng": 2618,
      "sh": 2619,
      "ym": 2620,
      "ль": 2621,
      "Ġth": 2622,
      "ock": 2623,
      "unt": 2624,
      "au": 2625,
      "are": 2626,
      "lo": 2627,
      "Ġad": 2628,
      "ss": 2629,
      "ит": 2630,
      "ton": 2631,
      "Ġا": 2632,
      "omm": 2633,
      "ight": 2634,
      "rad": 2635,
      "да": 2636,
      "ata": 2637,
      "ary": 2638,
      "Ġو": 2639,
      "rop": 2640,
      "ame": 2641,
      "го": 2642,
      "yn": 2643,
      "Ġap": 2644,
      "то": 2645,
      "ere": 2646,
      "Ġim": 2647,
      "ва": 2648,
      "IN": 2649,
      "iss": 2650,
      "ient": 2651,
      "Ġal": 2652,
      "pr": 2653,
      "ber": 2654,
      "ĠIn": 2655,
      "ón": 2656,
      "ong": 2657,
      "ft": 2658,
      "Ġqu": 2659,
      "EN": 2660,
      "Ġle": 2661,
      "ore": 2662,
      "sc": 2663,
      "Ġac": 2664,
      "set": 2665,
      "ram": 2666,
      "ide": 2667,
      "tt": 2668,
      "за": 2669,
      "iel": 2670,
      "ement": 2671,
      "ence": 2672,
      "ge": 2673,
      "ij": 2674,
      "Ġм": 2675,
      "Ġд": 2676,
      "sk": 2677,
      "que": 2678,
      "не": 2679,
      "ны": 2680,
      "ya": 2681,
      "anc": 2682,
      "ES": 2683,
      "iew": 2684,
      "ject": 2685,
      "ark": 2686,
      "ти": 2687,
      "eh": 2688,
      "ĠSt": 2689,
      "ez": 2690,
      "Ġsh": 2691,
      "OR": 2692,
      "to": 2693,
      "rom": 2694,
      "та": 2695,
      "co": 2696,
      "ax": 2697,
      "ins": 2698,
      "ite": 2699,
      "ode": 2700,
      "les": 2701,
      "ail": 2702,
      "AR": 2703,
      "ations": 2704,
      "AN": 2705,
      "ys": 2706,
      "Ġar": 2707,
      "ле": 2708,
      "pp": 2709,
      "Ġت": 2710,
      "ator": 2711,
      "oll": 2712,
      "ash": 2713,
      "ari": 2714,
      "ver": 2715,
      "Ġpl": 2716,
      "Ġsc": 2717,
      "AT": 2718,
      "ron": 2719,
      "ice": 2720,
      "ale": 2721,
      "ло": 2722,
      "ance": 2723,
      "na": 2724,
      "old": 2725,
      "oy": 2726,
      "row": 2727,
      "Ch": 2728,
      "Ġб": 2729,
      "Ġpre": 2730,
      "her": 2731,
      "emb": 2732,
      "ени": 2733,
      "ring": 2734,
      "Ġy": 2735,
      "те": 2736,
      "Ġres": 2737,
      "AL": 2738,
      "ize": 2739,
      "IC": 2740,
      "itt": 2741,
      "ction": 2742,
      "ett": 2743,
      "ST": 2744,
      "li": 2745,
      "ai": 2746,
      "own": 2747,
      "amp": 2748,
      "ime": 2749,
      "ane": 2750,
      "ica": 2751,
      "IT": 2752,
      "fer": 2753,
      "Ġcomp": 2754,
      "ype": 2755,
      "let": 2756,
      "one": 2757,
      "ado": 2758,
      "ings": 2759,
      "Ġan": 2760,
      "ild": 2761,
      "rib": 2762,
      "we": 2763,
      "во": 2764,
      "Ġrec": 2765,
      "Ġل": 2766,
      "ма": 2767,
      "erc": 2768,
      "ink": 2769,
      "ات": 2770,
      "ise": 2771,
      "oh": 2772,
      "ual": 2773,
      "Ġس": 2774,
      "Ġcl": 2775,
      "Ġу": 2776,
      "ĠSh": 2777,
      "ки": 2778,
      "Ġcont": 2779,
      "Ġen": 2780,
      "pro": 2781,
      "LE": 2782,
      "rac": 2783,
      "ien": 2784,
      "ull": 2785,
      "rat": 2786,
      "esc": 2787,
      "Ġab": 2788,
      "Ġro": 2789,
      "fl": 2790,
      "ith": 2791,
      "man": 2792,
      "arg": 2793,
      "form": 2794,
      "ix": 2795,
      "ho": 2796,
      "add": 2797,
      "ми": 2798,
      "ase": 2799,
      "UR": 2800,
      "red": 2801,
      "ve": 2802,
      "ans": 2803,
      "Ar": 2804,
      "bo": 2805,
      "ру": 2806,
      "ana": 2807,
      "eth": 2808,
      "ars": 2809,
      "over": 2810,
      "Ġsub": 2811,
      "ina": 2812,
      "Ġco": 2813,
      "ren": 2814,
      "ace": 2815,
      "rans": 2816,
      "Ġко": 2817,
      "ام": 2818,
      "erg": 2819,
      "és": 2820,
      "ict": 2821,
      "ĠZ": 2822,
      "put": 2823,
      "amb": 2824,
      "air": 2825,
      "nt": 2826,
      "ely": 2827,
      "urs": 2828,
      "Cont": 2829,
      "ди": 2830,
      "ID": 2831,
      "ied": 2832,
      "Ġph": 2833,
      "Cl": 2834,
      "To": 2835,
      "Ġи": 2836,
      "ati": 2837,
      "ión": 2838,
      "ma": 2839,
      "ress": 2840,
      "ть": 2841,
      "CT": 2842,
      "als": 2843,
      "olog": 2844,
      "ics": 2845,
      "по": 2846,
      "Ġن": 2847,
      "ĠY": 2848,
      "af": 2849,
      "yd": 2850,
      "ова": 2851,
      "Ġo": 2852,
      "ks": 2853,
      "ament": 2854,
      "Ġpar": 2855,
      "Ġper": 2856,
      "ста": 2857,
      "du": 2858,
      "cept": 2859,
      "che": 2860,
      "Ex": 2861,
      "ler": 2862,
      "oj": 2863,
      "IS": 2864,
      "ating": 2865,
      "Ġob": 2866,
      "ور": 2867,
      "Ġна": 2868,
      "pos": 2869,
      "Ġinter": 2870,
      "Ġза": 2871,
      "led": 2872,
      "ield": 2873,
      "Pro": 2874,
      "uff": 2875,
      "ade": 2876,
      "orn": 2877,
      "ĠAr": 2878,
      "con": 2879,
      "ear": 2880,
      "ray": 2881,
      "ون": 2882,
      "Ġد": 2883,
      "ura": 2884,
      "ism": 2885,
      "esp": 2886,
      "ret": 2887,
      "ĠMc": 2888,
      "ene": 2889,
      "ole": 2890,
      "Ġک": 2891,
      "ition": 2892,
      "Ġcom": 2893,
      "мо": 2894,
      "son": 2895,
      "app": 2896,
      "ся": 2897,
      "ead": 2898,
      "Con": 2899,
      "ча": 2900,
      "tr": 2901,
      "ze": 2902,
      "rav": 2903,
      "View": 2904,
      "ates": 2905,
      "gen": 2906,
      "ific": 2907,
      "ĠQ": 2908,
      "atch": 2909,
      "Val": 2910,
      "Ġtr": 2911,
      "lect": 2912,
      "га": 2913,
      "ory": 2914,
      "ium": 2915,
      "ão": 2916,
      "yp": 2917,
      "RE": 2918,
      "arm": 2919,
      "ater": 2920,
      "ada": 2921,
      "ION": 2922,
      "ood": 2923,
      "ین": 2924,
      "Ġé": 2925,
      "ци": 2926,
      "no": 2927,
      "ato": 2928,
      "Ġк": 2929,
      "ular": 2930,
      "ka": 2931,
      "Ġind": 2932,
      "Ġint": 2933,
      "Ġra": 2934,
      "Ġam": 2935,
      "iy": 2936,
      "Ob": 2937,
      "Id": 2938,
      "port": 2939,
      "ем": 2940,
      "си": 2941,
      "ér": 2942,
      "Ġالم": 2943,
      "oz": 2944,
      "ви": 2945,
      "Ġbl": 2946,
      "Ġer": 2947,
      "eter": 2948,
      "Ġfl": 2949,
      "cc": 2950,
      "uj": 2951,
      "Type": 2952,
      "AM": 2953,
      "aut": 2954,
      "Ġа": 2955,
      "inc": 2956,
      "oth": 2957,
      "ner": 2958,
      "tem": 2959,
      "ĠAl": 2960,
      "ke": 2961,
      "uf": 2962,
      "Ġem": 2963,
      "ня": 2964,
      "де": 2965,
      "equ": 2966,
      "yt": 2967,
      "List": 2968,
      "vent": 2969,
      "ech": 2970,
      "its": 2971,
      "lement": 2972,
      "ser": 2973,
      "raph": 2974,
      "Ġent": 2975,
      "Ġر": 2976,
      "Name": 2977,
      "riv": 2978,
      "la": 2979,
      "ih": 2980,
      "ĠSch": 2981,
      "ush": 2982,
      "ست": 2983,
      "ara": 2984,
      "ets": 2985,
      "alt": 2986,
      "yst": 2987,
      "me": 2988,
      "uss": 2989,
      "Ġop": 2990,
      "be": 2991,
      "kan": 2992,
      "ott": 2993,
      "Ġра": 2994,
      "CH": 2995,
      "SE": 2996,
      "ract": 2997,
      "اب": 2998,
      "rid": 2999,
      "Ġج": 3000,
      "ee": 3001,
      "хо": 3002,
      "olor": 3003,
      "ized": 3004,
      "bl": 3005,
      "land": 3006,
      "ni": 3007,
      "ery": 3008,
      "Ġsl": 3009,
      "اد": 3010,
      "Ġف": 3011,
      "Ġcons": 3012,
      "uy": 3013,
      "els": 3014,
      "ork": 3015,
      "sch": 3016,
      "Object": 3017,
      "reg": 3018,
      "ror": 3019,
      "kt": 3020,
      "Ġпро": 3021,
      "Ġest": 3022,
      "án": 3023,
      "min": 3024,
      "ros": 3025,
      "Comp": 3026,
      "ha": 3027,
      "ais": 3028,
      "Ġant": 3029,
      "ents": 3030,
      "ول": 3031,
      "Ġع": 3032,
      "par": 3033,
      "ional": 3034,
      "ED": 3035,
      "Ġdec": 3036,
      "ля": 3037,
      "roll": 3038,
      "Ġas": 3039,
      "ound": 3040,
      "of": 3041,
      "об": 3042,
      "ux": 3043,
      "Ġver": 3044,
      "ank": 3045,
      "rent": 3046,
      "Ġsup": 3047,
      "ps": 3048,
      "za": 3049,
      "ley": 3050,
      "raw": 3051,
      "Ġdes": 3052,
      "oss": 3053,
      "ugh": 3054,
      "ious": 3055,
      "ats": 3056,
      "ini": 3057,
      "ĠPro": 3058,
      "gl": 3059,
      "org": 3060,
      "po": 3061,
      "ری": 3062,
      "ered": 3063,
      "Im": 3064,
      "UT": 3065,
      "Value": 3066,
      "Ġinc": 3067,
      "Data": 3068,
      "enn": 3069,
      "ility": 3070,
      "ENT": 3071,
      "isc": 3072,
      "de": 3073,
      "نا": 3074,
      "ener": 3075,
      "ку": 3076,
      "ruct": 3077,
      "ute": 3078,
      "ts": 3079,
      "umb": 3080,
      "ham": 3081,
      "сти": 3082,
      "ible": 3083,
      "uch": 3084,
      "IL": 3085,
      "iti": 3086,
      "urn": 3087,
      "Ġacc": 3088,
      "Ġپ": 3089,
      "unc": 3090,
      "iter": 3091,
      "ĠTh": 3092,
      "val": 3093,
      "AS": 3094,
      "rim": 3095,
      "CC": 3096,
      "ger": 3097,
      "ico": 3098,
      "сто": 3099,
      "ĠCon": 3100,
      "чи": 3101,
      "ative": 3102,
      "oph": 3103,
      "ét": 3104,
      "igh": 3105,
      "Sc": 3106,
      "ake": 3107,
      "Ġне": 3108,
      "utton": 3109,
      "OM": 3110,
      "uz": 3111,
      "Ġка": 3112,
      "omb": 3113,
      "Ġcar": 3114,
      "ose": 3115,
      "uck": 3116,
      "ме": 3117,
      "Path": 3118,
      "Ġtra": 3119,
      "Text": 3120,
      "Item": 3121,
      "UN": 3122,
      "бо": 3123,
      "ĠAn": 3124,
      "use": 3125,
      "eck": 3126,
      "ры": 3127,
      "Ġag": 3128,
      "ĠEx": 3129,
      "ript": 3130,
      "ств": 3131,
      "och": 3132,
      "ures": 3133,
      "uit": 3134,
      "rt": 3135,
      "до": 3136,
      "mer": 3137,
      "ione": 3138,
      "arn": 3139,
      "iff": 3140,
      "Ġaut": 3141,
      "Res": 3142,
      "Ġde": 3143,
      "ĠSp": 3144,
      "men": 3145,
      "لا": 3146,
      "Ġخ": 3147,
      "AD": 3148,
      "uv": 3149,
      "را": 3150,
      "inn": 3151,
      "ling": 3152,
      "ios": 3153,
      "ores": 3154,
      "ait": 3155,
      "ines": 3156,
      "ities": 3157,
      "ald": 3158,
      "lic": 3159,
      "RO": 3160,
      "Ġund": 3161,
      "Ġпри": 3162,
      "ну": 3163,
      "па": 3164,
      "нов": 3165,
      "Ġimp": 3166,
      "Key": 3167,
      "ção": 3168,
      "ally": 3169,
      "ama": 3170,
      "ĠAd": 3171,
      "ena": 3172,
      "жа": 3173,
      "Par": 3174,
      "Ġsk": 3175,
      "fo": 3176,
      "мен": 3177,
      "ET": 3178,
      "Ġcor": 3179,
      "era": 3180,
      "cul": 3181,
      "ере": 3182,
      "AC": 3183,
      "cess": 3184,
      "agn": 3185,
      "cz": 3186,
      "ين": 3187,
      "Ġat": 3188,
      "ación": 3189,
      "lar": 3190,
      "ful": 3191,
      "vers": 3192,
      "stit": 3193,
      "utt": 3194,
      "ani": 3195,
      "ome": 3196,
      "Ġter": 3197,
      "Ġdé": 3198,
      "че": 3199,
      "Ġis": 3200,
      "Ġse": 3201,
      "Ġret": 3202,
      "ount": 3203,
      "roup": 3204,
      "ants": 3205,
      "Ġtrans": 3206,
      "je": 3207,
      "ino": 3208,
      "Ġel": 3209,
      "ck": 3210,
      "leg": 3211,
      "sl": 3212,
      "Ġт": 3213,
      "Ġdef": 3214,
      "ays": 3215,
      "ris": 3216,
      "AP": 3217,
      "Ġgl": 3218,
      "ائ": 3219,
      "ili": 3220,
      "Ġpol": 3221,
      "Ġش": 3222,
      "ĠBl": 3223,
      "Er": 3224,
      "iment": 3225,
      "emp": 3226,
      "ras": 3227,
      "Ġman": 3228,
      "str": 3229,
      "Pl": 3230,
      "EL": 3231,
      "ization": 3232,
      "ld": 3233,
      "én": 3234,
      "Ġmen": 3235,
      "ве": 3236,
      "ook": 3237,
      "Sh": 3238,
      "iqu": 3239,
      "ness": 3240,
      "ido": 3241,
      "Ġз": 3242,
      "rag": 3243,
      "ten": 3244,
      "vis": 3245,
      "ask": 3246,
      "nc": 3247,
      "Ġne": 3248,
      "OL": 3249,
      "urg": 3250,
      "rist": 3251,
      "Ġget": 3252,
      "Ġф": 3253,
      "aff": 3254,
      "plic": 3255,
      "Ġass": 3256,
      "Ġdi": 3257,
      "File": 3258,
      "AG": 3259,
      "Button": 3260,
      "лу": 3261,
      "apt": 3262,
      "ĠRe": 3263,
      "IM": 3264,
      "ja": 3265,
      "idd": 3266,
      "ave": 3267,
      "arb": 3268,
      "са": 3269,
      "Ġreg": 3270,
      "Of": 3271,
      "umber": 3272,
      "Ġоб": 3273,
      "ora": 3274,
      "line": 3275,
      "oo": 3276,
      "ala": 3277,
      "Ġev": 3278,
      "uh": 3279,
      "Ind": 3280,
      "Ad": 3281,
      "ду": 3282,
      "Ġcomm": 3283,
      "erd": 3284,
      "fe": 3285,
      "atic": 3286,
      "ın": 3287,
      "ering": 3288,
      "fig": 3289,
      "inal": 3290,
      "Ġré": 3291,
      "Ġpers": 3292,
      "ipp": 3293,
      "Serv": 3294,
      "vi": 3295,
      "pre": 3296,
      "ĠSc": 3297,
      "eme": 3298,
      "Size": 3299,
      "mo": 3300,
      "edi": 3301,
      "ши": 3302,
      "ить": 3303,
      "ych": 3304,
      "Ġcre": 3305,
      "ically": 3306,
      "Ġout": 3307,
      "Mod": 3308,
      "idad": 3309,
      "Ġре": 3310,
      "Ġcur": 3311,
      "Ġav": 3312,
      "ения": 3313,
      "ots": 3314,
      "ativ": 3315,
      "ги": 3316,
      "Ġوال": 3317,
      "ven": 3318,
      "ump": 3319,
      "lich": 3320,
      "less": 3321,
      "Ġдо": 3322,
      "lt": 3323,
      "Error": 3324,
      "ING": 3325,
      "ano": 3326,
      "IG": 3327,
      "пе": 3328,
      "iet": 3329,
      "Ġref": 3330,
      "пи": 3331,
      "Ġset": 3332,
      "ager": 3333,
      "atur": 3334,
      "String": 3335,
      "ateg": 3336,
      "Ġcol": 3337,
      "yle": 3338,
      "ます": 3339,
      "ово": 3340,
      "Sp": 3341,
      "Ġح": 3342,
      "EM": 3343,
      "лю": 3344,
      "ider": 3345,
      "ule": 3346,
      "ente": 3347,
      "ool": 3348,
      "ira": 3349,
      "PS": 3350,
      "ero": 3351,
      "err": 3352,
      "Ġgr": 3353,
      "Ġatt": 3354,
      "arc": 3355,
      "arl": 3356,
      "Man": 3357,
      "ille": 3358,
      "Ġut": 3359,
      "ages": 3360,
      "Ġoc": 3361,
      "ĠCl": 3362,
      "ando": 3363,
      "ste": 3364,
      "ĠX": 3365,
      "ograph": 3366,
      "Ġг": 3367,
      "Ġrem": 3368,
      "ند": 3369,
      "IV": 3370,
      "ите": 3371,
      "ree": 3372,
      "amente": 3373,
      "uth": 3374,
      "met": 3375,
      "rd": 3376,
      "اع": 3377,
      "Ġсо": 3378,
      "OT": 3379,
      "Ġвы": 3380,
      "му": 3381,
      "ange": 3382,
      "yc": 3383,
      "vel": 3384,
      "ĠPh": 3385,
      "SP": 3386,
      "rol": 3387,
      "Ġol": 3388,
      "Ġق": 3389,
      "Ġrel": 3390,
      "Array": 3391,
      "ream": 3392,
      "Ġfor": 3393,
      "hr": 3394,
      "ior": 3395,
      "ycl": 3396,
      "жи": 3397,
      "Ġpart": 3398,
      "Ġed": 3399,
      "éd": 3400,
      "ivers": 3401,
      "Ġmod": 3402,
      "ocal": 3403,
      "ral": 3404,
      "ta": 3405,
      "By": 3406,
      "rec": 3407,
      "elect": 3408,
      "ument": 3409,
      "ante": 3410,
      "ée": 3411,
      "duct": 3412,
      "vert": 3413,
      "Ġx": 3414,
      "Ġđ": 3415,
      "ao": 3416,
      "IP": 3417,
      "ای": 3418,
      "bar": 3419,
      "rack": 3420,
      "Ġover": 3421,
      "vol": 3422,
      "ito": 3423,
      "hi": 3424,
      "ري": 3425,
      "read": 3426,
      "elle": 3427,
      "ál": 3428,
      "Ġmon": 3429,
      "Ġup": 3430,
      "ей": 3431,
      "Ġinf": 3432,
      "ford": 3433,
      "ify": 3434,
      "SC": 3435,
      "ali": 3436,
      "Index": 3437,
      "Ġext": 3438,
      "って": 3439,
      "rem": 3440,
      "nh": 3441,
      "Image": 3442,
      "ency": 3443,
      "UM": 3444,
      "Ġor": 3445,
      "Int": 3446,
      "State": 3447,
      "ĠGu": 3448,
      "icht": 3449,
      "ns": 3450,
      "ita": 3451,
      "App": 3452,
      "Ġsch": 3453,
      "ту": 3454,
      "Ġmult": 3455,
      "cont": 3456,
      "yr": 3457,
      "back": 3458,
      "gu": 3459,
      "by": 3460,
      "arch": 3461,
      "ution": 3462,
      "Time": 3463,
      "ні": 3464,
      "Ġwh": 3465,
      "Ġhe": 3466,
      "reen": 3467,
      "IA": 3468,
      "cur": 3469,
      "со": 3470,
      "Param": 3471,
      "inter": 3472,
      "ower": 3473,
      "rain": 3474,
      "rap": 3475,
      "Field": 3476,
      "iones": 3477,
      "va": 3478,
      "unk": 3479,
      "Ġот": 3480,
      "sub": 3481,
      "Ġdep": 3482,
      "ici": 3483,
      "Ġпре": 3484,
      "iles": 3485,
      "Ġins": 3486,
      "وا": 3487,
      "зи": 3488,
      "oul": 3489,
      "ég": 3490,
      "irm": 3491,
      "go": 3492,
      "Ġdist": 3493,
      "ĠQu": 3494,
      "oot": 3495,
      "Ġvol": 3496,
      "aps": 3497,
      "ians": 3498,
      "ĠС": 3499,
      "ique": 3500,
      "Ġus": 3501,
      "ales": 3502,
      "ui": 3503,
      "Ġмо": 3504,
      "Ġpost": 3505,
      "ĠВ": 3506,
      "ima": 3507,
      "US": 3508,
      "br": 3509,
      "ür": 3510,
      "یر": 3511,
      "Ġآ": 3512,
      "ource": 3513,
      "rel": 3514,
      "ude": 3515,
      "ego": 3516,
      "ско": 3517,
      "IR": 3518,
      "Ġber": 3519,
      "rie": 3520,
      "equest": 3521,
      "ía": 3522,
      "ية": 3523,
      "for": 3524,
      "Ġلل": 3525,
      "off": 3526,
      "aya": 3527,
      "ayout": 3528,
      "ments": 3529,
      "ml": 3530,
      "ás": 3531,
      "ĠPl": 3532,
      "Ġconf": 3533,
      "vo": 3534,
      "arr": 3535,
      "Ġsw": 3536,
      "cent": 3537,
      "load": 3538,
      "Ġbe": 3539,
      "Color": 3540,
      "сть": 3541,
      "ias": 3542,
      "Al": 3543,
      "ble": 3544,
      "Ġsol": 3545,
      "лен": 3546,
      "oto": 3547,
      "се": 3548,
      "ты": 3549,
      "Context": 3550,
      "rite": 3551,
      "ilit": 3552,
      "Ġmet": 3553,
      "Ġdel": 3554,
      "CE": 3555,
      "ident": 3556,
      "Ġrep": 3557,
      "zi": 3558,
      "CL": 3559,
      "round": 3560,
      "ception": 3561,
      "сь": 3562,
      "ör": 3563,
      "zy": 3564,
      "Ġexp": 3565,
      "press": 3566,
      "ის": 3567,
      "Ġend": 3568,
      "ese": 3569,
      "Ġст": 3570,
      "ря": 3571,
      "eld": 3572,
      "ır": 3573,
      "Ġpres": 3574,
      "Fl": 3575,
      "Ġво": 3576,
      "enz": 3577,
      "ĠAm": 3578,
      "RP": 3579,
      "ayer": 3580,
      "ection": 3581,
      "Ġact": 3582,
      "aus": 3583,
      "Ġbr": 3584,
      "Ġenc": 3585,
      "وم": 3586,
      "BS": 3587,
      "asc": 3588,
      "اس": 3589,
      "وب": 3590,
      "Ġov": 3591,
      "ор": 3592,
      "OC": 3593,
      "onent": 3594,
      "ير": 3595,
      "Ġmin": 3596,
      "Ġod": 3597,
      "ua": 3598,
      "Ġpot": 3599,
      "my": 3600,
      "ĠLe": 3601,
      "ms": 3602,
      "Code": 3603,
      "sw": 3604,
      "irect": 3605,
      "Ġcal": 3606,
      "nie": 3607,
      "Ġon": 3608,
      "ette": 3609,
      "Ġpo": 3610,
      "ных": 3611,
      "TR": 3612,
      "AB": 3613,
      "لي": 3614,
      "any": 3615,
      "itch": 3616,
      "rip": 3617,
      "Ġэ": 3618,
      "lex": 3619,
      "elt": 3620,
      "ouse": 3621,
      "Get": 3622,
      "lin": 3623,
      "itz": 3624,
      "OD": 3625,
      "da": 3626,
      "Ġdisc": 3627,
      "udd": 3628,
      "iro": 3629,
      "ender": 3630,
      "rup": 3631,
      "ение": 3632,
      "irt": 3633,
      "ever": 3634,
      "ĠVer": 3635,
      "Ref": 3636,
      "Ġes": 3637,
      "Ġма": 3638,
      "Box": 3639,
      "uan": 3640,
      "ров": 3641,
      "uild": 3642,
      "All": 3643,
      "Ġdem": 3644,
      "Ġstr": 3645,
      "oad": 3646,
      "Ġang": 3647,
      "mp": 3648,
      "ĠBe": 3649,
      "Ġdo": 3650,
      "ues": 3651,
      "Bl": 3652,
      "Ġprop": 3653,
      "ital": 3654,
      "opp": 3655,
      "ود": 3656,
      "ouch": 3657,
      "uer": 3658,
      "ny": 3659,
      "ii": 3660,
      "acc": 3661,
      "ape": 3662,
      "order": 3663,
      "Up": 3664,
      "box": 3665,
      "ου": 3666,
      "Ġpos": 3667,
      "ae": 3668,
      "uto": 3669,
      "itor": 3670,
      "aan": 3671,
      "Ġapp": 3672,
      "Ġesc": 3673,
      "Ġinv": 3674,
      "Ġte": 3675,
      "ql": 3676,
      "ken": 3677,
      "ught": 3678,
      "ĠUn": 3679,
      "ody": 3680,
      "Ġwe": 3681,
      "Th": 3682,
      "он": 3683,
      "пу": 3684,
      "ences": 3685,
      "ils": 3686,
      "bol": 3687,
      "ability": 3688,
      "Ap": 3689,
      "су": 3690,
      "abb": 3691,
      "esh": 3692,
      "Ġme": 3693,
      "unter": 3694,
      "ives": 3695,
      "Ġred": 3696,
      "ational": 3697,
      "ips": 3698,
      "ove": 3699,
      "ogg": 3700,
      "ные": 3701,
      "EC": 3702,
      "Ġpe": 3703,
      "ists": 3704,
      "User": 3705,
      "Ġsm": 3706,
      "Request": 3707,
      "atter": 3708,
      "Ġep": 3709,
      "Ġdev": 3710,
      "ily": 3711,
      "ester": 3712,
      "PL": 3713,
      "är": 3714,
      "ной": 3715,
      "amm": 3716,
      "ius": 3717,
      "kh": 3718,
      "rig": 3719,
      "nal": 3720,
      "cre": 3721,
      "ides": 3722,
      "SA": 3723,
      "enu": 3724,
      "Bar": 3725,
      "Ġي": 3726,
      "akt": 3727,
      "ope": 3728,
      "Ġdet": 3729,
      "رو": 3730,
      "abel": 3731,
      "uest": 3732,
      "ination": 3733,
      "ology": 3734,
      "zt": 3735,
      "ní": 3736,
      "Group": 3737,
      "ün": 3738,
      "aint": 3739,
      "Ġall": 3740,
      "ced": 3741,
      "FF": 3742,
      "imp": 3743,
      "akan": 3744,
      "len": 3745,
      "board": 3746,
      "Inter": 3747,
      "TS": 3748,
      "ción": 3749,
      "Ġart": 3750,
      "یک": 3751,
      "icul": 3752,
      "orb": 3753,
      "Ġleg": 3754,
      "acter": 3755,
      "ット": 3756,
      "urb": 3757,
      "Out": 3758,
      "Ġemb": 3759,
      "DA": 3760,
      "ved": 3761,
      "Ġsal": 3762,
      "lev": 3763,
      "OP": 3764,
      "ote": 3765,
      "ებ": 3766,
      "raz": 3767,
      "alk": 3768,
      "struct": 3769,
      "ault": 3770,
      "ды": 3771,
      "chen": 3772,
      "uel": 3773,
      "osph": 3774,
      "ים": 3775,
      "ствен": 3776,
      "Ġگ": 3777,
      "indow": 3778,
      "ados": 3779,
      "col": 3780,
      "Ġsur": 3781,
      "com": 3782,
      "Set": 3783,
      "ĠFl": 3784,
      "idth": 3785,
      "uid": 3786,
      "Class": 3787,
      "át": 3788,
      "hen": 3789,
      "Ġir": 3790,
      "lad": 3791,
      "ca": 3792,
      "wa": 3793,
      "ices": 3794,
      "Ġص": 3795,
      "oken": 3796,
      "CP": 3797,
      "Ġраз": 3798,
      "ces": 3799,
      "view": 3800,
      "umer": 3801,
      "Ġnot": 3802,
      "ift": 3803,
      "ators": 3804,
      "orth": 3805,
      "Ġmar": 3806,
      "ĠEd": 3807,
      "mi": 3808,
      "unch": 3809,
      "Ġann": 3810,
      "eler": 3811,
      "ours": 3812,
      "TH": 3813,
      "Ass": 3814,
      "pond": 3815,
      "En": 3816,
      "Ġoff": 3817,
      "ete": 3818,
      "onic": 3819,
      "спо": 3820,
      "して": 3821,
      "ĠEm": 3822,
      "SS": 3823,
      "ves": 3824,
      "Ph": 3825,
      "imm": 3826,
      "ει": 3827,
      "aks": 3828,
      "aft": 3829,
      "Input": 3830,
      "ید": 3831,
      "istic": 3832,
      "zen": 3833,
      "ĠAb": 3834,
      "UL": 3835,
      "onal": 3836,
      "Ġه": 3837,
      "omet": 3838,
      "endo": 3839,
      "ère": 3840,
      "يه": 3841,
      "oon": 3842,
      "لی": 3843,
      "CS": 3844,
      "IB": 3845,
      "ĠEn": 3846,
      "orph": 3847,
      "ified": 3848,
      "ola": 3849,
      "щи": 3850,
      "las": 3851,
      "ature": 3852,
      "Pre": 3853,
      "roph": 3854,
      "clus": 3855,
      "PC": 3856,
      "uct": 3857,
      "etic": 3858,
      "ный": 3859,
      "Ġان": 3860,
      "do": 3861,
      "Un": 3862,
      "eder": 3863,
      "uro": 3864,
      "лі": 3865,
      "ids": 3866,
      "gram": 3867,
      "Char": 3868,
      "abor": 3869,
      "ona": 3870,
      "Ġmeng": 3871,
      "ited": 3872,
      "Layout": 3873,
      "Ġпа": 3874,
      "ulf": 3875,
      "raft": 3876,
      "bre": 3877,
      "ida": 3878,
      "Ġec": 3879,
      "ense": 3880,
      "ements": 3881,
      "asi": 3882,
      "ĠPol": 3883,
      "cal": 3884,
      "Ġtest": 3885,
      "Ġfil": 3886,
      "ées": 3887,
      "ocation": 3888,
      "ende": 3889,
      "rict": 3890,
      "ites": 3891,
      "ного": 3892,
      "ermin": 3893,
      "Ġimm": 3894,
      "кт": 3895,
      "empl": 3896,
      "atus": 3897,
      "éc": 3898,
      "Manager": 3899,
      "unic": 3900,
      "ky": 3901,
      "ula": 3902,
      "Ġform": 3903,
      "يد": 3904,
      "Prop": 3905,
      "lor": 3906,
      "ĠБ": 3907,
      "Ġsec": 3908,
      "از": 3909,
      "Ġconv": 3910,
      "ĠPr": 3911,
      "Col": 3912,
      "ains": 3913,
      "now": 3914,
      "Ġrest": 3915,
      "cht": 3916,
      "agg": 3917,
      "Ġfr": 3918,
      "Ġprof": 3919,
      "ĠА": 3920,
      "ATION": 3921,
      "تر": 3922,
      "utter": 3923,
      "ĠPar": 3924,
      "اف": 3925,
      "Ġge": 3926,
      "Ġك": 3927,
      "した": 3928,
      "Result": 3929,
      "Ġneg": 3930,
      "atis": 3931,
      "πο": 3932,
      "esch": 3933,
      "ém": 3934,
      "ков": 3935,
      "рав": 3936,
      "lig": 3937,
      "Ġdesc": 3938,
      "ĠHe": 3939,
      "edia": 3940,
      "Ġте": 3941,
      "serv": 3942,
      "zo": 3943,
      "ック": 3944,
      "atan": 3945,
      "Ġgi": 3946,
      "ries": 3947,
      "Def": 3948,
      "oe": 3949,
      "رد": 3950,
      "ono": 3951,
      "comp": 3952,
      "Ġбо": 3953,
      "ards": 3954,
      "Ġequ": 3955,
      "ות": 3956,
      "Element": 3957,
      "oxy": 3958,
      "MS": 3959,
      "onom": 3960,
      "cor": 3961,
      "onn": 3962,
      "With": 3963,
      "ĠAg": 3964,
      "way": 3965,
      "Ġго": 3966,
      "field": 3967,
      "ava": 3968,
      "гра": 3969,
      "new": 3970,
      "Ġро": 3971,
      "oci": 3972,
      "count": 3973,
      "aster": 3974,
      "not": 3975,
      "rab": 3976,
      "berg": 3977,
      "path": 3978,
      "ще": 3979,
      "organ": 3980,
      "ät": 3981,
      "кі": 3982,
      "HT": 3983,
      "ki": 3984,
      "raf": 3985,
      "ĠCont": 3986,
      "αν": 3987,
      "Ġaff": 3988,
      "ched": 3989,
      "wood": 3990,
      "Event": 3991,
      "For": 3992,
      "oint": 3993,
      "anam": 3994,
      "ila": 3995,
      "Ġж": 3996,
      "rif": 3997,
      "PT": 3998,
      "eader": 3999,
      "ité": 4000,
      "ше": 4001,
      "ops": 4002,
      "ĠComp": 4003,
      "omer": 4004,
      "den": 4005,
      "anti": 4006,
      "Ġval": 4007,
      "Action": 4008,
      "oma": 4009,
      "Ġpub": 4010,
      "Em": 4011,
      "iej": 4012,
      "ength": 4013,
      "urt": 4014,
      "Ġma": 4015,
      "ĠCor": 4016,
      "ĠMar": 4017,
      "Ġesp": 4018,
      "oke": 4019,
      "irc": 4020,
      "ury": 4021,
      "atth": 4022,
      "Call": 4023,
      "ribut": 4024,
      "ĠК": 4025,
      "ön": 4026,
      "Count": 4027,
      "حد": 4028,
      "وس": 4029,
      "Number": 4030,
      "Ġrad": 4031,
      "ска": 4032,
      "Ġfe": 4033,
      "item": 4034,
      "Ġhand": 4035,
      "вер": 4036,
      "pect": 4037,
      "ured": 4038,
      "ĠCar": 4039,
      "ход": 4040,
      "ivity": 4041,
      "Ġla": 4042,
      "ца": 4043,
      "comm": 4044,
      "Ġsuc": 4045,
      "リー": 4046,
      "igen": 4047,
      "omen": 4048,
      "ан": 4049,
      "olic": 4050,
      "atal": 4051,
      "OW": 4052,
      "Service": 4053,
      "ĠEl": 4054,
      "IF": 4055,
      "Ġjed": 4056,
      "Ġtran": 4057,
      "di": 4058,
      "stra": 4059,
      "ĠApp": 4060,
      "duc": 4061,
      "ois": 4062,
      "ening": 4063,
      "рова": 4064,
      "Ġبال": 4065,
      "Ġutil": 4066,
      "Ġcr": 4067,
      "Config": 4068,
      "った": 4069,
      "Is": 4070,
      "Ġdiv": 4071,
      "acy": 4072,
      "Ġto": 4073,
      "ko": 4074,
      "ucle": 4075,
      "ĠCol": 4076,
      "eli": 4077,
      "Ġbo": 4078,
      "Ġinst": 4079,
      "ney": 4080,
      "AY": 4081,
      "amin": 4082,
      "ross": 4083,
      "ede": 4084,
      "alle": 4085,
      "room": 4086,
      "atri": 4087,
      "ĠCo": 4088,
      "play": 4089,
      "ール": 4090,
      "Ġбу": 4091,
      "Ġperm": 4092,
      "би": 4093,
      "Ġso": 4094,
      "EG": 4095,
      "Ġtro": 4096,
      "Table": 4097,
      "ones": 4098,
      "imb": 4099,
      "Ġkh": 4100,
      "usc": 4101,
      "Ġста": 4102,
      "ync": 4103,
      "map": 4104,
      "mar": 4105,
      "osc": 4106,
      "ĠIm": 4107,
      "tre": 4108,
      "ethod": 4109,
      "ised": 4110,
      "ĠП": 4111,
      "ails": 4112,
      "Ġsym": 4113,
      "ept": 4114,
      "ай": 4115,
      "zer": 4116,
      "ĠSe": 4117,
      "Exception": 4118,
      "key": 4119,
      "än": 4120,
      "iffer": 4121,
      "фи": 4122,
      "omin": 4123,
      "Ġσ": 4124,
      "Ġba": 4125,
      "mod": 4126,
      "unn": 4127,
      "Date": 4128,
      "bit": 4129,
      "Ġng": 4130,
      "Model": 4131,
      "يا": 4132,
      "lish": 4133,
      "ugg": 4134,
      "ート": 4135,
      "رب": 4136,
      "ador": 4137,
      "ungen": 4138,
      "Ġnew": 4139,
      "Ġbre": 4140,
      "Log": 4141,
      "Ġя": 4142,
      "тель": 4143,
      "Ġز": 4144,
      "Ġsv": 4145,
      "aur": 4146,
      "GR": 4147,
      "MA": 4148,
      "hat": 4149,
      "ector": 4150,
      "ít": 4151,
      "CO": 4152,
      "Ġbi": 4153,
      "Ġcap": 4154,
      "elf": 4155,
      "earch": 4156,
      "ige": 4157,
      "pen": 4158,
      "js": 4159,
      "ibr": 4160,
      "ĠBar": 4161,
      "oro": 4162,
      "ika": 4163,
      "ilt": 4164,
      "encia": 4165,
      "ング": 4166,
      "لم": 4167,
      "Qu": 4168,
      "ĠBr": 4169,
      "ют": 4170,
      "Ġaf": 4171,
      "He": 4172,
      "Ġtre": 4173,
      "Ġкон": 4174,
      "iento": 4175,
      "CA": 4176,
      "Ġreal": 4177,
      "ĠIN": 4178,
      "ben": 4179,
      "rv": 4180,
      "Ġsem": 4181,
      "ires": 4182,
      "IST": 4183,
      "Ġlo": 4184,
      "text": 4185,
      "anj": 4186,
      "Ġpal": 4187,
      "ster": 4188,
      "essage": 4189,
      "بر": 4190,
      "Ġआ": 4191,
      "DS": 4192,
      "lı": 4193,
      "Ġш": 4194,
      "gi": 4195,
      "Ġиз": 4196,
      "down": 4197,
      "ington": 4198,
      "Ġhom": 4199,
      "ydro": 4200,
      "ogen": 4201,
      "ız": 4202,
      "point": 4203,
      "зы": 4204,
      "ül": 4205,
      "OS": 4206,
      "Ġadd": 4207,
      "Test": 4208,
      "rum": 4209,
      "ĠOr": 4210,
      "une": 4211,
      "aro": 4212,
      "Ġsn": 4213,
      "Ġmed": 4214,
      "Ġч": 4215,
      "Node": 4216,
      "Ġsu": 4217,
      "ials": 4218,
      "τα": 4219,
      "ification": 4220,
      "ски": 4221,
      "ethyl": 4222,
      "yth": 4223,
      "Act": 4224,
      "Ġچ": 4225,
      "aki": 4226,
      "cer": 4227,
      "por": 4228,
      "ison": 4229,
      "ission": 4230,
      "anel": 4231,
      "avig": 4232,
      "name": 4233,
      "izing": 4234,
      "Ġpass": 4235,
      "Ġви": 4236,
      "ери": 4237,
      "Ġπ": 4238,
      "onse": 4239,
      "اش": 4240,
      "isp": 4241,
      "ski": 4242,
      "char": 4243,
      "DE": 4244,
      "DP": 4245,
      "Ġالع": 4246,
      "adi": 4247,
      "rl": 4248,
      "Arg": 4249,
      "odes": 4250,
      "iber": 4251,
      "angan": 4252,
      "Ġsim": 4253,
      "olo": 4254,
      "erty": 4255,
      "ume": 4256,
      "resent": 4257,
      "awa": 4258,
      "Comm": 4259,
      "TER": 4260,
      "Window": 4261,
      "minist": 4262,
      "Ġmem": 4263,
      "ów": 4264,
      "ogn": 4265,
      "erk": 4266,
      "ется": 4267,
      "ku": 4268,
      "umin": 4269,
      "Ġпод": 4270,
      "SM": 4271,
      "Ġہ": 4272,
      "Ġet": 4273,
      "AA": 4274,
      "ран": 4275,
      "Info": 4276,
      "Ġmot": 4277,
      "Ġmo": 4278,
      "oder": 4279,
      "ba": 4280,
      "web": 4281,
      "ек": 4282,
      "Map": 4283,
      "lu": 4284,
      "Ġالت": 4285,
      "eep": 4286,
      "сы": 4287,
      "aim": 4288,
      "تی": 4289,
      "ικ": 4290,
      "Ġsz": 4291,
      "tim": 4292,
      "Ġин": 4293,
      "ather": 4294,
      "ttp": 4295,
      "Ġمن": 4296,
      "orr": 4297,
      "Resp": 4298,
      "ния": 4299,
      "Ġpop": 4300,
      "ım": 4301,
      "anz": 4302,
      "icos": 4303,
      "isi": 4304,
      "وں": 4305,
      "Ġhum": 4306,
      "یم": 4307,
      "Hand": 4308,
      "illa": 4309,
      "Ġri": 4310,
      "ên": 4311,
      "lik": 4312,
      "aten": 4313,
      "FA": 4314,
      "Ġmax": 4315,
      "Ġç": 4316,
      "init": 4317,
      "ega": 4318,
      "ĠAp": 4319,
      "Att": 4320,
      "urch": 4321,
      "ami": 4322,
      "ĠMon": 4323,
      "ulation": 4324,
      "rich": 4325,
      "sm": 4326,
      "iver": 4327,
      "nya": 4328,
      "ocus": 4329,
      "igg": 4330,
      "лы": 4331,
      "yg": 4332,
      "ances": 4333,
      "یا": 4334,
      "der": 4335,
      "ĠSw": 4336,
      "ĠSal": 4337,
      "äh": 4338,
      "сси": 4339,
      "ji": 4340,
      "una": 4341,
      "ĠComm": 4342,
      "ges": 4343,
      "edd": 4344,
      "arks": 4345,
      "ĠMan": 4346,
      "mente": 4347,
      "Ġcent": 4348,
      "amos": 4349,
      "ĠWh": 4350,
      "rew": 4351,
      "ending": 4352,
      "atory": 4353,
      "irst": 4354,
      "ares": 4355,
      "Width": 4356,
      "ony": 4357,
      "EST": 4358,
      "An": 4359,
      "Ġде": 4360,
      "ivo": 4361,
      "Co": 4362,
      "eri": 4363,
      "ively": 4364,
      "inf": 4365,
      "ordin": 4366,
      "mat": 4367,
      "icas": 4368,
      "Ġdest": 4369,
      "eta": 4370,
      "Be": 4371,
      "Ġpat": 4372,
      "Ġprz": 4373,
      "date": 4374,
      "CM": 4375,
      "Re": 4376,
      "uge": 4377,
      "Ġcond": 4378,
      "ınd": 4379,
      "лов": 4380,
      "ural": 4381,
      "Ġsign": 4382,
      "Ġhab": 4383,
      "ently": 4384,
      "ened": 4385,
      "list": 4386,
      "Ġkon": 4387,
      "Ġfre": 4388,
      "ĠReg": 4389,
      "erman": 4390,
      "ĠAss": 4391,
      "Form": 4392,
      "aran": 4393,
      "Ġה": 4394,
      "Ġser": 4395,
      "нд": 4396,
      "At": 4397,
      "Ġü": 4398,
      "rick": 4399,
      "aph": 4400,
      "TA": 4401,
      "riter": 4402,
      "ases": 4403,
      "bra": 4404,
      "igu": 4405,
      "Ġvis": 4406,
      "ба": 4407,
      "ej": 4408,
      "Ġmis": 4409,
      "Sub": 4410,
      "tra": 4411,
      "uffer": 4412,
      "Ġinform": 4413,
      "Ġdiss": 4414,
      "rob": 4415,
      "Ġgu": 4416,
      "ĠEr": 4417,
      "ден": 4418,
      "ired": 4419,
      "ระ": 4420,
      "Ġprom": 4421,
      "ories": 4422,
      "Ġfac": 4423,
      "net": 4424,
      "ха": 4425,
      "Ġме": 4426,
      "roc": 4427,
      "Ġmic": 4428,
      "şt": 4429,
      "Ġgen": 4430,
      "izz": 4431,
      "CI": 4432,
      "shire": 4433,
      "ها": 4434,
      "スト": 4435,
      "про": 4436,
      "Ġdisp": 4437,
      "last": 4438,
      "oles": 4439,
      "si": 4440,
      "nik": 4441,
      "ない": 4442,
      "unct": 4443,
      "ows": 4444,
      "änd": 4445,
      "umn": 4446,
      "itter": 4447,
      "це": 4448,
      "Ġأ": 4449,
      "Ġprot": 4450,
      "inu": 4451,
      "BC": 4452,
      "Ġtri": 4453,
      "aud": 4454,
      "lem": 4455,
      "Line": 4456,
      "Ġeff": 4457,
      "het": 4458,
      "Component": 4459,
      "Ġcu": 4460,
      "ikan": 4461,
      "ista": 4462,
      "older": 4463,
      "ei": 4464,
      "log": 4465,
      "osa": 4466,
      "Ġren": 4467,
      "رف": 4468,
      "QU": 4469,
      "emat": 4470,
      "AV": 4471,
      "ols": 4472,
      "ESS": 4473,
      "ecial": 4474,
      "Ġالأ": 4475,
      "hip": 4476,
      "Ġcoll": 4477,
      "Ġمع": 4478,
      "ρα": 4479,
      "anda": 4480,
      "Not": 4481,
      "cher": 4482,
      "PR": 4483,
      "avor": 4484,
      "ĠOb": 4485,
      "inder": 4486,
      "Ġexc": 4487,
      "uns": 4488,
      "arth": 4489,
      "oi": 4490,
      "لو": 4491,
      "Rec": 4492,
      "Ġid": 4493,
      "вет": 4494,
      "ном": 4495,
      "ĠSl": 4496,
      "itions": 4497,
      "рі": 4498,
      "arget": 4499,
      "iers": 4500,
      "hib": 4501,
      "Menu": 4502,
      "ario": 4503,
      "mas": 4504,
      "iem": 4505,
      "gr": 4506,
      "する": 4507,
      "aul": 4508,
      "rest": 4509,
      "iner": 4510,
      "aries": 4511,
      "DR": 4512,
      "tn": 4513,
      "ends": 4514,
      "ialog": 4515,
      "Ġvi": 4516,
      "gg": 4517,
      "бу": 4518,
      "же": 4519,
      "ecut": 4520,
      "Ġالا": 4521,
      "ĠST": 4522,
      "On": 4523,
      "Ġseg": 4524,
      "osis": 4525,
      "iam": 4526,
      "ades": 4527,
      "cup": 4528,
      "wi": 4529,
      "жен": 4530,
      "Ġport": 4531,
      "ela": 4532,
      "ím": 4533,
      "Ġbeg": 4534,
      "Det": 4535,
      "uring": 4536,
      "amil": 4537,
      "riz": 4538,
      "Ġing": 4539,
      "ĠRes": 4540,
      "ĠAt": 4541,
      "inst": 4542,
      "geb": 4543,
      "بي": 4544,
      "او": 4545,
      "Ġда": 4546,
      "Start": 4547,
      "Ġhal": 4548,
      "Page": 4549,
      "nam": 4550,
      "Ġالس": 4551,
      "We": 4552,
      "ור": 4553,
      "han": 4554,
      "érie": 4555,
      "Rep": 4556,
      "ova": 4557,
      "Ġden": 4558,
      "ელ": 4559,
      "üh": 4560,
      "aire": 4561,
      "Ġč": 4562,
      "تا": 4563,
      "tern": 4564,
      "ills": 4565,
      "ivid": 4566,
      "rot": 4567,
      "ĠО": 4568,
      "ekt": 4569,
      "akes": 4570,
      "Ġpen": 4571,
      "api": 4572,
      "ĠPal": 4573,
      "lie": 4574,
      "Select": 4575,
      "eda": 4576,
      "гу": 4577,
      "ám": 4578,
      "ĠМ": 4579,
      "ader": 4580,
      "anger": 4581,
      "dec": 4582,
      "enth": 4583,
      "umm": 4584,
      "Web": 4585,
      "ĠР": 4586,
      "ately": 4587,
      "ერ": 4588,
      "тив": 4589,
      "gress": 4590,
      "Ġsa": 4591,
      "τε": 4592,
      "ential": 4593,
      "Pos": 4594,
      "сле": 4595,
      "jo": 4596,
      "db": 4597,
      "hab": 4598,
      "chem": 4599,
      "ches": 4600,
      "ERS": 4601,
      "ĠAll": 4602,
      "itu": 4603,
      "არ": 4604,
      "ising": 4605,
      "Go": 4606,
      "van": 4607,
      "amera": 4608,
      "ahan": 4609,
      "PA": 4610,
      "rypt": 4611,
      "ella": 4612,
      "hand": 4613,
      "Ġbel": 4614,
      "нда": 4615,
      "Ġdeb": 4616,
      "otic": 4617,
      "اری": 4618,
      "ister": 4619,
      "rame": 4620,
      "uls": 4621,
      "Ġsam": 4622,
      "зу": 4623,
      "ĠInd": 4624,
      "ĠCom": 4625,
      "iler": 4626,
      "ared": 4627,
      "ĠNe": 4628,
      "imo": 4629,
      "اه": 4630,
      "ECT": 4631,
      "bb": 4632,
      "hav": 4633,
      "ables": 4634,
      "Style": 4635,
      "اک": 4636,
      "ords": 4637,
      "resh": 4638,
      "يم": 4639,
      "Ġта": 4640,
      "As": 4641,
      "ijk": 4642,
      "Mode": 4643,
      "open": 4644,
      "And": 4645,
      "Down": 4646,
      "II": 4647,
      "ĠCH": 4648,
      "Ġpred": 4649,
      "aka": 4650,
      "MP": 4651,
      "DK": 4652,
      "ár": 4653,
      "Api": 4654,
      "ls": 4655,
      "file": 4656,
      "abil": 4657,
      "Ġback": 4658,
      "Ġelect": 4659,
      "Back": 4660,
      "arp": 4661,
      "Ġfin": 4662,
      "inh": 4663,
      "ĠИ": 4664,
      "です": 4665,
      "ref": 4666,
      "cs": 4667,
      "roid": 4668,
      "IO": 4669,
      "agen": 4670,
      "Message": 4671,
      "eller": 4672,
      "тов": 4673,
      "Client": 4674,
      "Ġdiff": 4675,
      "ści": 4676,
      "egr": 4677,
      "CR": 4678,
      "iya": 4679,
      "eric": 4680,
      "ocket": 4681,
      "ке": 4682,
      "ĠAnd": 4683,
      "ĠWe": 4684,
      "ourn": 4685,
      "SO": 4686,
      "تب": 4687,
      "LL": 4688,
      "aux": 4689,
      "udent": 4690,
      "erson": 4691,
      "ння": 4692,
      "ground": 4693,
      "imento": 4694,
      "ĠRep": 4695,
      "Ġcan": 4696,
      "ĠRec": 4697,
      "Ġphot": 4698,
      "یں": 4699,
      "Panel": 4700,
      "aker": 4701,
      "iness": 4702,
      "lection": 4703,
      "ρο": 4704,
      "าย": 4705,
      "iri": 4706,
      "evel": 4707,
      "Ġsuper": 4708,
      "Ġvo": 4709,
      "Ġexpl": 4710,
      "ason": 4711,
      "мы": 4712,
      "icip": 4713,
      "rz": 4714,
      "ache": 4715,
      "Ġve": 4716,
      "aly": 4717,
      "Ġhyp": 4718,
      "Trans": 4719,
      "Ġps": 4720,
      "ival": 4721,
      "Ġpod": 4722,
      "こと": 4723,
      "кра": 4724,
      "Ġtem": 4725,
      "ibility": 4726,
      "well": 4727,
      "ably": 4728,
      "ryst": 4729,
      "rupt": 4730,
      "uen": 4731,
      "Auth": 4732,
      "ipl": 4733,
      "став": 4734,
      "oper": 4735,
      "ended": 4736,
      "arant": 4737,
      "ynam": 4738,
      "udi": 4739,
      "ye": 4740,
      "amento": 4741,
      "Ġvers": 4742,
      "ĠGr": 4743,
      "hor": 4744,
      "ams": 4745,
      "ĠТ": 4746,
      "ід": 4747,
      "イン": 4748,
      "current": 4749,
      "Ġbil": 4750,
      "lob": 4751,
      "anding": 4752,
      "сту": 4753,
      "GF": 4754,
      "eft": 4755,
      "Star": 4756,
      "دا": 4757,
      "اہ": 4758,
      "SI": 4759,
      "econd": 4760,
      "reet": 4761,
      "work": 4762,
      "ショ": 4763,
      "MC": 4764,
      "iev": 4765,
      "aires": 4766,
      "other": 4767,
      "elles": 4768,
      "Ġgener": 4769,
      "ria": 4770,
      "ceed": 4771,
      "вы": 4772,
      "ploy": 4773,
      "wh": 4774,
      "esis": 4775,
      "ĠAc": 4776,
      "aga": 4777,
      "icks": 4778,
      "Ġsyn": 4779,
      "ín": 4780,
      "Ġmill": 4781,
      "ums": 4782,
      "ное": 4783,
      "یت": 4784,
      "зова": 4785,
      "Ġur": 4786,
      "Ġdig": 4787,
      "ished": 4788,
      "له": 4789,
      "Token": 4790,
      "itting": 4791,
      "ів": 4792,
      "Ġbro": 4793,
      "URE": 4794,
      "Ġunder": 4795,
      "Ġmer": 4796,
      "aces": 4797,
      "ifer": 4798,
      "New": 4799,
      "enti": 4800,
      "ward": 4801,
      "dz": 4802,
      "سم": 4803,
      "ĠД": 4804,
      "ike": 4805,
      "ifier": 4806,
      "CON": 4807,
      "rog": 4808,
      "izer": 4809,
      "ota": 4810,
      "Ġmat": 4811,
      "Ġeg": 4812,
      "rug": 4813,
      "osp": 4814,
      "ĠEst": 4815,
      "upp": 4816,
      "draw": 4817,
      "alth": 4818,
      "Ġmel": 4819,
      "alam": 4820,
      "iting": 4821,
      "Ġсу": 4822,
      "zn": 4823,
      "VER": 4824,
      "ander": 4825,
      "ori": 4826,
      "ça": 4827,
      "itar": 4828,
      "des": 4829,
      "rown": 4830,
      "ან": 4831,
      "Ġfran": 4832,
      "Ġх": 4833,
      "Url": 4834,
      "Ed": 4835,
      "XX": 4836,
      "ная": 4837,
[...]
